{
  "version": "1.0",
  "truncation": {
    "direction": "Right",
    "max_length": 256,
    "strategy": "LongestFirst",
    "stride": 0
  },
  "padding": {
    "strategy": {
      "Fixed": 256
    },
    "direction": "Right",
    "pad_to_multiple_of": null,
    "pad_id": 1,
    "pad_type_id": 0,
    "pad_token": "<|pad|>"
  },
  "added_tokens": [
    {
      "id": 0,
      "content": "<|endoftext|>",
      "single_word": false,
      "lstrip": false,
      "rstrip": false,
      "normalized": false,
      "special": true
    },
    {
      "id": 1,
      "content": "<|pad|>",
      "single_word": false,
      "lstrip": false,
      "rstrip": false,
      "normalized": false,
      "special": true
    }
  ],
  "normalizer": {
    "type": "Sequence",
    "normalizers": [
      {
        "type": "NFKC"
      }
    ]
  },
  "pre_tokenizer": {
    "type": "ByteLevel",
    "add_prefix_space": false,
    "trim_offsets": true,
    "use_regex": true
  },
  "post_processor": {
    "type": "ByteLevel",
    "add_prefix_space": true,
    "trim_offsets": false,
    "use_regex": true
  },
  "decoder": {
    "type": "ByteLevel",
    "add_prefix_space": true,
    "trim_offsets": true,
    "use_regex": true
  },
  "model": {
    "type": "BPE",
    "dropout": null,
    "unk_token": null,
    "continuing_subword_prefix": null,
    "end_of_word_suffix": null,
    "fuse_unk": false,
    "byte_fallback": false,
    "ignore_merges": false,
    "vocab": {
      "<|endoftext|>": 0,
      "<|pad|>": 1,
      "!": 2,
      "\"": 3,
      "#": 4,
      "$": 5,
      "&": 6,
      "'": 7,
      "(": 8,
      ")": 9,
      "+": 10,
      ",": 11,
      "-": 12,
      ".": 13,
      "/": 14,
      "0": 15,
      "1": 16,
      "2": 17,
      "3": 18,
      "4": 19,
      "5": 20,
      "6": 21,
      "7": 22,
      "8": 23,
      "9": 24,
      ":": 25,
      ";": 26,
      "<": 27,
      "=": 28,
      ">": 29,
      "?": 30,
      "A": 31,
      "B": 32,
      "C": 33,
      "D": 34,
      "E": 35,
      "F": 36,
      "G": 37,
      "H": 38,
      "I": 39,
      "J": 40,
      "K": 41,
      "L": 42,
      "M": 43,
      "N": 44,
      "O": 45,
      "P": 46,
      "Q": 47,
      "R": 48,
      "S": 49,
      "T": 50,
      "U": 51,
      "V": 52,
      "W": 53,
      "X": 54,
      "Y": 55,
      "Z": 56,
      "[": 57,
      "\\": 58,
      "]": 59,
      "_": 60,
      "a": 61,
      "b": 62,
      "c": 63,
      "d": 64,
      "e": 65,
      "f": 66,
      "g": 67,
      "h": 68,
      "i": 69,
      "j": 70,
      "k": 71,
      "l": 72,
      "m": 73,
      "n": 74,
      "o": 75,
      "p": 76,
      "q": 77,
      "r": 78,
      "s": 79,
      "t": 80,
      "u": 81,
      "v": 82,
      "w": 83,
      "x": 84,
      "y": 85,
      "z": 86,
      "{": 87,
      "|": 88,
      "}": 89,
      "¡": 90,
      "¢": 91,
      "£": 92,
      "¦": 93,
      "¨": 94,
      "©": 95,
      "®": 96,
      "¯": 97,
      "±": 98,
      "³": 99,
      "¶": 100,
      "º": 101,
      "»": 102,
      "¼": 103,
      "Â": 104,
      "Ã": 105,
      "Å": 106,
      "Ì": 107,
      "Ï": 108,
      "â": 109,
      "ê": 110,
      "Ċ": 111,
      "č": 112,
      "Ġ": 113,
      "Ģ": 114,
      "ģ": 115,
      "Ħ": 116,
      "Ĩ": 117,
      "Ī": 118,
      "ī": 119,
      "Ĳ": 120,
      "Ĵ": 121,
      "Ķ": 122,
      "ĺ": 123,
      "Ļ": 124,
      "ļ": 125,
      "ŀ": 126,
      "ł": 127,
      "Ń": 128,
      "Ġt": 129,
      "Ġc": 130,
      "en": 131,
      "re": 132,
      "Ġa": 133,
      "Ġ.": 134,
      "te": 135,
      "čĊ": 136,
      "ou": 137,
      "Ġo": 138,
      "ar": 139,
      "Ġth": 140,
      "at": 141,
      "er": 142,
      "Ġ,": 143,
      "end": 144,
      "in": 145,
      "Ġy": 146,
      "Ġyou": 147,
      "an": 148,
      "xt": 149,
      "Ġcre": 150,
      "fte": 151,
      "ure": 152,
      "on": 153,
      "endo": 154,
      "<|": 155,
      "|>": 156,
      "ftext": 157,
      "endoftext": 158,
      "it": 159,
      "ature": 160,
      "Ġcreature": 161,
      "ge": 162,
      "ard": 163,
      "ac": 164,
      "Ġd": 165,
      "Ġ\\": 166,
      "ro": 167,
      "Ġ{": 168,
      "Ġp": 169,
      "Ġthe": 170,
      "is": 171,
      "Ġof": 172,
      "Ġto": 173,
      "st": 174,
      "Ġan": 175,
      "le": 176,
      "Ġb": 177,
      "get": 178,
      "ay": 179,
      "Ġcard": 180,
      "Ġs": 181,
      "Ġf": 182,
      "if": 183,
      "al": 184,
      "Ġit": 185,
      "ter": 186,
      "Ġm": 187,
      "ur": 188,
      "Ġl": 189,
      "ing": 190,
      "hen": 191,
      "or": 192,
      "Ġw": 193,
      "Ġyour": 194,
      "Ġon": 195,
      "rol": 196,
      "ont": 197,
      "arget": 198,
      "When": 199,
      "Ġcont": 200,
      "Ġcontrol": 201,
      "Ġe": 202,
      "urn": 203,
      "Ġu": 204,
      "ra": 205,
      "el": 206,
      "ve": 207,
      "Ġ:": 208,
      "Ġg": 209,
      "Ġh": 210,
      "and": 211,
      "il": 212,
      "Ġtarget": 213,
      "Ġthis": 214,
      "es": 215,
      "ĠS": 216,
      "ent": 217,
      "Ġor": 218,
      "Ġturn": 219,
      "Ġco": 220,
      "am": 221,
      "Ġand": 222,
      "ters": 223,
      "Ġen": 224,
      "Ġun": 225,
      "Ġ(": 226,
      "ic": 227,
      "ĠA": 228,
      "Ġ)": 229,
      "as": 230,
      "Ġin": 231,
      "ed": 232,
      "oun": 233,
      "Ġpl": 234,
      "ith": 235,
      "ach": 236,
      "Ġn": 237,
      "Ġbe": 238,
      "ut": 239,
      "ĠT": 240,
      "Ġde": 241,
      "Ġthat": 242,
      "Ġwith": 243,
      "Ġ+": 244,
      "ver": 245,
      "/+": 246,
      "'s": 247,
      "ĠWhen": 248,
      "ch": 249,
      "ly": 250,
      "ast": 251,
      "pp": 252,
      "Ġunt": 253,
      "Ġsp": 254,
      "ĠI": 255,
      "Ġcoun": 256,
      "Ġmay": 257,
      "ever": 258,
      "ell": 259,
      "Ġplay": 260,
      "Ġenters": 261,
      "ate": 262,
      "Ġend": 263,
      "age": 264,
      "rom": 265,
      "Ġspell": 266,
      "ĠC": 267,
      "Ġat": 268,
      "Ġfrom": 269,
      "Ġcast": 270,
      "Ġplayer": 271,
      "Ġre": 272,
      "os": 273,
      "amage": 274,
      "ĠE": 275,
      "ack": 276,
      "ĠD": 277,
      "ain": 278,
      "Ġdamage": 279,
      "Ġeach": 280,
      "mb": 281,
      "Ġdeal": 282,
      "Ġget": 283,
      "Ġuntil": 284,
      "Ġput": 285,
      "Ġcards": 286,
      "th": 287,
      "to": 288,
      "ir": 289,
      "ĠP": 290,
      "Ġfor": 291,
      "Ġâ": 292,
      "'t": 293,
      "ice": 294,
      "Ġas": 295,
      "Ġbl": 296,
      "You": 297,
      "ib": 298,
      "Ġhand": 299,
      "ile": 300,
      "ken": 301,
      "Ġits": 302,
      "ary": 303,
      "Ġgain": 304,
      "rave": 305,
      "ĠR": 306,
      "Ġcreatures": 307,
      "yard": 308,
      "lying": 309,
      "rif": 310,
      "raveyard": 311,
      "Ġgraveyard": 312,
      "acrif": 313,
      "Ġatt": 314,
      "Ġ1": 315,
      "Ġman": 316,
      "ĠâĢ": 317,
      "Ġcounter": 318,
      "dd": 319,
      "Ġlif": 320,
      "Ġtoken": 321,
      "Ġcan": 322,
      "xile": 323,
      "raw": 324,
      "act": 325,
      "chan": 326,
      "ibr": 327,
      "Ġdeals": 328,
      "Ġlibr": 329,
      "Ġlibrary": 330,
      "Ġgets": 331,
      "onent": 332,
      "pponent": 333,
      "Ġopponent": 334,
      "ther": 335,
      "ck": 336,
      "rt": 337,
      "ho": 338,
      "qu": 339,
      "Ġattack": 340,
      "ĠWhenever": 341,
      "ifact": 342,
      "Ġmana": 343,
      "Ġis": 344,
      "acrifice": 345,
      "ose": 346,
      "rtifact": 347,
      "Ġlife": 348,
      "ow": 349,
      "ke": 350,
      "Ġ\"": 351,
      "tle": 352,
      "Ġartifact": 353,
      "ss": 354,
      "eld": 355,
      "Ġany": 356,
      "ĠIf": 357,
      "ap": 358,
      "fi": 359,
      "Ġup": 360,
      "ock": 361,
      "attle": 362,
      "Ġhas": 363,
      "ore": 364,
      "ĠF": 365,
      "Ġbattle": 366,
      "ct": 367,
      "field": 368,
      "Ġbattlefield": 369,
      "ĠM": 370,
      "Ġone": 371,
      "ion": 372,
      "Ġtw": 373,
      "less": 374,
      "Ġblock": 375,
      "man": 376,
      "Ġcost": 377,
      "Ġif": 378,
      "om": 379,
      "Ġtwo": 380,
      "ad": 381,
      "ning": 382,
      "gin": 383,
      "Ġland": 384,
      "ĠB": 385,
      "Ġ2": 386,
      "ce": 387,
      "Ġper": 388,
      "Ġbegin": 389,
      "pped": 390,
      "Ġbeginning": 391,
      "Whenever": 392,
      "he": 393,
      "ig": 394,
      "ĠX": 395,
      "Ġexile": 396,
      "ĠâĢĶ": 397,
      "ĠG": 398,
      "Ġinto": 399,
      "manent": 400,
      "ll": 401,
      "Ġpermanent": 402,
      "ĠYou": 403,
      "Ġpay": 404,
      "turn": 405,
      "Ġthen": 406,
      "Ġdraw": 407,
      "his": 408,
      "Ġcounters": 409,
      "Flying": 410,
      "isc": 411,
      "ong": 412,
      "ĠRe": 413,
      "mber": 414,
      "ave": 415,
      "ies": 416,
      "ri": 417,
      "iscard": 418,
      "umber": 419,
      "Ġtop": 420,
      "lor": 421,
      "Ġnumber": 422,
      "ĠW": 423,
      "ted": 424,
      "hoose": 425,
      "Ġcreate": 426,
      "ld": 427,
      "chant": 428,
      "Ġcomb": 429,
      "ue": 430,
      "ĠAdd": 431,
      "Ġtheir": 432,
      "Ġcolor": 433,
      "Ġcombat": 434,
      "Ġdo": 435,
      "ep": 436,
      "ĠH": 437,
      "ĠSacrifice": 438,
      "Ġgains": 439,
      "Ġab": 440,
      "ower": 441,
      "stro": 442,
      "apped": 443,
      "Ġmore": 444,
      "stroy": 445,
      "wn": 446,
      "mp": 447,
      "Ġv": 448,
      "Ġpower": 449,
      "der": 450,
      "Ġequ": 451,
      "Ġonly": 452,
      "iv": 453,
      "Ġown": 454,
      "im": 455,
      "ker": 456,
      "ĠL": 457,
      "oo": 458,
      "This": 459,
      "cer": 460,
      "Ġall": 461,
      "Ġattacks": 462,
      "Ġhave": 463,
      "Ġst": 464,
      "tep": 465,
      "Ġstep": 466,
      "keep": 467,
      "Ġne": 468,
      "Ġnon": 469,
      "Ġ3": 470,
      "ff": 471,
      "com": 472,
      "ace": 473,
      "Ġupkeep": 474,
      "chanted": 475,
      "Ġbecom": 476,
      "Ġflying": 477,
      "Ġother": 478,
      "ment": 479,
      "ĠAt": 480,
      "ip": 481,
      "Ġtapped": 482,
      "ot": 483,
      "ilit": 484,
      "Ġblocked": 485,
      "id": 486,
      "orcer": 487,
      "Ġadd": 488,
      "ant": 489,
      "ree": 490,
      "Ġsorcer": 491,
      "Ġsorcery": 492,
      "Ġabilit": 493,
      "Ġequal": 494,
      "Ġsh": 495,
      "other": 496,
      "Ġreve": 497,
      "ĠCre": 498,
      "ĠPut": 499,
      "ear": 500,
      "Ġcontrols": 501,
      "Ġowner": 502,
      "mple": 503,
      "ctiv": 504,
      "Ġbecomes": 505,
      "Ġless": 506,
      "Ġdiscard": 507,
      "Ġanother": 508,
      "ĠO": 509,
      "Ġgre": 510,
      "ĠâĢ¢": 511,
      "Ġby": 512,
      "Ġnext": 513,
      "ler": 514,
      "ctivate": 515,
      "rample": 516,
      "wal": 517,
      "ĠTarget": 518,
      "ol": 519,
      "ĠV": 520,
      "ame": 521,
      "ht": 522,
      "Ġthree": 523,
      "us": 524,
      "ĠEn": 525,
      "ĠU": 526,
      "Ġreturn": 527,
      "ould": 528,
      "ess": 529,
      "ition": 530,
      "ĠDraw": 531,
      "Ġlong": 532,
      "ĠSp": 533,
      "ite": 534,
      "ĠIt": 535,
      "ĠDe": 536,
      "Ġsacrifice": 537,
      "irst": 538,
      "Ġreveal": 539,
      "Ġonto": 540,
      "Ġchoose": 541,
      "yp": 542,
      "uff": 543,
      "Ġaddition": 544,
      "Ġwh": 545,
      "Ġcop": 546,
      "uffle": 547,
      "Ġam": 548,
      "land": 549,
      "oug": 550,
      "Ġex": 551,
      "ash": 552,
      "Ġdies": 553,
      "Ġval": 554,
      "here": 555,
      "Ġvalue": 556,
      "Ġuntap": 557,
      "ough": 558,
      "Ġshuffle": 559,
      "Ġplan": 560,
      "Ġtyp": 561,
      "ime": 562,
      "Ġle": 563,
      "out": 564,
      "Ġwould": 565,
      "ĠK": 566,
      "Ġthem": 567,
      "our": 568,
      "eswal": 569,
      "En": 570,
      "Ġhaste": 571,
      "Ġare": 572,
      "ĠEqu": 573,
      "ance": 574,
      "At": 575,
      "mo": 576,
      "rike": 577,
      "Ġplaneswal": 578,
      "De": 579,
      "Ġcopy": 580,
      "Ġch": 581,
      "/-": 582,
      "ste": 583,
      "Ġ4": 584,
      "ĠUn": 585,
      "un": 586,
      "earch": 587,
      "Ġstrike": 588,
      "lash": 589,
      "Ġdealt": 590,
      "Enchant": 591,
      "Ġenchant": 592,
      "Ġtime": 593,
      "Ġcontroller": 594,
      "Ġplaneswalker": 595,
      "Ġr": 596,
      "Ġface": 597,
      "oses": 598,
      "ĠExile": 599,
      "Ġ-": 600,
      "stead": 601,
      "Ġinstead": 602,
      "Ġwhere": 603,
      "uring": 604,
      "Ġtokens": 605,
      "Ġway": 606,
      "Ġwhite": 607,
      "Ġthan": 608,
      "ĠEnchanted": 609,
      "ul": 610,
      "igil": 611,
      "ĠTh": 612,
      "move": 613,
      "ĠEquip": 614,
      "Ġspells": 615,
      "Ġenchantment": 616,
      "Ġfirst": 617,
      "ie": 618,
      "ĠCreate": 619,
      "Ġamong": 620,
      "igilance": 621,
      "Ġblack": 622,
      "ness": 623,
      "ook": 624,
      "Ġadditional": 625,
      "ill": 626,
      "Ġthey": 627,
      "Ġunless": 628,
      "As": 629,
      "Ġability": 630,
      "Ġattacking": 631,
      "fend": 632,
      "Ġgreen": 633,
      "ĠActivate": 634,
      "Ġinst": 635,
      "ĠReturn": 636,
      "Target": 637,
      "ĠThe": 638,
      "ive": 639,
      "Ġloses": 640,
      "Ġinstant": 641,
      "Ġcho": 642,
      "ru": 643,
      "Ġtrample": 644,
      "ight": 645,
      "Ġnonland": 646,
      "ist": 647,
      "Ġduring": 648,
      "If": 649,
      "et": 650,
      "tom": 651,
      "ers": 652,
      "Ġwithout": 653,
      "Ġdestroy": 654,
      "pt": 655,
      "de": 656,
      "Ġunder": 657,
      "Ġwas": 658,
      "ĠN": 659,
      "ipped": 660,
      "ĠThen": 661,
      "Ġred": 662,
      "ven": 663,
      "ottom": 664,
      "Re": 665,
      "Ġbottom": 666,
      "oughness": 667,
      "Ġtoughness": 668,
      "Ġabilities": 669,
      "ĠDiscard": 670,
      "art": 671,
      "amp": 672,
      "Ġdon": 673,
      "Ġbas": 674,
      "bl": 675,
      "Ġenchanted": 676,
      "ĠSt": 677,
      "ag": 678,
      "ĠUnt": 679,
      "ry": 680,
      "ĠIn": 681,
      "It": 682,
      "Ġthose": 683,
      "atures": 684,
      "Ġcosts": 685,
      "Ġno": 686,
      "ater": 687,
      "ling": 688,
      "Cre": 689,
      "ood": 690,
      "Choose": 691,
      "own": 692,
      "ĠSh": 693,
      "ĠAs": 694,
      "ire": 695,
      "ĠThis": 696,
      "Ġse": 697,
      "Ġpermanents": 698,
      "Ġtype": 699,
      "cept": 700,
      "ĠDestroy": 701,
      "ink": 702,
      "ĠEach": 703,
      "Ġtap": 704,
      "Ġchoice": 705,
      "Ġrest": 706,
      "Ġexcept": 707,
      "led": 708,
      "Ġfour": 709,
      "ĠCh": 710,
      "Ġsacrif": 711,
      "Ġsacrific": 712,
      "Ġexiled": 713,
      "ĠGo": 714,
      "andom": 715,
      "Ġrandom": 716,
      "ath": 717,
      "ĠSc": 718,
      "ĠAr": 719,
      "mm": 720,
      "elink": 721,
      "Ġpaying": 722,
      "Ġdefend": 723,
      "ĠZ": 724,
      "Ġorder": 725,
      "ble": 726,
      "Ġlands": 727,
      "all": 728,
      "Ġremove": 729,
      "omb": 730,
      "ount": 731,
      "vent": 732,
      "osen": 733,
      "Ġopponents": 734,
      "Ġchosen": 735,
      "ĠDra": 736,
      "ect": 737,
      "ĠBl": 738,
      "erate": 739,
      "ouch": 740,
      "Ġlose": 741,
      "one": 742,
      "ĠAn": 743,
      "Ġvigilance": 744,
      "Ġdiscards": 745,
      "enace": 746,
      "fter": 747,
      "yc": 748,
      "iz": 749,
      "Trample": 750,
      "ian": 751,
      "nan": 752,
      "Ġactivate": 753,
      "Ġblue": 754,
      "red": 755,
      "Ġtypes": 756,
      "ous": 757,
      "um": 758,
      "ĪĴ": 759,
      "ĠâĪĴ": 760,
      "Ġcomm": 761,
      "gon": 762,
      "stru": 763,
      "Ġcolorless": 764,
      "Ġdoes": 765,
      "gen": 766,
      "TK": 767,
      "atht": 768,
      "athtouch": 769,
      "ph": 770,
      "Destroy": 771,
      "struct": 772,
      "revent": 773,
      "tal": 774,
      "cre": 775,
      "Ġal": 776,
      "Ġgreater": 777,
      "Ġattach": 778,
      "Ġ5": 779,
      "Ġtargets": 780,
      "Ġnam": 781,
      "Ġdown": 782,
      "Ġgame": 783,
      "Ġdefending": 784,
      "ity": 785,
      "Ġbasic": 786,
      "gend": 787,
      "ine": 788,
      "Ġsearch": 789,
      "The": 790,
      "ĠWar": 791,
      "Flash": 792,
      "ĠDragon": 793,
      "back": 794,
      "has": 795,
      "Ġcommand": 796,
      "ick": 797,
      "ĠSearch": 798,
      "generate": 799,
      "Ġk": 800,
      "ĠPl": 801,
      "Ġmill": 802,
      "Ġlifelink": 803,
      "Ġnamed": 804,
      "pl": 805,
      "Ġtotal": 806,
      "are": 807,
      "tect": 808,
      "ible": 809,
      "Ġ\")": 810,
      "Ġleave": 811,
      "Ġname": 812,
      "Ġuntapped": 813,
      "Ġdoesn": 814,
      "Ġphas": 815,
      "ĠZomb": 816,
      "me": 817,
      "Ġpro": 818,
      "ouble": 819,
      "Ġable": 820,
      "irit": 821,
      "Ġartifacts": 822,
      "destruct": 823,
      "Each": 824,
      "ĠRo": 825,
      "destructible": 826,
      "ĠFor": 827,
      "vo": 828,
      "ĠCreatures": 829,
      "ise": 830,
      "ounter": 831,
      "ĠJ": 832,
      "ĠSpirit": 833,
      "Ġ0": 834,
      "sh": 835,
      "ains": 836,
      "Ġmany": 837,
      "ĠTre": 838,
      "oth": 839,
      "ĠOther": 840,
      "âĢ": 841,
      "âĢĶ": 842,
      "Ġafter": 843,
      "av": 844,
      "ĠII": 845,
      "blin": 846,
      "ond": 847,
      "Ġthere": 848,
      "gendary": 849,
      "ĠAtt": 850,
      "ĠThat": 851,
      "old": 852,
      "Ġsacrifices": 853,
      "lashback": 854,
      "ĠTap": 855,
      "ade": 856,
      "Ġpays": 857,
      "ult": 858,
      "Equ": 859,
      "icker": 860,
      "asure": 861,
      "ier": 862,
      "Ġlook": 863,
      "orph": 864,
      "orm": 865,
      "Ġonce": 866,
      "ĠGoblin": 867,
      "ĠSw": 868,
      "ĠUntil": 869,
      "se": 870,
      "ĠTreasure": 871,
      "ation": 872,
      "Ġmu": 873,
      "ĠFore": 874,
      "Ġtr": 875,
      "aste": 876,
      "ĠPh": 877,
      "ex": 878,
      "ĠRemove": 879,
      "tection": 880,
      "Vigilance": 881,
      "ycling": 882,
      "Ġblocking": 883,
      "Create": 884,
      "creature": 885,
      "ĠZombie": 886,
      "od": 887,
      "Ġfive": 888,
      "ix": 889,
      "ind": 890,
      "Ġindestructible": 891,
      "ound": 892,
      "ĠCl": 893,
      "Ġleaves": 894,
      "ĠEle": 895,
      "ĠFlying": 896,
      "ĠUntap": 897,
      "Ġnoncreature": 898,
      "Equipped": 899,
      "ost": 900,
      "ĠVe": 901,
      "Ġlegendary": 902,
      "ĠAur": 903,
      "Return": 904,
      "Exile": 905,
      "roo": 906,
      "ĠLe": 907,
      "Sacrifice": 908,
      "ak": 909,
      "ator": 910,
      "arge": 911,
      "ĠSk": 912,
      "Ġattached": 913,
      "Ġthough": 914,
      "Ġpa": 915,
      "uman": 916,
      "Look": 917,
      "ide": 918,
      "est": 919,
      "oken": 920,
      "Haste": 921,
      "ord": 922,
      "ish": 923,
      "ĠChoose": 924,
      "Ġdraws": 925,
      "roof": 926,
      "ontoken": 927,
      "exp": 928,
      "ere": 929,
      "so": 930,
      "sland": 931,
      "Ġseven": 932,
      "Ġmuch": 933,
      "exproof": 934,
      "Put": 935,
      "mental": 936,
      "Ġsour": 937,
      "Ġnontoken": 938,
      "Creatures": 939,
      "aled": 940,
      "yre": 941,
      "Ġboth": 942,
      "Ġdouble": 943,
      "ĠFl": 944,
      "Ġalso": 945,
      "Ġdeathtouch": 946,
      "ĠEl": 947,
      "Ġblocks": 948,
      "icked": 949,
      "ĠElemental": 950,
      "Ġsc": 951,
      "op": 952,
      "sp": 953,
      "ather": 954,
      "ĠBe": 955,
      "vel": 956,
      "ass": 957,
      "ffect": 958,
      "ĠTurn": 959,
      "aw": 960,
      "rior": 961,
      "Ġrevealed": 962,
      "ran": 963,
      "ĠWarrior": 964,
      "ger": 965,
      "row": 966,
      "ual": 967,
      "ner": 968,
      "Ġplayers": 969,
      "Ġequipped": 970,
      "fender": 971,
      "ĠSold": 972,
      "Ġreveals": 973,
      "Ġmenace": 974,
      "ĠForest": 975,
      "og": 976,
      "Ġsame": 977,
      "Ġfl": 978,
      "ison": 979,
      "Ġeffect": 980,
      "Ġspent": 981,
      "Ġkicked": 982,
      "cl": 983,
      "fer": 984,
      "Ġscry": 985,
      "Ġout": 986,
      "ĠSl": 987,
      "ĠIsland": 988,
      "ĠMount": 989,
      "hic": 990,
      "aus": 991,
      "tered": 992,
      "ĠAttach": 993,
      "Ġphase": 994,
      "ied": 995,
      "ft": 996,
      "Ġres": 997,
      "ĠRegenerate": 998,
      "ec": 999,
      "Ġnew": 1000,
      "fore": 1001,
      "oul": 1002,
      "Ġhad": 1003,
      "Ġcon": 1004,
      "Ġcasts": 1005,
      "Ġisn": 1006,
      "Defender": 1007,
      "ĠThey": 1008,
      "Ġsource": 1009,
      "hicle": 1010,
      "First": 1011,
      "su": 1012,
      "ĠCon": 1013,
      "Ġcaus": 1014,
      "ĠCycling": 1015,
      "ĠEquipment": 1016,
      "Ġbase": 1017,
      "ĠIII": 1018,
      "ĠVehicle": 1019,
      "Ġte": 1020,
      "Ġamount": 1021,
      "gu": 1022,
      "ĠSoldier": 1023,
      "ĠHuman": 1024,
      "Ġtrig": 1025,
      "Ġ6": 1026,
      "Ġbefore": 1027,
      "Ġcharge": 1028,
      "ark": 1029,
      "Ġlast": 1030,
      "walk": 1031,
      "An": 1032,
      "Un": 1033,
      "iver": 1034,
      "sc": 1035,
      "ĠFood": 1036,
      "ĠSwamp": 1037,
      "ĠAura": 1038,
      "Reach": 1039,
      "yrex": 1040,
      "Ġpo": 1041,
      "Ġwhen": 1042,
      "ĠOr": 1043,
      "orn": 1044,
      "ĠPrevent": 1045,
      "olve": 1046,
      "ĠKn": 1047,
      "veal": 1048,
      "Ġreach": 1049,
      "ĠBlood": 1050,
      "Ġcommander": 1051,
      "Ġmills": 1052,
      "Ġprotection": 1053,
      "Ġnot": 1054,
      "pet": 1055,
      "Ġmon": 1056,
      "roll": 1057,
      "Ġdeck": 1058,
      "yrexian": 1059,
      "Menace": 1060,
      "ually": 1061,
      "Ġpaid": 1062,
      "petually": 1063,
      "Tap": 1064,
      "lem": 1065,
      "ĠSe": 1066,
      "ĠMer": 1067,
      "Ġperpetually": 1068,
      "aur": 1069,
      "ub": 1070,
      "Ġsacrificed": 1071,
      "Ġhexproof": 1072,
      "Ġrem": 1073,
      "ĠPhyrexian": 1074,
      "ial": 1075,
      "'re": 1076,
      "Ġplus": 1077,
      "Counter": 1078,
      "ab": 1079,
      "az": 1080,
      "cond": 1081,
      "ĠEx": 1082,
      "Ġstill": 1083,
      "Ġdie": 1084,
      "adow": 1085,
      "ence": 1086,
      "Ġsix": 1087,
      "Ġputs": 1088,
      "Ġsecond": 1089,
      "Ġpoison": 1090,
      "ĠSer": 1091,
      "oy": 1092,
      "Kicker": 1093,
      "wise": 1094,
      "yr": 1095,
      "Ġflashback": 1096,
      "Ġbecome": 1097,
      "Ġenter": 1098,
      "aster": 1099,
      "olk": 1100,
      "ĠArm": 1101,
      "ax": 1102,
      "rou": 1103,
      "Ġwhile": 1104,
      "folk": 1105,
      "gel": 1106,
      "ĠPay": 1107,
      "Ġactivated": 1108,
      "All": 1109,
      "ake": 1110,
      "ird": 1111,
      "ĠPro": 1112,
      "Ġwin": 1113,
      "otion": 1114,
      "Ġshare": 1115,
      "cess": 1116,
      "'ve": 1117,
      "ĠAl": 1118,
      "ĠGu": 1119,
      "Unt": 1120,
      "To": 1121,
      "read": 1122,
      "ĠSag": 1123,
      "ĠKnight": 1124,
      "aos": 1125,
      "Ġrather": 1126,
      "artner": 1127,
      "ĠOtherwise": 1128,
      "Ġdif": 1129,
      "Ġdiffer": 1130,
      "Damage": 1131,
      "ampire": 1132,
      "oon": 1133,
      "Ġcould": 1134,
      "Ġage": 1135,
      "They": 1136,
      "ug": 1137,
      "Ġregenerate": 1138,
      "ĠVampire": 1139,
      "Ġflip": 1140,
      "iant": 1141,
      "res": 1142,
      "Ġwho": 1143,
      "Ġattacked": 1144,
      "Ġchooses": 1145,
      "aven": 1146,
      "gers": 1147,
      "ts": 1148,
      "ane": 1149,
      "raft": 1150,
      "Ġcolors": 1151,
      "Ġgraveyards": 1152,
      "Deathtouch": 1153,
      "Your": 1154,
      "ĠFlashback": 1155,
      "ty": 1156,
      "che": 1157,
      "ield": 1158,
      "izard": 1159,
      "ange": 1160,
      "ifelink": 1161,
      "usp": 1162,
      "ĠScry": 1163,
      "ero": 1164,
      "raz": 1165,
      "ither": 1166,
      "ĠCounter": 1167,
      "ĠGl": 1168,
      "urve": 1169,
      "voke": 1170,
      "Ġregenerated": 1171,
      "Draw": 1172,
      "fall": 1173,
      "ĠCo": 1174,
      "ĠFire": 1175,
      "ift": 1176,
      "Ġroll": 1177,
      "Ġband": 1178,
      "ĠPlains": 1179,
      "ust": 1180,
      "ĠAd": 1181,
      "olf": 1182,
      "Ġleast": 1183,
      "ĠEquipped": 1184,
      "ĠAngel": 1185,
      "ĠLook": 1186,
      "Ġshuffles": 1187,
      "Ġtriggers": 1188,
      "mer": 1189,
      "Ġwere": 1190,
      "ĠMon": 1191,
      "Ġensu": 1192,
      "Ġremains": 1193,
      "Ġensues": 1194,
      "Ġward": 1195,
      "ĠSqu": 1196,
      "icate": 1197,
      "Ġremoved": 1198,
      "ĠMountain": 1199,
      "ia": 1200,
      "mon": 1201,
      "now": 1202,
      "ote": 1203,
      "atch": 1204,
      "Ġprevent": 1205,
      "vest": 1206,
      "ĠTe": 1207,
      "ored": 1208,
      "Ġtwice": 1209,
      "ative": 1210,
      "ayers": 1211,
      "Theme": 1212,
      "In": 1213,
      "ai": 1214,
      "ĠEld": 1215,
      "ĠSpell": 1216,
      "Ġcauses": 1217,
      "gy": 1218,
      "where": 1219,
      "ĠDo": 1220,
      "ĠWizard": 1221,
      "idn": 1222,
      "ron": 1223,
      "Ġmorph": 1224,
      "ided": 1225,
      "Until": 1226,
      "urveil": 1227,
      "eg": 1228,
      "ĠY": 1229,
      "ort": 1230,
      "ize": 1231,
      "roud": 1232,
      "Ġdifferent": 1233,
      "jure": 1234,
      "tw": 1235,
      "Ġlore": 1236,
      "Ġchaos": 1237,
      "ĠBeast": 1238,
      "scap": 1239,
      "ious": 1240,
      "Ġcountered": 1241,
      "str": 1242,
      "let": 1243,
      "Ġ10": 1244,
      "ĠWall": 1245,
      "ĠArmy": 1246,
      "cheme": 1247,
      "form": 1248,
      "ud": 1249,
      "arch": 1250,
      "hold": 1251,
      "Ġanywhere": 1252,
      "ĠIts": 1253,
      "ĠSaga": 1254,
      "Pl": 1255,
      "Ġscheme": 1256,
      "andfall": 1257,
      "acking": 1258,
      "igh": 1259,
      "Ġowners": 1260,
      "ship": 1261,
      "Ġeffects": 1262,
      "king": 1263,
      "Ġcreates": 1264,
      "vestig": 1265,
      "Con": 1266,
      "ting": 1267,
      "ĠCrew": 1268,
      "ĠArc": 1269,
      "Search": 1270,
      "ign": 1271,
      "void": 1272,
      "Any": 1273,
      "add": 1274,
      "gain": 1275,
      "ĠGiant": 1276,
      "ren": 1277,
      "ĠSoul": 1278,
      "ergy": 1279,
      "ĠWh": 1280,
      "Ġstart": 1281,
      "Devoid": 1282,
      "aker": 1283,
      "ans": 1284,
      "Ġmain": 1285,
      "Ġturned": 1286,
      "vestigate": 1287,
      "Pro": 1288,
      "Sp": 1289,
      "ang": 1290,
      "Ġdiv": 1291,
      "Ġsay": 1292,
      "ild": 1293,
      "ĠRat": 1294,
      "ĠFa": 1295,
      "ĠMar": 1296,
      "Ġexiles": 1297,
      "ĠElf": 1298,
      "ĠOrc": 1299,
      "Other": 1300,
      "ert": 1301,
      "ĠClue": 1302,
      "oyal": 1303,
      "fin": 1304,
      "Ġfight": 1305,
      "elp": 1306,
      "utate": 1307,
      "ĠReveal": 1308,
      "ek": 1309,
      "Ġdidn": 1310,
      "ush": 1311,
      "rin": 1312,
      "Ġ7": 1313,
      "ĠSn": 1314,
      "ĠMerfolk": 1315,
      "oll": 1316,
      "Ġsnow": 1317,
      "adness": 1318,
      "ĠHe": 1319,
      "Ġdefender": 1320,
      "ew": 1321,
      "Ġz": 1322,
      "rel": 1323,
      "ĠAll": 1324,
      "rim": 1325,
      "imes": 1326,
      "ĠSpend": 1327,
      "Ġcopies": 1328,
      "Ġresult": 1329,
      "dra": 1330,
      "ium": 1331,
      "ract": 1332,
      "Ġ|": 1333,
      "alf": 1334,
      "ĠAss": 1335,
      "ĠCom": 1336,
      "Ġform": 1337,
      "ĠEnchant": 1338,
      "Ġexcess": 1339,
      "ĠStorm": 1340,
      "Ġcommanders": 1341,
      "St": 1342,
      "ĠQ": 1343,
      "Ġoil": 1344,
      "aries": 1345,
      "ĠCler": 1346,
      "ĠDes": 1347,
      "ĠMag": 1348,
      "ĠHy": 1349,
      "ĠHor": 1350,
      "ampion": 1351,
      "scape": 1352,
      "Lifelink": 1353,
      "ĺĲ": 1354,
      "Ġtimes": 1355,
      "ror": 1356,
      "stone": 1357,
      "atest": 1358,
      "ĠâĺĲ": 1359,
      "apt": 1360,
      "Ġdestroyed": 1361,
      "ces": 1362,
      "ox": 1363,
      "tacking": 1364,
      "up": 1365,
      "ands": 1366,
      "Ġdiscarded": 1367,
      "Ġgreatest": 1368,
      "Ġkind": 1369,
      "Ġresolve": 1370,
      "awn": 1371,
      "gue": 1372,
      "ster": 1373,
      "lect": 1374,
      "Ġemb": 1375,
      "Ġeither": 1376,
      "ĠWolf": 1377,
      "Ġvote": 1378,
      "Ġphases": 1379,
      "ĠSliver": 1380,
      "ale": 1381,
      "ira": 1382,
      "ob": 1383,
      "tell": 1384,
      "ĠCast": 1385,
      "Ġhands": 1386,
      "istor": 1387,
      "oyalty": 1388,
      "ĠCleric": 1389,
      "For": 1390,
      "ute": 1391,
      "ander": 1392,
      "ĠTr": 1393,
      "cho": 1394,
      "Ġcasting": 1395,
      "ired": 1396,
      "ĠArcane": 1397,
      "Ġten": 1398,
      "ens": 1399,
      "itch": 1400,
      "Ġpile": 1401,
      "ĠSap": 1402,
      "Ġbeing": 1403,
      "ĠRing": 1404,
      "ĠRogue": 1405,
      "aun": 1406,
      "Ġloyalty": 1407,
      "oss": 1408,
      "ĠArch": 1409,
      "Ġbanding": 1410,
      "olt": 1411,
      "ĠChampion": 1412,
      "Ġconjure": 1413,
      "uspend": 1414,
      "strous": 1415,
      "oad": 1416,
      "asic": 1417,
      "osaur": 1418,
      "aver": 1419,
      "Ġdev": 1420,
      "ĠImp": 1421,
      "ĠBird": 1422,
      "ĠGate": 1423,
      "earth": 1424,
      "reshold": 1425,
      "Ġzone": 1426,
      "istoric": 1427,
      "Ch": 1428,
      "wor": 1429,
      "Ġenergy": 1430,
      "ĠMir": 1431,
      "Prevent": 1432,
      "Ġsize": 1433,
      "Ġword": 1434,
      "Ġhelp": 1435,
      "Ġhistoric": 1436,
      "Ġplaneswalkers": 1437,
      "ĠSky": 1438,
      "ider": 1439,
      "Ġfore": 1440,
      "Ġcoin": 1441,
      "ĠDemon": 1442,
      "Reveal": 1443,
      "ĠGolem": 1444,
      "razi": 1445,
      "Players": 1446,
      "Ġemblem": 1447,
      "Ġdied": 1448,
      "ĠTra": 1449,
      "ĠWe": 1450,
      "olored": 1451,
      "ĠKe": 1452,
      "black": 1453,
      "plicate": 1454,
      "Ġmonstrous": 1455,
      "ĠEldrazi": 1456,
      "side": 1457,
      "ze": 1458,
      "Ġcontrolled": 1459,
      "ĠSun": 1460,
      "ĠCat": 1461,
      "thing": 1462,
      "Ġsteps": 1463,
      "Ġenchantments": 1464,
      "cend": 1465,
      "erie": 1466,
      "urm": 1467,
      "Ġlost": 1468,
      "ĠWard": 1469,
      "Attacking": 1470,
      "Ġalone": 1471,
      "During": 1472,
      "geon": 1473,
      "Ġmost": 1474,
      "roling": 1475,
      "ĠMan": 1476,
      "ĠBo": 1477,
      "ĠRec": 1478,
      "Ġexpl": 1479,
      "ĠSaproling": 1480,
      "cub": 1481,
      "Ġ8": 1482,
      "Ġhe": 1483,
      "Ġturns": 1484,
      "Ġinvestigate": 1485,
      "Ġspend": 1486,
      "ĠLevel": 1487,
      "ĠGuard": 1488,
      "Protection": 1489,
      "eed": 1490,
      "ove": 1491,
      "ull": 1492,
      "ann": 1493,
      "Ġset": 1494,
      "Ġsurveil": 1495,
      "Ġmutate": 1496,
      "ĠMorph": 1497,
      "ĠHun": 1498,
      "Ġmonarch": 1499,
      "ĠHydra": 1500,
      "able": 1501,
      "arm": 1502,
      "Ġrep": 1503,
      "ĠGre": 1504,
      "ĠLight": 1505,
      "Ġfights": 1506,
      "gre": 1507,
      "ĠThreshold": 1508,
      "Ġcause": 1509,
      "Ġresolves": 1510,
      "ful": 1511,
      "ring": 1512,
      "inosaur": 1513,
      "Ġback": 1514,
      "irrel": 1515,
      "ĠRes": 1516,
      "Ġsticker": 1517,
      "ĠOn": 1518,
      "ĠUr": 1519,
      "Ġdevotion": 1520,
      "Ġflash": 1521,
      "ĠSent": 1522,
      "ĠTrample": 1523,
      "ĠBar": 1524,
      "ĠUnearth": 1525,
      "Ġshares": 1526,
      "Sh": 1527,
      "Ġcyc": 1528,
      "iss": 1529,
      "isgu": 1530,
      "ĠSil": 1531,
      "ĠHell": 1532,
      "ĠOut": 1533,
      "ption": 1534,
      "umul": 1535,
      "isguise": 1536,
      "gr": 1537,
      "rib": 1538,
      "Ġro": 1539,
      "iferate": 1540,
      "roliferate": 1541,
      "asc": 1542,
      "ĠReb": 1543,
      "ĠHar": 1544,
      "Ġnonblack": 1545,
      "ungeon": 1546,
      "Ġoutside": 1547,
      "Ġteam": 1548,
      "Double": 1549,
      "ail": 1550,
      "Ġmotion": 1551,
      "ĠHero": 1552,
      "artifact": 1553,
      "ĠIns": 1554,
      "Ġtext": 1555,
      "ĠSquirrel": 1556,
      "umulative": 1557,
      "ike": 1558,
      "Ġhalf": 1559,
      "very": 1560,
      "ĠDinosaur": 1561,
      "Ġshroud": 1562,
      "Ġround": 1563,
      "destroy": 1564,
      "arty": 1565,
      "ĠInf": 1566,
      "Artifact": 1567,
      "du": 1568,
      "itter": 1569,
      "Ġdecl": 1570,
      "ĠMin": 1571,
      "Ġshadow": 1572,
      "Ġplaneswalk": 1573,
      "Ġalread": 1574,
      "opy": 1575,
      "assin": 1576,
      "Ġalready": 1577,
      "ik": 1578,
      "idd": 1579,
      "oc": 1580,
      "ĠSte": 1581,
      "Ġbeen": 1582,
      "ĠGe": 1583,
      "imum": 1584,
      "rans": 1585,
      "irate": 1586,
      "Ġcycle": 1587,
      "basic": 1588,
      "uk": 1589,
      "inj": 1590,
      "ich": 1591,
      "Bl": 1592,
      "per": 1593,
      "Ġentered": 1594,
      "lessing": 1595,
      "ĠWor": 1596,
      "Ġnonartifact": 1597,
      "Gain": 1598,
      "pen": 1599,
      "xic": 1600,
      "ating": 1601,
      "acle": 1602,
      "Ġpre": 1603,
      "Ġmod": 1604,
      "Ġenough": 1605,
      "ĠCr": 1606,
      "ĠPirate": 1607,
      "hop": 1608,
      "ĠFro": 1609,
      "ĠMe": 1610,
      "ultic": 1611,
      "ĠFlame": 1612,
      "ecial": 1613,
      "guard": 1614,
      "Ġstarting": 1615,
      "ber": 1616,
      "down": 1617,
      "ancer": 1618,
      "Ġmax": 1619,
      "orse": 1620,
      "ĠSur": 1621,
      "ated": 1622,
      "ĠCar": 1623,
      "change": 1624,
      "ĠAny": 1625,
      "Ġwhenever": 1626,
      "ollow": 1627,
      "Ġroom": 1628,
      "ulticolored": 1629,
      "Ġlater": 1630,
      "ĠTrans": 1631,
      "ĠCor": 1632,
      "ĠCont": 1633,
      "ĠCol": 1634,
      "ĠBattle": 1635,
      "ief": 1636,
      "Ġmaximum": 1637,
      "anking": 1638,
      "Ġdungeon": 1639,
      "asm": 1640,
      "ĠGar": 1641,
      "ĠWurm": 1642,
      "Ġnonbasic": 1643,
      "ĠDev": 1644,
      "raction": 1645,
      "Ġvotes": 1646,
      "ĠInsect": 1647,
      "20": 1648,
      "Discard": 1649,
      "ha": 1650,
      "ĠDel": 1651,
      "Ġstun": 1652,
      "ĠSpawn": 1653,
      "ĠNight": 1654,
      "Convoke": 1655,
      "sided": 1656,
      "ory": 1657,
      "Ġevery": 1658,
      "manship": 1659,
      "ĠGain": 1660,
      "Ġlevel": 1661,
      "ĠShadow": 1662,
      "Ġrounded": 1663,
      "orsemanship": 1664,
      "ced": 1665,
      "inity": 1666,
      "Ġparty": 1667,
      "Ġext": 1668,
      "Ġint": 1669,
      "ĠPower": 1670,
      "ĠGr": 1671,
      "work": 1672,
      "10": 1673,
      "mes": 1674,
      "Ġpartner": 1675,
      "ifest": 1676,
      "alker": 1677,
      "ĠAven": 1678,
      "ĠTree": 1679,
      "fire": 1680,
      "ĠBack": 1681,
      "rid": 1682,
      "ĠAttraction": 1683,
      "ĠAuras": 1684,
      "cycling": 1685,
      "war": 1686,
      "Ġtied": 1687,
      "Ġagain": 1688,
      "Ġgive": 1689,
      "ĠPartner": 1690,
      "rime": 1691,
      "ĠSham": 1692,
      "ĠRole": 1693,
      "ĠLeg": 1694,
      "ĠMerc": 1695,
      "be": 1696,
      "kin": 1697,
      "mage": 1698,
      "Ġaren": 1699,
      "Ġover": 1700,
      "les": 1701,
      "Ġblessing": 1702,
      "Ġhigh": 1703,
      "ĠCur": 1704,
      "ĠCopy": 1705,
      "irium": 1706,
      "rawler": 1707,
      "ocked": 1708,
      "ctor": 1709,
      "ĠMy": 1710,
      "ome": 1711,
      "ĠLandfall": 1712,
      "Ġreturns": 1713,
      "Ġprodu": 1714,
      "ĠAlly": 1715,
      "craft": 1716,
      "ether": 1717,
      "fl": 1718,
      "master": 1719,
      "mander": 1720,
      "sign": 1721,
      "uplicate": 1722,
      "yl": 1723,
      "ara": 1724,
      "acy": 1725,
      "Ġfew": 1726,
      "Ġmulticolored": 1727,
      "ĠSan": 1728,
      "ĠThop": 1729,
      "pper": 1730,
      "Ġspeed": 1731,
      "ĠCou": 1732,
      "ĠPar": 1733,
      "ĠBr": 1734,
      "ĠDeath": 1735,
      "under": 1736,
      "ĠThose": 1737,
      "ĠScaven": 1738,
      "ĠDrake": 1739,
      "angeling": 1740,
      "Ġextra": 1741,
      "Landfall": 1742,
      "Pay": 1743,
      "ared": 1744,
      "law": 1745,
      "wamp": 1746,
      "Ġcity": 1747,
      "Ġopen": 1748,
      "atic": 1749,
      "eral": 1750,
      "ination": 1751,
      "Ġsadd": 1752,
      "ĠPal": 1753,
      "Ġassign": 1754,
      "ĠBat": 1755,
      "ĠGh": 1756,
      "ĠYour": 1757,
      "ĠAssassin": 1758,
      "Ġmodif": 1759,
      "Human": 1760,
      "ient": 1761,
      "pent": 1762,
      "ye": 1763,
      "Ġqu": 1764,
      "erm": 1765,
      "itan": 1766,
      "Ġdraft": 1767,
      "Ġduplicate": 1768,
      "ĠCra": 1769,
      "Ġanything": 1770,
      "ĠMaster": 1771,
      "eper": 1772,
      "ĠZombies": 1773,
      "ĠFaerie": 1774,
      "ascade": 1775,
      "ĠThopter": 1776,
      "Ex": 1777,
      "br": 1778,
      "ward": 1779,
      "Ġart": 1780,
      "tern": 1781,
      "ves": 1782,
      "ĠSke": 1783,
      "amorph": 1784,
      "ict": 1785,
      "ĠPy": 1786,
      "ĠPho": 1787,
      "hest": 1788,
      "Ward": 1789,
      "ele": 1790,
      "gg": 1791,
      "way": 1792,
      "rop": 1793,
      "ular": 1794,
      "Ġredu": 1795,
      "ĠSpells": 1796,
      "Start": 1797,
      "ĠHorror": 1798,
      "ĠLightning": 1799,
      "ground": 1800,
      "Ġfewer": 1801,
      "Activate": 1802,
      "Cast": 1803,
      "fect": 1804,
      "za": 1805,
      "its": 1806,
      "Ġhig": 1807,
      "ĠAb": 1808,
      "ĠDisc": 1809,
      "Ġattackers": 1810,
      "ĠIncub": 1811,
      "ĠBlade": 1812,
      "Ġdivided": 1813,
      "Ġexplore": 1814,
      "Ġhighest": 1815,
      "bre": 1816,
      "lock": 1817,
      "na": 1818,
      "ymb": 1819,
      "Ġmadness": 1820,
      "Ġcomes": 1821,
      "ĠMind": 1822,
      "omain": 1823,
      "ĠKra": 1824,
      "blocked": 1825,
      "Ġseek": 1826,
      "ĠConstruct": 1827,
      "Ġtemp": 1828,
      "ĠSerpent": 1829,
      "finite": 1830,
      "wampwalk": 1831,
      "Th": 1832,
      "dy": 1833,
      "son": 1834,
      "we": 1835,
      "enown": 1836,
      "enix": 1837,
      "illed": 1838,
      "ĠCro": 1839,
      "ĠDu": 1840,
      "ĠRun": 1841,
      "ĠMage": 1842,
      "Ġshield": 1843,
      "ĠOver": 1844,
      "rowth": 1845,
      "Ġremain": 1846,
      "ĠPhoenix": 1847,
      "Imp": 1848,
      "Le": 1849,
      "hin": 1850,
      "att": 1851,
      "ince": 1852,
      "Ġsince": 1853,
      "Ġunblocked": 1854,
      "ĠTor": 1855,
      "ĠMill": 1856,
      "ĠBre": 1857,
      "rier": 1858,
      "vented": 1859,
      "blade": 1860,
      "Ġmust": 1861,
      "rowess": 1862,
      "Artifacts": 1863,
      "Ġprevented": 1864,
      "Ġtempts": 1865,
      "Cumulative": 1866,
      "au": 1867,
      "lice": 1868,
      "inder": 1869,
      "Ġeight": 1870,
      "raption": 1871,
      "andra": 1872,
      "ĠAether": 1873,
      "ĠRu": 1874,
      "ĠWild": 1875,
      "eph": 1876,
      "ĠUnder": 1877,
      "ager": 1878,
      "ĠPlot": 1879,
      "ĠDesert": 1880,
      "ĠGuardian": 1881,
      "ĠContraption": 1882,
      "ault": 1883,
      "gent": 1884,
      "zz": 1885,
      "Ġcame": 1886,
      "Ġad": 1887,
      "elf": 1888,
      "Ġenc": 1889,
      "ĠAm": 1890,
      "ĠTitan": 1891,
      "ĠDwar": 1892,
      "ĠPr": 1893,
      "Ġgained": 1894,
      "ĠFle": 1895,
      "rider": 1896,
      "Ġlesser": 1897,
      "izes": 1898,
      "cret": 1899,
      "leton": 1900,
      "ecializes": 1901,
      "EL": 1902,
      "Hexproof": 1903,
      "eat": 1904,
      "jin": 1905,
      "ne": 1906,
      "yond": 1907,
      "int": 1908,
      "Ġcrew": 1909,
      "isit": 1910,
      "Ġfollow": 1911,
      "esh": 1912,
      "ĠSadd": 1913,
      "Ġcol": 1914,
      "ĠLE": 1915,
      "oot": 1916,
      "Ġstack": 1917,
      "Ġchange": 1918,
      "ĠChar": 1919,
      "Ġpaired": 1920,
      "spir": 1921,
      "idden": 1922,
      "ĠWorld": 1923,
      "ĠSaddle": 1924,
      "Rather": 1925,
      "VEL": 1926,
      "aken": 1927,
      "han": 1928,
      "umm": 1929,
      "ream": 1930,
      "ality": 1931,
      "ĠTw": 1932,
      "ĠIll": 1933,
      "ĠEv": 1934,
      "ĠPri": 1935,
      "ĠMadness": 1936,
      "stros": 1937,
      "ĠOgre": 1938,
      "ĠVol": 1939,
      "ĠUp": 1940,
      "ĠSpider": 1941,
      "ĠDead": 1942,
      "resent": 1943,
      "two": 1944,
      "ĠRats": 1945,
      "ĠQu": 1946,
      "ĠQue": 1947,
      "ĠShaman": 1948,
      "Ġsaddled": 1949,
      "Ġexplores": 1950,
      "attach": 1951,
      "ĠLEVEL": 1952,
      "Morph": 1953,
      "wood": 1954,
      "Ġ'": 1955,
      "argain": 1956,
      "Ġproliferate": 1957,
      "alted": 1958,
      "Ġmilled": 1959,
      "inger": 1960,
      "Ġwon": 1961,
      "Ġgoad": 1962,
      "ĠAv": 1963,
      "ĠApp": 1964,
      "ĠCit": 1965,
      "ĠPer": 1966,
      "ĠMyr": 1967,
      "ader": 1968,
      "Ġ20": 1969,
      "ĠGra": 1970,
      "ffinity": 1971,
      "Ġexact": 1972,
      "ĠThunder": 1973,
      "rank": 1974,
      "ĠDoctor": 1975,
      "egamorph": 1976,
      "ĠMagic": 1977,
      "Ġforetell": 1978,
      "ĠRecon": 1979,
      "ĠTreefolk": 1980,
      "ĠMercen": 1981,
      "ymbol": 1982,
      "Com": 1983,
      "book": 1984,
      "over": 1985,
      "tr": 1986,
      "yn": 1987,
      "anion": 1988,
      "Ġprom": 1989,
      "alm": 1990,
      "Ġgift": 1991,
      "ĠSam": 1992,
      "enture": 1993,
      "ĠAc": 1994,
      "utsu": 1995,
      "lord": 1996,
      "epar": 1997,
      "Ġexist": 1998,
      "Ġlegend": 1999,
      "ĠBlast": 2000,
      "ycl": 2001,
      "izen": 2002,
      "Ġdeclared": 2003,
      "injutsu": 2004,
      "ĠBackground": 2005,
      "Ġexactly": 2006,
      "Fl": 2007,
      "aid": 2008,
      "for": 2009,
      "Ġtoxic": 2010,
      "Ġsing": 2011,
      "Ġsymbol": 2012,
      "Ġfin": 2013,
      "ife": 2014,
      "Ġescape": 2015,
      "Ġecho": 2016,
      "ase": 2017,
      "Ġbest": 2018,
      "ĠCal": 2019,
      "ĠCent": 2020,
      "ĠRak": 2021,
      "Ġmanifest": 2022,
      "ĠBro": 2023,
      "ĠEnd": 2024,
      "ists": 2025,
      "Ġtrans": 2026,
      "ĠClock": 2027,
      "Ġlasts": 2028,
      "ĠDelirium": 2029,
      "Ġtransform": 2030,
      "ah": 2031,
      "ifter": 2032,
      "oze": 2033,
      "viv": 2034,
      "Ġtake": 2035,
      "Ġclash": 2036,
      "rer": 2037,
      "ari": 2038,
      "arn": 2039,
      "inel": 2040,
      "rain": 2041,
      "Ġinde": 2042,
      "ĠDru": 2043,
      "ĠDread": 2044,
      "mble": 2045,
      "ĠGn": 2046,
      "ĠGro": 2047,
      "imid": 2048,
      "ĠLord": 2049,
      "ĠVal": 2050,
      "ĠShield": 2051,
      "ĠChandra": 2052,
      "Ġprocess": 2053,
      "Ġrepresent": 2054,
      "Ġintens": 2055,
      "ĠPowerstone": 2056,
      "ĠIncubator": 2057,
      "finitely": 2058,
      "Ġsingle": 2059,
      "Ġindefinitely": 2060,
      "her": 2061,
      "load": 2062,
      "itz": 2063,
      "teran": 2064,
      "urst": 2065,
      "Ġev": 2066,
      "rage": 2067,
      "Ġhorsemanship": 2068,
      "andon": 2069,
      "ĠAut": 2070,
      "Ġincl": 2071,
      "Ġbeyond": 2072,
      "Ġspellbook": 2073,
      "Ġputting": 2074,
      "key": 2075,
      "ĠFirst": 2076,
      "ĠReach": 2077,
      "ool": 2078,
      "ipment": 2079,
      "Ġchose": 2080,
      "ĠScion": 2081,
      "ombat": 2082,
      "ĠForetell": 2083,
      "roup": 2084,
      "Indestructible": 2085,
      "ĠWhile": 2086,
      "ĠSentinel": 2087,
      "strosity": 2088,
      "Sc": 2089,
      "gure": 2090,
      "ok": 2091,
      "ode": 2092,
      "ving": 2093,
      "Ġra": 2094,
      "ĠSuspend": 2095,
      "Ġunattach": 2096,
      "ĠAfter": 2097,
      "ĠTime": 2098,
      "Ġspecializes": 2099,
      "acker": 2100,
      "ĠDr": 2101,
      "ĠDuring": 2102,
      "Ġlibraries": 2103,
      "figure": 2104,
      "ĠFish": 2105,
      "ads": 2106,
      "ĠRest": 2107,
      "riend": 2108,
      "idence": 2109,
      "ĠVigilance": 2110,
      "ĠDeep": 2111,
      "ague": 2112,
      "ĠRoll": 2113,
      "Ġflanking": 2114,
      "ĠIslands": 2115,
      "aze": 2116,
      "ĠSagas": 2117,
      "ĠMonstrosity": 2118,
      "Ġpiles": 2119,
      "Changeling": 2120,
      "ĠSkeleton": 2121,
      "ĠReconfigure": 2122,
      "mor": 2123,
      "ni": 2124,
      "upp": 2125,
      "Ġ[": 2126,
      "Ġcrime": 2127,
      "stwalk": 2128,
      "Ġsoon": 2129,
      "Ġgroup": 2130,
      "entor": 2131,
      "ĠDark": 2132,
      "ĠFi": 2133,
      "ĠFal": 2134,
      "ĠMor": 2135,
      "ĠBal": 2136,
      "ĠLifelink": 2137,
      "ĠOoze": 2138,
      "usion": 2139,
      "Ġlet": 2140,
      "ĠAsh": 2141,
      "ĠGold": 2142,
      "ĠJun": 2143,
      "aval": 2144,
      "ations": 2145,
      "ribute": 2146,
      "haust": 2147,
      "ĠLegion": 2148,
      "ĠSanct": 2149,
      "Ġassigns": 2150,
      "Ġquest": 2151,
      "Ġadv": 2152,
      "Ġlegendaries": 2153,
      "Del": 2154,
      "ae": 2155,
      "cient": 2156,
      "kip": 2157,
      "sk": 2158,
      "Ġthird": 2159,
      "eren": 2160,
      "Ġsusp": 2161,
      "Ġweren": 2162,
      "Ġgu": 2163,
      "ĠSav": 2164,
      "ask": 2165,
      "ĠTri": 2166,
      "ĠCapt": 2167,
      "ĠPit": 2168,
      "ĠMoon": 2169,
      "iving": 2170,
      "otaur": 2171,
      "Ġadds": 2172,
      "ets": 2173,
      "etal": 2174,
      "ĠChaos": 2175,
      "ĠTemp": 2176,
      "ĠHunter": 2177,
      "Ġhigher": 2178,
      "Ġevidence": 2179,
      "Ninjutsu": 2180,
      "Partner": 2181,
      "Wh": 2182,
      "gl": 2183,
      "rath": 2184,
      "Ġtre": 2185,
      "Ġtarge": 2186,
      "erd": 2187,
      "iti": 2188,
      "gered": 2189,
      "Ġday": 2190,
      "Ġdisguise": 2191,
      "ism": 2192,
      "Ġmin": 2193,
      "urai": 2194,
      "orage": 2195,
      "ili": 2196,
      "ĠSand": 2197,
      "ĠAug": 2198,
      "ĠCaval": 2199,
      "ĠPil": 2200,
      "adin": 2201,
      "ĠBear": 2202,
      "ĠRef": 2203,
      "ĠHel": 2204,
      "ĠHear": 2205,
      "Ġexp": 2206,
      "Ġwasn": 2207,
      "ĠNec": 2208,
      "ĠShuffle": 2209,
      "Ġsecret": 2210,
      "ĠAnother": 2211,
      "Ġnames": 2212,
      "ĠDragons": 2213,
      "tective": 2214,
      "avu": 2215,
      "ected": 2216,
      "ĠMarsh": 2217,
      "ĠOrcs": 2218,
      "annel": 2219,
      "ĠTransform": 2220,
      "spiracy": 2221,
      "ĠCitizen": 2222,
      "ĠSamurai": 2223,
      "eparate": 2224,
      "imidate": 2225,
      "Ġtargeted": 2226,
      "Best": 2227,
      "Sl": 2228,
      "af": 2229,
      "air": 2230,
      "bon": 2231,
      "combat": 2232,
      "eker": 2233,
      "goy": 2234,
      "rent": 2235,
      "uy": 2236,
      "uck": 2237,
      "Ġcrank": 2238,
      "ana": 2239,
      "ros": 2240,
      "rov": 2241,
      "Ġbut": 2242,
      "Ġsuspend": 2243,
      "ĠFam": 2244,
      "ĠMist": 2245,
      "ĠMax": 2246,
      "ĠBands": 2247,
      "ĠWere": 2248,
      "ĠHo": 2249,
      "Ġabandon": 2250,
      "ĠOb": 2251,
      "ĠDetective": 2252,
      "Ġwhich": 2253,
      "ĠKavu": 2254,
      "moth": 2255,
      "Ġrenown": 2256,
      "ĠChannel": 2257,
      "ĠAncient": 2258,
      "Equipment": 2259,
      "ĠSkull": 2260,
      "ope": 2261,
      "Ġtriggered": 2262,
      "Untap": 2263,
      "ĠUrza": 2264,
      "breaker": 2265,
      "Ġfollowing": 2266,
      "Ġbestow": 2267,
      "ĠDruid": 2268,
      "ĠFiend": 2269,
      "Ġsecretly": 2270,
      "Bestow": 2271,
      "Affinity": 2272,
      "kn": 2273,
      "kite": 2274,
      "sed": 2275,
      "ump": 2276,
      "Ġactiv": 2277,
      "ins": 2278,
      "ley": 2279,
      "Ġso": 2280,
      "Ġfear": 2281,
      "Ġfade": 2282,
      "rap": 2283,
      "ĠSm": 2284,
      "ĠTer": 2285,
      "ĠTal": 2286,
      "ĠTyr": 2287,
      "top": 2288,
      "Ġattacker": 2289,
      "ĠFear": 2290,
      "ĠMine": 2291,
      "ĠBurn": 2292,
      "ĠBog": 2293,
      "Ġcombination": 2294,
      "iple": 2295,
      "Ġreturned": 2296,
      "ought": 2297,
      "Ġleft": 2298,
      "istribute": 2299,
      "ĠNe": 2300,
      "ĠBlack": 2301,
      "phant": 2302,
      "ĠPlayers": 2303,
      "Ġconspiracy": 2304,
      "ĠSnake": 2305,
      "ĠSlivers": 2306,
      "ĠMinotaur": 2307,
      "ĠPaladin": 2308,
      "ĠGhoul": 2309,
      "uyback": 2310,
      "light": 2311,
      "tic": 2312,
      "ress": 2313,
      "Ġar": 2314,
      "antom": 2315,
      "Ġdes": 2316,
      "Ġdice": 2317,
      "ayer": 2318,
      "Ġseparate": 2319,
      "ura": 2320,
      "ĠSor": 2321,
      "ĠTroll": 2322,
      "Ġcounts": 2323,
      "ĠCave": 2324,
      "ĠCele": 2325,
      "Ġreg": 2326,
      "ĠRai": 2327,
      "aper": 2328,
      "ĠFall": 2329,
      "ĠGen": 2330,
      "ido": 2331,
      "Ġamass": 2332,
      "Ġexchange": 2333,
      "ĠKam": 2334,
      "unning": 2335,
      "ulk": 2336,
      "ĠStone": 2337,
      "ĠGod": 2338,
      "ountain": 2339,
      "ĠPlant": 2340,
      "Ġphased": 2341,
      "ĠVehicles": 2342,
      "Ġtrigger": 2343,
      "Ġwins": 2344,
      "Ġdifference": 2345,
      "ĠElder": 2346,
      "Ġdivide": 2347,
      "ushido": 2348,
      "Ġrepeat": 2349,
      "ĠCourier": 2350,
      "ĠKraken": 2351,
      "ĠCentaur": 2352,
      "Ġrenowned": 2353,
      "Ass": 2354,
      "Buyback": 2355,
      "Domain": 2356,
      "bit": 2357,
      "een": 2358,
      "go": 2359,
      "wing": 2360,
      "ys": 2361,
      "Ġcl": 2362,
      "aring": 2363,
      "ames": 2364,
      "ĠAk": 2365,
      "ĠDis": 2366,
      "ĠDamage": 2367,
      "ĠDouble": 2368,
      "ĠDog": 2369,
      "ĠPat": 2370,
      "ĠRage": 2371,
      "ĠMenace": 2372,
      "ĠHatch": 2373,
      "ĠLand": 2374,
      "ĠLie": 2375,
      "ĠOm": 2376,
      "ĠVo": 2377,
      "ĠVen": 2378,
      "ĠVor": 2379,
      "usk": 2380,
      "venture": 2381,
      "ĠPhantom": 2382,
      "ĠVeteran": 2383,
      "Ġsources": 2384,
      "ĠElves": 2385,
      "Ġoutlaw": 2386,
      "olved": 2387,
      "ĠSentry": 2388,
      "ĠDevil": 2389,
      "Ġadvance": 2390,
      "ĠTyrant": 2391,
      "Se": 2392,
      "Swampwalk": 2393,
      "hil": 2394,
      "ma": 2395,
      "rine": 2396,
      "strike": 2397,
      "aya": 2398,
      "Ġmove": 2399,
      "ĠArt": 2400,
      "ithkin": 2401,
      "Ġnight": 2402,
      "romancer": 2403,
      "ĠEm": 2404,
      "ĠPrim": 2405,
      "host": 2406,
      "apon": 2407,
      "ĠGrif": 2408,
      "ĠRevel": 2409,
      "ĠWitch": 2410,
      "Ġdiscarding": 2411,
      "ĠVan": 2412,
      "ĠSpark": 2413,
      "ĠSphin": 2414,
      "ĠKar": 2415,
      "Enter": 2416,
      "une": 2417,
      "ĠNo": 2418,
      "ĠShrine": 2419,
      "ledge": 2420,
      "arer": 2421,
      "Ġprow": 2422,
      "ĠMountains": 2423,
      "ĠDoom": 2424,
      "Blood": 2425,
      "ĠCorru": 2426,
      "ternal": 2427,
      "dying": 2428,
      "ĠIllusion": 2429,
      "ĠSphinx": 2430,
      "bor": 2431,
      "sm": 2432,
      "yri": 2433,
      "Ġhis": 2434,
      "ĠSal": 2435,
      "ĠSho": 2436,
      "ĠSurveil": 2437,
      "Ġcomple": 2438,
      "icore": 2439,
      "Ġdec": 2440,
      "Ġplayed": 2441,
      "ĠRed": 2442,
      "ĠBas": 2443,
      "ĠGor": 2444,
      "Ġstorage": 2445,
      "reet": 2446,
      "ĠCreature": 2447,
      "ĠKithkin": 2448,
      "ĠStar": 2449,
      "avor": 2450,
      "ĠForests": 2451,
      "ĠMana": 2452,
      "Ġrepresents": 2453,
      "ĠHeart": 2454,
      "ĠGriffin": 2455,
      "Island": 2456,
      "Prowess": 2457,
      "Soul": 2458,
      "aj": 2459,
      "born": 2460,
      "gra": 2461,
      "mand": 2462,
      "word": 2463,
      "Ġver": 2464,
      "acious": 2465,
      "ised": 2466,
      "Ġskip": 2467,
      "tering": 2468,
      "ury": 2469,
      "ications": 2470,
      "cher": 2471,
      "ĠIce": 2472,
      "ĠEscape": 2473,
      "ĠEye": 2474,
      "ĠDisguise": 2475,
      "ĠDream": 2476,
      "ĠPo": 2477,
      "ĠRan": 2478,
      "ĠRab": 2479,
      "ĠGhost": 2480,
      "ĠHaun": 2481,
      "Ġequip": 2482,
      "immer": 2483,
      "ĠVault": 2484,
      "use": 2485,
      "ĠDeathtouch": 2486,
      "Ġexert": 2487,
      "erser": 2488,
      "ĠZe": 2489,
      "merge": 2490,
      "ĠComp": 2491,
      "ĠFrost": 2492,
      "ridge": 2493,
      "ummon": 2494,
      "ĠClockwork": 2495,
      "Ġtransforms": 2496,
      "Ġinclud": 2497,
      "ĠCaptain": 2498,
      "iliar": 2499,
      "ĠRaider": 2500,
      "aug": 2501,
      "cy": 2502,
      "oom": 2503,
      "plet": 2504,
      "wine": 2505,
      "oud": 2506,
      "itor": 2507,
      "stic": 2508,
      "legendary": 2509,
      "ayed": 2510,
      "Ġcomp": 2511,
      "ĠTower": 2512,
      "Ġdeplet": 2513,
      "ĠIV": 2514,
      "ĠDro": 2515,
      "ĠDjin": 2516,
      "ĠRel": 2517,
      "ĠRaven": 2518,
      "ket": 2519,
      "ĠMolt": 2520,
      "gine": 2521,
      "ĠBrawler": 2522,
      "ĠBerser": 2523,
      "ĠGrave": 2524,
      "llation": 2525,
      "ĠWood": 2526,
      "ĠWind": 2527,
      "ĠHam": 2528,
      "ĠOp": 2529,
      "ĠEngine": 2530,
      "ĠSpike": 2531,
      "stellation": 2532,
      "ung": 2533,
      "Ġcontrollers": 2534,
      "ulate": 2535,
      "ĠCharm": 2536,
      "ĠPlan": 2537,
      "Ġtrue": 2538,
      "ĠPhant": 2539,
      "ody": 2540,
      "ĠServo": 2541,
      "usher": 2542,
      "ĠMirror": 2543,
      "ĠKeeper": 2544,
      "Ġheal": 2545,
      "ĠHellkite": 2546,
      "ĠRebel": 2547,
      "ĠPirates": 2548,
      "ĠSurviv": 2549,
      "Ġmodifications": 2550,
      "Ġcollect": 2551,
      "Commander": 2552,
      "etalcraft": 2553,
      "Ġtreated": 2554,
      "ĠFamiliar": 2555,
      "ĠWerew": 2556,
      "Ġregular": 2557,
      "Ġdepletion": 2558,
      "ĠDjinn": 2559,
      "ĠMolten": 2560,
      "Hero": 2561,
      "Mage": 2562,
      "Visit": 2563,
      "aut": 2564,
      "ius": 2565,
      "no": 2566,
      "oak": 2567,
      "ues": 2568,
      "waken": 2569,
      "rew": 2570,
      "arth": 2571,
      "Ġdread": 2572,
      "Ġtoward": 2573,
      "iff": 2574,
      "tery": 2575,
      "Ġmode": 2576,
      "ors": 2577,
      "entity": 2578,
      "ical": 2579,
      "ĠAp": 2580,
      "Ġbetw": 2581,
      "ĠTo": 2582,
      "ĠPers": 2583,
      "ĠRad": 2584,
      "ĠRiver": 2585,
      "ĠRider": 2586,
      "ĠMal": 2587,
      "ĠRet": 2588,
      "ĠReck": 2589,
      "ĠWill": 2590,
      "ĠWatch": 2591,
      "ĠHidden": 2592,
      "Ġventure": 2593,
      "ĠOc": 2594,
      "olar": 2595,
      "ĠSpec": 2596,
      "Ġru": 2597,
      "ĠThr": 2598,
      "ample": 2599,
      "ĠStart": 2600,
      "ĠShade": 2601,
      "plic": 2602,
      "ĠRob": 2603,
      "ishing": 2604,
      "ĠExpl": 2605,
      "ĠServ": 2606,
      "ĠAdventure": 2607,
      "rint": 2608,
      "Shadow": 2609,
      "Ġdeclare": 2610,
      "Ġmodified": 2611,
      "Ġintensity": 2612,
      "Ġguess": 2613,
      "Ġminus": 2614,
      "ĠBurning": 2615,
      "ĠBerserker": 2616,
      "Ġbetween": 2617,
      "Then": 2618,
      "cil": 2619,
      "ging": 2620,
      "iter": 2621,
      "mare": 2622,
      "typ": 2623,
      "erted": 2624,
      "Ġsolve": 2625,
      "aller": 2626,
      "ĠAmb": 2627,
      "ĠAgent": 2628,
      "Ġincre": 2629,
      "Ġincub": 2630,
      "ĠCycl": 2631,
      "ĠEf": 2632,
      "ĠEcho": 2633,
      "the": 2634,
      "ĠProliferate": 2635,
      "ĠMant": 2636,
      "ĠMentor": 2637,
      "ĠLost": 2638,
      "keeper": 2639,
      "Ġnonlegendary": 2640,
      "ott": 2641,
      "Ġexample": 2642,
      "Ġexerted": 2643,
      "ĠThief": 2644,
      "ives": 2645,
      "ĠScout": 2646,
      "ĠAnim": 2647,
      "ĠPlague": 2648,
      "ĠGoblins": 2649,
      "akes": 2650,
      "ops": 2651,
      "ĠBee": 2652,
      "ĠSwamps": 2653,
      "ĠAdapt": 2654,
      "Ġwords": 2655,
      "ĠCryp": 2656,
      "Ġopening": 2657,
      "eshifter": 2658,
      "ĠMercenary": 2659,
      "nihil": 2660,
      "Ġactivating": 2661,
      "ĠPhantasm": 2662,
      "Fear": 2663,
      "Up": 2664,
      "bond": 2665,
      "bound": 2666,
      "dos": 2667,
      "my": 2668,
      "pted": 2669,
      "ric": 2670,
      "sw": 2671,
      "vish": 2672,
      "Ġcle": 2673,
      "enant": 2674,
      "reen": 2675,
      "iner": 2676,
      "Ġel": 2677,
      "Ġeven": 2678,
      "Ġus": 2679,
      "iller": 2680,
      "ĠSto": 2681,
      "ĠAwaken": 2682,
      "utenant": 2683,
      "ĠPe": 2684,
      "ĠRav": 2685,
      "ĠBor": 2686,
      "ĠBomb": 2687,
      "rix": 2688,
      "Ġcreated": 2689,
      "ĠHeral": 2690,
      "imer": 2691,
      "Ġnoncombat": 2692,
      "iper": 2693,
      "ĠKor": 2694,
      "ĠInfer": 2695,
      "Creature": 2696,
      "ĠShap": 2697,
      "ĠSword": 2698,
      "oded": 2699,
      "Ġconn": 2700,
      "ĠExp": 2701,
      "twine": 2702,
      "Constellation": 2703,
      "ĠCommander": 2704,
      "ĠHorde": 2705,
      "aptor": 2706,
      "ĠWarden": 2707,
      "ĠRebound": 2708,
      "ittering": 2709,
      "ĠFrog": 2710,
      "ĠScavenge": 2711,
      "Ġreduced": 2712,
      "ĠDisciple": 2713,
      "Ġencoded": 2714,
      "ĠQuest": 2715,
      "Ġfinality": 2716,
      "Islandwalk": 2717,
      "Heroic": 2718,
      "ĠHerald": 2719,
      "Mutate": 2720,
      "__": 2721,
      "ech": 2722,
      "lan": 2723,
      "mate": 2724,
      "Ġent": 2725,
      "ene": 2726,
      "ones": 2727,
      "acon": 2728,
      "rod": 2729,
      "rock": 2730,
      "Ġbo": 2731,
      "ald": 2732,
      "Ġlike": 2733,
      "ĠSage": 2734,
      "ĠIron": 2735,
      "oster": 2736,
      "ĠEgg": 2737,
      "irc": 2738,
      "ĠBolt": 2739,
      "heart": 2740,
      "ĠHed": 2741,
      "ĠEntwine": 2742,
      "Ġtaps": 2743,
      "Ġkicker": 2744,
      "ĠFort": 2745,
      "isher": 2746,
      "Toxic": 2747,
      "ĠHead": 2748,
      "ĠOne": 2749,
      "ĠBarb": 2750,
      "ĠCollect": 2751,
      "ĠColoss": 2752,
      "ĠAvenger": 2753,
      "ĠRestless": 2754,
      "itiative": 2755,
      "Sliver": 2756,
      "ĠHatchling": 2757,
      "ĠLieutenant": 2758,
      "Ġdecayed": 2759,
      "Ġincubate": 2760,
      "Ġentwine": 2761,
      "Ar": 2762,
      "Be": 2763,
      "aired": 2764,
      "bid": 2765,
      "iers": 2766,
      "sists": 2767,
      "uary": 2768,
      "van": 2769,
      "wh": 2770,
      "Ġid": 2771,
      "Ġaway": 2772,
      "aro": 2773,
      "atar": 2774,
      "ender": 2775,
      "ino": 2776,
      "ister": 2777,
      "stant": 2778,
      "storm": 2779,
      "Ġbargain": 2780,
      "ays": 2781,
      "ally": 2782,
      "rash": 2783,
      "ĠSle": 2784,
      "enty": 2785,
      "Ġinitiative": 2786,
      "cha": 2787,
      "Ġsplice": 2788,
      "ĠIs": 2789,
      "ellow": 2790,
      "Ġplaying": 2791,
      "ĠCru": 2792,
      "ĠEvoke": 2793,
      "ĠEternal": 2794,
      "mbra": 2795,
      "thirst": 2796,
      "ĠRock": 2797,
      "Ġhasn": 2798,
      "ĠBand": 2799,
      "ĠBall": 2800,
      "Ġdrawn": 2801,
      "ĠEnt": 2802,
      "ĠSplice": 2803,
      "Ġwhose": 2804,
      "ourge": 2805,
      "Ġchap": 2806,
      "ĠThought": 2807,
      "ĠNon": 2808,
      "Ġdone": 2809,
      "ĠStal": 2810,
      "ĠStalker": 2811,
      "ĠInter": 2812,
      "ĠInvestigate": 2813,
      "ĠAscend": 2814,
      "Ġcommon": 2815,
      "ĠWarlock": 2816,
      "shift": 2817,
      "iery": 2818,
      "Ġpair": 2819,
      "ideon": 2820,
      "ĠElvish": 2821,
      "opulate": 2822,
      "Ġconsists": 2823,
      "ĠConjure": 2824,
      "Spell": 2825,
      "ĠCommand": 2826,
      "ĠMystic": 2827,
      "Ġproduce": 2828,
      "Level": 2829,
      "ĠTorch": 2830,
      "ĠFleet": 2831,
      "ĠRakdos": 2832,
      "Ġsuspected": 2833,
      "ĠKami": 2834,
      "ĠVanguard": 2835,
      "ĠZeal": 2836,
      "Ġcompanion": 2837,
      "ĠWerewolf": 2838,
      "Ġincreas": 2839,
      "Fore": 2840,
      "Gift": 2841,
      "Non": 2842,
      "Raid": 2843,
      "Sk": 2844,
      "aff": 2845,
      "co": 2846,
      "caller": 2847,
      "eaker": 2848,
      "imp": 2849,
      "oe": 2850,
      "target": 2851,
      "Ġtouch": 2852,
      "ars": 2853,
      "inter": 2854,
      "ani": 2855,
      "Ġdrew": 2856,
      "isk": 2857,
      "ilver": 2858,
      "ĠSch": 2859,
      "ĠAz": 2860,
      "ĠId": 2861,
      "Ġreplicate": 2862,
      "ĠExt": 2863,
      "ĠEmp": 2864,
      "ĠDi": 2865,
      "ĠDawn": 2866,
      "tooth": 2867,
      "totyp": 2868,
      "ĠPack": 2869,
      "ĠRaptor": 2870,
      "Ġ13": 2871,
      "Ġisland": 2872,
      "ĠFr": 2873,
      "ĠField": 2874,
      "ĠFury": 2875,
      "ĠMask": 2876,
      "Ġtwenty": 2877,
      "adi": 2878,
      "ĠBan": 2879,
      "hemoth": 2880,
      "ĠWater": 2881,
      "ĠWorm": 2882,
      "olas": 2883,
      "olver": 2884,
      "ĠUl": 2885,
      "ĠKing": 2886,
      "ĠThorn": 2887,
      "ĠNinj": 2888,
      "Ġnoted": 2889,
      "ĠRogu": 2890,
      "ĠForge": 2891,
      "erer": 2892,
      "ĠElite": 2893,
      "ĠHumans": 2894,
      "ĠVampires": 2895,
      "ĠMonk": 2896,
      "Ġexplo": 2897,
      "Ġmutates": 2898,
      "ĠGreen": 2899,
      "ringer": 2900,
      "Imprint": 2901,
      "ĠDwarf": 2902,
      "ountainwalk": 2903,
      "smith": 2904,
      "ĠReckless": 2905,
      "ĠSpecter": 2906,
      "Ġidentity": 2907,
      "Ġbargained": 2908,
      "ĠRogues": 2909,
      "19": 2910,
      "Echo": 2911,
      "Horsemanship": 2912,
      "Mana": 2913,
      "app": 2914,
      "aim": 2915,
      "bo": 2916,
      "cr": 2917,
      "cat": 2918,
      "gler": 2919,
      "horn": 2920,
      "ience": 2921,
      "last": 2922,
      "paired": 2923,
      "sy": 2924,
      "ux": 2925,
      "uro": 2926,
      "vi": 2927,
      "erial": 2928,
      "ision": 2929,
      "ify": 2930,
      "Ġmir": 2931,
      "Ġmegamorph": 2932,
      "Ġevoke": 2933,
      "Ġunpaired": 2934,
      "Ġspore": 2935,
      "ĠCult": 2936,
      "ĠCinder": 2937,
      "ĠDusk": 2938,
      "three": 2939,
      "ĠProw": 2940,
      "Ġblitz": 2941,
      "actic": 2942,
      "ĠMast": 2943,
      "omat": 2944,
      "Ġperson": 2945,
      "ĠGideon": 2946,
      "ĠWhis": 2947,
      "ĠHaste": 2948,
      "Ġpowers": 2949,
      "Ġowns": 2950,
      "imic": 2951,
      "ĠLav": 2952,
      "wall": 2953,
      "ĠVi": 2954,
      "ĠEnc": 2955,
      "ĠSphere": 2956,
      "ĠSpire": 2957,
      "ĠUndying": 2958,
      "iege": 2959,
      "Ascend": 2960,
      "ĠStr": 2961,
      "aging": 2962,
      "ĠChimer": 2963,
      "tector": 2964,
      "ĠForm": 2965,
      "ĠSpirits": 2966,
      "ĠFlip": 2967,
      "awk": 2968,
      "claw": 2969,
      "ĠProtector": 2970,
      "ĠGuild": 2971,
      "ĠSquad": 2972,
      "ĠWhite": 2973,
      "Ġstarts": 2974,
      "ĠOrcish": 2975,
      "ĠOnce": 2976,
      "ribe": 2977,
      "ĠFlesh": 2978,
      "ĠAvatar": 2979,
      "Ġpromised": 2980,
      "Ġclashing": 2981,
      "Ġrad": 2982,
      "Ġletter": 2983,
      "ĠOpal": 2984,
      "ĠPersist": 2985,
      "ĠShapeshifter": 2986,
      "Ġbooster": 2987,
      "totype": 2988,
      "Ġislandwalk": 2989,
      "Bargain": 2990,
      "Bushido": 2991,
      "Sun": 2992,
      "burst": 2993,
      "line": 2994,
      "sho": 2995,
      "ude": 2996,
      "uence": 2997,
      "Ġ9": 2998,
      "Ġcascade": 2999,
      "arian": 3000,
      "ery": 3001,
      "Ġpack": 3002,
      "lex": 3003,
      "Ġboon": 3004,
      "Ġfriend": 3005,
      "Ġhour": 3006,
      "icer": 3007,
      "uth": 3008,
      "ĠPre": 3009,
      "ĠPur": 3010,
      "ĠRen": 3011,
      "ĠRaz": 3012,
      "aph": 3013,
      "ĠFe": 3014,
      "ction": 3015,
      "ĠMut": 3016,
      "Ġblockers": 3017,
      "omen": 3018,
      "ĠBra": 3019,
      "cerer": 3020,
      "ĠGri": 3021,
      "ĠRep": 3022,
      "rite": 3023,
      "ĠHigh": 3024,
      "ĠLil": 3025,
      "ĠLife": 3026,
      "ĠOff": 3027,
      "olis": 3028,
      "ĠNi": 3029,
      "ĠShip": 3030,
      "ĠAsp": 3031,
      "ĠScourge": 3032,
      "ĠSwarm": 3033,
      "ĠCloud": 3034,
      "spring": 3035,
      "ĠSeer": 3036,
      "egas": 3037,
      "ĠTrap": 3038,
      "issary": 3039,
      "Ġproduced": 3040,
      "ĠOverload": 3041,
      "Ġgoaded": 3042,
      "Ġpromise": 3043,
      "Delve": 3044,
      "ĠCavalier": 3045,
      "rovise": 3046,
      "Ġsuspended": 3047,
      "ĠVenge": 3048,
      "ĠEmissary": 3049,
      "yriad": 3050,
      "ĠStarting": 3051,
      "Ġconnives": 3052,
      "Spells": 3053,
      "ĠNinja": 3054,
      "Ġmiracle": 3055,
      "Band": 3056,
      "Kin": 3057,
      "ba": 3058,
      "bra": 3059,
      "bomb": 3060,
      "dge": 3061,
      "growth": 3062,
      "iqu": 3063,
      "nal": 3064,
      "time": 3065,
      "wer": 3066,
      "Ġj": 3067,
      "reat": 3068,
      "ina": 3069,
      "ances": 3070,
      "onin": 3071,
      "rak": 3072,
      "ĠSo": 3073,
      "Ġengin": 3074,
      "ĠTru": 3075,
      "Ġsprock": 3076,
      "ĠCan": 3077,
      "ĠCap": 3078,
      "ĠCity": 3079,
      "ĠProwess": 3080,
      "ĠRoo": 3081,
      "tless": 3082,
      "ĠFate": 3083,
      "ĠMod": 3084,
      "omin": 3085,
      "Ġlandwalk": 3086,
      "ĠBasic": 3087,
      "ĠGrim": 3088,
      "ĠGerm": 3089,
      "ĠGrowth": 3090,
      "ĠWand": 3091,
      "ĠHex": 3092,
      "ĠLur": 3093,
      "ĠLore": 3094,
      "ĠLot": 3095,
      "ĠLess": 3096,
      "Ġstud": 3097,
      "ĠOx": 3098,
      "olster": 3099,
      "ĠStrider": 3100,
      "Ġcommit": 3101,
      "plit": 3102,
      "ĠJug": 3103,
      "ĠElephant": 3104,
      "ĠFlames": 3105,
      "away": 3106,
      "ĠWarriors": 3107,
      "ogg": 3108,
      "ĠSeas": 3109,
      "ĠSeraph": 3110,
      "ĠKnights": 3111,
      "Infect": 3112,
      "ĠWalls": 3113,
      "ĠFaith": 3114,
      "ĠSilver": 3115,
      "ĠGeist": 3116,
      "Ġoverload": 3117,
      "yline": 3118,
      "ĠCourt": 3119,
      "ĠCrab": 3120,
      "ephal": 3121,
      "ĠPrism": 3122,
      "Ġcrews": 3123,
      "ĠGrove": 3124,
      "ĠJunk": 3125,
      "ĠCelebr": 3126,
      "Ġverse": 3127,
      "ĠRabbit": 3128,
      "ĠRavenous": 3129,
      "ĠEfreet": 3130,
      "nihilator": 3131,
      "rodin": 3132,
      "Forestwalk": 3133,
      "ĠViash": 3134,
      "Ġengines": 3135,
      "Co": 3136,
      "Do": 3137,
      "bringer": 3138,
      "cent": 3139,
      "ef": 3140,
      "each": 3141,
      "eapon": 3142,
      "hor": 3143,
      "ien": 3144,
      "ki": 3145,
      "sl": 3146,
      "val": 3147,
      "zan": 3148,
      "Ġcry": 3149,
      "arl": 3150,
      "atog": 3151,
      "ending": 3152,
      "ons": 3153,
      "ony": 3154,
      "rog": 3155,
      "stalker": 3156,
      "Ġbr": 3157,
      "aler": 3158,
      "urge": 3159,
      "henomen": 3160,
      "oran": 3161,
      "Ġongo": 3162,
      "iltr": 3163,
      "ĠSaw": 3164,
      "ĠSyr": 3165,
      "ĠSyn": 3166,
      "ĠSiege": 3167,
      "Ġunsp": 3168,
      "ĠArtifact": 3169,
      "ede": 3170,
      "ution": 3171,
      "ĠImm": 3172,
      "ĠCle": 3173,
      "ĠCall": 3174,
      "ĠCann": 3175,
      "ĠCumulative": 3176,
      "ĠEarth": 3177,
      "ĠPyre": 3178,
      "ĠRid": 3179,
      "ĠRamp": 3180,
      "ĠFar": 3181,
      "ĠMa": 3182,
      "ĠBron": 3183,
      "ĠBurst": 3184,
      "manents": 3185,
      "rive": 3186,
      "ĠHow": 3187,
      "ĠHom": 3188,
      "ĠHall": 3189,
      "ĠHound": 3190,
      "ĠHope": 3191,
      "ĠLoc": 3192,
      "ĠOath": 3193,
      "ĠSpl": 3194,
      "Ġexhaust": 3195,
      "Ġvalues": 3196,
      "Ġuntaps": 3197,
      "Ġplane": 3198,
      "Ġplanar": 3199,
      "unt": 3200,
      "Ġright": 3201,
      "Ġinstances": 3202,
      "ĠIndestructible": 3203,
      "ĠInsp": 3204,
      "Ġsacrificing": 3205,
      "ĠScor": 3206,
      "izz": 3207,
      "ĠLeyline": 3208,
      "ĠBehemoth": 3209,
      "ĠSea": 3210,
      "ĠSeek": 3211,
      "ĠExchange": 3212,
      "ĠProtection": 3213,
      "ĠGuide": 3214,
      "eroc": 3215,
      "ĠMonster": 3216,
      "stral": 3217,
      "avern": 3218,
      "ĠMirrodin": 3219,
      "Ġforestwalk": 3220,
      "ĠHellion": 3221,
      "ĠInfiltr": 3222,
      "ĠSteel": 3223,
      "ĠGargoy": 3224,
      "ĠNightmare": 3225,
      "Ġintimidate": 3226,
      "bearer": 3227,
      "ĠScavenger": 3228,
      "ĠDuel": 3229,
      "ĠPrison": 3230,
      "ĠQuick": 3231,
      "ĠQueen": 3232,
      "While": 3233,
      "Ġexpend": 3234,
      "ĠSorcerer": 3235,
      "Ġoutlaws": 3236,
      "Soulbond": 3237,
      "ungus": 3238,
      "ĠOctop": 3239,
      "ĠZealot": 3240,
      "Ġexploits": 3241,
      "ĠProwler": 3242,
      "henomenon": 3243,
      "Ġongoing": 3244,
      "ĠInfiltrator": 3245,
      "ĠGargoyle": 3246,
      "Split": 3247,
      "Wall": 3248,
      "bent": 3249,
      "caster": 3250,
      "iot": 3251,
      "mark": 3252,
      "oit": 3253,
      "ral": 3254,
      "run": 3255,
      "sion": 3256,
      "timidate": 3257,
      "uous": 3258,
      "va": 3259,
      "reer": 3260,
      "Ġapp": 3261,
      "ines": 3262,
      "inous": 3263,
      "ards": 3264,
      "Ġdash": 3265,
      "Ġsick": 3266,
      "Ġsub": 3267,
      "Ġswampwalk": 3268,
      "Ġsummon": 3269,
      "ified": 3270,
      "alan": 3271,
      "urk": 3272,
      "Ġloss": 3273,
      "Ġhaven": 3274,
      "Ġhaun": 3275,
      "ĠAge": 3276,
      "Ġinfect": 3277,
      "ĠTour": 3278,
      "ĠCho": 3279,
      "ĠChe": 3280,
      "ĠCrawler": 3281,
      "ĠCascade": 3282,
      "ĠEid": 3283,
      "ĠDash": 3284,
      "ĠDist": 3285,
      "ĠDomain": 3286,
      "iri": 3287,
      "ĠPegas": 3288,
      "ĠRam": 3289,
      "owledge": 3290,
      "ĠFiery": 3291,
      "ĠMed": 3292,
      "ĠMob": 3293,
      "ĠMegamorph": 3294,
      "ading": 3295,
      "ĠBur": 3296,
      "ĠBridge": 3297,
      "iger": 3298,
      "ĠGlor": 3299,
      "ĠWicked": 3300,
      "ĠWalker": 3301,
      "ĠHorn": 3302,
      "mpl": 3303,
      "ĠLo": 3304,
      "ĠLion": 3305,
      "ĠLiving": 3306,
      "otcha": 3307,
      "ears": 3308,
      "olog": 3309,
      "ĠDec": 3310,
      "ĠThall": 3311,
      "ĠNew": 3312,
      "ĠStand": 3313,
      "Ġnote": 3314,
      "linger": 3315,
      "ĠScrap": 3316,
      "ouse": 3317,
      "talion": 3318,
      "ĠForce": 3319,
      "ĠAttend": 3320,
      "ĠFoods": 3321,
      "ĠKnowledge": 3322,
      "uber": 3323,
      "ĠTracker": 3324,
      "world": 3325,
      "ĠResearch": 3326,
      "Shroud": 3327,
      "ĠTransm": 3328,
      "ĠCurse": 3329,
      "Ġartist": 3330,
      "ĠPyro": 3331,
      "ĠPyromancer": 3332,
      "Starting": 3333,
      "Improvise": 3334,
      "ĠMercenaries": 3335,
      "ĠGolden": 3336,
      "ĠAugment": 3337,
      "Ġabandoned": 3338,
      "ĠCorrupted": 3339,
      "borg": 3340,
      "Ġcompleted": 3341,
      "Ġrules": 3342,
      "ĠServant": 3343,
      "ĠCyclops": 3344,
      "ĠManticore": 3345,
      "Ġelse": 3346,
      "Ġusing": 3347,
      "ĠColossus": 3348,
      "Ġincreases": 3349,
      "omaton": 3350,
      "Ġsprockets": 3351,
      "ĠLotus": 3352,
      "ĠViashino": 3353,
      "ĠOctopus": 3354,
      "reerunning": 3355,
      "Ġsickness": 3356,
      "ĠThallid": 3357,
      "Add": 3358,
      "Bo": 3359,
      "Cascade": 3360,
      "Dra": 3361,
      "Hidden": 3362,
      "Living": 3363,
      "Rep": 3364,
      "Roll": 3365,
      "eak": 3366,
      "io": 3367,
      "ipp": 3368,
      "ju": 3369,
      "nel": 3370,
      "ti": 3371,
      "uit": 3372,
      "witch": 3373,
      "Ġkey": 3374,
      "tex": 3375,
      "teen": 3376,
      "attered": 3377,
      "ering": 3378,
      "aced": 3379,
      "Ġdistribute": 3380,
      "Ġphenomenon": 3381,
      "leader": 3382,
      "orger": 3383,
      "Ġweapon": 3384,
      "Ġemerge": 3385,
      "iler": 3386,
      "ama": 3387,
      "Ġunlock": 3388,
      "ĠTro": 3389,
      "ĠTake": 3390,
      "ĠCe": 3391,
      "ĠCry": 3392,
      "ĠCavern": 3393,
      "ĠEver": 3394,
      "ĠEmber": 3395,
      "ĠDep": 3396,
      "ĠDiv": 3397,
      "ĠPan": 3398,
      "ĠPet": 3399,
      "ĠPest": 3400,
      "ĠPass": 3401,
      "Ġitself": 3402,
      "ĠRub": 3403,
      "ĠRoot": 3404,
      "ĠFlash": 3405,
      "ĠFract": 3406,
      "ĠFriend": 3407,
      "ĠMo": 3408,
      "ĠMap": 3409,
      "ĠMet": 3410,
      "mane": 3411,
      "Ġlandcycling": 3412,
      "ĠBen": 3413,
      "ĠBow": 3414,
      "ĠBru": 3415,
      "ĠBone": 3416,
      "ĠBody": 3417,
      "Ġbegins": 3418,
      "ĠGal": 3419,
      "ĠGol": 3420,
      "ĠGru": 3421,
      "ĠRealm": 3422,
      "ĠWing": 3423,
      "ĠWaste": 3424,
      "ĠWander": 3425,
      "Ġdoom": 3426,
      "ivan": 3427,
      "antuk": 3428,
      "walker": 3429,
      "olon": 3430,
      "ĠUmbra": 3431,
      "Ġlonger": 3432,
      "ulus": 3433,
      "ĠThru": 3434,
      "Targeting": 3435,
      "ĠNet": 3436,
      "ĠNantuk": 3437,
      "ĠStrike": 3438,
      "ĠScare": 3439,
      "ĠZone": 3440,
      "ounty": 3441,
      "ectacle": 3442,
      "ĠBlue": 3443,
      "ĠBlitz": 3444,
      "izer": 3445,
      "ĠJace": 3446,
      "odon": 3447,
      "ĠElect": 3448,
      "arkhan": 3449,
      "ĠOrder": 3450,
      "olves": 3451,
      "ĠSerra": 3452,
      "ĠCoven": 3453,
      "egade": 3454,
      "ansion": 3455,
      "Spree": 3456,
      "Strive": 3457,
      "ĠRecru": 3458,
      "ĠGreat": 3459,
      "gress": 3460,
      "issa": 3461,
      "ĠSilent": 3462,
      "ĠSteam": 3463,
      "ĠCorp": 3464,
      "ĠGrand": 3465,
      "ĠCursed": 3466,
      "brand": 3467,
      "naut": 3468,
      "weaver": 3469,
      "ĠDwarven": 3470,
      "ĠPriest": 3471,
      "trace": 3472,
      "Flanking": 3473,
      "ĠAutomaton": 3474,
      "upport": 3475,
      "goyf": 3476,
      "Ġincludes": 3477,
      "ĠBeetle": 3478,
      "ĠRavager": 3479,
      "sych": 3480,
      "ephalid": 3481,
      "ĠBronze": 3482,
      "ĠEidolon": 3483,
      "ĠNantuko": 3484,
      "Aura": 3485,
      "Back": 3486,
      "Mult": 3487,
      "Suspend": 3488,
      "bel": 3489,
      "cast": 3490,
      "crow": 3491,
      "fang": 3492,
      "hort": 3493,
      "iok": 3494,
      "jeld": 3495,
      "lo": 3496,
      "lin": 3497,
      "min": 3498,
      "net": 3499,
      "ojin": 3500,
      "rion": 3501,
      "sis": 3502,
      "tch": 3503,
      "tide": 3504,
      "ulet": 3505,
      "uzz": 3506,
      "Ġrol": 3507,
      "ats": 3508,
      "err": 3509,
      "anup": 3510,
      "anishing": 3511,
      "itt": 3512,
      "ged": 3513,
      "aces": 3514,
      "Ġpopulate": 3515,
      "Ġoff": 3516,
      "stin": 3517,
      "Ġsoul": 3518,
      "Ġescap": 3519,
      "Ġhim": 3520,
      "Ġhere": 3521,
      "ĠSat": 3522,
      "ĠShe": 3523,
      "ament": 3524,
      "amant": 3525,
      "icator": 3526,
      "aser": 3527,
      "asual": 3528,
      "utter": 3529,
      "ĠTar": 3530,
      "ĠTur": 3531,
      "ĠTop": 3532,
      "ĠTote": 3533,
      "Ġplays": 3534,
      "ĠCy": 3535,
      "ĠComb": 3536,
      "ĠCond": 3537,
      "ĠCab": 3538,
      "ĠEmer": 3539,
      "ĠDar": 3540,
      "ĠPath": 3541,
      "Ġasse": 3542,
      "kenrath": 3543,
      "ĠRot": 3544,
      "owar": 3545,
      "ĠFes": 3546,
      "ĠFound": 3547,
      "ĠMite": 3548,
      "ĠMetalcraft": 3549,
      "mancer": 3550,
      "omination": 3551,
      "ĠBel": 3552,
      "igon": 3553,
      "ĠReplic": 3554,
      "riving": 3555,
      "ĠWay": 3556,
      "ĠWave": 3557,
      "ĠHal": 3558,
      "ĠHand": 3559,
      "ĠHollow": 3560,
      "iment": 3561,
      "imir": 3562,
      "ĠLizard": 3563,
      "ĠLands": 3564,
      "ĠLich": 3565,
      "earing": 3566,
      "ĠKher": 3567,
      "ĠKjeld": 3568,
      "illa": 3569,
      "ĠInc": 3570,
      "ĠInd": 3571,
      "ĠInv": 3572,
      "iana": 3573,
      "Ġsearches": 3574,
      "plasm": 3575,
      "ĠJust": 3576,
      "ĠAttacking": 3577,
      "ĠSkir": 3578,
      "ĠSkycl": 3579,
      "feri": 3580,
      "ĠSlime": 3581,
      "Ġpoint": 3582,
      "ĠExalted": 3583,
      "ĠAlt": 3584,
      "ĠCoal": 3585,
      "ĠAngelic": 3586,
      "ĠTeferi": 3587,
      "Intimidate": 3588,
      "ĠWizards": 3589,
      "idnight": 3590,
      "Prototype": 3591,
      "Ġdivinity": 3592,
      "ĠMarau": 3593,
      "Ġresolved": 3594,
      "lection": 3595,
      "ĠArcher": 3596,
      "ĠWeaver": 3597,
      "cended": 3598,
      "ĠHunt": 3599,
      "ĠUrborg": 3600,
      "ocolored": 3601,
      "ĠCrack": 3602,
      "ĠSurge": 3603,
      "Exalted": 3604,
      "ĠCrown": 3605,
      "Ġencounter": 3606,
      "ĠCharger": 3607,
      "ĠAppar": 3608,
      "ĠBrood": 3609,
      "Ġunattached": 3610,
      "ĠFalkenrath": 3611,
      "ĠSanctum": 3612,
      "ĠSanctuary": 3613,
      "Delirium": 3614,
      "ĠAugur": 3615,
      "ĠPilot": 3616,
      "Ġexpansion": 3617,
      "ĠTerr": 3618,
      "Ġarmor": 3619,
      "Ġdescended": 3620,
      "ĠVoid": 3621,
      "Ġprowl": 3622,
      "Ġprowess": 3623,
      "ĠBasil": 3624,
      "ĠRobot": 3625,
      "otten": 3626,
      "Ġcleanup": 3627,
      "lanowar": 3628,
      "ĠCollector": 3629,
      "ĠWarlocks": 3630,
      "ĠRenegade": 3631,
      "ĠLesson": 3632,
      "erocious": 3633,
      "Ġsummoning": 3634,
      "ĠPegasus": 3635,
      "ĠTransmute": 3636,
      "Dragon": 3637,
      "Ġkeyword": 3638,
      "ĠThrull": 3639,
      "ĠScarecrow": 3640,
      "asualty": 3641,
      "ĠTotem": 3642,
      "ĠMarauder": 3643,
      "12": 3644,
      "On": 3645,
      "Off": 3646,
      "Red": 3647,
      "bler": 3648,
      "can": 3649,
      "cing": 3650,
      "gan": 3651,
      "ior": 3652,
      "ject": 3653,
      "list": 3654,
      "mos": 3655,
      "rith": 3656,
      "rush": 3657,
      "ses": 3658,
      "vin": 3659,
      "âģ": 3660,
      "Ġkeep": 3661,
      "Ġimp": 3662,
      "Ġcycling": 3663,
      "reck": 3664,
      "test": 3665,
      "ining": 3666,
      "anos": 3667,
      "fted": 3668,
      "acing": 3669,
      "sto": 3670,
      "start": 3671,
      "Ġbid": 3672,
      "Ġme": 3673,
      "ortal": 3674,
      "Ġwater": 3675,
      "urnace": 3676,
      "rate": 3677,
      "els": 3678,
      "Ġhost": 3679,
      "ilig": 3680,
      "ĠSen": 3681,
      "ĠSar": 3682,
      "ĠSol": 3683,
      "ica": 3684,
      "edition": 3685,
      "ĠTy": 3686,
      "ĠTactic": 3687,
      "verge": 3688,
      "ĠCoun": 3689,
      "ĠCephalid": 3690,
      "ĠEbon": 3691,
      "ĠDire": 3692,
      "thy": 3693,
      "ĠPain": 3694,
      "ibute": 3695,
      "iled": 3696,
      "ĠMes": 3697,
      "ĠMidnight": 3698,
      "ady": 3699,
      "ĠBri": 3700,
      "ĠBind": 3701,
      "head": 3702,
      "ĠRev": 3703,
      "ĠHan": 3704,
      "ĠHost": 3705,
      "Ġvo": 3706,
      "imaya": 3707,
      "ĠLlanowar": 3708,
      "olute": 3709,
      "ĠVit": 3710,
      "ĠVill": 3711,
      "ĠVerm": 3712,
      "ĠVision": 3713,
      "ĠKob": 3714,
      "ourn": 3715,
      "Enchanted": 3716,
      "ully": 3717,
      "ĠThree": 3718,
      "ruption": 3719,
      "Remove": 3720,
      "bling": 3721,
      "ĠSting": 3722,
      "ĠInk": 3723,
      "ĠShel": 3724,
      "ĠShroud": 3725,
      "ĠShivan": 3726,
      "vention": 3727,
      "ĠRoom": 3728,
      "avimaya": 3729,
      "ĠSwitch": 3730,
      "ĠSoldiers": 3731,
      "clave": 3732,
      "ĠOrb": 3733,
      "Ġmonocolored": 3734,
      "astery": 3735,
      "ĠTemple": 3736,
      "ortion": 3737,
      "ĠSoulshift": 3738,
      "ĠAsse": 3739,
      "ĠGates": 3740,
      "ĠMiracle": 3741,
      "ĠBoar": 3742,
      "ĠGrem": 3743,
      "ĠHeroic": 3744,
      "ĠInfect": 3745,
      "assins": 3746,
      "ikicker": 3747,
      "ĠCarn": 3748,
      "Expl": 3749,
      "hino": 3750,
      "zzet": 3751,
      "ĠApprent": 3752,
      "ĠSavage": 3753,
      "glass": 3754,
      "ĠCavalry": 3755,
      "ĠHelm": 3756,
      "Assist": 3757,
      "Assassins": 3758,
      "ĠVoracious": 3759,
      "ĠPrimal": 3760,
      "ĠPrimord": 3761,
      "Bloodthirst": 3762,
      "Magecraft": 3763,
      "ĠCrypt": 3764,
      "ĠPhantasmal": 3765,
      "sworn": 3766,
      "Ġchapter": 3767,
      "ĠLiliana": 3768,
      "ĠRidge": 3769,
      "ĠStandard": 3770,
      "ĠAttendant": 3771,
      "Repl": 3772,
      "ĠFractal": 3773,
      "Backup": 3774,
      "Multikicker": 3775,
      "ĠKjeldoran": 3776,
      "ĠSkyclave": 3777,
      "âģĦ": 3778,
      "ĠKobold": 3779,
      "ĠApprentice": 3780,
      "!\"": 3781,
      "Ey": 3782,
      "Green": 3783,
      "aaz": 3784,
      "bands": 3785,
      "con": 3786,
      "cod": 3787,
      "cord": 3788,
      "ete": 3789,
      "ered": 3790,
      "faced": 3791,
      "grim": 3792,
      "iary": 3793,
      "ipper": 3794,
      "ka": 3795,
      "maw": 3796,
      "mory": 3797,
      "ris": 3798,
      "tain": 3799,
      "year": 3800,
      "ythe": 3801,
      "Ì¶": 3802,
      "Ġtakes": 3803,
      "Ġcor": 3804,
      "attacking": 3805,
      "Ġdra": 3806,
      "Ġpage": 3807,
      "Ġprin": 3808,
      "stial": 3809,
      "leash": 3810,
      "alia": 3811,
      "Ġmastery": 3812,
      "Ġuse": 3813,
      "iling": 3814,
      "ĠSlash": 3815,
      "ĠSab": 3816,
      "ĠSolved": 3817,
      "ĠSarkhan": 3818,
      "amond": 3819,
      "Ġnine": 3820,
      "ĠTin": 3821,
      "ĠTox": 3822,
      "ĠTiger": 3823,
      "vers": 3824,
      "ĠIg": 3825,
      "ĠIzzet": 3826,
      "Ġcouncil": 3827,
      "ĠCos": 3828,
      "ĠCrow": 3829,
      "ĠCase": 3830,
      "ĠCirc": 3831,
      "ĠEr": 3832,
      "ĠEmb": 3833,
      "ĠDred": 3834,
      "ĠPsych": 3835,
      "ĠRhino": 3836,
      "ĠFan": 3837,
      "ĠFarm": 3838,
      "ĠFurnace": 3839,
      "ĠMart": 3840,
      "mant": 3841,
      "ĠBut": 3842,
      "ĠBane": 3843,
      "ĠBolas": 3844,
      "ĠGear": 3845,
      "ĠRein": 3846,
      "ĠReaver": 3847,
      "ĠHexproof": 3848,
      "ĠHaven": 3849,
      "ĠHawk": 3850,
      "ĠLic": 3851,
      "ĠLast": 3852,
      "ĠLock": 3853,
      "ĠLear": 3854,
      "ĠLancer": 3855,
      "Ġstays": 3856,
      "ĠOt": 3857,
      "ĠVir": 3858,
      "ĠVine": 3859,
      "ĠVenture": 3860,
      "ession": 3861,
      "ĠSpy": 3862,
      "ĠSpin": 3863,
      "ĠSpring": 3864,
      "ĠDefender": 3865,
      "Ġexper": 3866,
      "asher": 3867,
      "ĠKh": 3868,
      "Dev": 3869,
      "ulpt": 3870,
      "ĠActivated": 3871,
      "ĠNissa": 3872,
      "aga": 3873,
      "agon": 3874,
      "ĠChron": 3875,
      "Ġtotals": 3876,
      "metery": 3877,
      "ĠJour": 3878,
      "aving": 3879,
      "ĠTreasures": 3880,
      "ĠClass": 3881,
      "ĠLeech": 3882,
      "ĠLeonin": 3883,
      "gernaut": 3884,
      "ĠCons": 3885,
      "Another": 3886,
      "abr": 3887,
      "ĠExhaust": 3888,
      "ĠYavimaya": 3889,
      "ignore": 3890,
      "renz": 3891,
      "ĠTrick": 3892,
      "ĠBoros": 3893,
      "fluence": 3894,
      "ĠBrig": 3895,
      "Ġreduce": 3896,
      "Ġreduces": 3897,
      "ĠAbomination": 3898,
      "That": 3899,
      "ĠCross": 3900,
      "ĠCrocod": 3901,
      "ĠRunner": 3902,
      "ĠAmass": 3903,
      "ĠAmulet": 3904,
      "Ġ'\"": 3905,
      "ĠGnome": 3906,
      "Scry": 3907,
      "ĠDrone": 3908,
      "Ġletters": 3909,
      "Ġsuspect": 3910,
      "ĠPilgrim": 3911,
      "ĠMarshal": 3912,
      "ĠFallen": 3913,
      "ĠPatrol": 3914,
      "Ġskips": 3915,
      "augh": 3916,
      "ĠRelic": 3917,
      "ĠPlaneswal": 3918,
      "ĠRetri": 3919,
      "ĠBorder": 3920,
      "ĠInfernal": 3921,
      "white": 3922,
      "ĠIdol": 3923,
      "ĠEncore": 3924,
      "ĠChimera": 3925,
      "ĠVengeful": 3926,
      "ĠModular": 3927,
      "ĠCemetery": 3928,
      "ĠSatyr": 3929,
      "Ġkeeps": 3930,
      "ĠVermin": 3931,
      "Replicate": 3932,
      "Ġprinted": 3933,
      "ĠToxic": 3934,
      "Ġexperience": 3935,
      "Battle": 3936,
      "Des": 3937,
      "El": 3938,
      "Metalcraft": 3939,
      "Mountainwalk": 3940,
      "Take": 3941,
      "Tribe": 3942,
      "Treat": 3943,
      "Wither": 3944,
      "aar": 3945,
      "bane": 3946,
      "do": 3947,
      "dig": 3948,
      "game": 3949,
      "gari": 3950,
      "iance": 3951,
      "ks": 3952,
      "li": 3953,
      "mist": 3954,
      "maker": 3955,
      "ple": 3956,
      "post": 3957,
      "rone": 3958,
      "solved": 3959,
      "ton": 3960,
      "umb": 3961,
      "yal": 3962,
      "Ã»": 3963,
      "Ġignore": 3964,
      "ena": 3965,
      "ening": 3966,
      "ened": 3967,
      "Ġagend": 3968,
      "Ġthir": 3969,
      "ata": 3970,
      "atter": 3971,
      "atho": 3972,
      "oner": 3973,
      "Ġpost": 3974,
      "stal": 3975,
      "static": 3976,
      "lee": 3977,
      "Ġsl": 3978,
      "Ġfate": 3979,
      "alt": 3980,
      "alist": 3981,
      "Ġmatch": 3982,
      "Ġyours": 3983,
      "rab": 3984,
      "raith": 3985,
      "ely": 3986,
      "enth": 3987,
      "Ġunsolved": 3988,
      "icorn": 3989,
      "icket": 3990,
      "ĠAuro": 3991,
      "asa": 3992,
      "chor": 3993,
      "chaser": 3994,
      "ĠIm": 3995,
      "ĠCip": 3996,
      "ĠCust": 3997,
      "Ġrepl": 3998,
      "Ġrecord": 3999,
      "ĠDen": 4000,
      "ĠDry": 4001,
      "ĠPoss": 4002,
      "ĠRaid": 4003,
      "changel": 4004,
      "quisit": 4005,
      "eldon": 4006,
      "ĠFace": 4007,
      "ĠMove": 4008,
      "ĠRetrace": 4009,
      "umbering": 4010,
      "ldron": 4011,
      "ept": 4012,
      "ĠHour": 4013,
      "ĠLong": 4014,
      "ĠLim": 4015,
      "Ġnonattacking": 4016,
      "antry": 4017,
      "ĠOw": 4018,
      "ĠOran": 4019,
      "olith": 4020,
      "ĠVerd": 4021,
      "ĠSpara": 4022,
      "ĠDece": 4023,
      "Ġexalted": 4024,
      "ashi": 4025,
      "ĠKal": 4026,
      "Enrage": 4027,
      "steel": 4028,
      "ĠUnde": 4029,
      "ĠUniver": 4030,
      "unk": 4031,
      "ĠInt": 4032,
      "ĠShin": 4033,
      "ĠChrom": 4034,
      "ĠChange": 4035,
      "ĠGoad": 4036,
      "ĠScar": 4037,
      "ĠScale": 4038,
      "ĠArchangel": 4039,
      "ector": 4040,
      "ĠAnce": 4041,
      "hasing": 4042,
      "plite": 4043,
      "ĠRoc": 4044,
      "ĠJo": 4045,
      "ĠSkanos": 4046,
      "eret": 4047,
      "ĠFlow": 4048,
      "ĠFlood": 4049,
      "ĠSlayer": 4050,
      "Under": 4051,
      "Ġentering": 4052,
      "ĠArmor": 4053,
      "ĠProp": 4054,
      "razed": 4055,
      "ĠFirebrand": 4056,
      "Converge": 4057,
      "ĠWhelp": 4058,
      "Ġsays": 4059,
      "ĠHeir": 4060,
      "Ġresults": 4061,
      "ension": 4062,
      "ĠBirds": 4063,
      "Ġforever": 4064,
      "ĠTrail": 4065,
      "ĠWeird": 4066,
      "ĠWeapon": 4067,
      "ĠGreater": 4068,
      "ĠHarp": 4069,
      "periment": 4070,
      "ĠCarrion": 4071,
      "flame": 4072,
      "elee": 4073,
      "Activated": 4074,
      "auldron": 4075,
      "ĠRuin": 4076,
      "ĠUnderc": 4077,
      "ney": 4078,
      "ĠEvil": 4079,
      "force": 4080,
      "Ġsymbols": 4081,
      "ĠTrial": 4082,
      "ĠHoplite": 4083,
      "Ġseparates": 4084,
      "ĠRevelers": 4085,
      "Ġincluding": 4086,
      "aught": 4087,
      "ĠExplos": 4088,
      "ĠExpedition": 4089,
      "ĠHedge": 4090,
      "ĠBarbarian": 4091,
      "ĠIsle": 4092,
      "ĠScholar": 4093,
      "ĠDiamond": 4094,
      "ĠMasticore": 4095,
      "ĠLava": 4096,
      "ĠMutant": 4097,
      "ĠJuggernaut": 4098,
      "runner": 4099,
      "ĠBodyguard": 4100,
      "Ġrolled": 4101,
      "Ġescapes": 4102,
      "ĠFestering": 4103,
      "ĠFoundry": 4104,
      "ĠBinding": 4105,
      "ĠLearn": 4106,
      "Devour": 4107,
      "ĠCrocodile": 4108,
      "Ġagenda": 4109,
      "ĠCipher": 4110,
      "13": 4111,
      "Casualty": 4112,
      "Fire": 4113,
      "Go": 4114,
      "He": 4115,
      "Mor": 4116,
      "Mag": 4117,
      "Te": 4118,
      "cap": 4119,
      "cted": 4120,
      "cav": 4121,
      "culus": 4122,
      "forcer": 4123,
      "gar": 4124,
      "gul": 4125,
      "gorger": 4126,
      "hall": 4127,
      "hide": 4128,
      "jani": 4129,
      "lit": 4130,
      "oz": 4131,
      "silver": 4132,
      "tag": 4133,
      "uge": 4134,
      "uke": 4135,
      "ya": 4136,
      "Ġice": 4137,
      "tes": 4138,
      "outh": 4139,
      "ourer": 4140,
      "Ġyear": 4141,
      "ures": 4142,
      "ona": 4143,
      "itting": 4144,
      "ardu": 4145,
      "ardan": 4146,
      "Ġdisc": 4147,
      "iser": 4148,
      "Ġfe": 4149,
      "ural": 4150,
      "orous": 4151,
      "orius": 4152,
      "rav": 4153,
      "elve": 4154,
      "vester": 4155,
      "Ġgo": 4156,
      "Ġhaving": 4157,
      "ĠSurve": 4158,
      "ĠSummon": 4159,
      "aming": 4160,
      "amber": 4161,
      "ĠAjani": 4162,
      "Ġplot": 4163,
      "ĠTaj": 4164,
      "ching": 4165,
      "Ġplaytest": 4166,
      "ates": 4167,
      "ĠCamp": 4168,
      "ĠCunning": 4169,
      "ĠCauldron": 4170,
      "ĠDri": 4171,
      "mbles": 4172,
      "throne": 4173,
      "ĠPra": 4174,
      "ĠPup": 4175,
      "ĠRh": 4176,
      "ĠRip": 4177,
      "Ġ15": 4178,
      "fiend": 4179,
      "ĠFungus": 4180,
      "ĠFerocious": 4181,
      "ĠFilig": 4182,
      "ctive": 4183,
      "ĠMach": 4184,
      "ĠMare": 4185,
      "ĠMult": 4186,
      "ĠMass": 4187,
      "ĠMardu": 4188,
      "ada": 4189,
      "ĠBell": 4190,
      "ĠBoon": 4191,
      "ĠBrain": 4192,
      "igator": 4193,
      "ĠGard": 4194,
      "ongue": 4195,
      "ĠWinter": 4196,
      "ĠHon": 4197,
      "ĠHang": 4198,
      "Ġvow": 4199,
      "derm": 4200,
      "ima": 4201,
      "kers": 4202,
      "ffl": 4203,
      "idable": 4204,
      "ĠOil": 4205,
      "ĠOld": 4206,
      "ĠVigil": 4207,
      "ĠViz": 4208,
      "ĠVod": 4209,
      "ĠVial": 4210,
      "ĠEnforcer": 4211,
      "ĠSpecial": 4212,
      "ĠSprite": 4213,
      "ĠDefi": 4214,
      "Demon": 4215,
      "ĠUnicorn": 4216,
      "unter": 4217,
      "unculus": 4218,
      "ĠThriving": 4219,
      "ruk": 4220,
      "ĠNim": 4221,
      "ĠStinger": 4222,
      "ĠIniti": 4223,
      "ĠInquisit": 4224,
      "ĠCharge": 4225,
      "ĠGoat": 4226,
      "ĠScythe": 4227,
      "ĠSculpt": 4228,
      "ĠZh": 4229,
      "oney": 4230,
      "crets": 4231,
      "ĠWarlord": 4232,
      "ĠJes": 4233,
      "ĠJew": 4234,
      "ĠJump": 4235,
      "avel": 4236,
      "Ġlooks": 4237,
      "ĠForeb": 4238,
      "ĠLevi": 4239,
      "speaker": 4240,
      "ĠConclave": 4241,
      "ĠConfluence": 4242,
      "scale": 4243,
      "ĠOracle": 4244,
      "ĠSeal": 4245,
      "ĠSeeker": 4246,
      "ĠExperiment": 4247,
      "ĠProte": 4248,
      "ĠAlien": 4249,
      "ĠGlint": 4250,
      "ĠGlimmer": 4251,
      "ĠAdvers": 4252,
      "Instant": 4253,
      "ĠSpellbomb": 4254,
      "ĠWhip": 4255,
      "ĠDesp": 4256,
      "ĠSkysh": 4257,
      "ĠKeep": 4258,
      "ĠBoom": 4259,
      "ĠBarrage": 4260,
      "ĠOutlaw": 4261,
      "ĠHarvester": 4262,
      "ĠHeroes": 4263,
      "Black": 4264,
      "beast": 4265,
      "Ġproduces": 4266,
      "ĠParad": 4267,
      "ĠDuplic": 4268,
      "ĠRune": 4269,
      "Ġcrewed": 4270,
      "ĠWorlds": 4271,
      "ĠPride": 4272,
      "ĠMorbid": 4273,
      "White": 4274,
      "ĠNecrop": 4275,
      "ĠBogardan": 4276,
      "ĠCelestial": 4277,
      "Ġcloak": 4278,
      "ĠDevils": 4279,
      "ĠNoble": 4280,
      "Ġcomplete": 4281,
      "ĠRanger": 4282,
      "ĠHammer": 4283,
      "ĠPeace": 4284,
      "ĠInferno": 4285,
      "ĠWhisper": 4286,
      "ĠStrong": 4287,
      "Sunburst": 4288,
      "ĠRazor": 4289,
      "ĠWanderer": 4290,
      "Ġstudy": 4291,
      "ĠDuelist": 4292,
      "Ġapply": 4293,
      "tched": 4294,
      "ĠJustice": 4295,
      "Offspring": 4296,
      "ĠGremlin": 4297,
      "Exploit": 4298,
      "Ġdrafted": 4299,
      "ĠMartyr": 4300,
      "abricate": 4301,
      "ĠTrickster": 4302,
      "Ġreplacing": 4303,
      "ĠFlowstone": 4304,
      "Morbid": 4305,
      "ĠFiligree": 4306,
      "ĠLeviath": 4307,
      "ĠAdversary": 4308,
      "!)": 4309,
      "11": 4310,
      "Bat": 4311,
      "Cycling": 4312,
      "Draft": 4313,
      "Ev": 4314,
      "Emerge": 4315,
      "Gotcha": 4316,
      "Rief": 4317,
      "Sur": 4318,
      "Tree": 4319,
      "Vanishing": 4320,
      "Zomb": 4321,
      "cle": 4322,
      "cor": 4323,
      "dicate": 4324,
      "far": 4325,
      "ga": 4326,
      "goth": 4327,
      "gotten": 4328,
      "ham": 4329,
      "ited": 4330,
      "ko": 4331,
      "ked": 4332,
      "oa": 4333,
      "pe": 4334,
      "ray": 4335,
      "right": 4336,
      "rison": 4337,
      "watch": 4338,
      "enn": 4339,
      "energy": 4340,
      "Ġodd": 4341,
      "inth": 4342,
      "anar": 4343,
      "angel": 4344,
      "onder": 4345,
      "ardic": 4346,
      "acc": 4347,
      "roach": 4348,
      "ross": 4349,
      "stall": 4350,
      "Ġbox": 4351,
      "Ġbolster": 4352,
      "Ġsqu": 4353,
      "Ġsome": 4354,
      "Ġfreerunning": 4355,
      "Ġfully": 4356,
      "Ġmyriad": 4357,
      "uri": 4358,
      "Ġlist": 4359,
      "ormant": 4360,
      "Ġwor": 4361,
      "rag": 4362,
      "rax": 4363,
      "andal": 4364,
      "ĠSig": 4365,
      "ĠSmo": 4366,
      "ĠSimic": 4367,
      "amb": 4368,
      "amog": 4369,
      "icious": 4370,
      "ĠAerial": 4371,
      "ĠTom": 4372,
      "ĠTid": 4373,
      "Ġwither": 4374,
      "chief": 4375,
      "Ġends": 4376,
      "ĠCart": 4377,
      "ĠCath": 4378,
      "ĠEdge": 4379,
      "ĠDomin": 4380,
      "ĠDimir": 4381,
      "this": 4382,
      "thes": 4383,
      "irl": 4384,
      "ĠPill": 4385,
      "ĠPred": 4386,
      "ĠParty": 4387,
      "ĠPrime": 4388,
      "Ġask": 4389,
      "iber": 4390,
      "ĠRain": 4391,
      "ĠRow": 4392,
      "dder": 4393,
      "ĠFree": 4394,
      "ĠFeral": 4395,
      "ĠMat": 4396,
      "ĠMis": 4397,
      "ĠMad": 4398,
      "ĠMire": 4399,
      "ĠMort": 4400,
      "ĠMang": 4401,
      "ĠMoss": 4402,
      "ĠMaze": 4403,
      "aded": 4404,
      "heel": 4405,
      "igan": 4406,
      "ĠRecl": 4407,
      "ĠReward": 4408,
      "ĠWit": 4409,
      "ĠWolver": 4410,
      "ĠHier": 4411,
      "ĠHalf": 4412,
      "ĠHob": 4413,
      "mpage": 4414,
      "ĠLoyal": 4415,
      "ĠLox": 4416,
      "ĠOper": 4417,
      "usader": 4418,
      "ĠSpect": 4419,
      "ĠDem": 4420,
      "und": 4421,
      "unnel": 4422,
      "ĠNy": 4423,
      "ĠStat": 4424,
      "agger": 4425,
      "ĠInstant": 4426,
      "ĠShell": 4427,
      "Ġsee": 4428,
      "ĠArb": 4429,
      "gence": 4430,
      "aret": 4431,
      "ĠRoyal": 4432,
      "ĠJack": 4433,
      "sher": 4434,
      "ainswalk": 4435,
      "ounding": 4436,
      "spire": 4437,
      "atherlight": 4438,
      "ĠBeacon": 4439,
      "Ġflavor": 4440,
      "ĠSlith": 4441,
      "ĠMounts": 4442,
      "scri": 4443,
      "azer": 4444,
      "ĠProdig": 4445,
      "razzan": 4446,
      "ĠGloom": 4447,
      "ĠGlittering": 4448,
      "ĠAdamant": 4449,
      "ĠAdept": 4450,
      "ĠSquire": 4451,
      "ĠTeam": 4452,
      "ĠDoll": 4453,
      "egis": 4454,
      "Play": 4455,
      "ĠSouls": 4456,
      "Spirit": 4457,
      "rinker": 4458,
      "ĠAssault": 4459,
      "ĠClerics": 4460,
      "auntless": 4461,
      "ĠArchae": 4462,
      "ĠMirran": 4463,
      "ĠTravel": 4464,
      "ĠWeatherlight": 4465,
      "ĠResolute": 4466,
      "ĠOnly": 4467,
      "ĠHellbent": 4468,
      "ĠOutrider": 4469,
      "ĠOutlast": 4470,
      "ĠHarvest": 4471,
      "Ġteammate": 4472,
      "ĠSquirrels": 4473,
      "ĠInfantry": 4474,
      "ĠGem": 4475,
      "ĠFrodo": 4476,
      "ĠBattlemage": 4477,
      "ĠGarruk": 4478,
      "ĠDevourer": 4479,
      "ĠLegacy": 4480,
      "Ġsaddles": 4481,
      "ĠDiscord": 4482,
      "Threshold": 4483,
      "ĠBreath": 4484,
      "ĠUnderworld": 4485,
      "Ġcolored": 4486,
      "ĠTwo": 4487,
      "ĠEvangel": 4488,
      "ĠVolat": 4489,
      "ĠPermanents": 4490,
      "ĠGrasp": 4491,
      "vival": 4492,
      "Ġinclude": 4493,
      "Ġrampage": 4494,
      "aea": 4495,
      "ĠTempest": 4496,
      "ĠReflection": 4497,
      "umph": 4498,
      "ĠGeneral": 4499,
      "ĠLandscape": 4500,
      "ĠOmen": 4501,
      "ĠOminous": 4502,
      "ĠVoice": 4503,
      "ĠVortex": 4504,
      "ĠSalv": 4505,
      "ĠHaunt": 4506,
      "ĠComple": 4507,
      "ĠCompanion": 4508,
      "ĠRaiders": 4509,
      "ĠSurvivor": 4510,
      "ĠRadiant": 4511,
      "ĠAdventurer": 4512,
      "ĠStomp": 4513,
      "ĠUlamog": 4514,
      "ĠAspir": 4515,
      "ique": 4516,
      "Ġjust": 4517,
      "ĠLurking": 4518,
      "ĠCelebrant": 4519,
      "Ġbrack": 4520,
      "Ġunspent": 4521,
      "ĠCannon": 4522,
      "ĠLocus": 4523,
      "ĠInspector": 4524,
      "ologist": 4525,
      "ĠDepth": 4526,
      "ĠBrute": 4527,
      "ĠGolgari": 4528,
      "ĠWastes": 4529,
      "ĠRecruiter": 4530,
      "ĠApparition": 4531,
      "Ġwatermark": 4532,
      "ĠVillage": 4533,
      "ĠDredge": 4534,
      "ĠReinforce": 4535,
      "ĠLicid": 4536,
      "ĠRetriever": 4537,
      "athom": 4538,
      "Ġdiscover": 4539,
      "ĠGarden": 4540,
      "fflict": 4541,
      "ĠInitiate": 4542,
      "ĠLoxodon": 4543,
      "ĠOperative": 4544,
      "14": 4545,
      "Cle": 4546,
      "Fading": 4547,
      "Gu": 4548,
      "Kor": 4549,
      "Lands": 4550,
      "Man": 4551,
      "Mentor": 4552,
      "Myriad": 4553,
      "Out": 4554,
      "Par": 4555,
      "Radi": 4556,
      "Riot": 4557,
      "Surveil": 4558,
      "bow": 4559,
      "ball": 4560,
      "cension": 4561,
      "dog": 4562,
      "ee": 4563,
      "ey": 4564,
      "eur": 4565,
      "fist": 4566,
      "foot": 4567,
      "gle": 4568,
      "gir": 4569,
      "got": 4570,
      "hunter": 4571,
      "iator": 4572,
      "ja": 4573,
      "life": 4574,
      "mn": 4575,
      "mind": 4576,
      "oly": 4577,
      "rise": 4578,
      "rict": 4579,
      "uch": 4580,
      "wart": 4581,
      "ying": 4582,
      "Ã©": 4583,
      "enchant": 4584,
      "encer": 4585,
      "enag": 4586,
      "reign": 4587,
      "eron": 4588,
      "erous": 4589,
      "enda": 4590,
      "ured": 4591,
      "itual": 4592,
      "gest": 4593,
      "stless": 4594,
      "Ġbidd": 4595,
      "aying": 4596,
      "Ġside": 4597,
      "Ġswitch": 4598,
      "Ġsupport": 4599,
      "Ġfuse": 4600,
      "Ġfoe": 4601,
      "ifier": 4602,
      "alken": 4603,
      "alian": 4604,
      "Ġmark": 4605,
      "Ġmountainwalk": 4606,
      "Ġcontin": 4607,
      "Ġegg": 4608,
      "rad": 4609,
      "Ġhow": 4610,
      "ĠSu": 4611,
      "ĠSim": 4612,
      "ĠSub": 4613,
      "ĠSnow": 4614,
      "ĠSelf": 4615,
      "ĠSupp": 4616,
      "entless": 4617,
      "ices": 4618,
      "ĠAx": 4619,
      "ĠAstral": 4620,
      "edalken": 4621,
      "ĠTen": 4622,
      "ĠTet": 4623,
      "ĠTunnel": 4624,
      "Ġdetain": 4625,
      "ppe": 4626,
      "ĠIchor": 4627,
      "ĠCa": 4628,
      "ĠClash": 4629,
      "ĠCog": 4630,
      "ĠEp": 4631,
      "ĠEater": 4632,
      "ĠEruption": 4633,
      "ĠDir": 4634,
      "ĠDaring": 4635,
      "told": 4636,
      "iral": 4637,
      "irth": 4638,
      "ĠPun": 4639,
      "ĠPupp": 4640,
      "ĠPiper": 4641,
      "ĠPuzz": 4642,
      "ĠPortal": 4643,
      "ĠPardic": 4644,
      "Ġblood": 4645,
      "ĠRal": 4646,
      "ĠRig": 4647,
      "ĠRite": 4648,
      "ĠRenown": 4649,
      "ĠRitual": 4650,
      "hood": 4651,
      "owest": 4652,
      "ssence": 4653,
      "orer": 4654,
      "ĠFer": 4655,
      "ĠFet": 4656,
      "ĠFavor": 4657,
      "ĠMong": 4658,
      "ĠMight": 4659,
      "ĠMark": 4660,
      "ĠMimic": 4661,
      "ions": 4662,
      "ador": 4663,
      "ades": 4664,
      "ĠBoo": 4665,
      "ĠBot": 4666,
      "ĠBob": 4667,
      "ĠBlessing": 4668,
      "ĠGam": 4669,
      "ĠGift": 4670,
      "ĠRegent": 4671,
      "ĠReef": 4672,
      "riad": 4673,
      "ĠWish": 4674,
      "ĠWither": 4675,
      "ĠWrath": 4676,
      "ĠWraith": 4677,
      "eping": 4678,
      "ĠHyp": 4679,
      "ĠHaz": 4680,
      "ĠLine": 4681,
      "ĠLab": 4682,
      "ĠLux": 4683,
      "oop": 4684,
      "Ġneither": 4685,
      "ments": 4686,
      "otic": 4687,
      "ĠOj": 4688,
      "ĠOak": 4689,
      "wald": 4690,
      "olation": 4691,
      "ĠVile": 4692,
      "ĠVind": 4693,
      "ĠViper": 4694,
      "uster": 4695,
      "ĠEnergy": 4696,
      "ĠUgin": 4697,
      "iteful": 4698,
      "ĠKa": 4699,
      "ĠKen": 4700,
      "ĠKin": 4701,
      "ĠKeldon": 4702,
      "Ġrun": 4703,
      "ulse": 4704,
      "ista": 4705,
      "ĠNur": 4706,
      "ĠNull": 4707,
      "Restless": 4708,
      "ĠStatic": 4709,
      "ĠStrix": 4710,
      "ĠStaff": 4711,
      "ĠInn": 4712,
      "ĠShark": 4713,
      "ĠShattered": 4714,
      "ĠAscension": 4715,
      "ĠChain": 4716,
      "ĠChangeling": 4717,
      "ĠArson": 4718,
      "ĠZuber": 4719,
      "ized": 4720,
      "pha": 4721,
      "pherd": 4722,
      "Ġsearched": 4723,
      "voc": 4724,
      "ĠSwe": 4725,
      "seeker": 4726,
      "ostor": 4727,
      "ĠVeiled": 4728,
      "sphere": 4729,
      "spired": 4730,
      "awning": 4731,
      "ogis": 4732,
      "Ġconvoke": 4733,
      "guine": 4734,
      "ĠSeed": 4735,
      "ĠSecrets": 4736,
      "ĠPhyrexians": 4737,
      "ĠExcav": 4738,
      "ĠSerum": 4739,
      "yrune": 4740,
      "ĠGust": 4741,
      "ĠGlade": 4742,
      "ĠGlass": 4743,
      "ĠCove": 4744,
      "ĠFires": 4745,
      "ĠAdj": 4746,
      "ĠMonkey": 4747,
      "Inspired": 4748,
      "former": 4749,
      "udge": 4750,
      "igned": 4751,
      "Spike": 4752,
      "ilded": 4753,
      "ĠFair": 4754,
      "ĠSnarl": 4755,
      "ractor": 4756,
      "ĠDescend": 4757,
      "ĠMagma": 4758,
      "ĠTrigon": 4759,
      "ĠArchon": 4760,
      "ĠArchive": 4761,
      "ĠArchers": 4762,
      "ĠChampionship": 4763,
      "ĠImpostor": 4764,
      "Change": 4765,
      "ĠKey": 4766,
      "ĠKeyrune": 4767,
      "ĠManifest": 4768,
      "Shuffle": 4769,
      "ails": 4770,
      "ailing": 4771,
      "ĠSteed": 4772,
      "ĠWorker": 4773,
      "ĠCrusher": 4774,
      "ĠCrusader": 4775,
      "ĠDevour": 4776,
      "ĠShadows": 4777,
      "ĠMyojin": 4778,
      "ĠMyriad": 4779,
      "ĠSanguine": 4780,
      "ĠBattery": 4781,
      "Exchange": 4782,
      "ĠOverlord": 4783,
      "ĠBreaker": 4784,
      "ĠRuins": 4785,
      "ĠContraptions": 4786,
      "Ġfollowed": 4787,
      "ĠVolrath": 4788,
      "ĠVolley": 4789,
      "ĠVolcan": 4790,
      "ĠQuar": 4791,
      "ĠAcoly": 4792,
      "Flame": 4793,
      "ĠBrother": 4794,
      "ĠEndless": 4795,
      "raining": 4796,
      "ĠBaloth": 4797,
      "ska": 4798,
      "ĠSavior": 4799,
      "ĠRefuge": 4800,
      "ĠHeli": 4801,
      "ĠHoard": 4802,
      "ĠTerror": 4803,
      "Ġseparately": 4804,
      "Ġclaim": 4805,
      "ĠOmn": 4806,
      "graf": 4807,
      "ĠPoison": 4808,
      "ĠDross": 4809,
      "ĠDrown": 4810,
      "ĠRiders": 4811,
      "ĠWatcher": 4812,
      "Ġrule": 4813,
      "Ġguesses": 4814,
      "ĠBarbed": 4815,
      "vanic": 4816,
      "ĠSleeper": 4817,
      "ĠCruel": 4818,
      "ĠEternalize": 4819,
      "ĠBandit": 4820,
      "ĠStalking": 4821,
      "ĠIntervention": 4822,
      "Skulk": 4823,
      "Ġtouching": 4824,
      "ĠMasked": 4825,
      "board": 4826,
      "crusher": 4827,
      "catian": 4828,
      "Ġfriends": 4829,
      "ĠBrass": 4830,
      "Banding": 4831,
      "Kinship": 4832,
      "ĠFaithful": 4833,
      "ĠHomunculus": 4834,
      "Ġsubgame": 4835,
      "ĠDistrict": 4836,
      "belt": 4837,
      "ĠShepherd": 4838,
      "ĠCombine": 4839,
      "Ġassembles": 4840,
      "ĠCoalition": 4841,
      "ĠBasilisk": 4842,
      "ĠSengir": 4843,
      "ĠPrimordial": 4844,
      "Eyed": 4845,
      "ĠSlasher": 4846,
      "ĠPsychic": 4847,
      "ĠButcher": 4848,
      "ĠOtter": 4849,
      "aughter": 4850,
      "ĠCustod": 4851,
      "ĠDryad": 4852,
      "ĠOwl": 4853,
      "ĠDeceiver": 4854,
      "ĠUndead": 4855,
      "Goblin": 4856,
      "ĠRiptide": 4857,
      "ĠVizier": 4858,
      "ĠVodalian": 4859,
      "ĠStronghold": 4860,
      "Battalion": 4861,
      "Ġsquare": 4862,
      "ĠTidal": 4863,
      "ĠHalfling": 4864,
      "ĠSpectral": 4865,
      "ĠStatue": 4866,
      "ĠVolatile": 4867,
      "Ġbrackets": 4868,
      "enagos": 4869,
      "ĠZubera": 4870,
      "ĠAcolyte": 4871,
      "Al": 4872,
      "Cl": 4873,
      "Cor": 4874,
      "Clan": 4875,
      "Disguise": 4876,
      "Effect": 4877,
      "Eye": 4878,
      "Hell": 4879,
      "My": 4880,
      "Mill": 4881,
      "Ph": 4882,
      "Per": 4883,
      "Prow": 4884,
      "Squ": 4885,
      "Tr": 4886,
      "Ur": 4887,
      "Ve": 4888,
      "apper": 4889,
      "bird": 4890,
      "binger": 4891,
      "bridge": 4892,
      "da": 4893,
      "den": 4894,
      "fly": 4895,
      "gal": 4896,
      "gth": 4897,
      "gart": 4898,
      "gry": 4899,
      "gling": 4900,
      "hn": 4901,
      "hulk": 4902,
      "ifte": 4903,
      "ios": 4904,
      "igin": 4905,
      "imber": 4906,
      "jara": 4907,
      "night": 4908,
      "oin": 4909,
      "ole": 4910,
      "pter": 4911,
      "pact": 4912,
      "pers": 4913,
      "panion": 4914,
      "sor": 4915,
      "spl": 4916,
      "vy": 4917,
      "var": 4918,
      "well": 4919,
      "wurm": 4920,
      "wreck": 4921,
      "Ġtax": 4922,
      "rest": 4923,
      "Ġac": 4924,
      "Ġaff": 4925,
      "Ġahead": 4926,
      "Ġactive": 4927,
      "arr": 4928,
      "eror": 4929,
      "eries": 4930,
      "inx": 4931,
      "inator": 4932,
      "antern": 4933,
      "ancy": 4934,
      "onic": 4935,
      "iton": 4936,
      "itude": 4937,
      "geist": 4938,
      "aco": 4939,
      "acer": 4940,
      "Ġdist": 4941,
      "Ġdire": 4942,
      "roan": 4943,
      "Ġpri": 4944,
      "Ġpie": 4945,
      "isen": 4946,
      "isman": 4947,
      "isted": 4948,
      "Ġoffer": 4949,
      "star": 4950,
      "strate": 4951,
      "Ġante": 4952,
      "Ġbu": 4953,
      "Ġself": 4954,
      "Ġsilver": 4955,
      "Ġfifte": 4956,
      "alg": 4957,
      "als": 4958,
      "alak": 4959,
      "ursed": 4960,
      "Ġluck": 4961,
      "Ġlowest": 4962,
      "ings": 4963,
      "Ġcontains": 4964,
      "Ġemp": 4965,
      "veil": 4966,
      "Ġgrowth": 4967,
      "ilim": 4968,
      "ĠSy": 4969,
      "ĠSir": 4970,
      "ĠSong": 4971,
      "ĠSands": 4972,
      "ĠSove": 4973,
      "ĠSaf": 4974,
      "ĠSlinger": 4975,
      "Ġorigin": 4976,
      "amander": 4977,
      "ĠAg": 4978,
      "ĠAgon": 4979,
      "ĠAegis": 4980,
      "Ġinter": 4981,
      "edd": 4982,
      "ĠTomb": 4983,
      "ĠTroo": 4984,
      "ĠTide": 4985,
      "ĠTang": 4986,
      "Ġspectacle": 4987,
      "ĠIsh": 4988,
      "ĠCer": 4989,
      "ĠCam": 4990,
      "ĠCage": 4991,
      "Ġresp": 4992,
      "ĠEc": 4993,
      "ĠEsc": 4994,
      "ĠEerie": 4995,
      "ĠDay": 4996,
      "ĠDrom": 4997,
      "ĠDart": 4998,
      "ĠDown": 4999,
      "ĠDistribute": 5000,
      "ĠDauntless": 5001,
      "ainous": 5002,
      "thal": 5003,
      "ĠPin": 5004,
      "ĠPrank": 5005,
      "Ġforage": 5006,
      "ĠRho": 5007,
      "ĠRust": 5008,
      "ĠFang": 5009,
      "ctly": 5010,
      "ĠMid": 5011,
      "ĠMak": 5012,
      "ĠMish": 5013,
      "ĠMox": 5014,
      "ĠMiss": 5015,
      "ĠMogis": 5016,
      "adel": 5017,
      "ĠBu": 5018,
      "ĠBould": 5019,
      "ĠBraz": 5020,
      "ĠBounty": 5021,
      "igaaz": 5022,
      "ĠGore": 5023,
      "ĠGue": 5024,
      "ĠGaea": 5025,
      "ĠGilded": 5026,
      "lorless": 5027,
      "ĠWil": 5028,
      "ĠWell": 5029,
      "ĠHu": 5030,
      "ĠHerm": 5031,
      "ĠHerd": 5032,
      "ivator": 5033,
      "ĠLaw": 5034,
      "ĠLob": 5035,
      "ĠLyn": 5036,
      "Ġnonwhite": 5037,
      "ility": 5038,
      "ids": 5039,
      "ides": 5040,
      "ĠCreeper": 5041,
      "ĠOd": 5042,
      "ĠOl": 5043,
      "olving": 5044,
      "olution": 5045,
      "ĠVess": 5046,
      "ĠVolt": 5047,
      "ĠVedalken": 5048,
      "usan": 5049,
      "ĠEnlight": 5050,
      "ĠUk": 5051,
      "ĠSpore": 5052,
      "ĠSpiteful": 5053,
      "ĠDestin": 5054,
      "ĠKill": 5055,
      "ĠKiller": 5056,
      "Enlist": 5057,
      "ĠThous": 5058,
      "Ġinstance": 5059,
      "Ġchoices": 5060,
      "rum": 5061,
      "ette": 5062,
      "ĠNiv": 5063,
      "ĠNex": 5064,
      "ĠNeg": 5065,
      "ĠNeed": 5066,
      "ĠNeph": 5067,
      "Read": 5068,
      "blue": 5069,
      "blazer": 5070,
      "ĠStrom": 5071,
      "ĠStag": 5072,
      "ĠIngen": 5073,
      "ĠInfinite": 5074,
      "ĠShri": 5075,
      "Ġfourth": 5076,
      "ĠCha": 5077,
      "ĠChill": 5078,
      "ĠChamber": 5079,
      "ĠScream": 5080,
      "ĠZeph": 5081,
      "ouche": 5082,
      "Ġactivates": 5083,
      "plusan": 5084,
      "ĠRod": 5085,
      "ĠForgotten": 5086,
      "ĠJar": 5087,
      "shell": 5088,
      "adeye": 5089,
      "Ġtribute": 5090,
      "ĠLeader": 5091,
      "ĠSkipped": 5092,
      "ished": 5093,
      "ĠElk": 5094,
      "rane": 5095,
      "Ġflood": 5096,
      "ĠSlug": 5097,
      "ĠConspire": 5098,
      "ĠConscri": 5099,
      "Ġdecks": 5100,
      "azing": 5101,
      "Alliance": 5102,
      "ĠProcess": 5103,
      "ĠProgress": 5104,
      "ĠAlche": 5105,
      "Ġcouldn": 5106,
      "uggler": 5107,
      "ĠGlam": 5108,
      "ĠCoast": 5109,
      "ĠCohort": 5110,
      "ĠMonitor": 5111,
      "ĠTech": 5112,
      "Ġdifferently": 5113,
      "udicator": 5114,
      "ighter": 5115,
      "ĠMarket": 5116,
      "finder": 5117,
      "Ġzones": 5118,
      "ĠDeser": 5119,
      "ĠMagm": 5120,
      "ĠTrue": 5121,
      "ĠSaprazzan": 5122,
      "ĠImperial": 5123,
      "ĠWeb": 5124,
      "cendiary": 5125,
      "Ġhead": 5126,
      "ĠHarbinger": 5127,
      "ĠDinosaurs": 5128,
      "ika": 5129,
      "ĠMech": 5130,
      "ĠMemory": 5131,
      "ĠGround": 5132,
      "ylvan": 5133,
      "ĠBats": 5134,
      "ĠDiscover": 5135,
      "ĠBlademaster": 5136,
      "web": 5137,
      "weir": 5138,
      "ĠDuo": 5139,
      "Legendary": 5140,
      "ĠTorment": 5141,
      "ĠWildfire": 5142,
      "ĠPrize": 5143,
      "Companion": 5144,
      "ĠCaller": 5145,
      "ahn": 5146,
      "ĠDreadhor": 5147,
      "ĠValley": 5148,
      "Ġintensify": 5149,
      "ĠDracon": 5150,
      "ĠTriumph": 5151,
      "ĠObsc": 5152,
      "ĠSmuggler": 5153,
      "ĠTalisman": 5154,
      "ĠBoggart": 5155,
      "ĠAkroan": 5156,
      "ĠGorilla": 5157,
      "ĠHaunted": 5158,
      "ĠRelentless": 5159,
      "ĠRadha": 5160,
      "ĠThrone": 5161,
      "Ġguessed": 5162,
      "ĠAnimate": 5163,
      "Ġcleave": 5164,
      "ĠFortress": 5165,
      "rasher": 5166,
      "Ġchapters": 5167,
      "ĠStalwart": 5168,
      "coil": 5169,
      "ĠCultist": 5170,
      "ĠCultivator": 5171,
      "ĠSquadron": 5172,
      "shot": 5173,
      "ĠRepeat": 5174,
      "ĠNimble": 5175,
      "ĠSeason": 5176,
      "ĠFarmer": 5177,
      "ĠHowling": 5178,
      "ĠQuicksilver": 5179,
      "Ġhaunts": 5180,
      "Ġhaunting": 5181,
      "Boast": 5182,
      "ĠMetamorph": 5183,
      "ĠGruul": 5184,
      "ĠWandering": 5185,
      "ĠCorpse": 5186,
      "ittjara": 5187,
      "ĠTurtle": 5188,
      "ĠCabal": 5189,
      "ĠDarigaaz": 5190,
      "ĠReplica": 5191,
      "ĠTyran": 5192,
      "ĠTactician": 5193,
      "ĠCouncil": 5194,
      "ĠHanweir": 5195,
      "ĠAssemb": 5196,
      "ĠJourney": 5197,
      "Ġthirteen": 5198,
      "ĠVerdant": 5199,
      "Undergrowth": 5200,
      "ĠProphe": 5201,
      "Survival": 5202,
      "ĠSigard": 5203,
      "ĠCartouche": 5204,
      "ĠWolverine": 5205,
      "ĠHiero": 5206,
      "ĠProdigy": 5207,
      "ĠAspirant": 5208,
      "Cleave": 5209,
      "Radiance": 5210,
      "ĠPuzzle": 5211,
      "ĠAdjudicator": 5212,
      "ĠHeliod": 5213,
      "Effects": 5214,
      "Ġaffected": 5215,
      "Ġprize": 5216,
      "Ġfifteen": 5217,
      "Ġempty": 5218,
      "ĠSiren": 5219,
      "ĠSovereign": 5220,
      "ĠEscort": 5221,
      "ĠMishra": 5222,
      "ĠGuest": 5223,
      "ĠHermit": 5224,
      "ĠLynx": 5225,
      "ĠThousand": 5226,
      "ĠNexus": 5227,
      "ĠNephilim": 5228,
      "ĠZephyr": 5229,
      "ĠDreadhorde": 5230,
      "00": 5231,
      "Hide": 5232,
      "Lit": 5233,
      "Light": 5234,
      "Mon": 5235,
      "Pri": 5236,
      "Ramp": 5237,
      "Rally": 5238,
      "Ske": 5239,
      "Skip": 5240,
      "Training": 5241,
      "War": 5242,
      "ca": 5243,
      "cu": 5244,
      "crazed": 5245,
      "dri": 5246,
      "em": 5247,
      "eter": 5248,
      "eth": 5249,
      "hy": 5250,
      "men": 5251,
      "mfar": 5252,
      "ov": 5253,
      "oose": 5254,
      "pion": 5255,
      "rant": 5256,
      "ration": 5257,
      "wen": 5258,
      "wright": 5259,
      "yo": 5260,
      "yor": 5261,
      "yes": 5262,
      "Â®": 5263,
      "Ã¡": 5264,
      "Ġil": 5265,
      "enu": 5266,
      "tess": 5267,
      "oum": 5268,
      "atters": 5269,
      "endum": 5270,
      "inner": 5271,
      "Ġcred": 5272,
      "itu": 5273,
      "roat": 5274,
      "rostatic": 5275,
      "Ġpe": 5276,
      "Ġph": 5277,
      "Ġpos": 5278,
      "Ġportion": 5279,
      "Ġannihilator": 5280,
      "leon": 5281,
      "lected": 5282,
      "Ġbounty": 5283,
      "Ġfull": 5284,
      "Ġfaces": 5285,
      "alish": 5286,
      "Ġmake": 5287,
      "Ġmelee": 5288,
      "urb": 5289,
      "uru": 5290,
      "orus": 5291,
      "Ġevent": 5292,
      "ram": 5293,
      "rafter": 5294,
      "raska": 5295,
      "Ġhat": 5296,
      "ils": 5297,
      "ilight": 5298,
      "ilence": 5299,
      "ĠSin": 5300,
      "ĠSusp": 5301,
      "ents": 5302,
      "ention": 5303,
      "Ġcome": 5304,
      "tersp": 5305,
      "icol": 5306,
      "ĠAmber": 5307,
      "ĠAmp": 5308,
      "ĠAerie": 5309,
      "ĠAber": 5310,
      "Ġplague": 5311,
      "Ġnor": 5312,
      "Ġnow": 5313,
      "ĠTim": 5314,
      "ĠToo": 5315,
      "ĠTest": 5316,
      "ĠTable": 5317,
      "ĠTome": 5318,
      "Ġdeath": 5319,
      "ĠIcatian": 5320,
      "Ġcount": 5321,
      "ĠCut": 5322,
      "ĠCow": 5323,
      "ĠCold": 5324,
      "ĠCop": 5325,
      "ĠCub": 5326,
      "ĠCrim": 5327,
      "ĠEz": 5328,
      "ĠEth": 5329,
      "ĠEssence": 5330,
      "ĠDan": 5331,
      "ĠDrif": 5332,
      "ĠDun": 5333,
      "ĠDale": 5334,
      "ĠDungeon": 5335,
      "ĠDagger": 5336,
      "mbling": 5337,
      "ĠPent": 5338,
      "ĠPir": 5339,
      "ĠPig": 5340,
      "ĠPhere": 5341,
      "ĠPrin": 5342,
      "ibbon": 5343,
      "ilek": 5344,
      "ilemm": 5345,
      "ĠRay": 5346,
      "ĠRift": 5347,
      "Ġ12": 5348,
      "cker": 5349,
      "ĠFont": 5350,
      "ĠFug": 5351,
      "ĠFyl": 5352,
      "ĠFrenz": 5353,
      "ctic": 5354,
      "ĠMi": 5355,
      "ĠMur": 5356,
      "ĠMulticolored": 5357,
      "ĠMogg": 5358,
      "Ġtwelve": 5359,
      "adian": 5360,
      "ĠBad": 5361,
      "ĠBet": 5362,
      "ĠBushido": 5363,
      "ĠBellow": 5364,
      "ĠBio": 5365,
      "ĠGer": 5366,
      "ĠGit": 5367,
      "ĠGrin": 5368,
      "ĠGinger": 5369,
      "ĠReven": 5370,
      "ĠReaper": 5371,
      "ria": 5372,
      "ĠWre": 5373,
      "ĠWal": 5374,
      "ĠWord": 5375,
      "ĠWolves": 5376,
      "ĠAddendum": 5377,
      "ĠHa": 5378,
      "ĠHat": 5379,
      "ĠHulk": 5380,
      "Ġabove": 5381,
      "ivid": 5382,
      "imil": 5383,
      "ĠLar": 5384,
      "ĠLaz": 5385,
      "ĠLake": 5386,
      "ĠLittjara": 5387,
      "ffin": 5388,
      "Ġothers": 5389,
      "ĠAtl": 5390,
      "ipede": 5391,
      "ĠOpen": 5392,
      "olent": 5393,
      "ĠVast": 5394,
      "ĠVant": 5395,
      "ĠVass": 5396,
      "ĠVale": 5397,
      "ĠVandal": 5398,
      "ĠVraska": 5399,
      "ĠSpr": 5400,
      "ĠDef": 5401,
      "ĠDeadeye": 5402,
      "ĠKrov": 5403,
      "ĠKoz": 5404,
      "mod": 5405,
      "moen": 5406,
      "moon": 5407,
      "ĠUnleash": 5408,
      "ĠThrow": 5409,
      "ĠThicket": 5410,
      "ĠThalak": 5411,
      "ĠTheir": 5412,
      "eti": 5413,
      "etic": 5414,
      "deal": 5415,
      "ĠNar": 5416,
      "ĠNether": 5417,
      "Regenerate": 5418,
      "blast": 5419,
      "ĠStri": 5420,
      "ĠStang": 5421,
      "ĠStreet": 5422,
      "ryn": 5423,
      "ĠInvent": 5424,
      "ĠInspir": 5425,
      "ĠIngest": 5426,
      "ĠIncendiary": 5427,
      "ĠShre": 5428,
      "ĠShar": 5429,
      "ĠShrin": 5430,
      "ĠAsk": 5431,
      "ĠChosen": 5432,
      "ĠChittering": 5433,
      "ĠScra": 5434,
      "ĠScroll": 5435,
      "alli": 5436,
      "alls": 5437,
      "allax": 5438,
      "ĠBlight": 5439,
      "ĠBloss": 5440,
      "ĠBlister": 5441,
      "ĠAnnihilator": 5442,
      "ously": 5443,
      "ume": 5444,
      "uming": 5445,
      "cream": 5446,
      "ĠWarp": 5447,
      "Ġknow": 5448,
      "ĠRoar": 5449,
      "ĠJaya": 5450,
      "ava": 5451,
      "avus": 5452,
      "avolver": 5453,
      "ademy": 5454,
      "ĠForerunner": 5455,
      "ĠPhel": 5456,
      "ixir": 5457,
      "ĠClan": 5458,
      "ĠClay": 5459,
      "ĠClown": 5460,
      "ĠCliff": 5461,
      "ĠVein": 5462,
      "ĠAuriok": 5463,
      "ators": 5464,
      "ĠSkyc": 5465,
      "ĠSkitter": 5466,
      "ople": 5467,
      "ĠBearer": 5468,
      "cloak": 5469,
      "ĠSlag": 5470,
      "ĠSlaughter": 5471,
      "ecution": 5472,
      "ĠConqu": 5473,
      "Ġmono": 5474,
      "ĠMerchant": 5475,
      "ubble": 5476,
      "ĠExecution": 5477,
      "ĠArms": 5478,
      "Ġflips": 5479,
      "avenge": 5480,
      "ielder": 5481,
      "ĠGlac": 5482,
      "ĠCobra": 5483,
      "ĠYu": 5484,
      "ĠYoun": 5485,
      "ĠYeti": 5486,
      "ĠBeastmaster": 5487,
      "rength": 5488,
      "Spectacle": 5489,
      "ĠSnare": 5490,
      "ĠAllies": 5491,
      "ĠMagus": 5492,
      "ĠHorse": 5493,
      "oxious": 5494,
      "uper": 5495,
      "Ġkinds": 5496,
      "Ġembalm": 5497,
      "ĠTrib": 5498,
      "ĠArchmage": 5499,
      "osaurus": 5500,
      "ĠImpet": 5501,
      "Ġwordy": 5502,
      "ĠBoiler": 5503,
      "Ġheight": 5504,
      "Ġstickers": 5505,
      "ascon": 5506,
      "ĠReborn": 5507,
      "ĠInfl": 5508,
      "ĠMinion": 5509,
      "ikan": 5510,
      "ĠCoral": 5511,
      "ĠColony": 5512,
      "ĠGarg": 5513,
      "ĠGarrison": 5514,
      "ĠGris": 5515,
      "ĠAttractions": 5516,
      "ĠShambler": 5517,
      "ĠLegolas": 5518,
      "ĠParallax": 5519,
      "ĠPalace": 5520,
      "ĠBattalion": 5521,
      "ĠCrater": 5522,
      "ĠIncubate": 5523,
      "Leads": 5524,
      "auler": 5525,
      "ĠWildwood": 5526,
      "ĠAmalg": 5527,
      "ĠTitania": 5528,
      "ĠDwarves": 5529,
      "ĠTwilight": 5530,
      "Ġfinish": 5531,
      "ĠCalam": 5532,
      "ĠValiant": 5533,
      "ĠDarksteel": 5534,
      "ĠFalcon": 5535,
      "ĠJungle": 5536,
      "ĠTempor": 5537,
      "ĠNecro": 5538,
      "ĠMistform": 5539,
      "ĠAncients": 5540,
      "ĠSkullbomb": 5541,
      "knot": 5542,
      "Ġactivation": 5543,
      "ĠAkki": 5544,
      "ĠLiege": 5545,
      "Ġmoves": 5546,
      "ĠArtif": 5547,
      "ĠArtist": 5548,
      "ĠKarplusan": 5549,
      "ĠSalamander": 5550,
      "ĠGorger": 5551,
      "ĠRank": 5552,
      "ĠWinds": 5553,
      "ĠHamster": 5554,
      "ĠRobber": 5555,
      "ĠExplorer": 5556,
      "ĠAmbush": 5557,
      "ĠAmbusher": 5558,
      "ĠCryptic": 5559,
      "ĠAwakener": 5560,
      "ĠQuesting": 5561,
      "____": 5562,
      "ĠHedron": 5563,
      "ĠBalloon": 5564,
      "Ġtouches": 5565,
      "ĠAzorius": 5566,
      "walla": 5567,
      "ĠSpires": 5568,
      "ĠChimeric": 5569,
      "ĠShipwreck": 5570,
      "ĠRootw": 5571,
      "Ġstudent": 5572,
      "Ġbrick": 5573,
      "ĠSawtooth": 5574,
      "Ġunspecializes": 5575,
      "ĠRampaging": 5576,
      "until": 5577,
      "untie": 5578,
      "ĠInspired": 5579,
      "ĠScorpion": 5580,
      "ĠAges": 5581,
      "ĠDecree": 5582,
      "ĠResearcher": 5583,
      "ĠRubble": 5584,
      "ĠCyber": 5585,
      "ĠIncarn": 5586,
      "ĠAltar": 5587,
      "ĠCrackling": 5588,
      "Onna": 5589,
      "ĠMesa": 5590,
      "ĠBriar": 5591,
      "ĠVisionary": 5592,
      "ĠSaber": 5593,
      "ĠLocket": 5594,
      "ĠKhans": 5595,
      "Desert": 5596,
      "Ã»l": 5597,
      "Ġpostcombat": 5598,
      "ĠHourglass": 5599,
      "ĠKaldra": 5600,
      "ĠUniverse": 5601,
      "ĠAncestral": 5602,
      "ĠUndercity": 5603,
      "ĠMachine": 5604,
      "ĠHonor": 5605,
      "Ġvowels": 5606,
      "ĠVigilan": 5607,
      "ĠSpecialist": 5608,
      "ĠDefiance": 5609,
      "ĠInquisitor": 5610,
      "ĠExperimental": 5611,
      "ĠNecropolis": 5612,
      "ĠLeviathan": 5613,
      "Evolve": 5614,
      "ĠRowan": 5615,
      "ĠWitness": 5616,
      "aretti": 5617,
      "ĠCompleated": 5618,
      "ĠDepths": 5619,
      "Manifest": 5620,
      "Ġsideboard": 5621,
      "ĠSelfless": 5622,
      "ĠCogwork": 5623,
      "ĠArsonist": 5624,
      "Permanents": 5625,
      "Prowl": 5626,
      "ĠSylex": 5627,
      "Ġoriginally": 5628,
      "edding": 5629,
      "ĠBrazen": 5630,
      "ĠVessel": 5631,
      "ĠAlchemist": 5632,
      "ĠGlamorous": 5633,
      "ĠDraconic": 5634,
      "ĠObscura": 5635,
      "ĠAdjudicators": 5636,
      "ĠPheres": 5637,
      "ilemma": 5638,
      "ĠVassal": 5639,
      "ĠKrovikan": 5640,
      "ĠKozilek": 5641,
      "ĠThalakos": 5642,
      "ĠStangg": 5643,
      "ĠShrines": 5644,
      "ĠBlossom": 5645,
      "ĠExecutioner": 5646,
      "ĠAmalgam": 5647,
      "99": 5648,
      "Am": 5649,
      "Ampl": 5650,
      "Afflict": 5651,
      "Crop": 5652,
      "Esc": 5653,
      "Freerunning": 5654,
      "Gh": 5655,
      "Giant": 5656,
      "Mer": 5657,
      "Min": 5658,
      "Mizz": 5659,
      "One": 5660,
      "Pit": 5661,
      "Ring": 5662,
      "Ste": 5663,
      "Surge": 5664,
      "Tor": 5665,
      "aab": 5666,
      "bri": 5667,
      "bear": 5668,
      "binder": 5669,
      "cutter": 5670,
      "dancer": 5671,
      "eled": 5672,
      "empl": 5673,
      "fish": 5674,
      "gold": 5675,
      "gja": 5676,
      "hur": 5677,
      "hound": 5678,
      "iac": 5679,
      "imb": 5680,
      "lain": 5681,
      "nus": 5682,
      "of": 5683,
      "oh": 5684,
      "och": 5685,
      "ps": 5686,
      "pyre": 5687,
      "rac": 5688,
      "ront": 5689,
      "rong": 5690,
      "ser": 5691,
      "sine": 5692,
      "shas": 5693,
      "some": 5694,
      "saken": 5695,
      "ta": 5696,
      "tar": 5697,
      "tail": 5698,
      "titan": 5699,
      "tender": 5700,
      "ument": 5701,
      "vil": 5702,
      "volt": 5703,
      "vict": 5704,
      "wain": 5705,
      "zho": 5706,
      "Ġ]": 5707,
      "Ļ¦": 5708,
      "Ġtri": 5709,
      "Ġtable": 5710,
      "Ġtactic": 5711,
      "Ġtourn": 5712,
      "Ġcur": 5713,
      "enor": 5714,
      "enith": 5715,
      "rey": 5716,
      "oured": 5717,
      "atural": 5718,
      "ank": 5719,
      "onom": 5720,
      "itte": 5721,
      "acter": 5722,
      "rob": 5723,
      "rove": 5724,
      "root": 5725,
      "isan": 5726,
      "lea": 5727,
      "legend": 5728,
      "Ġbook": 5729,
      "Ġscream": 5730,
      "Ġfast": 5731,
      "Ġfungus": 5732,
      "iful": 5733,
      "ala": 5734,
      "alate": 5735,
      "Ġmag": 5736,
      "Ġmult": 5737,
      "Ġmakes": 5738,
      "urial": 5739,
      "Ġwhe": 5740,
      "Ġwears": 5741,
      "Ġused": 5742,
      "ravel": 5743,
      "rabra": 5744,
      "eler": 5745,
      "ved": 5746,
      "vered": 5747,
      "Ġgames": 5748,
      "Ġhit": 5749,
      "ested": 5750,
      "ĠSac": 5751,
      "ĠSay": 5752,
      "ĠSel": 5753,
      "ĠSak": 5754,
      "ĠSec": 5755,
      "ĠSatch": 5756,
      "ĠSens": 5757,
      "ĠSymb": 5758,
      "ĠSifter": 5759,
      "ĠSylvan": 5760,
      "Ġcom": 5761,
      "Ġunearth": 5762,
      "Ġunique": 5763,
      "ĠAre": 5764,
      "ĠAce": 5765,
      "ĠArag": 5766,
      "ĠAuntie": 5767,
      "asis": 5768,
      "Ġnorm": 5769,
      "utai": 5770,
      "ĠTib": 5771,
      "ĠTool": 5772,
      "ĠTask": 5773,
      "ĠTenth": 5774,
      "verted": 5775,
      "lyph": 5776,
      "ĠIr": 5777,
      "ĠImple": 5778,
      "roma": 5779,
      "ĠCand": 5780,
      "osh": 5781,
      "osk": 5782,
      "ĠEre": 5783,
      "ĠEvery": 5784,
      "ĠDam": 5785,
      "ĠDut": 5786,
      "ĠDrop": 5787,
      "ĠDrinker": 5788,
      "thp": 5789,
      "tower": 5790,
      "ĠPand": 5791,
      "ĠPol": 5792,
      "ĠPine": 5793,
      "ĠPumm": 5794,
      "ĠPool": 5795,
      "ĠPolis": 5796,
      "ĠPhasing": 5797,
      "ĠâĻ¦": 5798,
      "ĠRap": 5799,
      "ĠRive": 5800,
      "ĠRager": 5801,
      "ddy": 5802,
      "actor": 5803,
      "Ġ\"[": 5804,
      "ssure": 5805,
      "ocking": 5806,
      "ĠFen": 5807,
      "ĠFin": 5808,
      "ĠFur": 5809,
      "ĠFut": 5810,
      "ĠFly": 5811,
      "ĠFbl": 5812,
      "ĠFathom": 5813,
      "ĠMay": 5814,
      "ĠMam": 5815,
      "ĠMilit": 5816,
      "ĠMother": 5817,
      "ĠMold": 5818,
      "ĠMarch": 5819,
      "ĠMaver": 5820,
      "ĠMouse": 5821,
      "omer": 5822,
      "omad": 5823,
      "adium": 5824,
      "ĠBook": 5825,
      "ĠBag": 5826,
      "ĠBond": 5827,
      "ĠBold": 5828,
      "ĠBrim": 5829,
      "heads": 5830,
      "igma": 5831,
      "ĠXenagos": 5832,
      "ĠGame": 5833,
      "ĠGry": 5834,
      "ĠGang": 5835,
      "ĠGale": 5836,
      "ĠGotcha": 5837,
      "Ġdrawing": 5838,
      "ĠReality": 5839,
      "Ġnumbers": 5840,
      "ĠWith": 5841,
      "ĠWedding": 5842,
      "ldering": 5843,
      "ĠHis": 5844,
      "ĠHur": 5845,
      "ĠHold": 5846,
      "ĠHacker": 5847,
      "mpting": 5848,
      "dera": 5849,
      "ivore": 5850,
      "ĠLin": 5851,
      "ĠLit": 5852,
      "ĠLet": 5853,
      "ĠLuk": 5854,
      "ĠLiber": 5855,
      "ĠLantern": 5856,
      "idar": 5857,
      "idian": 5858,
      "ĠOpp": 5859,
      "ĠObl": 5860,
      "ĠVult": 5861,
      "ĠVict": 5862,
      "usted": 5863,
      "usive": 5864,
      "ĠEnigma": 5865,
      "ĠUse": 5866,
      "ĠUrabra": 5867,
      "ĠSpine": 5868,
      "ĠSpeaker": 5869,
      "lands": 5870,
      "ĠKu": 5871,
      "ĠKind": 5872,
      "ĠKaz": 5873,
      "ĠKyr": 5874,
      "ĠKarn": 5875,
      "moire": 5876,
      "Ġchangeling": 5877,
      "ĠUny": 5878,
      "unct": 5879,
      "ulking": 5880,
      "illainous": 5881,
      "dered": 5882,
      "ĠNav": 5883,
      "ĠNorn": 5884,
      "ĠNaz": 5885,
      "ĠNaut": 5886,
      "ĠNicol": 5887,
      "ĠNoxious": 5888,
      "ĠStage": 5889,
      "ĠStory": 5890,
      "ĠStones": 5891,
      "ĠStadium": 5892,
      "ĠAshen": 5893,
      "Ġsealed": 5894,
      "ledgling": 5895,
      "ĠChant": 5896,
      "ĠChains": 5897,
      "ĠChief": 5898,
      "ĠChasm": 5899,
      "ĠScut": 5900,
      "ĠArgent": 5901,
      "bleheads": 5902,
      "ĠDraft": 5903,
      "ĠBlaze": 5904,
      "ĠBloom": 5905,
      "ĠBlazing": 5906,
      "umgar": 5907,
      "ĠDragonfire": 5908,
      "ickly": 5909,
      "Ġkn": 5910,
      "ĠJet": 5911,
      "ĠJinx": 5912,
      "ĠJascon": 5913,
      "ultane": 5914,
      "ĠForecast": 5915,
      "oding": 5916,
      "ĠClone": 5917,
      "ĠCloak": 5918,
      "ĠLegendary": 5919,
      "aku": 5920,
      "ĠSkip": 5921,
      "ĠSkittering": 5922,
      "ĠSkaab": 5923,
      "yresis": 5924,
      "ĠFlailing": 5925,
      "ĠElenda": 5926,
      "sper": 5927,
      "ĠBehold": 5928,
      "claim": 5929,
      "ĠIslandcycling": 5930,
      "ĠBloodthirst": 5931,
      "ĠSeven": 5932,
      "ĠSetess": 5933,
      "abi": 5934,
      "aza": 5935,
      "ĠExuber": 5936,
      "ĠExempl": 5937,
      "ĠArmored": 5938,
      "ĠProf": 5939,
      "ĠAlley": 5940,
      "ĠAlpha": 5941,
      "ĠGuerr": 5942,
      "ĠCoat": 5943,
      "ĠCover": 5944,
      "ĠCoffin": 5945,
      "ĠMonument": 5946,
      "atcher": 5947,
      "ĠDoor": 5948,
      "uding": 5949,
      "ighted": 5950,
      "ĠWhale": 5951,
      "Special": 5952,
      "ĠFaeries": 5953,
      "ĠCluestone": 5954,
      "ĠHeight": 5955,
      "ĠHeaven": 5956,
      "ĠHealer": 5957,
      "ĠAssimil": 5958,
      "Storm": 5959,
      "ĠHoriz": 5960,
      "ĠTriton": 5961,
      "ĠRingleader": 5962,
      "aunt": 5963,
      "aunch": 5964,
      "Ġdevoured": 5965,
      "ĠGatekeeper": 5966,
      "Chandra": 5967,
      "ĠDemons": 5968,
      "ĠSuns": 5969,
      "ĠCatac": 5970,
      "ĠMantle": 5971,
      "ĠRecover": 5972,
      "ĠMorphling": 5973,
      "ĠHunted": 5974,
      "ĠHunger": 5975,
      "ĠGrey": 5976,
      "Ġbackup": 5977,
      "ĠUrn": 5978,
      "ĠBarrier": 5979,
      "ĠSilencer": 5980,
      "ĠSilumgar": 5981,
      "ĠOutf": 5982,
      "ĠOutcast": 5983,
      "ĠOutpost": 5984,
      "gris": 5985,
      "ĠRebirth": 5986,
      "ĠInfest": 5987,
      "ĠMines": 5988,
      "uki": 5989,
      "Blade": 5990,
      "Ġpressure": 5991,
      "Ġmodes": 5992,
      "ĠMeadow": 5993,
      "Ġeverything": 5994,
      "ĠShadowheart": 5995,
      "ĠParagon": 5996,
      "ĠScavengers": 5997,
      "ĠGhitu": 5998,
      "Ġduplicates": 5999,
      "ĠMastery": 6000,
      "ĠSkele": 6001,
      "ĠBladewing": 6002,
      "breath": 6003,
      "naire": 6004,
      "ĠRunaway": 6005,
      "ĠMagecraft": 6006,
      "ĠTwisted": 6007,
      "ĠIllum": 6008,
      "ĠCitadel": 6009,
      "ĠThundering": 6010,
      "ĠAcademy": 6011,
      "ĠRakshas": 6012,
      "ĠEnduring": 6013,
      "ĠValk": 6014,
      "ĠAuthor": 6015,
      "Scor": 6016,
      "ĠAfterlife": 6017,
      "ĠFalling": 6018,
      "ĠLegionnaire": 6019,
      "ĠSavant": 6020,
      "Ġwhichever": 6021,
      "opean": 6022,
      "knight": 6023,
      "ĠTalon": 6024,
      "ressive": 6025,
      "ĠSorin": 6026,
      "ĠAkoum": 6027,
      "ĠDisp": 6028,
      "ĠDogs": 6029,
      "Secret": 6030,
      "ĠArtiller": 6031,
      "ĠEmrak": 6032,
      "ĠReveler": 6033,
      "Bloodrush": 6034,
      "ĠGorgon": 6035,
      "Ġversion": 6036,
      "ĠDreams": 6037,
      "itorial": 6038,
      "ĠWoodland": 6039,
      "ĠSurvival": 6040,
      "ĠSurvivors": 6041,
      "auth": 6042,
      "ĠApe": 6043,
      "ĠMalc": 6044,
      "ĠWillow": 6045,
      "ĠBeeble": 6046,
      "ĠAdaptive": 6047,
      "ĠPeak": 6048,
      "ĠBombard": 6049,
      "Beast": 6050,
      "Before": 6051,
      "ĠCruc": 6052,
      "ĠBandits": 6053,
      "ĠBallista": 6054,
      "ĠNoncreature": 6055,
      "ĠAscendancy": 6056,
      "Noncreature": 6057,
      "ĠSchool": 6058,
      "ĠEmpire": 6059,
      "ĠEmperor": 6060,
      "ĠFront": 6061,
      "ĠWormfang": 6062,
      "apping": 6063,
      "urok": 6064,
      "ĠMastiff": 6065,
      "ĠFormidable": 6066,
      "ĠGuildpact": 6067,
      "ĠGrimoire": 6068,
      "ĠTrump": 6069,
      "ĠLurker": 6070,
      "ĠPrismatic": 6071,
      "ĠCelebration": 6072,
      "Cohort": 6073,
      "ĠSynthes": 6074,
      "ĠTourach": 6075,
      "ĠGlory": 6076,
      "ĠTrove": 6077,
      "ĠCrystall": 6078,
      "ĠCaverns": 6079,
      "ĠGalvanic": 6080,
      "ĠGrub": 6081,
      "gressive": 6082,
      "ĠGrandeur": 6083,
      "ĠHalo": 6084,
      "ĠTerritorial": 6085,
      "ĠMesmer": 6086,
      "ĠRevolt": 6087,
      "ĠKobolds": 6088,
      "ĠCircle": 6089,
      "ĠFanatic": 6090,
      "ĠConsul": 6091,
      "Ġslime": 6092,
      "ĠAurora": 6093,
      "ĠHarpy": 6094,
      "ĠExplosion": 6095,
      "Tempting": 6096,
      "tagard": 6097,
      "ĠSurveyor": 6098,
      "ĠSummoner": 6099,
      "ĠJeweled": 6100,
      "ĠProtean": 6101,
      "ĠSkyshroud": 6102,
      "Ġcompletely": 6103,
      "ĠPeacekeeper": 6104,
      "Zombie": 6105,
      "ĠCathar": 6106,
      "ĠPrimeval": 6107,
      "ĠRecluse": 6108,
      "ĠNylea": 6109,
      "ĠArbiter": 6110,
      "ĠTraveler": 6111,
      "ĠGemstone": 6112,
      "ĠDiscordant": 6113,
      "Outlast": 6114,
      "eronaut": 6115,
      "Ġbidding": 6116,
      "ĠRitualist": 6117,
      "ĠBobbleheads": 6118,
      "ĠGambit": 6119,
      "ĠHypn": 6120,
      "ĠOjutai": 6121,
      "ĠKenrith": 6122,
      "ĠGustcloak": 6123,
      "ĠChampionships": 6124,
      "ĠCustodi": 6125,
      "Hellbent": 6126,
      "Ġacorn": 6127,
      "ĠSafe": 6128,
      "ĠBoulder": 6129,
      "ĠNeedle": 6130,
      "ĠIngenious": 6131,
      "ĠSeasoned": 6132,
      "ĠTyrann": 6133,
      "ĠHierophant": 6134,
      "Hideaway": 6135,
      "ĠAmbergris": 6136,
      "ĠToothy": 6137,
      "ĠTablet": 6138,
      "ĠCrimson": 6139,
      "ĠFylgja": 6140,
      "ĠWretched": 6141,
      "ĠLazav": 6142,
      "ĠShredder": 6143,
      "ĠYoung": 6144,
      "ĠImpetuous": 6145,
      "ĠInfluence": 6146,
      "ĠCalamity": 6147,
      "ĠArtificer": 6148,
      "Amplify": 6149,
      "Escalate": 6150,
      "hurgoyf": 6151,
      "zhov": 6152,
      "Ġtactics": 6153,
      "Ġtournament": 6154,
      "Ġmultiple": 6155,
      "Ġwhether": 6156,
      "ĠSatchel": 6157,
      "ĠAragorn": 6158,
      "ĠTibalt": 6159,
      "ĠPummeler": 6160,
      "ĠFblthp": 6161,
      "ĠMaverick": 6162,
      "ĠUrabrask": 6163,
      "ĠKyren": 6164,
      "ĠNautil": 6165,
      "ĠJinxed": 6166,
      "ultaneously": 6167,
      "ĠBeholder": 6168,
      "ĠSetessan": 6169,
      "ĠExuberant": 6170,
      "Specialize": 6171,
      "ĠRakshasa": 6172,
      "ĠEmrakul": 6173,
      "ĠCrystalline": 6174,
      "Ad": 6175,
      "After": 6176,
      "Bot": 6177,
      "Circ": 6178,
      "Distribute": 6179,
      "DÃ»l": 6180,
      "Eater": 6181,
      "Elect": 6182,
      "Eternal": 6183,
      "Emin": 6184,
      "Fiery": 6185,
      "Gang": 6186,
      "Iron": 6187,
      "Join": 6188,
      "Meld": 6189,
      "Mod": 6190,
      "Pier": 6191,
      "Phasing": 6192,
      "Searing": 6193,
      "Tail": 6194,
      "Vec": 6195,
      "Wing": 6196,
      "Will": 6197,
      "aum": 6198,
      "bar": 6199,
      "bur": 6200,
      "bil": 6201,
      "but": 6202,
      "bage": 6203,
      "bos": 6204,
      "bru": 6205,
      "bind": 6206,
      "bug": 6207,
      "bory": 6208,
      "brid": 6209,
      "buster": 6210,
      "cen": 6211,
      "cut": 6212,
      "crasher": 6213,
      "crafter": 6214,
      "dark": 6215,
      "ething": 6216,
      "eeker": 6217,
      "emy": 6218,
      "evi": 6219,
      "fe": 6220,
      "ferer": 6221,
      "gn": 6222,
      "gard": 6223,
      "gate": 6224,
      "garth": 6225,
      "gald": 6226,
      "gmos": 6227,
      "har": 6228,
      "hand": 6229,
      "ige": 6230,
      "iath": 6231,
      "kind": 6232,
      "kulk": 6233,
      "la": 6234,
      "mong": 6235,
      "mun": 6236,
      "mers": 6237,
      "mouth": 6238,
      "ned": 6239,
      "oor": 6240,
      "pur": 6241,
      "pid": 6242,
      "pse": 6243,
      "pool": 6244,
      "rat": 6245,
      "sd": 6246,
      "tim": 6247,
      "tongue": 6248,
      "ua": 6249,
      "uz": 6250,
      "uctor": 6251,
      "vine": 6252,
      "vale": 6253,
      "wag": 6254,
      "wind": 6255,
      "zed": 6256,
      "ÃŃ": 6257,
      "Ġ&": 6258,
      "Ġtide": 6259,
      "Ġtails": 6260,
      "Ġtravel": 6261,
      "Ġcumulative": 6262,
      "enger": 6263,
      "enbr": 6264,
      "ref": 6265,
      "resher": 6266,
      "repid": 6267,
      "Ġaug": 6268,
      "teers": 6269,
      "teous": 6270,
      "arion": 6271,
      "arium": 6272,
      "attering": 6273,
      "endent": 6274,
      "urel": 6275,
      "onance": 6276,
      "ito": 6277,
      "itation": 6278,
      "itory": 6279,
      "acre": 6280,
      "rox": 6281,
      "roas": 6282,
      "Ġpart": 6283,
      "isho": 6284,
      "strom": 6285,
      "stab": 6286,
      "stable": 6287,
      "Ġansw": 6288,
      "lease": 6289,
      "Ġsho": 6290,
      "Ġsurge": 6291,
      "Ġsuch": 6292,
      "Ġskulk": 6293,
      "Ġfellow": 6294,
      "ific": 6295,
      "iform": 6296,
      "aly": 6297,
      "alice": 6298,
      "urist": 6299,
      "urous": 6300,
      "Ġlines": 6301,
      "orist": 6302,
      "Ġwrong": 6303,
      "raiser": 6304,
      "elt": 6305,
      "eling": 6306,
      "elion": 6307,
      "elisk": 6308,
      "elstrom": 6309,
      "ily": 6310,
      "ilty": 6311,
      "esis": 6312,
      "ĠSa": 6313,
      "ĠSis": 6314,
      "ĠSain": 6315,
      "ĠSigil": 6316,
      "ĠSet": 6317,
      "ĠSaur": 6318,
      "Ġcover": 6319,
      "amina": 6320,
      "Ġundying": 6321,
      "ics": 6322,
      "icke": 6323,
      "ician": 6324,
      "ĠAe": 6325,
      "ĠAto": 6326,
      "ĠAqu": 6327,
      "ĠAffinity": 6328,
      "ĠAlex": 6329,
      "ĠAeronaut": 6330,
      "asaur": 6331,
      "eder": 6332,
      "eding": 6333,
      "eddy": 6334,
      "ache": 6335,
      "acher": 6336,
      "utor": 6337,
      "ĠTorn": 6338,
      "ĠTort": 6339,
      "ĠTrawler": 6340,
      "ĠTeddy": 6341,
      "chs": 6342,
      "charge": 6343,
      "ppel": 6344,
      "ĠIx": 6345,
      "ĠIroas": 6346,
      "ĠCore": 6347,
      "ĠCiv": 6348,
      "ĠCott": 6349,
      "ĠEst": 6350,
      "ĠEve": 6351,
      "ĠEag": 6352,
      "ĠDon": 6353,
      "ĠDiver": 6354,
      "ĠDiss": 6355,
      "ĠDancer": 6356,
      "ĠDauth": 6357,
      "ained": 6358,
      "mba": 6359,
      "thwain": 6360,
      "irk": 6361,
      "irie": 6362,
      "ĠPoun": 6363,
      "ĠPact": 6364,
      "ĠPear": 6365,
      "ĠPie": 6366,
      "ĠPall": 6367,
      "ĠPick": 6368,
      "ĠPier": 6369,
      "ĠPark": 6370,
      "ĠPres": 6371,
      "ĠPort": 6372,
      "ĠPious": 6373,
      "ĠPulse": 6374,
      "ĠRack": 6375,
      "ĠRose": 6376,
      "ĠRaging": 6377,
      "ĠRonin": 6378,
      "ĠRipper": 6379,
      "ĠRasa": 6380,
      "Ġ199": 6381,
      "ddag": 6382,
      "rawl": 6383,
      "quis": 6384,
      "quake": 6385,
      "osei": 6386,
      "owed": 6387,
      "apult": 6388,
      "oret": 6389,
      "ĠFell": 6390,
      "ĠFight": 6391,
      "ĠFran": 6392,
      "ĠFoul": 6393,
      "ĠFox": 6394,
      "ĠFoot": 6395,
      "ĠFountain": 6396,
      "ĠFabricate": 6397,
      "ĠFighter": 6398,
      "ĠFledgling": 6399,
      "ĠMom": 6400,
      "ĠMaw": 6401,
      "ĠMaus": 6402,
      "ĠMotion": 6403,
      "ĠMeg": 6404,
      "ĠMumm": 6405,
      "ĠMuck": 6406,
      "lessed": 6407,
      "oma": 6408,
      "ĠBound": 6409,
      "ĠBaz": 6410,
      "ĠBug": 6411,
      "ĠBans": 6412,
      "ĠBale": 6413,
      "ĠBull": 6414,
      "ĠBann": 6415,
      "ĠBitter": 6416,
      "ĠBones": 6417,
      "ĠBubble": 6418,
      "ĠBaku": 6419,
      "hee": 6420,
      "igor": 6421,
      "ĠGig": 6422,
      "ĠGall": 6423,
      "ĠGix": 6424,
      "ĠReady": 6425,
      "ripper": 6426,
      "ĠWa": 6427,
      "ĠWin": 6428,
      "ĠWire": 6429,
      "ĠWound": 6430,
      "ĠHer": 6431,
      "ĠHistor": 6432,
      "ĠHipp": 6433,
      "Ġvillainous": 6434,
      "ivion": 6435,
      "imar": 6436,
      "imli": 6437,
      "ĠLy": 6438,
      "ĠLith": 6439,
      "ĠLun": 6440,
      "ĠLum": 6441,
      "ĠLyre": 6442,
      "ĠLens": 6443,
      "ĠLair": 6444,
      "ĠLumbering": 6445,
      "ĠLacc": 6446,
      "ĠLhurgoyf": 6447,
      "oof": 6448,
      "Ġstory": 6449,
      "Ġupkeeps": 6450,
      "ipe": 6451,
      "ĠPutrid": 6452,
      "ĠOko": 6453,
      "lerance": 6454,
      "olic": 6455,
      "ĠVI": 6456,
      "ĠVel": 6457,
      "ĠVad": 6458,
      "ĠEnrage": 6459,
      "essor": 6460,
      "essed": 6461,
      "essig": 6462,
      "ĠSpitting": 6463,
      "ites": 6464,
      "ĠDestruct": 6465,
      "Ġcopied": 6466,
      "ashima": 6467,
      "Ġlearn": 6468,
      "ĠKy": 6469,
      "ĠKog": 6470,
      "ĠKits": 6471,
      "ĠKros": 6472,
      "ĠKapp": 6473,
      "ĠKessig": 6474,
      "Ġarea": 6475,
      "Death": 6476,
      "Dethrone": 6477,
      "ĠUnattach": 6478,
      "ĠUnclaim": 6479,
      "ulf": 6480,
      "ulator": 6481,
      "ĠThran": 6482,
      "ĠThrab": 6483,
      "ĠThaum": 6484,
      "ĠReturned": 6485,
      "ĠTheater": 6486,
      "ived": 6487,
      "ĠNature": 6488,
      "ĠNest": 6489,
      "ĠNashi": 6490,
      "ĠNomad": 6491,
      "ĠNisho": 6492,
      "Revolt": 6493,
      "ampir": 6494,
      "ĠStuff": 6495,
      "ĠStran": 6496,
      "ĠStrength": 6497,
      "ĠShack": 6498,
      "ĠShaper": 6499,
      "ĠChorus": 6500,
      "ĠScree": 6501,
      "ĠScound": 6502,
      "ĠScreen": 6503,
      "ĠScribe": 6504,
      "ĠArena": 6505,
      "ĠArgoth": 6506,
      "ĠArctic": 6507,
      "ĠZenith": 6508,
      "ectonic": 6509,
      "erated": 6510,
      "ĠAnnihil": 6511,
      "iano": 6512,
      "genius": 6513,
      "phy": 6514,
      "ĠDragonlord": 6515,
      "Ġki": 6516,
      "ĠPlaza": 6517,
      "planar": 6518,
      "ĠRope": 6519,
      "vold": 6520,
      "voker": 6521,
      "ĠJor": 6522,
      "ĠJuk": 6523,
      "ĠJudge": 6524,
      "ĠJitte": 6525,
      "Ġ000": 6526,
      "avan": 6527,
      "avored": 6528,
      "ĠSwine": 6529,
      "ĠSwift": 6530,
      "seal": 6531,
      "ĠPhalan": 6532,
      "ĠClam": 6533,
      "ĠClaw": 6534,
      "ĠVeil": 6535,
      "aking": 6536,
      "aked": 6537,
      "ĠSkin": 6538,
      "ĠSkarr": 6539,
      "ereal": 6540,
      "ereth": 6541,
      "ĠFlock": 6542,
      "ĠFlag": 6543,
      "ĠFlanking": 6544,
      "ĠElven": 6545,
      "ĠElementals": 6546,
      "Ġscroll": 6547,
      "Ġscavenge": 6548,
      "opter": 6549,
      "spine": 6550,
      "spark": 6551,
      "ĠBeyond": 6552,
      "awa": 6553,
      "rows": 6554,
      "nery": 6555,
      "ĠSoldevi": 6556,
      "ĠForestcycling": 6557,
      "ĠConver": 6558,
      "Unleash": 6559,
      "ĠSwampcycling": 6560,
      "ĠOrzhov": 6561,
      "ĠKnife": 6562,
      "ĠBloodcrazed": 6563,
      "ĠMerrow": 6564,
      "Ġreminder": 6565,
      "abolic": 6566,
      "ĠExert": 6567,
      "Ġseconds": 6568,
      "yrinth": 6569,
      "ĠPrototype": 6570,
      "ĠProject": 6571,
      "reader": 6572,
      "ĠGlist": 6573,
      "ĠGladi": 6574,
      "ĠColl": 6575,
      "ĠCopper": 6576,
      "ifting": 6577,
      "ĠPlainscycling": 6578,
      "ĠAdm": 6579,
      "ĠLookout": 6580,
      "ĠMountaincycling": 6581,
      "ĠTezz": 6582,
      "ĠYid": 6583,
      "ighteous": 6584,
      "ĠArcan": 6585,
      "ĠArcbound": 6586,
      "ĠWhirl": 6587,
      "ansing": 6588,
      "ĠFae": 6589,
      "ĠMaro": 6590,
      "ĠSneak": 6591,
      "ĠHeads": 6592,
      "Star": 6593,
      "ĠDescent": 6594,
      "ĠMagnet": 6595,
      "obi": 6596,
      "teller": 6597,
      "ĠTribute": 6598,
      "aunted": 6599,
      "Chroma": 6600,
      "Ġforetold": 6601,
      "Ġcoins": 6602,
      "ĠDemonic": 6603,
      "ĠTrainer": 6604,
      "ĠTraining": 6605,
      "ĠKemba": 6606,
      "ĠCatapult": 6607,
      "ĠBoard": 6608,
      "Ġheads": 6609,
      "ĠHungry": 6610,
      "green": 6611,
      "ĠUrsine": 6612,
      "ĠBarrow": 6613,
      "ĠSilk": 6614,
      "ĠSilence": 6615,
      "ĠInformant": 6616,
      "ĠMiner": 6617,
      "ĠMinsc": 6618,
      "iked": 6619,
      "iddle": 6620,
      "ĠSteppe": 6621,
      "Ġcycles": 6622,
      "ĠMechan": 6623,
      "asma": 6624,
      "ĠGarbage": 6625,
      "ĠDevast": 6626,
      "ĠGrace": 6627,
      "ĠBackup": 6628,
      "ĠMercurial": 6629,
      "ĠCurrent": 6630,
      "ĠMyster": 6631,
      "araoh": 6632,
      "acyn": 6633,
      "ĠBrush": 6634,
      "undering": 6635,
      "ĠScavenging": 6636,
      "ĠPaliano": 6637,
      "Ġquickly": 6638,
      "ĠCrag": 6639,
      "Exhaust": 6640,
      "ĠSkemfar": 6641,
      "ictive": 6642,
      "ĠKraul": 6643,
      "ĠKrasis": 6644,
      "weft": 6645,
      "Impending": 6646,
      "ĠUndergrowth": 6647,
      "Ġencore": 6648,
      "Ġcollected": 6649,
      "ĠCharging": 6650,
      "ĠTwin": 6651,
      "ĠEvolve": 6652,
      "ĠAvalan": 6653,
      "ĠAvacyn": 6654,
      "ĠGraf": 6655,
      "ĠAcc": 6656,
      "ĠAcid": 6657,
      "forger": 6658,
      "forged": 6659,
      "ĠCaldera": 6660,
      "Ġtransformed": 6661,
      "ahiri": 6662,
      "ĠValor": 6663,
      "ĠSentinels": 6664,
      "ĠTimeless": 6665,
      "ĠDraco": 6666,
      "morial": 6667,
      "ĠDarkness": 6668,
      "ĠFalse": 6669,
      "ĠMortal": 6670,
      "ĠAshling": 6671,
      "ĠAshiok": 6672,
      "Ġguild": 6673,
      "ĠTempting": 6674,
      "ĠSandstorm": 6675,
      "ĠPilferer": 6676,
      "ĠHelix": 6677,
      "ĠNecromancer": 6678,
      "bones": 6679,
      "ĠObs": 6680,
      "ĠObelisk": 6681,
      "ĠChanneler": 6682,
      "knife": 6683,
      "insba": 6684,
      "ĠSmasher": 6685,
      "ĠTerrain": 6686,
      "ĠTalent": 6687,
      "Ġarm": 6688,
      "Ġaround": 6689,
      "Ġdesigned": 6690,
      "ĠCaves": 6691,
      "ĠFalls": 6692,
      "ĠGods": 6693,
      "Sea": 6694,
      "ĠCorruption": 6695,
      "bordered": 6696,
      "ĠShore": 6697,
      "aji": 6698,
      "ĠBrawlers": 6699,
      "ĠEngineer": 6700,
      "ĠPlanar": 6701,
      "Ġhealing": 6702,
      "ĠWatchdog": 6703,
      "ĠThrice": 6704,
      "ĠExploit": 6705,
      "ĠServitude": 6706,
      "ĠCyclopean": 6707,
      "Ġuses": 6708,
      "ĠStock": 6709,
      "ĠBorbory": 6710,
      "ĠColossal": 6711,
      "ĠSleep": 6712,
      "ĠEntity": 6713,
      "ĠEntrop": 6714,
      "interland": 6715,
      "ĠDiabolic": 6716,
      "ĠBank": 6717,
      "ĠFeast": 6718,
      "ĠGrizz": 6719,
      "ĠTrust": 6720,
      "ĠCanal": 6721,
      "ĠCanopy": 6722,
      "Ġcommitted": 6723,
      "oggle": 6724,
      "Colorless": 6725,
      "ĠArtifacts": 6726,
      "ĠClear": 6727,
      "ĠCallous": 6728,
      "ĠPyretic": 6729,
      "ĠRampant": 6730,
      "ĠMaelstrom": 6731,
      "ĠLocthwain": 6732,
      "ĠOathsworn": 6733,
      "ĠSplicer": 6734,
      "ĠAgeless": 6735,
      "ĠRamos": 6736,
      "ĠHorned": 6737,
      "juven": 6738,
      "ĠCrystal": 6739,
      "ĠPassage": 6740,
      "ĠRootwalla": 6741,
      "ĠFriends": 6742,
      "ĠBenalia": 6743,
      "ĠBenalish": 6744,
      "ĠGoliath": 6745,
      "ĠNetwork": 6746,
      "ĠRecruit": 6747,
      "ĠCombust": 6748,
      "ĠConduit": 6749,
      "ĠEmerald": 6750,
      "Ġassemble": 6751,
      "ĠReplicator": 6752,
      "ĠSkirk": 6753,
      "ĠBasilica": 6754,
      "ĠRobots": 6755,
      "Ġkeywords": 6756,
      "Ġimpressive": 6757,
      "stoker": 6758,
      "ĠTactics": 6759,
      "ĠRevolution": 6760,
      "ĠVitality": 6761,
      "ĠInkling": 6762,
      "ĠSheltered": 6763,
      "ĠAssemble": 6764,
      "eteer": 6765,
      "Ġcorpse": 6766,
      "ĠCrowd": 6767,
      "ĠEmbereth": 6768,
      "ĠVirt": 6769,
      "ĠBrigand": 6770,
      "Elf": 6771,
      "ĠAurochs": 6772,
      "ĠImmo": 6773,
      "ĠIntrepid": 6774,
      "ĠTrailblazer": 6775,
      "ĠHarpoon": 6776,
      "Headed": 6777,
      "Ġfeet": 6778,
      "Ġplotted": 6779,
      "ĠTajuru": 6780,
      "ĠPrairie": 6781,
      "ĠHangar": 6782,
      "ĠSculptor": 6783,
      "ĠForeboding": 6784,
      "ĠParadise": 6785,
      "ĠParadox": 6786,
      "ĠDuplicant": 6787,
      "hammer": 6788,
      "ĠAerialist": 6789,
      "ĠRainbow": 6790,
      "ĠMangara": 6791,
      "ĠArchaeologist": 6792,
      "ĠAxe": 6793,
      "ĠBottle": 6794,
      "ĠHazoret": 6795,
      "ĠLabyrinth": 6796,
      "ĠVindictive": 6797,
      "ĠBrotherhood": 6798,
      "ĠDrownyard": 6799,
      "Corru": 6800,
      "Myojin": 6801,
      "oleum": 6802,
      "ĠPrankster": 6803,
      "ĠWilson": 6804,
      "ĠDestiny": 6805,
      "ĠStromgald": 6806,
      "ĠConscript": 6807,
      "ahngarth": 6808,
      "ĠAssembly": 6809,
      "ĠPuzzleknot": 6810,
      "Lightning": 6811,
      "Skeleton": 6812,
      "drifter": 6813,
      "Ġpeople": 6814,
      "ĠAberration": 6815,
      "ĠEthereal": 6816,
      "ĠDrift": 6817,
      "ĠDalek": 6818,
      "ĠFrenzied": 6819,
      "ĠBellowing": 6820,
      "ĠRevenant": 6821,
      "ĠWalking": 6822,
      "ĠVantress": 6823,
      "ĠSprout": 6824,
      "ĠStriker": 6825,
      "ĠInspiring": 6826,
      "ĠScrapper": 6827,
      "ĠPhelddag": 6828,
      "ĠTemporal": 6829,
      "ĠRankle": 6830,
      "ĠRubblebelt": 6831,
      "ĠSabertooth": 6832,
      "ĠVigilante": 6833,
      "Mizzet": 6834,
      "ĠSakashima": 6835,
      "Ġnormal": 6836,
      "ĠImplement": 6837,
      "ĠMammoth": 6838,
      "ĠGryff": 6839,
      "ĠLiberator": 6840,
      "ĠOblivion": 6841,
      "ĠVultures": 6842,
      "ĠVictory": 6843,
      "ĠStoryteller": 6844,
      "ĠBloodthirsty": 6845,
      "ĠAssimilation": 6846,
      "ĠBeebles": 6847,
      "ĠBombardment": 6848,
      "Eminence": 6849,
      "Melds": 6850,
      "monger": 6851,
      "wagg": 6852,
      "Ġaugment": 6853,
      "ĠTorture": 6854,
      "ĠDauthi": 6855,
      "ĠPearl": 6856,
      "ĠRasaad": 6857,
      "ĠMoment": 6858,
      "ĠMausoleum": 6859,
      "ĠMummy": 6860,
      "ĠBazaar": 6861,
      "ĠBanshee": 6862,
      "ĠLaccolith": 6863,
      "ĠKogla": 6864,
      "ĠKappa": 6865,
      "ĠUnclaimed": 6866,
      "ĠThraben": 6867,
      "ĠNishoba": 6868,
      "ĠScoundrel": 6869,
      "ĠJukai": 6870,
      "ĠPhalanx": 6871,
      "ĠGladiator": 6872,
      "ĠTezzeret": 6873,
      "insbaile": 6874,
      "ĠBorborygmos": 6875,
      "ĠPhelddagrif": 6876,
      "'-": 6877,
      "Br": 6878,
      "Bre": 6879,
      "Bar": 6880,
      "Cal": 6881,
      "Cont": 6882,
      "Coun": 6883,
      "Copy": 6884,
      "Cele": 6885,
      "Clock": 6886,
      "Cursed": 6887,
      "Dash": 6888,
      "Dark": 6889,
      "Dinosaur": 6890,
      "Ext": 6891,
      "Escape": 6892,
      "Form": 6893,
      "Fabricate": 6894,
      "Graft": 6895,
      "Lava": 6896,
      "Mar": 6897,
      "Madness": 6898,
      "Melee": 6899,
      "No": 6900,
      "Or": 6901,
      "Pack": 6902,
      "Pile": 6903,
      "Pers": 6904,
      "Phan": 6905,
      "Ru": 6906,
      "Rock": 6907,
      "Renown": 6908,
      "Sword": 6909,
      "Switch": 6910,
      "Support": 6911,
      "Saga": 6912,
      "TM": 6913,
      "Tw": 6914,
      "Vampire": 6915,
      "Zero": 6916,
      "ao": 6917,
      "by": 6918,
      "bender": 6919,
      "cc": 6920,
      "cult": 6921,
      "crawler": 6922,
      "cna": 6923,
      "dr": 6924,
      "dle": 6925,
      "dent": 6926,
      "daunted": 6927,
      "eted": 6928,
      "fast": 6929,
      "fell": 6930,
      "fold": 6931,
      "flinger": 6932,
      "fession": 6933,
      "grin": 6934,
      "gical": 6935,
      "ggressive": 6936,
      "hir": 6937,
      "hib": 6938,
      "haven": 6939,
      "hawk": 6940,
      "je": 6941,
      "jaw": 6942,
      "jek": 6943,
      "juk": 6944,
      "jhan": 6945,
      "jiri": 6946,
      "journ": 6947,
      "kai": 6948,
      "lis": 6949,
      "lic": 6950,
      "mal": 6951,
      "madi": 6952,
      "ners": 6953,
      "nod": 6954,
      "ndr": 6955,
      "oat": 6956,
      "oil": 6957,
      "oid": 6958,
      "pack": 6959,
      "pho": 6960,
      "pie": 6961,
      "pine": 6962,
      "rut": 6963,
      "rig": 6964,
      "sist": 6965,
      "self": 6966,
      "tte": 6967,
      "tler": 6968,
      "tusk": 6969,
      "tention": 6970,
      "tabi": 6971,
      "uct": 6972,
      "ubl": 6973,
      "vice": 6974,
      "volent": 6975,
      "water": 6976,
      "wielder": 6977,
      "yf": 6978,
      "yss": 6979,
      "zer": 6980,
      "zum": 6981,
      "Ã¶": 6982,
      "Ãī": 6983,
      "Ġing": 6984,
      "Ġve": 6985,
      "Ġite": 6986,
      "Ġ____": 6987,
      "ĠÃī": 6988,
      "ĨĴ": 6989,
      "Ġcirc": 6990,
      "enge": 6991,
      "enter": 6992,
      "ented": 6993,
      "rectly": 6994,
      "Ġav": 6995,
      "Ġaffect": 6996,
      "Ġaura": 6997,
      "Ġaggressive": 6998,
      "tel": 6999,
      "oub": 7000,
      "arika": 7001,
      "Ġthought": 7002,
      "atus": 7003,
      "erv": 7004,
      "ervo": 7005,
      "ined": 7006,
      "inated": 7007,
      "inction": 7008,
      "Ġyes": 7009,
      "anc": 7010,
      "anling": 7011,
      "anical": 7012,
      "onalli": 7013,
      "itc": 7014,
      "iting": 7015,
      "itted": 7016,
      "itive": 7017,
      "Ġdying": 7018,
      "Ġdilemma": 7019,
      "room": 7020,
      "rown": 7021,
      "roads": 7022,
      "Ġpass": 7023,
      "Ġpool": 7024,
      "isi": 7025,
      "isp": 7026,
      "ising": 7027,
      "isto": 7028,
      "isaur": 7029,
      "stick": 7030,
      "stigator": 7031,
      "lete": 7032,
      "leaf": 7033,
      "leech": 7034,
      "Ġbushido": 7035,
      "gether": 7036,
      "Ġsm": 7037,
      "Ġsur": 7038,
      "Ġshe": 7039,
      "Ġsun": 7040,
      "Ġfoot": 7041,
      "Ġfavor": 7042,
      "Ġfalls": 7043,
      "ifies": 7044,
      "termin": 7045,
      "terrane": 7046,
      "Ġmeld": 7047,
      "urg": 7048,
      "urry": 7049,
      "urgo": 7050,
      "Ġlarge": 7051,
      "henge": 7052,
      "oration": 7053,
      "orama": 7054,
      "Ġwind": 7055,
      "Ġwrite": 7056,
      "Ġwearing": 7057,
      "Ġear": 7058,
      "ras": 7059,
      "elun": 7060,
      "Ġher": 7061,
      "Ġhope": 7062,
      "ilt": 7063,
      "ilis": 7064,
      "ilonalli": 7065,
      "esu": 7066,
      "ĠSz": 7067,
      "ĠSard": 7068,
      "ĠSce": 7069,
      "ĠSling": 7070,
      "ĠSix": 7071,
      "ĠSche": 7072,
      "ĠSolt": 7073,
      "ĠSolar": 7074,
      "ĠSearing": 7075,
      "ĠSuper": 7076,
      "ami": 7077,
      "ĠAst": 7078,
      "ĠAth": 7079,
      "ĠAir": 7080,
      "ĠArash": 7081,
      "Ġincor": 7082,
      "Ġindicate": 7083,
      "Ġplace": 7084,
      "Ġplainswalk": 7085,
      "ithe": 7086,
      "Ġnative": 7087,
      "Ġninjutsu": 7088,
      "uty": 7089,
      "utal": 7090,
      "ĠTel": 7091,
      "ĠTain": 7092,
      "ĠTown": 7093,
      "ĠTak": 7094,
      "ĠTattered": 7095,
      "ĠTaught": 7096,
      "ĠTimber": 7097,
      "ĠTutor": 7098,
      "ĠTectonic": 7099,
      "ĠTahngarth": 7100,
      "ĠTilonalli": 7101,
      "Ġwithin": 7102,
      "pping": 7103,
      "Ġspeak": 7104,
      "ĠIb": 7105,
      "ĠIre": 7106,
      "ĠImoen": 7107,
      "romat": 7108,
      "ĠCad": 7109,
      "ĠCone": 7110,
      "ĠCorn": 7111,
      "ĠCens": 7112,
      "ĠCards": 7113,
      "ĠCache": 7114,
      "ĠCromat": 7115,
      "Ġrev": 7116,
      "Ġrever": 7117,
      "Ġrece": 7118,
      "Ġreroll": 7119,
      "ĠEd": 7120,
      "ĠEel": 7121,
      "acks": 7122,
      "ackling": 7123,
      "ĠDom": 7124,
      "ĠDig": 7125,
      "ĠDance": 7126,
      "ĠDran": 7127,
      "ĠDust": 7128,
      "thus": 7129,
      "throat": 7130,
      "ĠPa": 7131,
      "ĠPi": 7132,
      "ĠPast": 7133,
      "ĠProm": 7134,
      "ĠPix": 7135,
      "ĠPatch": 7136,
      "ĠPetal": 7137,
      "ĠPaper": 7138,
      "ĠPopulate": 7139,
      "Ġforces": 7140,
      "ĠâĨĴ": 7141,
      "iless": 7142,
      "ĠRever": 7143,
      "ĠRattle": 7144,
      "ĠRime": 7145,
      "ĠRise": 7146,
      "ĠRide": 7147,
      "ĠRich": 7148,
      "ĠRaff": 7149,
      "ĠRacc": 7150,
      "ĠRisen": 7151,
      "ĠRighteous": 7152,
      "changer": 7153,
      "hob": 7154,
      "hot": 7155,
      "hole": 7156,
      "que": 7157,
      "owing": 7158,
      "oreal": 7159,
      "ĠFre": 7160,
      "ĠFix": 7161,
      "ĠFind": 7162,
      "ĠFog": 7163,
      "ĠMice": 7164,
      "ĠMig": 7165,
      "ĠMol": 7166,
      "ĠMyc": 7167,
      "ĠMadd": 7168,
      "ĠMull": 7169,
      "ĠMae": 7170,
      "ĠMuse": 7171,
      "ĠMizz": 7172,
      "ĠMoney": 7173,
      "omet": 7174,
      "omaz": 7175,
      "ĠBon": 7176,
      "ĠBent": 7177,
      "ĠBoss": 7178,
      "ĠBolster": 7179,
      "ĠBuzz": 7180,
      "ĠBrawl": 7181,
      "Ġpersist": 7182,
      "hem": 7183,
      "igo": 7184,
      "igure": 7185,
      "igawa": 7186,
      "ĠXander": 7187,
      "ĠGut": 7188,
      "ĠGraveyard": 7189,
      "ĠGun": 7190,
      "ĠGond": 7191,
      "ĠGran": 7192,
      "ĠGaun": 7193,
      "ĠGimli": 7194,
      "ĠGomaz": 7195,
      "ĠReg": 7196,
      "ĠRex": 7197,
      "ĠReactor": 7198,
      "rik": 7199,
      "riage": 7200,
      "riven": 7201,
      "ĠWas": 7202,
      "ĠWho": 7203,
      "ĠWeld": 7204,
      "ĠWise": 7205,
      "ĠWake": 7206,
      "ĠWoe": 7207,
      "ldoth": 7208,
      "ĠHard": 7209,
      "ĠHate": 7210,
      "ĠHot": 7211,
      "ĠHive": 7212,
      "ĠHag": 7213,
      "ĠHak": 7214,
      "ĠHover": 7215,
      "ĠHouse": 7216,
      "ĠHaaz": 7217,
      "ĠHinterland": 7218,
      "Ġabout": 7219,
      "mpt": 7220,
      "Ġvot": 7221,
      "Ġvisit": 7222,
      "Ġvanishing": 7223,
      "Ġequipment": 7224,
      "imen": 7225,
      "imator": 7226,
      "imultaneously": 7227,
      "ĠLibr": 7228,
      "ĠLow": 7229,
      "ĠLamp": 7230,
      "ĠLag": 7231,
      "ooter": 7232,
      "Ġstop": 7233,
      "Ġstops": 7234,
      "Ġneed": 7235,
      "Ġnonenchant": 7236,
      "ĠAtark": 7237,
      "antic": 7238,
      "ĠCreeping": 7239,
      "ĠOy": 7240,
      "ĠOz": 7241,
      "ĠOasis": 7242,
      "olcan": 7243,
      "ĠVap": 7244,
      "ĠVex": 7245,
      "ĠVae": 7246,
      "ĠVicious": 7247,
      "ĠVesu": 7248,
      "ameleon": 7249,
      "essive": 7250,
      "itions": 7251,
      "ĠSpawning": 7252,
      "ĠDeal": 7253,
      "ĠDevo": 7254,
      "ĠDetention": 7255,
      "yph": 7256,
      "Ġleg": 7257,
      "ĠKell": 7258,
      "ĠKir": 7259,
      "ĠKath": 7260,
      "ĠKicker": 7261,
      "ĠKab": 7262,
      "ĠKoma": 7263,
      "ĠKinsbaile": 7264,
      "ourser": 7265,
      "mote": 7266,
      "moor": 7267,
      "Deep": 7268,
      "steed": 7269,
      "unde": 7270,
      "unner": 7271,
      "uls": 7272,
      "ulker": 7273,
      "ĠThie": 7274,
      "ĠThass": 7275,
      "ĠThird": 7276,
      "ĠThrash": 7277,
      "ĠThalia": 7278,
      "ieft": 7279,
      "ookie": 7280,
      "ĠThem": 7281,
      "istling": 7282,
      "ptor": 7283,
      "death": 7284,
      "demn": 7285,
      "ĠNal": 7286,
      "ĠName": 7287,
      "ĠNine": 7288,
      "ĠNix": 7289,
      "ĠNaya": 7290,
      "ĠNatural": 7291,
      "ĠNahiri": 7292,
      "ĠNoggle": 7293,
      "blood": 7294,
      "blaze": 7295,
      "ĠStor": 7296,
      "ĠStill": 7297,
      "ĠStamp": 7298,
      "ĠStaunch": 7299,
      "agu": 7300,
      "agers": 7301,
      "ĠInvestig": 7302,
      "ĠInvoker": 7303,
      "ĠInstigator": 7304,
      "ĠShard": 7305,
      "ĠShire": 7306,
      "ĠShimmer": 7307,
      "ĠShifting": 7308,
      "ĠAsmadi": 7309,
      "Ġseat": 7310,
      "ĠChap": 7311,
      "ĠChak": 7312,
      "ĠChild": 7313,
      "ĠChalice": 7314,
      "ĠChameleon": 7315,
      "ĠChieft": 7316,
      "ĠGoose": 7317,
      "ĠScamp": 7318,
      "ĠScab": 7319,
      "ĠScald": 7320,
      "ĠScriven": 7321,
      "ĠArg": 7322,
      "ĠArray": 7323,
      "ĠArrest": 7324,
      "ĠArdent": 7325,
      "ĠAristo": 7326,
      "ĠZndr": 7327,
      "ĠBlaring": 7328,
      "ĠBlades": 7329,
      "ĠBlighted": 7330,
      "oneer": 7331,
      "ĠAnts": 7332,
      "izing": 7333,
      "umn": 7334,
      "umaro": 7335,
      "gener": 7336,
      "creeper": 7337,
      "crease": 7338,
      "ĠWarren": 7339,
      "ĠWarchief": 7340,
      "ickkn": 7341,
      "ĠPlunde": 7342,
      "plitter": 7343,
      "plendent": 7344,
      "areth": 7345,
      "ĠRoaring": 7346,
      "ĠForager": 7347,
      "ĠJi": 7348,
      "ĠJade": 7349,
      "ĠJavel": 7350,
      "shade": 7351,
      "shaper": 7352,
      "othing": 7353,
      "avy": 7354,
      "ickering": 7355,
      "ational": 7356,
      "Ġtruth": 7357,
      "ĠPhyrex": 7358,
      "ĠClues": 7359,
      "ĠClattering": 7360,
      "ĠVecna": 7361,
      "rook": 7362,
      "ĠLegend": 7363,
      "ĠLeaf": 7364,
      "akir": 7365,
      "akmor": 7366,
      "atory": 7367,
      "ĠSkulker": 7368,
      "ishment": 7369,
      "ĠFlight": 7370,
      "ĠFlint": 7371,
      "ĠFlux": 7372,
      "ĠFlaming": 7373,
      "spore": 7374,
      "speth": 7375,
      "spinner": 7376,
      "assador": 7377,
      "awing": 7378,
      "ranch": 7379,
      "ranos": 7380,
      "rowing": 7381,
      "ogger": 7382,
      "clast": 7383,
      "clad": 7384,
      "cloud": 7385,
      "ĠSlumbering": 7386,
      "Ġresolving": 7387,
      "Ġconverted": 7388,
      "sucker": 7389,
      "ĠOrch": 7390,
      "ĠOrgg": 7391,
      "ĠBloodline": 7392,
      "ĠBloodrush": 7393,
      "ĠBloodhall": 7394,
      "ĠBloodsucker": 7395,
      "ĠProgen": 7396,
      "ĠProsp": 7397,
      "ĠProvoke": 7398,
      "Ġwinning": 7399,
      "ĠAlpine": 7400,
      "Ġregenerates": 7401,
      "anged": 7402,
      "ĠGlider": 7403,
      "ĠCoil": 7404,
      "ĠCode": 7405,
      "ĠFirecat": 7406,
      "ĠFiremind": 7407,
      "ĠFirebird": 7408,
      "Ġrolls": 7409,
      "ĠAngels": 7410,
      "ĠMons": 7411,
      "ĠSquid": 7412,
      "ĠSquatters": 7413,
      "ĠTeys": 7414,
      "ĠYellow": 7415,
      "ĠYanling": 7416,
      "twood": 7417,
      "ighth": 7418,
      "ĠGiants": 7419,
      "Ġdivides": 7420,
      "ilding": 7421,
      "ĠSnitch": 7422,
      "ĠSnail": 7423,
      "ĠSnapper": 7424,
      "ĠSnapping": 7425,
      "ĠHeavy": 7426,
      "alfir": 7427,
      "ĠStorms": 7428,
      "ĠMaggot": 7429,
      "ĠHyd": 7430,
      "ĠHybrid": 7431,
      "aptain": 7432,
      "lectro": 7433,
      "ĠTruth": 7434,
      "itching": 7435,
      "ĠArchfiend": 7436,
      "worker": 7437,
      "ĠSkyline": 7438,
      "ĠSunder": 7439,
      "ĠSunlit": 7440,
      "ĠCats": 7441,
      "ĠBomber": 7442,
      "Ġheist": 7443,
      "Ġmutated": 7444,
      "ĠResur": 7445,
      "ĠRescu": 7446,
      "ĠReservo": 7447,
      "ĠResplendent": 7448,
      "ĠOni": 7449,
      "Ġcycled": 7450,
      "ĠOutburst": 7451,
      "ĠSteward": 7452,
      "ukranos": 7453,
      "Blue": 7454,
      "berry": 7455,
      "ĠSurrak": 7456,
      "ĠSurgical": 7457,
      "ĠBattlefield": 7458,
      "ĠGarenbr": 7459,
      "ĠNightshade": 7460,
      "Ġagainst": 7461,
      "ĠShambling": 7462,
      "ĠParas": 7463,
      "ĠBris": 7464,
      "ĠBrutal": 7465,
      "ĠAssassins": 7466,
      "Ġquality": 7467,
      "ĠCrash": 7468,
      "ĠCrasher": 7469,
      "ternity": 7470,
      "ictor": 7471,
      "ĠPyrom": 7472,
      "ĠAbyss": 7473,
      "break": 7474,
      "ĠSerpents": 7475,
      "ĠRuned": 7476,
      "ĠTorrent": 7477,
      "ĠBretagard": 7478,
      "ĠWilds": 7479,
      "ĠUnderdark": 7480,
      "Ġadventure": 7481,
      "neous": 7482,
      "eshift": 7483,
      "ĠEvolved": 7484,
      "ĠAvian": 7485,
      "ĠPerfect": 7486,
      "ĠPerformer": 7487,
      "ĠGravel": 7488,
      "Flip": 7489,
      "Ġfinal": 7490,
      "ĠRakish": 7491,
      "ĠGnarl": 7492,
      "ĠGrotag": 7493,
      "ĠShieldmate": 7494,
      "Ġintensifies": 7495,
      "ĠAuto": 7496,
      "Scar": 7497,
      "oka": 7498,
      "ĠRestoration": 7499,
      "ĠBalor": 7500,
      "ĠAshes": 7501,
      "ĠJund": 7502,
      "ĠTriome": 7503,
      "Ġtreat": 7504,
      "Ġminimum": 7505,
      "ĠSandstone": 7506,
      "airn": 7507,
      "uckle": 7508,
      "ĠFearless": 7509,
      "ĠNeurok": 7510,
      "ĠNezum": 7511,
      "Ġdescent": 7512,
      "ĠFallaji": 7513,
      "ĠGenius": 7514,
      "ĠGenju": 7515,
      "ĠKamigawa": 7516,
      "yser": 7517,
      "ĠDisaster": 7518,
      "ĠPatron": 7519,
      "ĠHatcher": 7520,
      "ĠVenom": 7521,
      "Seek": 7522,
      "ĠArtisan": 7523,
      "ĠVanishing": 7524,
      "ĠSparkmage": 7525,
      "ĠKarlo": 7526,
      "ĠCorrupt": 7527,
      "ĠIllusionary": 7528,
      "ĠIllusionist": 7529,
      "yrie": 7530,
      "ĠSalvo": 7531,
      "ĠRedee": 7532,
      "ĠBasri": 7533,
      "Soulshift": 7534,
      "ĠPoly": 7535,
      "ĠRabid": 7536,
      "ĠGhostly": 7537,
      "ĠHaunting": 7538,
      "ĠDrover": 7539,
      "ĠPlanet": 7540,
      "ĠWerewolves": 7541,
      "rewd": 7542,
      "ĠApex": 7543,
      "ĠTolerance": 7544,
      "ĠMalign": 7545,
      "ĠMalakir": 7546,
      "ĠAmbassador": 7547,
      "ĠManta": 7548,
      "Ġconnive": 7549,
      "ĠFortune": 7550,
      "Arc": 7551,
      "Bee": 7552,
      "ĠAscended": 7553,
      "ĠCommando": 7554,
      "ĠTorchling": 7555,
      "Ġincreased": 7556,
      "Nonbasic": 7557,
      "Sky": 7558,
      "ĠIdentity": 7559,
      "ĠExtort": 7560,
      "ĠExtractor": 7561,
      "ĠBanner": 7562,
      "ĠWaterveil": 7563,
      "ĠThornling": 7564,
      "crat": 7565,
      "ĠWhispers": 7566,
      "uthless": 7567,
      "ĠPrec": 7568,
      "ĠPretender": 7569,
      "ĠPursu": 7570,
      "ĠPurpho": 7571,
      "ĠFeather": 7572,
      "ĠBramble": 7573,
      "ĠAspect": 7574,
      "ĠSoaring": 7575,
      "ĠSojourn": 7576,
      "ĠCapric": 7577,
      "ĠFateful": 7578,
      "ĠHexgold": 7579,
      "ĠPrismari": 7580,
      "Coven": 7581,
      "slide": 7582,
      "ĠImmortal": 7583,
      "ĠCleansing": 7584,
      "ĠScorch": 7585,
      "ĠPrisoner": 7586,
      "sionic": 7587,
      "Ġappears": 7588,
      "ĠTourTM": 7589,
      "ĠMedd": 7590,
      "ĠMedic": 7591,
      "ĠBuried": 7592,
      "ĠLoath": 7593,
      "ĠDecoy": 7594,
      "timber": 7595,
      "ĠEmbermage": 7596,
      "ĠDiviner": 7597,
      "ĠDivining": 7598,
      "ĠPanther": 7599,
      "ĠPanorama": 7600,
      "ĠRubin": 7601,
      "ĠBruiser": 7602,
      "ĠWings": 7603,
      "ĠWasteland": 7604,
      "ĠNettle": 7605,
      "ĠElectromancer": 7606,
      "ĠElectrostatic": 7607,
      "ĠCorpses": 7608,
      "ĠCabaretti": 7609,
      "ĠBelow": 7610,
      "ĠWayfinder": 7611,
      "ĠHollowhenge": 7612,
      "ĠInvas": 7613,
      "ĠSkirm": 7614,
      "Ġimpending": 7615,
      "ĠCounters": 7616,
      "Ġvoid": 7617,
      "ortionist": 7618,
      "ĠPrimordium": 7619,
      "ĠRidges": 7620,
      "ĠIgn": 7621,
      "ĠEmbalm": 7622,
      "ĠViridian": 7623,
      "ĠJournal": 7624,
      "ĠCrossroads": 7625,
      "ĠPlaneswalk": 7626,
      "ĠPlaneswalker": 7627,
      "ĠBorderpost": 7628,
      "ĠDenizen": 7629,
      "ĠPossessed": 7630,
      "ĠFaceless": 7631,
      "ĠShinen": 7632,
      "ĠShinobi": 7633,
      "ĠChrome": 7634,
      "ĠScarab": 7635,
      "ĠAncest": 7636,
      "ĠWeaponry": 7637,
      "ĠSurveill": 7638,
      "ĠTajic": 7639,
      "ĠDrifter": 7640,
      "ĠMassacre": 7641,
      "Demonstrate": 7642,
      "ĠZhalfir": 7643,
      "ĠJewel": 7644,
      "ĠSmoke": 7645,
      "ĠPillar": 7646,
      "ĠPredation": 7647,
      "ĠEvangelist": 7648,
      "ĠSalvager": 7649,
      "ĠStomper": 7650,
      "ĠTenacious": 7651,
      "ĠTetrav": 7652,
      "ĠFervent": 7653,
      "ĠFavorite": 7654,
      "ĠMongrel": 7655,
      "ĠMongoose": 7656,
      "ĠMarkov": 7657,
      "ĠNurt": 7658,
      "ĠCoveted": 7659,
      "ĠDevouring": 7660,
      "ĠVolcanic": 7661,
      "ĠHoarder": 7662,
      "ĠOmnath": 7663,
      "Phyrexian": 7664,
      "Trigon": 7665,
      "Urza": 7666,
      "sorry": 7667,
      "splt": 7668,
      "Ġdistance": 7669,
      "Ġpieces": 7670,
      "ĠAgonies": 7671,
      "ĠTrooper": 7672,
      "ĠTangle": 7673,
      "ĠCerat": 7674,
      "ĠCamel": 7675,
      "ĠMakeshift": 7676,
      "ĠEnlightened": 7677,
      "ĠNegot": 7678,
      "ĠShrieker": 7679,
      "ĠChaotic": 7680,
      "ĠProcessor": 7681,
      "ĠDeserts": 7682,
      "ĠTormentor": 7683,
      "ĠTriumphant": 7684,
      "ĠSigardian": 7685,
      "Rampage": 7686,
      "Ġposted": 7687,
      "ĠTiming": 7688,
      "ĠCutthroat": 7689,
      "ĠCopies": 7690,
      "ĠCube": 7691,
      "ĠPrincess": 7692,
      "ĠFugitive": 7693,
      "ĠGrinder": 7694,
      "ĠAtlas": 7695,
      "ĠCyberman": 7696,
      "ĠIncarnate": 7697,
      "Amass": 7698,
      "briar": 7699,
      "victis": 7700,
      "Ġmagnet": 7701,
      "ĠSacred": 7702,
      "ĠSensor": 7703,
      "ĠErebos": 7704,
      "ĠDamned": 7705,
      "ĠDutiful": 7706,
      "ĠRiveteers": 7707,
      "ĠFuturist": 7708,
      "ĠLetter": 7709,
      "ĠLukamina": 7710,
      "ĠKuldoth": 7711,
      "ĠExemplar": 7712,
      "ĠHeights": 7713,
      "ĠCatacomb": 7714,
      "ĠSkeletal": 7715,
      "ĠValkyrie": 7716,
      "ĠAuthority": 7717,
      "ĠPeaks": 7718,
      "ĠCrucible": 7719,
      "ĠSynthesizer": 7720,
      "Adamant": 7721,
      "brute": 7722,
      "feather": 7723,
      "urelia": 7724,
      "ification": 7725,
      "ĠSaint": 7726,
      "ĠEagle": 7727,
      "ĠBanneret": 7728,
      "ĠKitsune": 7729,
      "ĠKrosan": 7730,
      "ampiric": 7731,
      "ĠStuffy": 7732,
      "ĠScreeching": 7733,
      "ĠAnnihilation": 7734,
      "ĠSkarrgan": 7735,
      "ĠGlistening": 7736,
      "ĠAdmiral": 7737,
      "ĠYidaro": 7738,
      "ĠArcanist": 7739,
      "ĠWhirlpool": 7740,
      "ĠAvalanche": 7741,
      "ĠObsessive": 7742,
      "ĠEntropic": 7743,
      "ĠCombustion": 7744,
      "Corrupted": 7745,
      "Clockwork": 7746,
      "Extort": 7747,
      "Formidable": 7748,
      "Piles": 7749,
      "Phantom": 7750,
      "juka": 7751,
      "Ġitem": 7752,
      "Ġsurv": 7753,
      "terranean": 7754,
      "ĠScepter": 7755,
      "ĠSoltari": 7756,
      "ĠTainted": 7757,
      "Ġreceived": 7758,
      "ĠDrana": 7759,
      "ĠRaffine": 7760,
      "ĠRaccoon": 7761,
      "ĠMaestros": 7762,
      "ĠMoneychanger": 7763,
      "ĠGondor": 7764,
      "ĠGauntle": 7765,
      "ĠGomazoa": 7766,
      "ĠHaazda": 7767,
      "Ġvoting": 7768,
      "Ġnonenchantment": 7769,
      "ĠAtarka": 7770,
      "ĠVexing": 7771,
      "ĠVaevictis": 7772,
      "ĠKathari": 7773,
      "ĠThieving": 7774,
      "ĠThassa": 7775,
      "ĠNixilis": 7776,
      "ĠChakram": 7777,
      "ĠChieftain": 7778,
      "ĠScrivener": 7779,
      "ĠAristocrat": 7780,
      "ĠZndrsplt": 7781,
      "ickknack": 7782,
      "ĠPlunderer": 7783,
      "ĠPhyrexia": 7784,
      "ĠTeysa": 7785,
      "ĠRescuer": 7786,
      "ĠReservoir": 7787,
      "ĠGarenbrig": 7788,
      "ĠAbyssal": 7789,
      "ĠNezumi": 7790,
      "ĠKarlov": 7791,
      "ĠPurphoros": 7792,
      "ĠSojourners": 7793,
      "ĠKuldotha": 7794,
      "'m": 7795,
      "//": 7796,
      "Aur": 7797,
      "Burn": 7798,
      "Bog": 7799,
      "Bolster": 7800,
      "Cr": 7801,
      "Core": 7802,
      "Col": 7803,
      "Cult": 7804,
      "Don": 7805,
      "Dal": 7806,
      "Div": 7807,
      "Dwell": 7808,
      "Ele": 7809,
      "Eerie": 7810,
      "Ferocious": 7811,
      "Gr": 7812,
      "Gor": 7813,
      "Gate": 7814,
      "Grim": 7815,
      "Her": 7816,
      "Horn": 7817,
      "Haunt": 7818,
      "Ke": 7819,
      "Kn": 7820,
      "Knight": 7821,
      "Lair": 7822,
      "Me": 7823,
      "Mad": 7824,
      "Mist": 7825,
      "Mount": 7826,
      "Megamorph": 7827,
      "Mogg": 7828,
      "Nim": 7829,
      "Name": 7830,
      "Night": 7831,
      "Po": 7832,
      "Py": 7833,
      "Punct": 7834,
      "Raven": 7835,
      "Sm": 7836,
      "Sw": 7837,
      "Swamp": 7838,
      "Swe": 7839,
      "Tre": 7840,
      "Turn": 7841,
      "Troll": 7842,
      "Trans": 7843,
      "Tribute": 7844,
      "Tongue": 7845,
      "Val": 7846,
      "Vivid": 7847,
      "Wor": 7848,
      "aign": 7849,
      "bb": 7850,
      "bro": 7851,
      "bul": 7852,
      "bark": 7853,
      "box": 7854,
      "bolt": 7855,
      "cel": 7856,
      "clash": 7857,
      "coon": 7858,
      "cale": 7859,
      "cani": 7860,
      "dur": 7861,
      "dru": 7862,
      "eal": 7863,
      "four": 7864,
      "find": 7865,
      "fox": 7866,
      "grif": 7867,
      "gmoth": 7868,
      "gmy": 7869,
      "hel": 7870,
      "iar": 7871,
      "iys": 7872,
      "jur": 7873,
      "jack": 7874,
      "kit": 7875,
      "klem": 7876,
      "kira": 7877,
      "kull": 7878,
      "kair": 7879,
      "kima": 7880,
      "lt": 7881,
      "len": 7882,
      "lon": 7883,
      "lies": 7884,
      "lance": 7885,
      "link": 7886,
      "loth": 7887,
      "lhar": 7888,
      "mur": 7889,
      "mic": 7890,
      "mas": 7891,
      "mir": 7892,
      "mss": 7893,
      "nir": 7894,
      "nya": 7895,
      "nician": 7896,
      "oter": 7897,
      "oating": 7898,
      "oiler": 7899,
      "pre": 7900,
      "por": 7901,
      "pic": 7902,
      "pile": 7903,
      "pul": 7904,
      "pod": 7905,
      "port": 7906,
      "peaker": 7907,
      "ponder": 7908,
      "prise": 7909,
      "rond": 7910,
      "rator": 7911,
      "rayer": 7912,
      "sal": 7913,
      "sil": 7914,
      "set": 7915,
      "skin": 7916,
      "solute": 7917,
      "tland": 7918,
      "taker": 7919,
      "tract": 7920,
      "umble": 7921,
      "vis": 7922,
      "vad": 7923,
      "vian": 7924,
      "vax": 7925,
      "vory": 7926,
      "vision": 7927,
      "wy": 7928,
      "with": 7929,
      "wave": 7930,
      "wid": 7931,
      "wick": 7932,
      "wolf": 7933,
      "wild": 7934,
      "waf": 7935,
      "wheel": 7936,
      "yto": 7937,
      "zen": 7938,
      "zon": 7939,
      "zoa": 7940,
      "Ãº": 7941,
      "Ġri": 7942,
      "Ġtit": 7943,
      "Ġcal": 7944,
      "Ġche": 7945,
      "Ġcasualty": 7946,
      "ener": 7947,
      "ench": 7948,
      "enment": 7949,
      "ense": 7950,
      "ences": 7951,
      "reth": 7952,
      "rell": 7953,
      "Ġaffinity": 7954,
      "ouac": 7955,
      "aren": 7956,
      "arid": 7957,
      "arled": 7958,
      "arring": 7959,
      "arved": 7960,
      "athere": 7961,
      "erhorn": 7962,
      "ergar": 7963,
      "endar": 7964,
      "endik": 7965,
      "inent": 7966,
      "Ġyet": 7967,
      "Ġyears": 7968,
      "anak": 7969,
      "anha": 7970,
      "onal": 7971,
      "onas": 7972,
      "onist": 7973,
      "endor": 7974,
      "itters": 7975,
      "itable": 7976,
      "itfire": 7977,
      "geant": 7978,
      "actery": 7979,
      "Ġdue": 7980,
      "rof": 7981,
      "roch": 7982,
      "Ġpain": 7983,
      "Ġpink": 7984,
      "Ġpop": 7985,
      "isse": 7986,
      "ishop": 7987,
      "isited": 7988,
      "Ġtoy": 7989,
      "stacker": 7990,
      "lephant": 7991,
      "Ġbal": 7992,
      "Ġbel": 7993,
      "Ġbrib": 7994,
      "Ġbene": 7995,
      "Ġbalan": 7996,
      "Ġslee": 7997,
      "Ġsimultaneously": 7998,
      "Ġfield": 7999,
      "ifth": 8000,
      "alyp": 8001,
      "alized": 8002,
      "Ġmoney": 8003,
      "urion": 8004,
      "urker": 8005,
      "urid": 8006,
      "urance": 8007,
      "urdy": 8008,
      "Ġlower": 8009,
      "orch": 8010,
      "order": 8011,
      "orian": 8012,
      "orvo": 8013,
      "Ġwell": 8014,
      "Ġwish": 8015,
      "Ġeon": 8016,
      "Ġever": 8017,
      "Ġeye": 8018,
      "Ġearn": 8019,
      "Ġepic": 8020,
      "rade": 8021,
      "raderm": 8022,
      "elter": 8023,
      "elly": 8024,
      "eloc": 8025,
      "Ġgold": 8026,
      "Ġhot": 8027,
      "andu": 8028,
      "andalf": 8029,
      "iln": 8030,
      "ilich": 8031,
      "escent": 8032,
      "ĠSing": 8033,
      "ĠSut": 8034,
      "ĠSock": 8035,
      "ĠSad": 8036,
      "ĠSep": 8037,
      "ĠSower": 8038,
      "ĠSled": 8039,
      "ĠSoc": 8040,
      "ĠSah": 8041,
      "ĠSwall": 8042,
      "ammy": 8043,
      "ambling": 8044,
      "icler": 8045,
      "ĠAver": 8046,
      "ĠAud": 8047,
      "ĠAgain": 8048,
      "ĠAway": 8049,
      "ĠAmpl": 8050,
      "ĠAhn": 8051,
      "ĠAurelia": 8052,
      "ashen": 8053,
      "ases": 8054,
      "ased": 8055,
      "asht": 8056,
      "ĠTir": 8057,
      "ĠTow": 8058,
      "ĠTol": 8059,
      "ĠThere": 8060,
      "ĠTire": 8061,
      "ĠTouch": 8062,
      "ĠTran": 8063,
      "ĠToy": 8064,
      "ĠTaker": 8065,
      "ĠTawn": 8066,
      "ĠToad": 8067,
      "ĠTeph": 8068,
      "ĠTaken": 8069,
      "ĠTimmer": 8070,
      "Ġdef": 8071,
      "Ġdemon": 8072,
      "ppable": 8073,
      "ĠIma": 8074,
      "ĠIcy": 8075,
      "ĠIcon": 8076,
      "ĠIlhar": 8077,
      "ĠIvory": 8078,
      "agedd": 8079,
      "ĠCount": 8080,
      "ĠCere": 8081,
      "ĠCoy": 8082,
      "ĠColf": 8083,
      "ĠCrazed": 8084,
      "ĠCenter": 8085,
      "ĠCourser": 8086,
      "Ġref": 8087,
      "Ġrese": 8088,
      "Ġretrace": 8089,
      "Ġready": 8090,
      "osi": 8091,
      "osis": 8092,
      "osing": 8093,
      "osqu": 8094,
      "osition": 8095,
      "osive": 8096,
      "ĠEos": 8097,
      "ĠEther": 8098,
      "ĠEri": 8099,
      "ĠEager": 8100,
      "ĠEternity": 8101,
      "ĠDer": 8102,
      "ĠDim": 8103,
      "ĠDie": 8104,
      "ĠDare": 8105,
      "ĠDish": 8106,
      "ĠDax": 8107,
      "ĠDepar": 8108,
      "ĠDays": 8109,
      "ĠDormant": 8110,
      "mbus": 8111,
      "thor": 8112,
      "thic": 8113,
      "thorn": 8114,
      "thief": 8115,
      "ĠPend": 8116,
      "ĠPure": 8117,
      "ĠPart": 8118,
      "ĠPak": 8119,
      "ĠPug": 8120,
      "ĠProud": 8121,
      "ĠPang": 8122,
      "ĠPoll": 8123,
      "ĠPull": 8124,
      "ĠPledge": 8125,
      "ĠPenu": 8126,
      "iba": 8127,
      "ĠRag": 8128,
      "ĠRath": 8129,
      "ĠRound": 8130,
      "ĠRish": 8131,
      "ĠRaker": 8132,
      "ĠRaze": 8133,
      "ĠRene": 8134,
      "ĠRacer": 8135,
      "ĠRonom": 8136,
      "ĠRuthless": 8137,
      "action": 8138,
      "chanter": 8139,
      "rton": 8140,
      "hock": 8141,
      "hoof": 8142,
      "holt": 8143,
      "owl": 8144,
      "ows": 8145,
      "ssar": 8146,
      "sserhorn": 8147,
      "ape": 8148,
      "ockey": 8149,
      "ĠFel": 8150,
      "ĠFast": 8151,
      "ĠFive": 8152,
      "ĠFist": 8153,
      "ĠFry": 8154,
      "ĠFolk": 8155,
      "ĠFading": 8156,
      "ĠFavored": 8157,
      "ĠMu": 8158,
      "ĠMen": 8159,
      "ĠMel": 8160,
      "ĠMot": 8161,
      "ĠMus": 8162,
      "ĠMess": 8163,
      "ĠMime": 8164,
      "ĠMour": 8165,
      "ĠMoth": 8166,
      "ĠMake": 8167,
      "ĠMale": 8168,
      "ĠMeph": 8169,
      "ĠMaj": 8170,
      "ĠMurk": 8171,
      "ĠMÃ¡": 8172,
      "ĠMauler": 8173,
      "mantle": 8174,
      "ado": 8175,
      "adon": 8176,
      "adox": 8177,
      "ĠBi": 8178,
      "ĠBy": 8179,
      "ĠBer": 8180,
      "ĠBay": 8181,
      "ĠBes": 8182,
      "ĠBiv": 8183,
      "ĠBus": 8184,
      "ĠBess": 8185,
      "ĠBest": 8186,
      "ĠBau": 8187,
      "ĠBene": 8188,
      "ĠBringer": 8189,
      "ĠBully": 8190,
      "ĠBlessed": 8191
    },
    "merges": [
      [
        "Ġ",
        "t"
      ],
      [
        "Ġ",
        "c"
      ],
      [
        "e",
        "n"
      ],
      [
        "r",
        "e"
      ],
      [
        "Ġ",
        "a"
      ],
      [
        "Ġ",
        "."
      ],
      [
        "t",
        "e"
      ],
      [
        "č",
        "Ċ"
      ],
      [
        "o",
        "u"
      ],
      [
        "Ġ",
        "o"
      ],
      [
        "a",
        "r"
      ],
      [
        "Ġt",
        "h"
      ],
      [
        "a",
        "t"
      ],
      [
        "e",
        "r"
      ],
      [
        "Ġ",
        ","
      ],
      [
        "en",
        "d"
      ],
      [
        "i",
        "n"
      ],
      [
        "Ġ",
        "y"
      ],
      [
        "Ġy",
        "ou"
      ],
      [
        "a",
        "n"
      ],
      [
        "x",
        "t"
      ],
      [
        "Ġc",
        "re"
      ],
      [
        "f",
        "te"
      ],
      [
        "u",
        "re"
      ],
      [
        "o",
        "n"
      ],
      [
        "end",
        "o"
      ],
      [
        "<",
        "|"
      ],
      [
        "|",
        ">"
      ],
      [
        "fte",
        "xt"
      ],
      [
        "endo",
        "ftext"
      ],
      [
        "i",
        "t"
      ],
      [
        "at",
        "ure"
      ],
      [
        "Ġcre",
        "ature"
      ],
      [
        "g",
        "e"
      ],
      [
        "ar",
        "d"
      ],
      [
        "a",
        "c"
      ],
      [
        "Ġ",
        "d"
      ],
      [
        "Ġ",
        "\\"
      ],
      [
        "r",
        "o"
      ],
      [
        "Ġ",
        "{"
      ],
      [
        "Ġ",
        "p"
      ],
      [
        "Ġth",
        "e"
      ],
      [
        "i",
        "s"
      ],
      [
        "Ġo",
        "f"
      ],
      [
        "Ġt",
        "o"
      ],
      [
        "s",
        "t"
      ],
      [
        "Ġa",
        "n"
      ],
      [
        "l",
        "e"
      ],
      [
        "Ġ",
        "b"
      ],
      [
        "ge",
        "t"
      ],
      [
        "a",
        "y"
      ],
      [
        "Ġc",
        "ard"
      ],
      [
        "Ġ",
        "s"
      ],
      [
        "Ġ",
        "f"
      ],
      [
        "i",
        "f"
      ],
      [
        "a",
        "l"
      ],
      [
        "Ġ",
        "it"
      ],
      [
        "te",
        "r"
      ],
      [
        "Ġ",
        "m"
      ],
      [
        "u",
        "r"
      ],
      [
        "Ġ",
        "l"
      ],
      [
        "in",
        "g"
      ],
      [
        "h",
        "en"
      ],
      [
        "o",
        "r"
      ],
      [
        "Ġ",
        "w"
      ],
      [
        "Ġyou",
        "r"
      ],
      [
        "Ġo",
        "n"
      ],
      [
        "ro",
        "l"
      ],
      [
        "on",
        "t"
      ],
      [
        "ar",
        "get"
      ],
      [
        "W",
        "hen"
      ],
      [
        "Ġc",
        "ont"
      ],
      [
        "Ġcont",
        "rol"
      ],
      [
        "Ġ",
        "e"
      ],
      [
        "ur",
        "n"
      ],
      [
        "Ġ",
        "u"
      ],
      [
        "r",
        "a"
      ],
      [
        "e",
        "l"
      ],
      [
        "v",
        "e"
      ],
      [
        "Ġ",
        ":"
      ],
      [
        "Ġ",
        "g"
      ],
      [
        "Ġ",
        "h"
      ],
      [
        "an",
        "d"
      ],
      [
        "i",
        "l"
      ],
      [
        "Ġt",
        "arget"
      ],
      [
        "Ġth",
        "is"
      ],
      [
        "e",
        "s"
      ],
      [
        "Ġ",
        "S"
      ],
      [
        "en",
        "t"
      ],
      [
        "Ġo",
        "r"
      ],
      [
        "Ġt",
        "urn"
      ],
      [
        "Ġc",
        "o"
      ],
      [
        "a",
        "m"
      ],
      [
        "Ġan",
        "d"
      ],
      [
        "ter",
        "s"
      ],
      [
        "Ġ",
        "en"
      ],
      [
        "Ġu",
        "n"
      ],
      [
        "Ġ",
        "("
      ],
      [
        "i",
        "c"
      ],
      [
        "Ġ",
        "A"
      ],
      [
        "Ġ",
        ")"
      ],
      [
        "a",
        "s"
      ],
      [
        "Ġ",
        "in"
      ],
      [
        "e",
        "d"
      ],
      [
        "ou",
        "n"
      ],
      [
        "Ġp",
        "l"
      ],
      [
        "it",
        "h"
      ],
      [
        "ac",
        "h"
      ],
      [
        "Ġ",
        "n"
      ],
      [
        "Ġb",
        "e"
      ],
      [
        "u",
        "t"
      ],
      [
        "Ġ",
        "T"
      ],
      [
        "Ġd",
        "e"
      ],
      [
        "Ġth",
        "at"
      ],
      [
        "Ġw",
        "ith"
      ],
      [
        "Ġ",
        "+"
      ],
      [
        "v",
        "er"
      ],
      [
        "/",
        "+"
      ],
      [
        "'",
        "s"
      ],
      [
        "Ġ",
        "When"
      ],
      [
        "c",
        "h"
      ],
      [
        "l",
        "y"
      ],
      [
        "a",
        "st"
      ],
      [
        "p",
        "p"
      ],
      [
        "Ġun",
        "t"
      ],
      [
        "Ġs",
        "p"
      ],
      [
        "Ġ",
        "I"
      ],
      [
        "Ġc",
        "oun"
      ],
      [
        "Ġm",
        "ay"
      ],
      [
        "e",
        "ver"
      ],
      [
        "el",
        "l"
      ],
      [
        "Ġpl",
        "ay"
      ],
      [
        "Ġen",
        "ters"
      ],
      [
        "a",
        "te"
      ],
      [
        "Ġ",
        "end"
      ],
      [
        "a",
        "ge"
      ],
      [
        "ro",
        "m"
      ],
      [
        "Ġsp",
        "ell"
      ],
      [
        "Ġ",
        "C"
      ],
      [
        "Ġa",
        "t"
      ],
      [
        "Ġf",
        "rom"
      ],
      [
        "Ġc",
        "ast"
      ],
      [
        "Ġplay",
        "er"
      ],
      [
        "Ġ",
        "re"
      ],
      [
        "o",
        "s"
      ],
      [
        "am",
        "age"
      ],
      [
        "Ġ",
        "E"
      ],
      [
        "ac",
        "k"
      ],
      [
        "Ġ",
        "D"
      ],
      [
        "a",
        "in"
      ],
      [
        "Ġd",
        "amage"
      ],
      [
        "Ġe",
        "ach"
      ],
      [
        "m",
        "b"
      ],
      [
        "Ġde",
        "al"
      ],
      [
        "Ġ",
        "get"
      ],
      [
        "Ġunt",
        "il"
      ],
      [
        "Ġp",
        "ut"
      ],
      [
        "Ġcard",
        "s"
      ],
      [
        "t",
        "h"
      ],
      [
        "t",
        "o"
      ],
      [
        "i",
        "r"
      ],
      [
        "Ġ",
        "P"
      ],
      [
        "Ġf",
        "or"
      ],
      [
        "Ġ",
        "â"
      ],
      [
        "'",
        "t"
      ],
      [
        "ic",
        "e"
      ],
      [
        "Ġa",
        "s"
      ],
      [
        "Ġb",
        "l"
      ],
      [
        "Y",
        "ou"
      ],
      [
        "i",
        "b"
      ],
      [
        "Ġh",
        "and"
      ],
      [
        "i",
        "le"
      ],
      [
        "k",
        "en"
      ],
      [
        "Ġit",
        "s"
      ],
      [
        "ar",
        "y"
      ],
      [
        "Ġg",
        "ain"
      ],
      [
        "ra",
        "ve"
      ],
      [
        "Ġ",
        "R"
      ],
      [
        "Ġcreature",
        "s"
      ],
      [
        "y",
        "ard"
      ],
      [
        "ly",
        "ing"
      ],
      [
        "r",
        "if"
      ],
      [
        "rave",
        "yard"
      ],
      [
        "Ġg",
        "raveyard"
      ],
      [
        "ac",
        "rif"
      ],
      [
        "Ġat",
        "t"
      ],
      [
        "Ġ",
        "1"
      ],
      [
        "Ġm",
        "an"
      ],
      [
        "Ġâ",
        "Ģ"
      ],
      [
        "Ġcoun",
        "ter"
      ],
      [
        "d",
        "d"
      ],
      [
        "Ġl",
        "if"
      ],
      [
        "Ġto",
        "ken"
      ],
      [
        "Ġc",
        "an"
      ],
      [
        "x",
        "ile"
      ],
      [
        "ra",
        "w"
      ],
      [
        "ac",
        "t"
      ],
      [
        "ch",
        "an"
      ],
      [
        "ib",
        "r"
      ],
      [
        "Ġdeal",
        "s"
      ],
      [
        "Ġl",
        "ibr"
      ],
      [
        "Ġlibr",
        "ary"
      ],
      [
        "Ġget",
        "s"
      ],
      [
        "on",
        "ent"
      ],
      [
        "pp",
        "onent"
      ],
      [
        "Ġo",
        "pponent"
      ],
      [
        "th",
        "er"
      ],
      [
        "c",
        "k"
      ],
      [
        "r",
        "t"
      ],
      [
        "h",
        "o"
      ],
      [
        "q",
        "u"
      ],
      [
        "Ġatt",
        "ack"
      ],
      [
        "ĠWhen",
        "ever"
      ],
      [
        "if",
        "act"
      ],
      [
        "Ġman",
        "a"
      ],
      [
        "Ġ",
        "is"
      ],
      [
        "acrif",
        "ice"
      ],
      [
        "os",
        "e"
      ],
      [
        "rt",
        "ifact"
      ],
      [
        "Ġlif",
        "e"
      ],
      [
        "o",
        "w"
      ],
      [
        "k",
        "e"
      ],
      [
        "Ġ",
        "\""
      ],
      [
        "t",
        "le"
      ],
      [
        "Ġa",
        "rtifact"
      ],
      [
        "s",
        "s"
      ],
      [
        "el",
        "d"
      ],
      [
        "Ġan",
        "y"
      ],
      [
        "ĠI",
        "f"
      ],
      [
        "a",
        "p"
      ],
      [
        "f",
        "i"
      ],
      [
        "Ġu",
        "p"
      ],
      [
        "o",
        "ck"
      ],
      [
        "at",
        "tle"
      ],
      [
        "Ġh",
        "as"
      ],
      [
        "o",
        "re"
      ],
      [
        "Ġ",
        "F"
      ],
      [
        "Ġb",
        "attle"
      ],
      [
        "c",
        "t"
      ],
      [
        "fi",
        "eld"
      ],
      [
        "Ġbattle",
        "field"
      ],
      [
        "Ġ",
        "M"
      ],
      [
        "Ġon",
        "e"
      ],
      [
        "i",
        "on"
      ],
      [
        "Ġt",
        "w"
      ],
      [
        "le",
        "ss"
      ],
      [
        "Ġbl",
        "ock"
      ],
      [
        "m",
        "an"
      ],
      [
        "Ġco",
        "st"
      ],
      [
        "Ġ",
        "if"
      ],
      [
        "o",
        "m"
      ],
      [
        "Ġtw",
        "o"
      ],
      [
        "a",
        "d"
      ],
      [
        "n",
        "ing"
      ],
      [
        "g",
        "in"
      ],
      [
        "Ġl",
        "and"
      ],
      [
        "Ġ",
        "B"
      ],
      [
        "Ġ",
        "2"
      ],
      [
        "c",
        "e"
      ],
      [
        "Ġp",
        "er"
      ],
      [
        "Ġbe",
        "gin"
      ],
      [
        "pp",
        "ed"
      ],
      [
        "Ġbegin",
        "ning"
      ],
      [
        "When",
        "ever"
      ],
      [
        "h",
        "e"
      ],
      [
        "i",
        "g"
      ],
      [
        "Ġ",
        "X"
      ],
      [
        "Ġe",
        "xile"
      ],
      [
        "ĠâĢ",
        "Ķ"
      ],
      [
        "Ġ",
        "G"
      ],
      [
        "Ġin",
        "to"
      ],
      [
        "man",
        "ent"
      ],
      [
        "l",
        "l"
      ],
      [
        "Ġper",
        "manent"
      ],
      [
        "Ġ",
        "You"
      ],
      [
        "Ġp",
        "ay"
      ],
      [
        "t",
        "urn"
      ],
      [
        "Ġth",
        "en"
      ],
      [
        "Ġd",
        "raw"
      ],
      [
        "h",
        "is"
      ],
      [
        "Ġcoun",
        "ters"
      ],
      [
        "F",
        "lying"
      ],
      [
        "is",
        "c"
      ],
      [
        "on",
        "g"
      ],
      [
        "ĠR",
        "e"
      ],
      [
        "mb",
        "er"
      ],
      [
        "a",
        "ve"
      ],
      [
        "i",
        "es"
      ],
      [
        "r",
        "i"
      ],
      [
        "isc",
        "ard"
      ],
      [
        "u",
        "mber"
      ],
      [
        "Ġto",
        "p"
      ],
      [
        "l",
        "or"
      ],
      [
        "Ġn",
        "umber"
      ],
      [
        "Ġ",
        "W"
      ],
      [
        "te",
        "d"
      ],
      [
        "ho",
        "ose"
      ],
      [
        "Ġcre",
        "ate"
      ],
      [
        "l",
        "d"
      ],
      [
        "chan",
        "t"
      ],
      [
        "Ġco",
        "mb"
      ],
      [
        "u",
        "e"
      ],
      [
        "ĠA",
        "dd"
      ],
      [
        "Ġthe",
        "ir"
      ],
      [
        "Ġco",
        "lor"
      ],
      [
        "Ġcomb",
        "at"
      ],
      [
        "Ġd",
        "o"
      ],
      [
        "e",
        "p"
      ],
      [
        "Ġ",
        "H"
      ],
      [
        "ĠS",
        "acrifice"
      ],
      [
        "Ġgain",
        "s"
      ],
      [
        "Ġa",
        "b"
      ],
      [
        "ow",
        "er"
      ],
      [
        "st",
        "ro"
      ],
      [
        "a",
        "pped"
      ],
      [
        "Ġm",
        "ore"
      ],
      [
        "stro",
        "y"
      ],
      [
        "w",
        "n"
      ],
      [
        "m",
        "p"
      ],
      [
        "Ġ",
        "v"
      ],
      [
        "Ġp",
        "ower"
      ],
      [
        "d",
        "er"
      ],
      [
        "Ġe",
        "qu"
      ],
      [
        "Ġon",
        "ly"
      ],
      [
        "i",
        "v"
      ],
      [
        "Ġo",
        "wn"
      ],
      [
        "i",
        "m"
      ],
      [
        "k",
        "er"
      ],
      [
        "Ġ",
        "L"
      ],
      [
        "o",
        "o"
      ],
      [
        "T",
        "his"
      ],
      [
        "c",
        "er"
      ],
      [
        "Ġa",
        "ll"
      ],
      [
        "Ġattack",
        "s"
      ],
      [
        "Ġh",
        "ave"
      ],
      [
        "Ġ",
        "st"
      ],
      [
        "te",
        "p"
      ],
      [
        "Ġs",
        "tep"
      ],
      [
        "ke",
        "ep"
      ],
      [
        "Ġn",
        "e"
      ],
      [
        "Ġn",
        "on"
      ],
      [
        "Ġ",
        "3"
      ],
      [
        "f",
        "f"
      ],
      [
        "c",
        "om"
      ],
      [
        "ac",
        "e"
      ],
      [
        "Ġup",
        "keep"
      ],
      [
        "chan",
        "ted"
      ],
      [
        "Ġbe",
        "com"
      ],
      [
        "Ġf",
        "lying"
      ],
      [
        "Ġo",
        "ther"
      ],
      [
        "m",
        "ent"
      ],
      [
        "ĠA",
        "t"
      ],
      [
        "i",
        "p"
      ],
      [
        "Ġt",
        "apped"
      ],
      [
        "o",
        "t"
      ],
      [
        "il",
        "it"
      ],
      [
        "Ġblock",
        "ed"
      ],
      [
        "i",
        "d"
      ],
      [
        "or",
        "cer"
      ],
      [
        "Ġa",
        "dd"
      ],
      [
        "an",
        "t"
      ],
      [
        "re",
        "e"
      ],
      [
        "Ġs",
        "orcer"
      ],
      [
        "Ġsorcer",
        "y"
      ],
      [
        "Ġab",
        "ilit"
      ],
      [
        "Ġequ",
        "al"
      ],
      [
        "Ġs",
        "h"
      ],
      [
        "o",
        "ther"
      ],
      [
        "Ġre",
        "ve"
      ],
      [
        "ĠC",
        "re"
      ],
      [
        "ĠP",
        "ut"
      ],
      [
        "e",
        "ar"
      ],
      [
        "Ġcontrol",
        "s"
      ],
      [
        "Ġown",
        "er"
      ],
      [
        "mp",
        "le"
      ],
      [
        "ct",
        "iv"
      ],
      [
        "Ġbecom",
        "es"
      ],
      [
        "Ġ",
        "less"
      ],
      [
        "Ġd",
        "iscard"
      ],
      [
        "Ġan",
        "other"
      ],
      [
        "Ġ",
        "O"
      ],
      [
        "Ġg",
        "re"
      ],
      [
        "ĠâĢ",
        "¢"
      ],
      [
        "Ġb",
        "y"
      ],
      [
        "Ġne",
        "xt"
      ],
      [
        "l",
        "er"
      ],
      [
        "ctiv",
        "ate"
      ],
      [
        "ra",
        "mple"
      ],
      [
        "w",
        "al"
      ],
      [
        "ĠT",
        "arget"
      ],
      [
        "o",
        "l"
      ],
      [
        "Ġ",
        "V"
      ],
      [
        "am",
        "e"
      ],
      [
        "h",
        "t"
      ],
      [
        "Ġth",
        "ree"
      ],
      [
        "u",
        "s"
      ],
      [
        "ĠE",
        "n"
      ],
      [
        "Ġ",
        "U"
      ],
      [
        "Ġre",
        "turn"
      ],
      [
        "ou",
        "ld"
      ],
      [
        "es",
        "s"
      ],
      [
        "it",
        "ion"
      ],
      [
        "ĠD",
        "raw"
      ],
      [
        "Ġl",
        "ong"
      ],
      [
        "ĠS",
        "p"
      ],
      [
        "i",
        "te"
      ],
      [
        "ĠI",
        "t"
      ],
      [
        "ĠD",
        "e"
      ],
      [
        "Ġs",
        "acrifice"
      ],
      [
        "ir",
        "st"
      ],
      [
        "Ġreve",
        "al"
      ],
      [
        "Ġon",
        "to"
      ],
      [
        "Ġc",
        "hoose"
      ],
      [
        "y",
        "p"
      ],
      [
        "u",
        "ff"
      ],
      [
        "Ġadd",
        "ition"
      ],
      [
        "Ġw",
        "h"
      ],
      [
        "Ġco",
        "p"
      ],
      [
        "uff",
        "le"
      ],
      [
        "Ġa",
        "m"
      ],
      [
        "l",
        "and"
      ],
      [
        "ou",
        "g"
      ],
      [
        "Ġe",
        "x"
      ],
      [
        "as",
        "h"
      ],
      [
        "Ġd",
        "ies"
      ],
      [
        "Ġv",
        "al"
      ],
      [
        "he",
        "re"
      ],
      [
        "Ġval",
        "ue"
      ],
      [
        "Ġunt",
        "ap"
      ],
      [
        "oug",
        "h"
      ],
      [
        "Ġsh",
        "uffle"
      ],
      [
        "Ġpl",
        "an"
      ],
      [
        "Ġt",
        "yp"
      ],
      [
        "im",
        "e"
      ],
      [
        "Ġ",
        "le"
      ],
      [
        "ou",
        "t"
      ],
      [
        "Ġw",
        "ould"
      ],
      [
        "Ġ",
        "K"
      ],
      [
        "Ġthe",
        "m"
      ],
      [
        "ou",
        "r"
      ],
      [
        "es",
        "wal"
      ],
      [
        "E",
        "n"
      ],
      [
        "Ġhas",
        "te"
      ],
      [
        "Ġa",
        "re"
      ],
      [
        "ĠE",
        "qu"
      ],
      [
        "an",
        "ce"
      ],
      [
        "A",
        "t"
      ],
      [
        "m",
        "o"
      ],
      [
        "ri",
        "ke"
      ],
      [
        "Ġplan",
        "eswal"
      ],
      [
        "D",
        "e"
      ],
      [
        "Ġcop",
        "y"
      ],
      [
        "Ġc",
        "h"
      ],
      [
        "/",
        "-"
      ],
      [
        "s",
        "te"
      ],
      [
        "Ġ",
        "4"
      ],
      [
        "ĠU",
        "n"
      ],
      [
        "u",
        "n"
      ],
      [
        "ear",
        "ch"
      ],
      [
        "Ġst",
        "rike"
      ],
      [
        "l",
        "ash"
      ],
      [
        "Ġdeal",
        "t"
      ],
      [
        "En",
        "chant"
      ],
      [
        "Ġen",
        "chant"
      ],
      [
        "Ġt",
        "ime"
      ],
      [
        "Ġcontrol",
        "ler"
      ],
      [
        "Ġplaneswal",
        "ker"
      ],
      [
        "Ġ",
        "r"
      ],
      [
        "Ġf",
        "ace"
      ],
      [
        "os",
        "es"
      ],
      [
        "ĠE",
        "xile"
      ],
      [
        "Ġ",
        "-"
      ],
      [
        "ste",
        "ad"
      ],
      [
        "Ġin",
        "stead"
      ],
      [
        "Ġw",
        "here"
      ],
      [
        "ur",
        "ing"
      ],
      [
        "Ġtoken",
        "s"
      ],
      [
        "Ġw",
        "ay"
      ],
      [
        "Ġwh",
        "ite"
      ],
      [
        "Ġth",
        "an"
      ],
      [
        "ĠEn",
        "chanted"
      ],
      [
        "u",
        "l"
      ],
      [
        "ig",
        "il"
      ],
      [
        "ĠT",
        "h"
      ],
      [
        "mo",
        "ve"
      ],
      [
        "ĠEqu",
        "ip"
      ],
      [
        "Ġspell",
        "s"
      ],
      [
        "Ġenchant",
        "ment"
      ],
      [
        "Ġf",
        "irst"
      ],
      [
        "i",
        "e"
      ],
      [
        "ĠCre",
        "ate"
      ],
      [
        "Ġam",
        "ong"
      ],
      [
        "igil",
        "ance"
      ],
      [
        "Ġbl",
        "ack"
      ],
      [
        "n",
        "ess"
      ],
      [
        "oo",
        "k"
      ],
      [
        "Ġaddition",
        "al"
      ],
      [
        "il",
        "l"
      ],
      [
        "Ġthe",
        "y"
      ],
      [
        "Ġun",
        "less"
      ],
      [
        "A",
        "s"
      ],
      [
        "Ġabilit",
        "y"
      ],
      [
        "Ġattack",
        "ing"
      ],
      [
        "f",
        "end"
      ],
      [
        "Ġgre",
        "en"
      ],
      [
        "ĠA",
        "ctivate"
      ],
      [
        "Ġin",
        "st"
      ],
      [
        "ĠRe",
        "turn"
      ],
      [
        "T",
        "arget"
      ],
      [
        "ĠT",
        "he"
      ],
      [
        "i",
        "ve"
      ],
      [
        "Ġl",
        "oses"
      ],
      [
        "Ġinst",
        "ant"
      ],
      [
        "Ġc",
        "ho"
      ],
      [
        "r",
        "u"
      ],
      [
        "Ġt",
        "rample"
      ],
      [
        "ig",
        "ht"
      ],
      [
        "Ġnon",
        "land"
      ],
      [
        "is",
        "t"
      ],
      [
        "Ġd",
        "uring"
      ],
      [
        "I",
        "f"
      ],
      [
        "e",
        "t"
      ],
      [
        "to",
        "m"
      ],
      [
        "er",
        "s"
      ],
      [
        "Ġwith",
        "out"
      ],
      [
        "Ġde",
        "stroy"
      ],
      [
        "p",
        "t"
      ],
      [
        "d",
        "e"
      ],
      [
        "Ġun",
        "der"
      ],
      [
        "Ġw",
        "as"
      ],
      [
        "Ġ",
        "N"
      ],
      [
[...]
