{
  "version": "1.0",
  "truncation": null,
  "padding": {
    "strategy": "BatchLongest",
    "direction": "Right",
    "pad_to_multiple_of": null,
    "pad_id": 1,
    "pad_type_id": 0,
    "pad_token": "<|pad|>"
  },
  "added_tokens": [
    {
      "id": 0,
      "content": "<|endoftext|>",
      "single_word": false,
      "lstrip": false,
      "rstrip": false,
      "normalized": false,
      "special": true
    },
    {
      "id": 1,
      "content": "<|pad|>",
      "single_word": false,
      "lstrip": false,
      "rstrip": false,
      "normalized": false,
      "special": true
    }
  ],
  "normalizer": {
    "type": "Sequence",
    "normalizers": [
      {
        "type": "NFKC"
      }
    ]
  },
  "pre_tokenizer": {
    "type": "ByteLevel",
    "add_prefix_space": false,
    "trim_offsets": true,
    "use_regex": true
  },
  "post_processor": {
    "type": "ByteLevel",
    "add_prefix_space": true,
    "trim_offsets": false,
    "use_regex": true
  },
  "decoder": {
    "type": "ByteLevel",
    "add_prefix_space": true,
    "trim_offsets": true,
    "use_regex": true
  },
  "model": {
    "type": "BPE",
    "dropout": null,
    "unk_token": null,
    "continuing_subword_prefix": null,
    "end_of_word_suffix": null,
    "fuse_unk": false,
    "byte_fallback": false,
    "ignore_merges": false,
    "vocab": {
      "<|endoftext|>": 0,
      "<|pad|>": 1,
      "'": 2,
      "(": 3,
      ")": 4,
      ",": 5,
      "-": 6,
      ".": 7,
      "/": 8,
      "0": 9,
      "1": 10,
      "2": 11,
      "3": 12,
      "4": 13,
      "5": 14,
      "6": 15,
      "7": 16,
      "8": 17,
      "9": 18,
      ":": 19,
      "<": 20,
      ">": 21,
      "A": 22,
      "B": 23,
      "C": 24,
      "D": 25,
      "E": 26,
      "F": 27,
      "G": 28,
      "H": 29,
      "I": 30,
      "J": 31,
      "K": 32,
      "L": 33,
      "M": 34,
      "N": 35,
      "O": 36,
      "P": 37,
      "Q": 38,
      "R": 39,
      "S": 40,
      "T": 41,
      "U": 42,
      "V": 43,
      "W": 44,
      "X": 45,
      "Y": 46,
      "Z": 47,
      "[": 48,
      "\\": 49,
      "]": 50,
      "_": 51,
      "a": 52,
      "b": 53,
      "c": 54,
      "d": 55,
      "e": 56,
      "f": 57,
      "g": 58,
      "h": 59,
      "i": 60,
      "j": 61,
      "k": 62,
      "l": 63,
      "m": 64,
      "n": 65,
      "o": 66,
      "p": 67,
      "q": 68,
      "r": 69,
      "s": 70,
      "t": 71,
      "u": 72,
      "v": 73,
      "w": 74,
      "x": 75,
      "y": 76,
      "z": 77,
      "{": 78,
      "|": 79,
      "}": 80,
      "º": 81,
      "Ã": 82,
      "â": 83,
      "Ċ": 84,
      "č": 85,
      "Ġ": 86,
      "Ģ": 87,
      "Ī": 88,
      "Ĵ": 89,
      "Ķ": 90,
      "Ġ,": 91,
      "Ġ<": 92,
      "re": 93,
      "Ġ{": 94,
      "ĠC": 95,
      "en": 96,
      "at": 97,
      "st": 98,
      "ar": 99,
      "ĠCo": 100,
      "reat": 101,
      "ure": 102,
      "reature": 103,
      "čĊ": 104,
      "ME": 105,
      "NA": 106,
      "an": 107,
      "am": 108,
      "or": 109,
      "er": 110,
      "ent": 111,
      "Ġc": 112,
      "Ġt": 113,
      "ĠCreature": 114,
      "it": 115,
      "end": 116,
      "ĠI": 117,
      "ame": 118,
      "name": 119,
      "of": 120,
      "ĠB": 121,
      "ex": 122,
      "ou": 123,
      "in": 124,
      "art": 125,
      "lor": 126,
      "ity": 127,
      "ext": 128,
      "ĠCost": 129,
      "start": 130,
      "ĠColor": 131,
      "dent": 132,
      "dentity": 133,
      "ĠIdentity": 134,
      "<|": 135,
      "EME": 136,
      "HEME": 137,
      "THEME": 138,
      "text": 139,
      "|>": 140,
      "endof": 141,
      "THEMES": 142,
      "endoftext": 143,
      "AR": 144,
      "ARD": 145,
      "CARD": 146,
      "NAME": 147,
      "ac": 148,
      "ANA": 149,
      "CO": 150,
      "MANA": 151,
      "ST": 152,
      "COST": 153,
      "as": 154,
      "NE": 155,
      "TY": 156,
      "INE": 157,
      "LINE": 158,
      "PE": 159,
      "TYPE": 160,
      "on": 161,
      "ed": 162,
      "ĠW": 163,
      "Ġth": 164,
      "if": 165,
      "ĠS": 166,
      "LE": 167,
      "AC": 168,
      "EX": 169,
      "OR": 170,
      "TEX": 171,
      "ACLE": 172,
      "ORACLE": 173,
      "TEXT": 174,
      "Ġ.": 175,
      "ĠA": 176,
      "Ġy": 177,
      "Ġyou": 178,
      "ard": 179,
      "Ġâ": 180,
      "ĠD": 181,
      "ĢĶ": 182,
      "ĠâĢĶ": 183,
      "ĠBas": 184,
      "ĠBased": 185,
      "ĠT": 186,
      "ge": 187,
      "Ġa": 188,
      "ĠE": 189,
      "ĠR": 190,
      "ant": 191,
      "ing": 192,
      "Ġ\\": 193,
      "Ġcreature": 194,
      "ĠG": 195,
      "le": 196,
      "ĠL": 197,
      "Ġ1": 198,
      "is": 199,
      "ro": 200,
      "nt": 201,
      "ĠU": 202,
      "ĠF": 203,
      "eg": 204,
      "ra": 205,
      "Ġd": 206,
      "ers": 207,
      "and": 208,
      "Ġp": 209,
      "ĠH": 210,
      "al": 211,
      "Ġthe": 212,
      "ok": 213,
      "ch": 214,
      "man": 215,
      "ary": 216,
      "ic": 217,
      "Ġb": 218,
      "ay": 219,
      "act": 220,
      "hen": 221,
      "oken": 222,
      "ifact": 223,
      "ment": 224,
      "ĠWhen": 225,
      "Ġof": 226,
      "ĠAr": 227,
      "get": 228,
      "Ġcard": 229,
      "Ġf": 230,
      "ĠArt": 231,
      "chant": 232,
      "es": 233,
      "el": 234,
      "endary": 235,
      "ĠEn": 236,
      "Ġto": 237,
      "okens": 238,
      "Ġs": 239,
      "ĠArtifact": 240,
      "ly": 241,
      "ĠLeg": 242,
      "ĠLegendary": 243,
      "ast": 244,
      "Ġit": 245,
      "ĠEnchant": 246,
      "ur": 247,
      "unt": 248,
      "ĠTokens": 249,
      "uman": 250,
      "ĠHuman": 251,
      "Ġyour": 252,
      "Ġl": 253,
      "ĠN": 254,
      "Ġw": 255,
      "il": 256,
      "ĠP": 257,
      "age": 258,
      "rol": 259,
      "Ġon": 260,
      "ĠIn": 261,
      "amage": 262,
      "Ġm": 263,
      "Ġ(": 264,
      "lying": 265,
      "ĠEnchantment": 266,
      "ve": 267,
      "ont": 268,
      "arget": 269,
      "Ġcont": 270,
      "Ġcontrol": 271,
      "ĠFlying": 272,
      "ack": 273,
      "Ġ:": 274,
      "ev": 275,
      "ery": 276,
      "Ġan": 277,
      "orc": 278,
      "ific": 279,
      "orcery": 280,
      "Ġthis": 281,
      "ut": 282,
      "stant": 283,
      "ir": 284,
      "mb": 285,
      "ĠM": 286,
      "urn": 287,
      "rific": 288,
      "acrific": 289,
      "Ġh": 290,
      "ĠSorcery": 291,
      "Ġor": 292,
      "ĠInstant": 293,
      "ke": 294,
      "acrifice": 295,
      "Ġtarget": 296,
      "ell": 297,
      "ĠDra": 298,
      "Ġent": 299,
      "Ġg": 300,
      "ever": 301,
      "ĠWhenever": 302,
      "ain": 303,
      "Ġenters": 304,
      "Ġco": 305,
      "pell": 306,
      "tack": 307,
      "ĠCount": 308,
      "ach": 309,
      "ith": 310,
      "ĠCounters": 311,
      "ĠAt": 312,
      "Ġand": 313,
      "Ġmay": 314,
      "ri": 315,
      "ĠSacrifice": 316,
      "Ġwith": 317,
      "ount": 318,
      "ĠDamage": 319,
      "ep": 320,
      "Ġcast": 321,
      "ol": 322,
      "Ġe": 323,
      "pp": 324,
      "Ġin": 325,
      "Ġspell": 326,
      "Ġat": 327,
      "Ġpl": 328,
      "Ġturn": 329,
      "Ġo": 330,
      "amp": 331,
      "Ġcount": 332,
      "Ġde": 333,
      "ct": 334,
      "ĠDraw": 335,
      "Ġn": 336,
      "ig": 337,
      "Ġthat": 338,
      "lo": 339,
      "os": 340,
      "rom": 341,
      "Ġu": 342,
      "Ġ2": 343,
      "qu": 344,
      "Ġfrom": 345,
      "Ġplay": 346,
      "ib": 347,
      "ion": 348,
      "ĠCard": 349,
      "ĠY": 350,
      "ĠV": 351,
      "ĠYou": 352,
      "Ġre": 353,
      "iz": 354,
      "Ġunt": 355,
      "Ġput": 356,
      "ĠTh": 357,
      "Ġplayer": 358,
      "ĠRe": 359,
      "keep": 360,
      "Ġ)": 361,
      "pkeep": 362,
      "tacking": 363,
      "Ġdeal": 364,
      "ĠLif": 365,
      "Ġcards": 366,
      "Ġend": 367,
      "ĠIf": 368,
      "mbat": 369,
      "ĠWar": 370,
      "Ġeach": 371,
      "Ġdamage": 372,
      "Ġget": 373,
      "izard": 374,
      "ck": 375,
      "'s": 376,
      "Ġfor": 377,
      "ĠDe": 378,
      "lock": 379,
      "ies": 380,
      "ker": 381,
      "Ġbe": 382,
      "ura": 383,
      "Ġas": 384,
      "ue": 385,
      "ample": 386,
      "ile": 387,
      "rample": 388,
      "th": 389,
      "ht": 390,
      "ĠK": 391,
      "ĠSp": 392,
      "ĠAttacking": 393,
      "ĠAura": 394,
      "'t": 395,
      "rior": 396,
      "ibr": 397,
      "ĠWarrior": 398,
      "Ġlibr": 399,
      "Ġlibrary": 400,
      "ĠWizard": 401,
      "Ġcreatures": 402,
      "aste": 403,
      "qui": 404,
      "isc": 405,
      "ate": 406,
      "Ġuntil": 407,
      "Ġex": 408,
      "old": 409,
      "ow": 410,
      "ose": 411,
      "iscard": 412,
      "ap": 413,
      "Ġcounter": 414,
      "inn": 415,
      "id": 416,
      "ĠLand": 417,
      "ho": 418,
      "Ġcan": 419,
      "ther": 420,
      "ce": 421,
      "ĠEl": 422,
      "to": 423,
      "onent": 424,
      "ĠTrample": 425,
      "pponent": 426,
      "reate": 427,
      "Ġopponent": 428,
      "ĠEqui": 429,
      "Ġgain": 430,
      "Ġbeg": 431,
      "dd": 432,
      "ru": 433,
      "Ġone": 434,
      "inning": 435,
      "Ġbeginning": 436,
      "Ġdeals": 437,
      "ore": 438,
      "ace": 439,
      "ie": 440,
      "Ġman": 441,
      "oldi": 442,
      "ĠSoldi": 443,
      "im": 444,
      "ĠSoldier": 445,
      "ss": 446,
      "Ġattack": 447,
      "Ġis": 448,
      "Ġgets": 449,
      "rave": 450,
      "Ġhand": 451,
      "ad": 452,
      "yard": 453,
      "Ġgrave": 454,
      "Ġgraveyard": 455,
      "wal": 456,
      "Ġits": 457,
      "ĠX": 458,
      "artifact": 459,
      "ĠSh": 460,
      "og": 461,
      "Ġartifact": 462,
      "Ġtw": 463,
      "ash": 464,
      "Ġif": 465,
      "pped": 466,
      "Ġmana": 467,
      "ect": 468,
      "ĠHaste": 469,
      "Ġtop": 470,
      "Ġtwo": 471,
      "ĠEquip": 472,
      "ĠThis": 473,
      "ĠO": 474,
      "ĠGo": 475,
      "egain": 476,
      "ĠLifegain": 477,
      "ĠFl": 478,
      "ĠCl": 479,
      "Ġblock": 480,
      "ance": 481,
      "ble": 482,
      "Ġlif": 483,
      "rike": 484,
      "Ġcost": 485,
      "ĠUpkeep": 486,
      "Ġany": 487,
      "om": 488,
      "Ġ3": 489,
      "hoose": 490,
      "igil": 491,
      "igilance": 492,
      "ĠZ": 493,
      "Ġst": 494,
      "omb": 495,
      "ree": 496,
      "less": 497,
      "ĠZomb": 498,
      "ight": 499,
      "ĠEquipment": 500,
      "ĠDiscard": 501,
      "anes": 502,
      "aneswal": 503,
      "irst": 504,
      "Ġpay": 505,
      "irit": 506,
      "ĠZombie": 507,
      "ĠSpirit": 508,
      "ĠPl": 509,
      "Ġtoken": 510,
      "tle": 511,
      "Ġland": 512,
      "ĠEle": 513,
      "ĠSt": 514,
      "ER": 515,
      "OW": 516,
      "POW": 517,
      "POWER": 518,
      "eld": 519,
      "aneswalker": 520,
      "ield": 521,
      "ĠBe": 522,
      "Ġcounters": 523,
      "Ġlife": 524,
      "Ġper": 525,
      "attle": 526,
      "ĠBG": 527,
      "ĠFlash": 528,
      "Ġcombat": 529,
      "Ġbattle": 530,
      "ĠCombat": 531,
      "us": 532,
      "field": 533,
      "Ġbattlefield": 534,
      "Ġexile": 535,
      "ĠElf": 536,
      "turn": 537,
      "ĠVigilance": 538,
      "ian": 539,
      "mental": 540,
      "Ġhas": 541,
      "ĠElemental": 542,
      "manent": 543,
      "ĠBR": 544,
      "ĠTarget": 545,
      "ong": 546,
      "Ġpermanent": 547,
      "ĠSc": 548,
      "Ġattacks": 549,
      "ĠEx": 550,
      "ĠDies": 551,
      "ĠRog": 552,
      "Ġcreate": 553,
      "ĠPh": 554,
      "ĠRogue": 555,
      "ll": 556,
      "stru": 557,
      "struct": 558,
      "eric": 559,
      "ĠCleric": 560,
      "Ġinto": 561,
      "yre": 562,
      "ĠPhyre": 563,
      "xian": 564,
      "ĠPhyrexian": 565,
      "iv": 566,
      "Ġ-": 567,
      "ire": 568,
      "Ġupkeep": 569,
      "ot": 570,
      "Ġmore": 571,
      "Ġthen": 572,
      "veal": 573,
      "apped": 574,
      "ĠGR": 575,
      "umb": 576,
      "ĠBU": 577,
      "ĠPut": 578,
      "umber": 579,
      "Ġup": 580,
      "Ġnumber": 581,
      "Ġwh": 582,
      "Ġdo": 583,
      "ĠAdd": 584,
      "ĠAs": 585,
      "Ġgains": 586,
      "lin": 587,
      "ive": 588,
      "enace": 589,
      "ĠStrike": 590,
      "ĠPlaneswalker": 591,
      "elin": 592,
      "ĠBeast": 593,
      "elink": 594,
      "ĠIt": 595,
      "Ġ0": 596,
      "ĠGU": 597,
      "blin": 598,
      "ĠGoblin": 599,
      "Ġdra": 600,
      "night": 601,
      "ĠUn": 602,
      "ĠKnight": 603,
      "Ġv": 604,
      "com": 605,
      "py": 606,
      "gon": 607,
      "out": 608,
      "ave": 609,
      "Ġun": 610,
      "other": 611,
      "ower": 612,
      "ĠFirst": 613,
      "Ġen": 614,
      "ampire": 615,
      "ĠVampire": 616,
      "ime": 617,
      "ill": 618,
      "Ġnon": 619,
      "Ġanother": 620,
      "od": 621,
      "Ġreveal": 622,
      "Ġdraw": 623,
      "aman": 624,
      "ĠShaman": 625,
      "ĠTut": 626,
      "ĠTutor": 627,
      "ere": 628,
      "ĠDragon": 629,
      "ĠAn": 630,
      "ouch": 631,
      "Ġblocked": 632,
      "atht": 633,
      "athtouch": 634,
      "Ġbecom": 635,
      "Ġ4": 636,
      "ĠRU": 637,
      "ear": 638,
      "ĠMenace": 639,
      "ling": 640,
      "Ġtheir": 641,
      "fol": 642,
      "folk": 643,
      "Ġpower": 644,
      "Ġcolor": 645,
      "Ġadd": 646,
      "ĠHor": 647,
      "ird": 648,
      "oul": 649,
      "ter": 650,
      "Ġhave": 651,
      "ess": 652,
      "ation": 653,
      "stro": 654,
      "ĠCon": 655,
      "bil": 656,
      "Ġtapped": 657,
      "ition": 658,
      "ry": 659,
      "ĠUW": 660,
      "ĠMer": 661,
      "ĠExile": 662,
      "Ġenchant": 663,
      "Ġthree": 664,
      "fend": 665,
      "icker": 666,
      "ĠBird": 667,
      "Ġbecomes": 668,
      "ph": 669,
      "Ġless": 670,
      "de": 671,
      "Ġchoose": 672,
      "Ġlong": 673,
      "ĠLifelink": 674,
      "Ġother": 675,
      "pe": 676,
      "aur": 677,
      "ook": 678,
      "Ġaddition": 679,
      "ible": 680,
      "ĠChoose": 681,
      "Ġall": 682,
      "structible": 683,
      "destructible": 684,
      "ĠCreate": 685,
      "ĠGW": 686,
      "tect": 687,
      "stroy": 688,
      "wn": 689,
      "ĠRW": 690,
      "Ġstep": 691,
      "Ġbl": 692,
      "ĠDeathtouch": 693,
      "Ġby": 694,
      "Ġabil": 695,
      "Ġdies": 696,
      "ĠBW": 697,
      "Ġsacrifice": 698,
      "qual": 699,
      "dra": 700,
      "Ġequal": 701,
      "GH": 702,
      "OU": 703,
      "SS": 704,
      "TOU": 705,
      "NESS": 706,
      "GHNESS": 707,
      "TOUGHNESS": 708,
      "ĠReach": 709,
      "ror": 710,
      "ĠHorror": 711,
      "ould": 712,
      "der": 713,
      "ĠPro": 714,
      "ul": 715,
      "yc": 716,
      "earch": 717,
      "Ġonly": 718,
      "Ġcontrols": 719,
      "land": 720,
      "Ġtime": 721,
      "ĠEach": 722,
      "ff": 723,
      "ĠReturn": 724,
      "Ġown": 725,
      "Ġdiscard": 726,
      "Ġam": 727,
      "ĠCat": 728,
      "Ġsorcery": 729,
      "un": 730,
      "Ġface": 731,
      "ĠDru": 732,
      "ĠDruid": 733,
      "able": 734,
      "Ġreturn": 735,
      "Ġadditional": 736,
      "our": 737,
      "imation": 738,
      "animation": 739,
      "ĠReanimation": 740,
      "Ġflying": 741,
      "gel": 742,
      "ĠKicker": 743,
      "Ġnext": 744,
      "ĠAngel": 745,
      "ĠMerfolk": 746,
      "Ġare": 747,
      "ĠSn": 748,
      "ĠIndestructible": 749,
      "ĠDev": 750,
      "all": 751,
      "Ġwould": 752,
      "Ġhaste": 753,
      "ĠFo": 754,
      "Ġthan": 755,
      "Ġval": 756,
      "reas": 757,
      "reasure": 758,
      "ycling": 759,
      "Ġle": 760,
      "ĠTreasure": 761,
      "fender": 762,
      "Ġvalue": 763,
      "ĠSpell": 764,
      "ĠThe": 765,
      "Ġonto": 766,
      "pro": 767,
      "mon": 768,
      "Ġstrike": 769,
      "block": 770,
      "ĠArtific": 771,
      "ĠArtificer": 772,
      "ĠIns": 773,
      "Ġthem": 774,
      "ĠUnt": 775,
      "zi": 776,
      "Ġsh": 777,
      "drazi": 778,
      "ĠEldrazi": 779,
      "ice": 780,
      "orph": 781,
      "Ġinstant": 782,
      "ĠMill": 783,
      "ĠDemon": 784,
      "Ġcopy": 785,
      "um": 786,
      "ĠSpells": 787,
      "ĠScry": 788,
      "ĠDefender": 789,
      "mo": 790,
      "tection": 791,
      "oug": 792,
      "ness": 793,
      "ass": 794,
      "ĠInsect": 795,
      "Ġdealt": 796,
      "ĠCycling": 797,
      "ough": 798,
      "erate": 799,
      "ite": 800,
      "expro": 801,
      "exproof": 802,
      "ĠUnblock": 803,
      "ĠUnblockable": 804,
      "ĠCh": 805,
      "Ġwhere": 806,
      "back": 807,
      "ĠFood": 808,
      "ative": 809,
      "ĠScout": 810,
      "Ġuntap": 811,
      "uring": 812,
      "ĠPay": 813,
      "Ġty": 814,
      "Ġamong": 815,
      "own": 816,
      "ĠEnchanted": 817,
      "are": 818,
      "ouble": 819,
      "ĠAl": 820,
      "Ġnonland": 821,
      "Ġblack": 822,
      "rou": 823,
      "Ġfirst": 824,
      "iant": 825,
      "Ġowner": 826,
      "oses": 827,
      "Ġspells": 828,
      "move": 829,
      "ĠConstruct": 830,
      "ĠDestroy": 831,
      "Ġunless": 832,
      "ĠCopy": 833,
      "reen": 834,
      "Ġwhite": 835,
      "mp": 836,
      "inos": 837,
      "inosaur": 838,
      "Ġexc": 839,
      "ĠDinosaur": 840,
      "Ġcosts": 841,
      "ities": 842,
      "Ġcontroll": 843,
      "ĠGiant": 844,
      "Ġenchantment": 845,
      "one": 846,
      "ivate": 847,
      "ĠGain": 848,
      "Ġgreen": 849,
      "Ġfour": 850,
      "Ġ5": 851,
      "Ġability": 852,
      "ĠProtection": 853,
      "Ġwas": 854,
      "ĠLook": 855,
      "ĠAct": 856,
      "ĠAss": 857,
      "Ġtokens": 858,
      "ĠPir": 859,
      "tach": 860,
      "ĠMon": 861,
      "hif": 862,
      "ĠBGR": 863,
      "ĠAd": 864,
      "Ġattacking": 865,
      "Ġtrample": 866,
      "Ġname": 867,
      "Ġunder": 868,
      "ĠFree": 869,
      "Ġred": 870,
      "ake": 871,
      "Ġthey": 872,
      "ĠSearch": 873,
      "ĠHexproof": 874,
      "Ġplaneswalker": 875,
      "ĠPirate": 876,
      "ĠRat": 877,
      "ĠTurn": 878,
      "ĠBo": 879,
      "Ġch": 880,
      "lem": 881,
      "Ġbas": 882,
      "pend": 883,
      "ĠMorph": 884,
      "ĠUntil": 885,
      "Ġduring": 886,
      "ĠEquipped": 887,
      "ĠWard": 888,
      "Ġtap": 889,
      "av": 890,
      "Ġcontroller": 891,
      "ĠWarlock": 892,
      "se": 893,
      "Ġway": 894,
      "Ġwithout": 895,
      "ept": 896,
      "ĠMut": 897,
      "ĠFa": 898,
      "Ġexcept": 899,
      "ĠCont": 900,
      "ĪĴ": 901,
      "ĠâĪĴ": 902,
      "uff": 903,
      "ĠCounterspell": 904,
      "erie": 905,
      "ead": 906,
      "assin": 907,
      "ĠAssassin": 908,
      "apes": 909,
      "ĠDrain": 910,
      "Ġloses": 911,
      "Ġcho": 912,
      "ĠControl": 913,
      "uffle": 914,
      "alt": 915,
      "ĠVe": 916,
      "Ġdown": 917,
      "ĠDouble": 918,
      "walk": 919,
      "ĠSnake": 920,
      "ĠNo": 921,
      "ĠShapes": 922,
      "ĠShapeshif": 923,
      "ĠShapeshifter": 924,
      "ĠSur": 925,
      "ĠLizard": 926,
      "ĠFore": 927,
      "ĠFlashback": 928,
      "Ġtough": 929,
      "Ġtoughness": 930,
      "Ġlook": 931,
      "hic": 932,
      "hicle": 933,
      "ĠVehicle": 934,
      "ist": 935,
      "oke": 936,
      "Ġno": 937,
      "ĠNoble": 938,
      "ĠCreatures": 939,
      "ĠReg": 940,
      "TK": 941,
      "Ġinst": 942,
      "inj": 943,
      "enerate": 944,
      "ick": 945,
      "vis": 946,
      "hin": 947,
      "ĠOr": 948,
      "ĠRegenerate": 949,
      "ĠGolem": 950,
      "Ġshuffle": 951,
      "ĠNinj": 952,
      "voke": 953,
      "Ġdestroy": 954,
      "oy": 955,
      "veil": 956,
      "Ġenchanted": 957,
      "ĠOrc": 958,
      "ĠFaerie": 959,
      "Ġabilities": 960,
      "ĠFor": 961,
      "sh": 962,
      "Ġinstead": 963,
      "ip": 964,
      "ĠLife": 965,
      "ĠMin": 966,
      "ĠThen": 967,
      "ĠUp": 968,
      "Ġr": 969,
      "Ġthose": 970,
      "oid": 971,
      "ĠTap": 972,
      "ĠPart": 973,
      "ĠOther": 974,
      "Ġsearch": 975,
      "Ġdon": 976,
      "uspend": 977,
      "ĠAv": 978,
      "est": 979,
      "Ġtype": 980,
      "ade": 981,
      "ĠDevoid": 982,
      "ĠWall": 983,
      "ĠSl": 984,
      "Ġrest": 985,
      "Ġpermanents": 986,
      "atar": 987,
      "ĠAvatar": 988,
      "vent": 989,
      "ĠClue": 990,
      "Ġmill": 991,
      "ĠActivate": 992,
      "Ġsacrific": 993,
      "ated": 994,
      "Ġbot": 995,
      "tom": 996,
      "Ġbottom": 997,
      "anding": 998,
      "ec": 999,
      "op": 1000,
      "ver": 1001,
      "ĠAdvis": 1002,
      "ĠAdvisor": 1003,
      "stig": 1004,
      "erker": 1005,
      "vestig": 1006,
      "ĠBers": 1007,
      "ĠBerserker": 1008,
      "ĠMount": 1009,
      "vestigate": 1010,
      "fall": 1011,
      "ĠLandfall": 1012,
      "gy": 1013,
      "ergy": 1014,
      "ise": 1015,
      "revent": 1016,
      ">'": 1017,
      "ĠBRU": 1018,
      "tal": 1019,
      "ĠWol": 1020,
      "ft": 1021,
      "Ġattach": 1022,
      "yr": 1023,
      "ĠSuspend": 1024,
      "arf": 1025,
      "Ġexil": 1026,
      "ulative": 1027,
      "umulative": 1028,
      "ĠDw": 1029,
      "Ġexiled": 1030,
      "ken": 1031,
      "Ġblue": 1032,
      "Ġvigilance": 1033,
      "ĠSnow": 1034,
      "ond": 1035,
      "ĠCumulative": 1036,
      "ĠDog": 1037,
      "Ġact": 1038,
      "ĠDwarf": 1039,
      "Ġopponents": 1040,
      "ner": 1041,
      "ĠJ": 1042,
      "ĠTo": 1043,
      "Ġdoes": 1044,
      "ĠTime": 1045,
      "arge": 1046,
      "ĠSliv": 1047,
      "Ġbasic": 1048,
      "Ġchoice": 1049,
      "mm": 1050,
      "ĠPartner": 1051,
      "ison": 1052,
      "gre": 1053,
      "oison": 1054,
      "nd": 1055,
      "ĠOgre": 1056,
      "ĠNight": 1057,
      "Ġlands": 1058,
      "ish": 1059,
      "ix": 1060,
      "fending": 1061,
      "ane": 1062,
      "Ġfive": 1063,
      "ĠArc": 1064,
      "reater": 1065,
      "Ġgreater": 1066,
      "Ġdefending": 1067,
      "ĠMutant": 1068,
      "let": 1069,
      "Ġleg": 1070,
      "ĠSurveil": 1071,
      "ĠGRW": 1072,
      "ĠFog": 1073,
      "ĠConvoke": 1074,
      "ĠDetect": 1075,
      "ĠArcane": 1076,
      "Ġfl": 1077,
      "ĠWolf": 1078,
      "Ġremove": 1079,
      "ĠDetective": 1080,
      "ĠThey": 1081,
      "pent": 1082,
      "ĠArch": 1083,
      "ert": 1084,
      "rew": 1085,
      "Ġcolorless": 1086,
      "UW": 1087,
      "ĠSliver": 1088,
      "mare": 1089,
      "ĠNightmare": 1090,
      "Ġuntapped": 1091,
      "Ġlifelink": 1092,
      "Ġdoesn": 1093,
      "Ġlose": 1094,
      "ĠIll": 1095,
      "usion": 1096,
      "ĠIllusion": 1097,
      "ĠReb": 1098,
      "Ġpaying": 1099,
      "Ġnamed": 1100,
      "ĠBUW": 1101,
      "ĠFace": 1102,
      "ange": 1103,
      "Ġal": 1104,
      "Ġnonc": 1105,
      "aid": 1106,
      "alty": 1107,
      "ĠGUW": 1108,
      "tern": 1109,
      "her": 1110,
      "ĠTurned": 1111,
      "ĠRemove": 1112,
      "ains": 1113,
      "ontoken": 1114,
      "ĠDel": 1115,
      "Ġlegendary": 1116,
      "ĠCit": 1117,
      "izen": 1118,
      "ĠCitizen": 1119,
      "ger": 1120,
      "ĠReveal": 1121,
      "Ġnontoken": 1122,
      "ĠMonk": 1123,
      "ĠTree": 1124,
      "ĠTreefolk": 1125,
      "ĠLandwalk": 1126,
      "ivated": 1127,
      "ĠWur": 1128,
      "ĠWurm": 1129,
      "red": 1130,
      "cen": 1131,
      "otaur": 1132,
      "ĠMinotaur": 1133,
      "ipe": 1134,
      "wipe": 1135,
      "ardwipe": 1136,
      "ĠBoardwipe": 1137,
      "ĠCrew": 1138,
      "ĠIs": 1139,
      "Ġequi": 1140,
      "Ġph": 1141,
      "ĠMercen": 1142,
      "Ġdiscards": 1143,
      "orm": 1144,
      "Ġartifacts": 1145,
      "Ġthere": 1146,
      "roud": 1147,
      "andom": 1148,
      "Ġrandom": 1149,
      "ĠPlant": 1150,
      "ĠSphin": 1151,
      "ĠSphinx": 1152,
      "Ġmany": 1153,
      "osen": 1154,
      "Ġphas": 1155,
      "ĠCas": 1156,
      "ĠIsland": 1157,
      "ĠSke": 1158,
      "Ġchosen": 1159,
      "plo": 1160,
      "ĠAlly": 1161,
      "Ġk": 1162,
      "lood": 1163,
      "Ġnoncreature": 1164,
      "ĠSpid": 1165,
      "ĠBGRUW": 1166,
      "eart": 1167,
      "ĠSw": 1168,
      "leton": 1169,
      "ĠBack": 1170,
      "ĠArm": 1171,
      "ĠSpider": 1172,
      "Ġequipped": 1173,
      "ĠSkeleton": 1174,
      "ĠForest": 1175,
      "Ġreveals": 1176,
      "resh": 1177,
      "ĠThresh": 1178,
      "ĠThreshold": 1179,
      "ult": 1180,
      "ĠDes": 1181,
      "ifest": 1182,
      "ub": 1183,
      "ĠMercenary": 1184,
      "ĠArcher": 1185,
      "earth": 1186,
      "Ġtargets": 1187,
      "ĠSqu": 1188,
      "stow": 1189,
      "roll": 1190,
      "ĠSam": 1191,
      "ĠPrevent": 1192,
      "ĠInc": 1193,
      "ĠInvestigate": 1194,
      "ĠNinja": 1195,
      "iferate": 1196,
      "roliferate": 1197,
      "urai": 1198,
      "ĠUntap": 1199,
      "ĠSamurai": 1200,
      "pes": 1201,
      "ĠUnearth": 1202,
      "Ġpays": 1203,
      "Ġtypes": 1204,
      "ĠThat": 1205,
      "Ġpro": 1206,
      "Ġblocks": 1207,
      "ĠHy": 1208,
      "ĠCounter": 1209,
      "ind": 1210,
      "ĠSwamp": 1211,
      "Ġtotal": 1212,
      "Ġsacrifices": 1213,
      "ĠEnergy": 1214,
      "Ġ6": 1215,
      "ĠYour": 1216,
      "ĠProw": 1217,
      "fling": 1218,
      "oon": 1219,
      "adow": 1220,
      "even": 1221,
      "Ġindestructible": 1222,
      "ights": 1223,
      "Ġsc": 1224,
      "ĠAny": 1225,
      "iri": 1226,
      "ĠSer": 1227,
      "ĠKor": 1228,
      "ĠBlood": 1229,
      "otion": 1230,
      "ĠAltern": 1231,
      "ĠAlternative": 1232,
      "cade": 1233,
      "ĠHydra": 1234,
      "Ġnot": 1235,
      "iff": 1236,
      "ĠPoison": 1237,
      "rone": 1238,
      "ĠAll": 1239,
      "ze": 1240,
      "adness": 1241,
      "ĠDrake": 1242,
      "ĠArmy": 1243,
      "Ġable": 1244,
      "Ġattached": 1245,
      "Ġdeathtouch": 1246,
      "ung": 1247,
      "mmand": 1248,
      "gu": 1249,
      "ĠFear": 1250,
      "ungus": 1251,
      "icked": 1252,
      "ero": 1253,
      "Ġorder": 1254,
      "Ġscry": 1255,
      "oll": 1256,
      "oyalty": 1257,
      "ĠImp": 1258,
      "cho": 1259,
      "aves": 1260,
      "raft": 1261,
      "ĠDeliri": 1262,
      "ĠDelirium": 1263,
      "Ġisn": 1264,
      "ĠGod": 1265,
      "ĠFro": 1266,
      "xic": 1267,
      "ĠFungus": 1268,
      "ĠOo": 1269,
      "econd": 1270,
      "Ġleaves": 1271,
      "round": 1272,
      "ide": 1273,
      "Ġseven": 1274,
      "Ġblocking": 1275,
      "ĠOoze": 1276,
      "ĠHorse": 1277,
      "ĠRUW": 1278,
      "Ġwhen": 1279,
      "phant": 1280,
      "ĠRo": 1281,
      "ien": 1282,
      "ĠFrog": 1283,
      "ĠCent": 1284,
      "Ġmenace": 1285,
      "ĠRoll": 1286,
      "ĠElephant": 1287,
      "ĠCentaur": 1288,
      "ĠShroud": 1289,
      "ĠDevil": 1290,
      "cend": 1291,
      "ĠLev": 1292,
      "Ġbanding": 1293,
      "rel": 1294,
      "irrel": 1295,
      "ĠSquirrel": 1296,
      "uts": 1297,
      "tell": 1298,
      "Ġamount": 1299,
      "so": 1300,
      "Ġalso": 1301,
      "Ġwhile": 1302,
      "isgu": 1303,
      "isguise": 1304,
      "ĠProliferate": 1305,
      "ither": 1306,
      "utsu": 1307,
      "ĠProwess": 1308,
      "ĠCascade": 1309,
      "ĠMan": 1310,
      "ĠSoul": 1311,
      "Ġpaid": 1312,
      "ĠBat": 1313,
      "ĠRebel": 1314,
      "Ġhad": 1315,
      "Ġage": 1316,
      "ĠDrone": 1317,
      "arg": 1318,
      "Ġactivate": 1319,
      "ĠNinjutsu": 1320,
      "ĠMadness": 1321,
      "ator": 1322,
      "ine": 1323,
      "ift": 1324,
      "ĠIncub": 1325,
      "up": 1326,
      "edal": 1327,
      "ĠVedal": 1328,
      "ĠBestow": 1329,
      "ĠVedalken": 1330,
      "fect": 1331,
      "ĠSpl": 1332,
      "row": 1333,
      "ĠPlains": 1334,
      "ĠDesert": 1335,
      "ĠTe": 1336,
      "Ġgame": 1337,
      "ĠDom": 1338,
      "Ġcon": 1339,
      "Ġmu": 1340,
      "ĠBanding": 1341,
      "ally": 1342,
      "ickers": 1343,
      "ĠShadow": 1344,
      "ĠEcho": 1345,
      "ew": 1346,
      "alted": 1347,
      "Ġkicked": 1348,
      "Ġsame": 1349,
      "Ġthough": 1350,
      "ĠGoad": 1351,
      "ĠRhin": 1352,
      "ĠRhino": 1353,
      "jinn": 1354,
      "ĠDjinn": 1355,
      "ĠStickers": 1356,
      "Ġsour": 1357,
      "ee": 1358,
      "Ġbase": 1359,
      "ĠFights": 1360,
      "Ġcasts": 1361,
      "Ġout": 1362,
      "ĠSap": 1363,
      "roling": 1364,
      "ered": 1365,
      "ĠSaproling": 1366,
      "ĠDisguise": 1367,
      "plore": 1368,
      "Ġcommand": 1369,
      "Ġsecond": 1370,
      "ĠForetell": 1371,
      "ĠToxic": 1372,
      "ĠCharge": 1373,
      "ground": 1374,
      "ĠBackground": 1375,
      "kin": 1376,
      "ithkin": 1377,
      "ĠKithkin": 1378,
      "ĠActivated": 1379,
      "Ġhexproof": 1380,
      "Ġspent": 1381,
      "ĠHal": 1382,
      "Ġplayers": 1383,
      "sc": 1384,
      "ĠHero": 1385,
      "Ġcharge": 1386,
      "ĠBGU": 1387,
      "ĠHalfling": 1388,
      "ĠManifest": 1389,
      "ĠDomain": 1390,
      "ord": 1391,
      "ĠMountain": 1392,
      "Ġenter": 1393,
      "ĠExalted": 1394,
      "ĠMutate": 1395,
      "Ġdouble": 1396,
      "ĠChange": 1397,
      "Ġbo": 1398,
      "et": 1399,
      "indred": 1400,
      "ĠAff": 1401,
      "craft": 1402,
      "ĠInfect": 1403,
      "ag": 1404,
      "inity": 1405,
      "aus": 1406,
      "Ġcaus": 1407,
      "ĠMult": 1408,
      "ĠKindred": 1409,
      "aw": 1410,
      "Ġlast": 1411,
      "Ġonce": 1412,
      "ĠRan": 1413,
      "ĠAm": 1414,
      "ĠFish": 1415,
      "ĠThop": 1416,
      "Ġsix": 1417,
      "Ġplus": 1418,
      "rig": 1419,
      "fore": 1420,
      "ĠRanger": 1421,
      "tu": 1422,
      "Ġsource": 1423,
      "ĠPlo": 1424,
      "ĠPlot": 1425,
      "ied": 1426,
      "mer": 1427,
      "ĠBRW": 1428,
      "ĠAmass": 1429,
      "ĠElder": 1430,
      "ous": 1431,
      "ran": 1432,
      "Ġcould": 1433,
      "Ġward": 1434,
      "king": 1435,
      "ĠToken": 1436,
      "ĠDuring": 1437,
      "Ġprotection": 1438,
      "ost": 1439,
      "Ġboth": 1440,
      "Ġdraws": 1441,
      "Ġflash": 1442,
      "ctop": 1443,
      "ĠOctop": 1444,
      "ĠOctopus": 1445,
      "ĠCur": 1446,
      "ĠBear": 1447,
      "ĠThopter": 1448,
      "ather": 1449,
      "Ġreach": 1450,
      "Ġmills": 1451,
      "ĠCast": 1452,
      "ĠGRU": 1453,
      "Ġbefore": 1454,
      "ĠAbil": 1455,
      "ĠAbilities": 1456,
      "ored": 1457,
      "petu": 1458,
      "sp": 1459,
      "ĠAttach": 1460,
      "Ġphase": 1461,
      "Ġrevealed": 1462,
      "ĠTroll": 1463,
      "elp": 1464,
      "Ġhelp": 1465,
      "amorph": 1466,
      "egamorph": 1467,
      "anking": 1468,
      "ĠDo": 1469,
      "lic": 1470,
      "petually": 1471,
      "ĠPho": 1472,
      "tr": 1473,
      "Ġmon": 1474,
      "olored": 1475,
      "count": 1476,
      "erable": 1477,
      "ĠUncount": 1478,
      "ĠUncounterable": 1479,
      "sity": 1480,
      "Ġperpetually": 1481,
      "ĠBoar": 1482,
      "orn": 1483,
      "enix": 1484,
      "ĠPhoenix": 1485,
      "ence": 1486,
      "rage": 1487,
      "over": 1488,
      "ĠEnrage": 1489,
      "Ġtrig": 1490,
      "ffect": 1491,
      "geon": 1492,
      "ungeon": 1493,
      "ĠEsc": 1494,
      "ĠDice": 1495,
      "ĠFlip": 1496,
      "anid": 1497,
      "ĠTyr": 1498,
      "ĠTyranid": 1499,
      "arch": 1500,
      "Ġmuch": 1501,
      "ĠDry": 1502,
      "ĠDryad": 1503,
      "ired": 1504,
      "ize": 1505,
      "unc": 1506,
      "Ġev": 1507,
      "ĠAlien": 1508,
      "ĠSerpent": 1509,
      "Ġrather": 1510,
      "'ve": 1511,
      "ab": 1512,
      "ĠLord": 1513,
      "form": 1514,
      "ĠChangeling": 1515,
      "ape": 1516,
      "icolored": 1517,
      "Ġsur": 1518,
      "ĠEv": 1519,
      "Ġchooses": 1520,
      "ship": 1521,
      "ort": 1522,
      "Ġres": 1523,
      "ĠDevotion": 1524,
      "Ġmut": 1525,
      "ĠHell": 1526,
      "ves": 1527,
      "rans": 1528,
      "ath": 1529,
      "lect": 1530,
      "ĠBu": 1531,
      "ĠAffinity": 1532,
      "ster": 1533,
      "ĠLevel": 1534,
      "ĠTra": 1535,
      "int": 1536,
      "imid": 1537,
      "ĠBuy": 1538,
      "rab": 1539,
      "ĠBGW": 1540,
      "aven": 1541,
      "ĠBuyback": 1542,
      "yri": 1543,
      "Ġputs": 1544,
      "fter": 1545,
      "jure": 1546,
      "imidate": 1547,
      "bit": 1548,
      "mpt": 1549,
      "ĠBl": 1550,
      "Ġenergy": 1551,
      "Ġbecome": 1552,
      "ĠCrab": 1553,
      "Ġeffect": 1554,
      "yriad": 1555,
      "ĠGift": 1556,
      "ĠBard": 1557,
      "ĠFox": 1558,
      "Ġshare": 1559,
      "eas": 1560,
      "ĠOff": 1561,
      "Ġband": 1562,
      "Ġcreat": 1563,
      "acle": 1564,
      "Ġcasting": 1565,
      "ĠMyr": 1566,
      "ĠRab": 1567,
      "ĠRabbit": 1568,
      "hap": 1569,
      "ĠSpellshap": 1570,
      "ĠSpellshaper": 1571,
      "ĠMegamorph": 1572,
      "Ġexiles": 1573,
      "ĠPower": 1574,
      "Ġleast": 1575,
      "ĠRec": 1576,
      "ound": 1577,
      "ĠMe": 1578,
      "llect": 1579,
      "Ġmod": 1580,
      "10": 1581,
      "ĠFlicker": 1582,
      "'re": 1583,
      "ĠWh": 1584,
      "Ġinvestigate": 1585,
      "Ġwin": 1586,
      "ĠPeas": 1587,
      "ĠPeasant": 1588,
      "ĠPlay": 1589,
      "Ġwho": 1590,
      "wise": 1591,
      "ved": 1592,
      "ĠKra": 1593,
      "strosity": 1594,
      "ĠMonstrosity": 1595,
      "Ġattacked": 1596,
      "ĠGn": 1597,
      "ĠRing": 1598,
      "Ġsurveil": 1599,
      "Ġdiv": 1600,
      "crow": 1601,
      "Ġ7": 1602,
      "ĠScare": 1603,
      "ĠScarecrow": 1604,
      "Ġrem": 1605,
      "Ġprevent": 1606,
      "iscover": 1607,
      "here": 1608,
      "ĠOtherwise": 1609,
      "stone": 1610,
      "ute": 1611,
      "uest": 1612,
      "riff": 1613,
      "ĠTapped": 1614,
      "ĠSpend": 1615,
      "ĠSpect": 1616,
      "iffere": 1617,
      "ĠCurse": 1618,
      "ring": 1619,
      "ĠBecom": 1620,
      "ĠBecomes": 1621,
      "ĠInt": 1622,
      "ctor": 1623,
      "ĠKraken": 1624,
      "Ġsacrificed": 1625,
      "Ġdiffere": 1626,
      "ĠCoin": 1627,
      "core": 1628,
      "ĠPowerstone": 1629,
      "ĠDoctor": 1630,
      "ĠRather": 1631,
      "ĠKav": 1632,
      "ĠKavu": 1633,
      "bot": 1634,
      "Ġnew": 1635,
      "ĠRobot": 1636,
      "Ġcountered": 1637,
      "Ġflip": 1638,
      "aneswalk": 1639,
      "ĠMinion": 1640,
      "Ġactivated": 1641,
      "Ġmutate": 1642,
      "ĠAscend": 1643,
      "idence": 1644,
      "ush": 1645,
      "ĠLoyalty": 1646,
      "ĠEscape": 1647,
      "arian": 1648,
      "Ġturned": 1649,
      "Ġ10": 1650,
      "Ġpoison": 1651,
      "ĠHeroic": 1652,
      "entor": 1653,
      "ĠMentor": 1654,
      "arb": 1655,
      "Ġloyalty": 1656,
      "ersist": 1657,
      "ome": 1658,
      "ĠBarb": 1659,
      "ĠBarbarian": 1660,
      "ĠIncubator": 1661,
      "ĠRebound": 1662,
      "Ġtim": 1663,
      "Ġtimes": 1664,
      "itz": 1665,
      "ĠClash": 1666,
      "ĠBush": 1667,
      "ĠSoulb": 1668,
      "ĠSplice": 1669,
      "Ġroll": 1670,
      "ĠTur": 1671,
      "ĠTurtle": 1672,
      "apt": 1673,
      "ido": 1674,
      "ĠTrans": 1675,
      "ĠMir": 1676,
      "Ġeither": 1677,
      "Ġvot": 1678,
      "Ġform": 1679,
      "ouse": 1680,
      "ĠEnt": 1681,
      "ĠGnome": 1682,
      "ĠMouse": 1683,
      "ĠMyriad": 1684,
      "ĠBushido": 1685,
      "ĠComp": 1686,
      "Ġdev": 1687,
      "ates": 1688,
      "ĠIntimidate": 1689,
      "viv": 1690,
      "Ġoil": 1691,
      "rim": 1692,
      "Ġexcess": 1693,
      "ann": 1694,
      "Ġcreates": 1695,
      "mpts": 1696,
      "cod": 1697,
      "ak": 1698,
      "ark": 1699,
      "rint": 1700,
      "pect": 1701,
      "Ġremo": 1702,
      "ĠRaid": 1703,
      "ĠPlayers": 1704,
      "ĠEncore": 1705,
      "aut": 1706,
      "ĠSat": 1707,
      "ĠPersist": 1708,
      "Ġdevotion": 1709,
      "ĠGriff": 1710,
      "ĠGriffin": 1711,
      "ĠFlanking": 1712,
      "Ġconjure": 1713,
      "ĠIts": 1714,
      "ĠSoulbond": 1715,
      "Ġten": 1716,
      "change": 1717,
      "Ġcommander": 1718,
      "ĠSurviv": 1719,
      "Ġcauses": 1720,
      "licate": 1721,
      "ĠAdapt": 1722,
      "ron": 1723,
      "argain": 1724,
      "arn": 1725,
      "ĠSatyr": 1726,
      "Ġremoved": 1727,
      "dy": 1728,
      "aneswalkers": 1729,
      "spring": 1730,
      "acc": 1731,
      "ĠClone": 1732,
      "ploit": 1733,
      "ĠMage": 1734,
      "ĠMulticolored": 1735,
      "ĠGarg": 1736,
      "oyle": 1737,
      "ĠGargoyle": 1738,
      "Ġpa": 1739,
      "ĠRacc": 1740,
      "ĠBackup": 1741,
      "ĠOffspring": 1742,
      "ĠRaccoon": 1743,
      "ug": 1744,
      "ular": 1745,
      "Ġdifferent": 1746,
      "anish": 1747,
      "startes": 1748,
      "ĠAstartes": 1749,
      "ĠExplore": 1750,
      "ĠHom": 1751,
      "ĠElk": 1752,
      "anishing": 1753,
      "Ġwere": 1754,
      "ĠDiscover": 1755,
      "rime": 1756,
      "ĠOt": 1757,
      "ĠImprint": 1758,
      "ĠNec": 1759,
      "ĠNecron": 1760,
      "ĠOil": 1761,
      "fig": 1762,
      "figure": 1763,
      "Ġstill": 1764,
      "ĠMagecraft": 1765,
      "gers": 1766,
      "pt": 1767,
      "ĠChann": 1768,
      "ĠChannel": 1769,
      "Ġmanifest": 1770,
      "Ġtwice": 1771,
      "awn": 1772,
      "Ġpile": 1773,
      "ĠStorm": 1774,
      "ĠExt": 1775,
      "Ġnonb": 1776,
      "ĠOtter": 1777,
      "Ġtriggers": 1778,
      "cl": 1779,
      "Ġmain": 1780,
      "Ġphases": 1781,
      "where": 1782,
      "tract": 1783,
      "onfigure": 1784,
      "ĠReconfigure": 1785,
      "read": 1786,
      "ĠSpawn": 1787,
      "ĠVanishing": 1788,
      "Ġbeing": 1789,
      "istor": 1790,
      "ĠDash": 1791,
      "ĠApe": 1792,
      "Ġresol": 1793,
      "load": 1794,
      "verload": 1795,
      "ĠServ": 1796,
      "Ġwhenever": 1797,
      "Ġanywhere": 1798,
      "ĠAttract": 1799,
      "ĠAttraction": 1800,
      "Ġdraft": 1801,
      "br": 1802,
      "ps": 1803,
      "ĠCro": 1804,
      "Ġcolors": 1805,
      "anion": 1806,
      "uspect": 1807,
      "ĠCyc": 1808,
      "lops": 1809,
      "ĠCyclops": 1810,
      "ĠCor": 1811,
      "ĠSk": 1812,
      "ĠDungeon": 1813,
      "ĠPer": 1814,
      "dying": 1815,
      "ality": 1816,
      "istoric": 1817,
      "ĠProto": 1818,
      "ĠStun": 1819,
      "law": 1820,
      "iti": 1821,
      "ĠBand": 1822,
      "Ġhistoric": 1823,
      "Ġdie": 1824,
      "ty": 1825,
      "mmit": 1826,
      "manship": 1827,
      "Ġcoin": 1828,
      "ning": 1829,
      "ĠMod": 1830,
      "ĠExchange": 1831,
      "Ġflashback": 1832,
      "ĠServo": 1833,
      "Ġdestroyed": 1834,
      "ĠMoon": 1835,
      "merge": 1836,
      "type": 1837,
      "ĠPrototype": 1838,
      "ĠMounts": 1839,
      "ik": 1840,
      "ĠIm": 1841,
      "ĠBargain": 1842,
      "now": 1843,
      "Ġstart": 1844,
      "Ġunblock": 1845,
      "Ġunblocked": 1846,
      "Ġgraveyards": 1847,
      "orgon": 1848,
      "ĠWither": 1849,
      "rupt": 1850,
      "itiative": 1851,
      "ĠGate": 1852,
      "ĠEvoke": 1853,
      "Ġpart": 1854,
      "ĠIncubate": 1855,
      "inality": 1856,
      "ĠGorgon": 1857,
      "Ġexplore": 1858,
      "ĠConst": 1859,
      "codile": 1860,
      "ĠCrocodile": 1861,
      "ĠBands": 1862,
      "ĠWe": 1863,
      "ĠMoonfolk": 1864,
      "ided": 1865,
      "ĠUndying": 1866,
      "ellation": 1867,
      "ĠConstellation": 1868,
      "ĠEf": 1869,
      "strou": 1870,
      "Ġmonstrou": 1871,
      "Ġmonstrous": 1872,
      "ĠSplit": 1873,
      "era": 1874,
      "ĠSpecter": 1875,
      "ĠOut": 1876,
      "ilot": 1877,
      "ĠPilot": 1878,
      "ualty": 1879,
      "Ġgreate": 1880,
      "Ġgreatest": 1881,
      "ale": 1882,
      "ĠRen": 1883,
      "olve": 1884,
      "icorn": 1885,
      "ĠUnicorn": 1886,
      "ĠParty": 1887,
      "ĠGl": 1888,
      "cycling": 1889,
      "reet": 1890,
      "ĠEfreet": 1891,
      "Ġmorph": 1892,
      "shif": 1893,
      "shift": 1894,
      "Ġplaneswalkers": 1895,
      "provis": 1896,
      "provise": 1897,
      "ĠShade": 1898,
      "Ġ8": 1899,
      "Ġreg": 1900,
      "alize": 1901,
      "ĠDevour": 1902,
      "hil": 1903,
      "ĠMor": 1904,
      "ĠWill": 1905,
      "ulus": 1906,
      "ĠBlitz": 1907,
      "ĠPar": 1908,
      "Ġexplores": 1909,
      "Human": 1910,
      "Ġsnow": 1911,
      "ĠRenown": 1912,
      "unning": 1913,
      "ĠSoulshift": 1914,
      "ĠVot": 1915,
      "ĠVoting": 1916,
      "ĠExert": 1917,
      "ĠImprovise": 1918,
      "ĠCorrupt": 1919,
      "ĠExploit": 1920,
      "wine": 1921,
      "ĠMetal": 1922,
      "ĠOverload": 1923,
      "bid": 1924,
      "iath": 1925,
      "ĠLeviath": 1926,
      "ĠMorbid": 1927,
      "ĠLeviathan": 1928,
      "thirst": 1929,
      "ĠAddition": 1930,
      "ĠAdditional": 1931,
      "ĠCasualty": 1932,
      "Ġalone": 1933,
      "ĠModular": 1934,
      "reer": 1935,
      "reerunning": 1936,
      "ĠTie": 1937,
      "Ġgrou": 1938,
      "Ġgroup": 1939,
      "ĠMetalcraft": 1940,
      "ĠEvolve": 1941,
      "Ġemb": 1942,
      "ĠBloodthirst": 1943,
      "Ġte": 1944,
      "olt": 1945,
      "ĠZombies": 1946,
      "unculus": 1947,
      "ĠHomunculus": 1948,
      "ĠSpree": 1949,
      "ĠCollect": 1950,
      "ĠDescend": 1951,
      "ient": 1952,
      "ĠMonarch": 1953,
      "ĠTempts": 1954,
      "ĠGlim": 1955,
      "Ġshuffles": 1956,
      "ĠTiefling": 1957,
      "ĠHide": 1958,
      "ĠHellion": 1959,
      "20": 1960,
      "away": 1961,
      "Ġdied": 1962,
      "ĠFad": 1963,
      "Ġafter": 1964,
      "ĠSire": 1965,
      "ĠSiren": 1966,
      "ĠGlimmer": 1967,
      "ĠSurvivor": 1968,
      "Ġcyc": 1969,
      "ven": 1970,
      "ĠCorrupted": 1971,
      "ĠEntwine": 1972,
      "ĠFading": 1973,
      "Ġattacker": 1974,
      "Ġvotes": 1975,
      "ĠDelve": 1976,
      "oyf": 1977,
      "Ġeffects": 1978,
      "Ġlost": 1979,
      "ĠScion": 1980,
      "Ġstarting": 1981,
      "ĠRole": 1982,
      "ĠHideaway": 1983,
      "ĠBol": 1984,
      "Ġemblem": 1985,
      "ĠThru": 1986,
      "ĠThrull": 1987,
      "Ġbestow": 1988,
      "Ġdefender": 1989,
      "Ġshroud": 1990,
      "Ġfore": 1991,
      "Ġcontrolled": 1992,
      "Ġdid": 1993,
      "Ġdidn": 1994,
      "alm": 1995,
      "ob": 1996,
      "rib": 1997,
      "add": 1998,
      "Ġspend": 1999,
      "ĠCounc": 2000,
      "ĠCouncil": 2001,
      "ĠWor": 2002,
      "ĠMultik": 2003,
      "ĠMultikicker": 2004,
      "Ġcause": 2005,
      "ld": 2006,
      "Ġremains": 2007,
      "Ġcycle": 2008,
      "ĠQ": 2009,
      "ĠCave": 2010,
      "Ġstun": 2011,
      "urg": 2012,
      "Ġ9": 2013,
      "arnation": 2014,
      "Ġparty": 2015,
      "ipp": 2016,
      "ĠRad": 2017,
      "ĠJug": 2018,
      "gern": 2019,
      "ĠJuggern": 2020,
      "ĠHorsemanship": 2021,
      "Ġrep": 2022,
      "aunt": 2023,
      "lif": 2024,
      "avenge": 2025,
      "ĠChim": 2026,
      "ihil": 2027,
      "nihil": 2028,
      "ander": 2029,
      "ince": 2030,
      "ulk": 2031,
      "ĠIncarnation": 2032,
      "Ġgo": 2033,
      "ĠEmp": 2034,
      "eek": 2035,
      "Ġgoad": 2036,
      "ĠChimera": 2037,
      "icore": 2038,
      "ĠEmb": 2039,
      "ĠEmbalm": 2040,
      "cay": 2041,
      "cayed": 2042,
      "ĠNom": 2043,
      "ĠNomad": 2044,
      "ĠWorld": 2045,
      "Ġdiscarded": 2046,
      "Ġcame": 2047,
      "Ġresolves": 2048,
      "Ġfights": 2049,
      "Ġevery": 2050,
      "alam": 2051,
      "Ġint": 2052,
      "yee": 2053,
      "loyee": 2054,
      "ĠEmployee": 2055,
      "hurg": 2056,
      "ĠLhurg": 2057,
      "ĠJuggernaut": 2058,
      "ĠLhurgoyf": 2059,
      "Ġcl": 2060,
      "ĠMast": 2061,
      "Ġprom": 2062,
      "ĠOx": 2063,
      "ĠTransm": 2064,
      "ĠScient": 2065,
      "ĠScientist": 2066,
      "ĠEmerge": 2067,
      "ĠGoat": 2068,
      "Ġamass": 2069,
      "Ġshares": 2070,
      "Ġsince": 2071,
      "ĠStri": 2072,
      "ackal": 2073,
      "ĠJackal": 2074,
      "former": 2075,
      "ĠPerformer": 2076,
      "alamander": 2077,
      "ĠTrap": 2078,
      "bent": 2079,
      "Ġsize": 2080,
      "ĠHellbent": 2081,
      "nihilator": 2082,
      "alf": 2083,
      "Ġgift": 2084,
      "Ġclash": 2085,
      "cess": 2086,
      "unk": 2087,
      "ewer": 2088,
      "nive": 2089,
      "ĠLands": 2090,
      "Ġexert": 2091,
      "apon": 2092,
      "Ġdecl": 2093,
      "ĠEtern": 2094,
      "gain": 2095,
      "Ġagain": 2096,
      "ĠLiv": 2097,
      "ĠLiving": 2098,
      "pen": 2099,
      "aries": 2100,
      "ĠOf": 2101,
      "Ġhalf": 2102,
      "Ġbeen": 2103,
      "ĠGuest": 2104,
      "ĠOrcs": 2105,
      "ĠTransmute": 2106,
      "ĠLess": 2107,
      "ĠLesson": 2108,
      "Ġover": 2109,
      "Ġevidence": 2110,
      "Ġshield": 2111,
      "egas": 2112,
      "ĠPegas": 2113,
      "vel": 2114,
      "andra": 2115,
      "ĠChandra": 2116,
      "Ġhig": 2117,
      "ĠCoven": 2118,
      "Ġmonarch": 2119,
      "ĠSalamander": 2120,
      "ĠPegasus": 2121,
      "ĠRev": 2122,
      "ĠAfter": 2123,
      "iance": 2124,
      "ulate": 2125,
      "opulate": 2126,
      "ĠSun": 2127,
      "ĠEternalize": 2128,
      "ĠScavenge": 2129,
      "Ġcop": 2130,
      "ĠJunk": 2131,
      "ribute": 2132,
      "ĠShield": 2133,
      "ĠQuest": 2134,
      "orage": 2135,
      "Ġcom": 2136,
      "ces": 2137,
      "ĠClo": 2138,
      "ĠStart": 2139,
      "ĠStrive": 2140,
      "list": 2141,
      "Ġdeclare": 2142,
      "Ġdungeon": 2143,
      "aken": 2144,
      "waken": 2145,
      "ret": 2146,
      "down": 2147,
      "ĠStarting": 2148,
      "Ġentered": 2149,
      "bur": 2150,
      "Ġfewer": 2151,
      "Ġdeck": 2152,
      "mph": 2153,
      "ymph": 2154,
      "Ġmost": 2155,
      "ĠSkulk": 2156,
      "led": 2157,
      "Ġsp": 2158,
      "rowth": 2159,
      "ener": 2160,
      "Ġdread": 2161,
      "ĠNymph": 2162,
      "Ġshadow": 2163,
      "ĠArchon": 2164,
      "Ġleave": 2165,
      "thing": 2166,
      "ether": 2167,
      "ĠShr": 2168,
      "Ġdup": 2169,
      "Ġmode": 2170,
      "ĠThose": 2171,
      "iph": 2172,
      "ĠAur": 2173,
      "Ġeight": 2174,
      "ĠAuras": 2175,
      "ĠAwaken": 2176,
      "ĠInsp": 2177,
      "Ġfade": 2178,
      "ĠConnive": 2179,
      "ĠExtort": 2180,
      "ĠSquad": 2181,
      "ĠCiph": 2182,
      "ĠCipher": 2183,
      "Ġopen": 2184,
      "burst": 2185,
      "ĠGre": 2186,
      "ampion": 2187,
      "Ġregener": 2188,
      "ĠAnnihilator": 2189,
      "ĠFinality": 2190,
      "trace": 2191,
      "Ġqu": 2192,
      "upp": 2193,
      "ĠChampion": 2194,
      "Ġredu": 2195,
      "lessing": 2196,
      "ĠCompanion": 2197,
      "ĠEnlist": 2198,
      "Ġenough": 2199,
      "Ġcopies": 2200,
      "ious": 2201,
      "ĠWra": 2202,
      "ĠWraith": 2203,
      "erm": 2204,
      "Ġsteps": 2205,
      "ign": 2206,
      "ĠShark": 2207,
      "ĠBoast": 2208,
      "Ġro": 2209,
      "Ġproliferate": 2210,
      "ĠShrine": 2211,
      "mlin": 2212,
      "ĠSunburst": 2213,
      "ĠGremlin": 2214,
      "ĠEvidence": 2215,
      "Ġsticker": 2216,
      "Ġcomp": 2217,
      "ĠGerm": 2218,
      "ĠMiracle": 2219,
      "Ġquest": 2220,
      "Ġremain": 2221,
      "Ġinc": 2222,
      "Ġregenerated": 2223,
      "ĠFreerunning": 2224,
      "born": 2225,
      "ecret": 2226,
      "Ġpaired": 2227,
      "ĠGraft": 2228,
      "Ġkind": 2229,
      "Ġowners": 2230,
      "fer": 2231,
      "ining": 2232,
      "Ġcity": 2233,
      "leave": 2234,
      "ĠRetrace": 2235,
      "rod": 2236,
      "ĠPra": 2237,
      "ified": 2238,
      "Ġflanking": 2239,
      "Ġenchantments": 2240,
      "ĠMirrod": 2241,
      "ĠMirrodin": 2242,
      "enture": 2243,
      "Ġblessing": 2244,
      "orp": 2245,
      "ĠInspired": 2246,
      "ani": 2247,
      "ĠOn": 2248,
      "Ġturns": 2249,
      "Ġdivided": 2250,
      "asic": 2251,
      "Ġduplicate": 2252,
      "ĠBattle": 2253,
      "upport": 2254,
      "ĠWhile": 2255,
      "Ġroom": 2256,
      "ĠKob": 2257,
      "ĠKobold": 2258,
      "ĠEerie": 2259,
      "leated": 2260,
      "ĠCompleated": 2261,
      "gg": 2262,
      "ĠCommand": 2263,
      "Ġsuspend": 2264,
      "ĠInitiative": 2265,
      "amant": 2266,
      "Ġcrime": 2267,
      "ĠAdamant": 2268,
      "ĠOutlaw": 2269,
      "Ġpromise": 2270,
      "ah": 2271,
      "jani": 2272,
      "ĠAjani": 2273,
      "ĠAether": 2274,
      "Ġcollect": 2275,
      "ĠAetherborn": 2276,
      "ract": 2277,
      "ĠBolster": 2278,
      "ĠRaven": 2279,
      "ĠRavenous": 2280,
      "talion": 2281,
      "ĠBattalion": 2282,
      "esc": 2283,
      "ilis": 2284,
      "asing": 2285,
      "ĠPhasing": 2286,
      "ĠArtifacts": 2287,
      "Ġresult": 2288,
      "per": 2289,
      "icate": 2290,
      "redge": 2291,
      "ax": 2292,
      "Ġnonbl": 2293,
      "ĠLee": 2294,
      "ĠLeech": 2295,
      "mbra": 2296,
      "ĠFabr": 2297,
      "etor": 2298,
      "ĠPraetor": 2299,
      "ĠRevolt": 2300,
      "ĠTraining": 2301,
      "ĠDredge": 2302,
      "ele": 2303,
      "ĠPopulate": 2304,
      "Ġnonbasic": 2305,
      "ĠFabricate": 2306,
      "ĠSag": 2307,
      "aliant": 2308,
      "ĠValiant": 2309,
      "ues": 2310,
      "cious": 2311,
      "ĠFero": 2312,
      "Ġday": 2313,
      "ampage": 2314,
      "ĠFerocious": 2315,
      "ĠSuspect": 2316,
      "inship": 2317,
      "ĠKinship": 2318,
      "Ġmilled": 2319,
      "Ġnonblack": 2320,
      "ĠFract": 2321,
      "ĠFractal": 2322,
      "Ġpair": 2323,
      "erse": 2324,
      "Ġback": 2325,
      "Ġsadd": 2326,
      "Ġsaddled": 2327,
      "spire": 2328,
      "Ġgained": 2329,
      "Ġlesser": 2330,
      "leash": 2331,
      "ĠMite": 2332,
      "Ġmult": 2333,
      "Ġseek": 2334,
      "imum": 2335,
      "ĠJace": 2336,
      "sign": 2337,
      "Ġassign": 2338,
      "ĠCrime": 2339,
      "ĠCommit": 2340,
      "sa": 2341,
      "ĠAnother": 2342,
      "eplet": 2343,
      "epletion": 2344,
      "ĠWhale": 2345,
      "ox": 2346,
      "ĠMant": 2347,
      "ĠUnleash": 2348,
      "ĠProwl": 2349,
      "ĠUmbra": 2350,
      "pa": 2351,
      "Ġhigh": 2352,
      "gered": 2353,
      "Ġsoon": 2354,
      "Ġanything": 2355,
      "Ġcomes": 2356,
      "ĠManticore": 2357,
      "han": 2358,
      "Ġteam": 2359,
      "Ġround": 2360,
      "ĠLic": 2361,
      "ĠLicid": 2362,
      "Ġsuspect": 2363,
      "Ġsay": 2364,
      "Ġmax": 2365,
      "Ġmaximum": 2366,
      "hi": 2367,
      "Ġactiv": 2368,
      "ombat": 2369,
      "Ġtriggered": 2370,
      "Ġtoxic": 2371,
      "Ġmust": 2372,
      "iot": 2373,
      "ĠRiot": 2374,
      "uph": 2375,
      "ĠOuph": 2376,
      "ĠConspire": 2377,
      "ĠOuphe": 2378,
      "ĠSecond": 2379,
      "Ġhe": 2380,
      "ĠWeird": 2381,
      "ove": 2382,
      "elly": 2383,
      "ĠJelly": 2384,
      "ĠIslandwalk": 2385,
      "actly": 2386,
      "Ġexactly": 2387,
      "ĠRep": 2388,
      "lict": 2389,
      "Ġincub": 2390,
      "ĠLil": 2391,
      "iana": 2392,
      "ĠLiliana": 2393,
      "eep": 2394,
      "ience": 2395,
      "nown": 2396,
      "ĠWicked": 2397,
      "Ġrenown": 2398,
      "Ġnonartifact": 2399,
      "Ġdivide": 2400,
      "Ġmulticolored": 2401,
      "ater": 2402,
      "ĠMore": 2403,
      "Ġcommit": 2404,
      "EL": 2405,
      "VEL": 2406,
      "ĠLE": 2407,
      "ĠLEVEL": 2408,
      "Ġhands": 2409,
      "ĠAlliance": 2410,
      "ĠMonster": 2411,
      "ĠForm": 2412,
      "Ġaren": 2413,
      "Ġcas": 2414,
      "ĠUnder": 2415,
      "ĠCommander": 2416,
      "Ġunpa": 2417,
      "Ġunpaired": 2418,
      "Ġnight": 2419,
      "ĠAge": 2420,
      "ump": 2421,
      "ĠSwampwalk": 2422,
      "ĠCele": 2423,
      "Ġcommanders": 2424,
      "Ġbands": 2425,
      "ced": 2426,
      "Ġlater": 2427,
      "ike": 2428,
      "attach": 2429,
      "perience": 2430,
      "ka": 2431,
      "growth": 2432,
      "ĠUndergrowth": 2433,
      "Ġprow": 2434,
      "Ġesc": 2435,
      "Ġtake": 2436,
      "ĠTransform": 2437,
      "ĠEgg": 2438,
      "key": 2439,
      "ĠDecayed": 2440,
      "ĠMonkey": 2441,
      "ye": 2442,
      "ĠCleave": 2443,
      "Ġincubate": 2444,
      "ĠSurge": 2445,
      "ĠSpectacle": 2446,
      "yond": 2447,
      "ĠScorp": 2448,
      "ĠScorpion": 2449,
      "ĠExtra": 2450,
      "ĠAssist": 2451,
      "lee": 2452,
      "Ġz": 2453,
      "side": 2454,
      "Ġoutside": 2455,
      "Ġrounded": 2456,
      "fish": 2457,
      "ĠJellyfish": 2458,
      "Ġzone": 2459,
      "min": 2460,
      "Ġgive": 2461,
      "Ġlevel": 2462,
      "book": 2463,
      "ination": 2464,
      "low": 2465,
      "Ġbeyond": 2466,
      "Ġinten": 2467,
      "ĠRampage": 2468,
      "ĠHipp": 2469,
      "Ġlegend": 2470,
      "Ġrenowned": 2471,
      "ĠJump": 2472,
      "ĠCelebr": 2473,
      "ĠWorm": 2474,
      "ĠSpore": 2475,
      "Ġoutlaw": 2476,
      "Ġecho": 2477,
      "ĠCelebration": 2478,
      "ĠSupport": 2479,
      "ingle": 2480,
      "Ġsingle": 2481,
      "ĠYet": 2482,
      "ives": 2483,
      "Ġventure": 2484,
      "ĠYeti": 2485,
      "ĠMelee": 2486,
      "Ġpiles": 2487,
      "ĠNon": 2488,
      "ĠMap": 2489,
      "ĠElves": 2490,
      "Ġext": 2491,
      "Ġspore": 2492,
      "Ġstack": 2493,
      "issa": 2494,
      "ĠNissa": 2495,
      "head": 2496,
      "alker": 2497,
      "ĠSpike": 2498,
      "ĠProcess": 2499,
      "ĠProcessor": 2500,
      "ren": 2501,
      "ĠBasic": 2502,
      "Ġopening": 2503,
      "isit": 2504,
      "Ġextra": 2505,
      "ĠShuffle": 2506,
      "Ġfear": 2507,
      "mbination": 2508,
      "Ġcombination": 2509,
      "emb": 2510,
      "Ġ20": 2511,
      "Ġcascade": 2512,
      "hold": 2513,
      "istribute": 2514,
      "throne": 2515,
      "ĠMastery": 2516,
      "Wor": 2517,
      "ĠAssemb": 2518,
      "Worker": 2519,
      "ĠAssembly": 2520,
      "arm": 2521,
      "aya": 2522,
      "Ġmadness": 2523,
      "ĠCurs": 2524,
      "life": 2525,
      "nives": 2526,
      "Ġconnives": 2527,
      "ĠAfflict": 2528,
      "Ġclashing": 2529,
      "Ġcompanion": 2530,
      "Ġattackers": 2531,
      "Ġhighest": 2532,
      "ward": 2533,
      "ollow": 2534,
      "Ġmodified": 2535,
      "ĠDale": 2536,
      "ĠHar": 2537,
      "adox": 2538,
      "ĠParadox": 2539,
      "ĠDalek": 2540,
      "ĠPest": 2541,
      "ĠWeapon": 2542,
      "ĠSlivers": 2543,
      "ĠArmor": 2544,
      "Ġtied": 2545,
      "ĠCursed": 2546,
      "enant": 2547,
      "ĠLie": 2548,
      "utenant": 2549,
      "ĠLieutenant": 2550,
      "cast": 2551,
      "Ġinitiative": 2552,
      "ĠSorc": 2553,
      "ĠToy": 2554,
      "ley": 2555,
      "ĠParley": 2556,
      "alate": 2557,
      "ĠEscalate": 2558,
      "ĠRally": 2559,
      "ĠDethrone": 2560,
      "Ġreturns": 2561,
      "Ġchange": 2562,
      "tain": 2563,
      "ĠHaunt": 2564,
      "ĠAfterlife": 2565,
      "ĠDraft": 2566,
      "ĠEye": 2567,
      "ĠClown": 2568,
      "ilemm": 2569,
      "erer": 2570,
      "ilemma": 2571,
      "idable": 2572,
      "ĠFormidable": 2573,
      "een": 2574,
      "ĠBehold": 2575,
      "ĠBeholder": 2576,
      "Ġblitz": 2577,
      "Ġphased": 2578,
      "Ġprevented": 2579,
      "Ġspellbook": 2580,
      "Ġsacrificing": 2581,
      "ĠForecast": 2582,
      "oc": 2583,
      "12": 2584,
      "epar": 2585,
      "ĠAmp": 2586,
      "lify": 2587,
      "ĠAmplify": 2588,
      "wol": 2589,
      "erewol": 2590,
      "ĠWerewol": 2591,
      "ĠVol": 2592,
      "Ġgoaded": 2593,
      "ĠGide": 2594,
      "ĠEnter": 2595,
      "ĠGideon": 2596,
      "du": 2597,
      "sided": 2598,
      "Ġthird": 2599,
      "ĠGRUW": 2600,
      "ĠIslands": 2601,
      "Ġcrew": 2602,
      "ĠBad": 2603,
      "ĠStorage": 2604,
      "Ġhasn": 2605,
      "zz": 2606,
      "ĠConjure": 2607,
      "Ġtempts": 2608,
      "last": 2609,
      "nc": 2610,
      "ounc": 2611,
      "ĠSorcerer": 2612,
      "Ġsecret": 2613,
      "ĠOffer": 2614,
      "Ġbegin": 2615,
      "ting": 2616,
      "ng": 2617,
      "ĠYoung": 2618,
      "ĠDragons": 2619,
      "ud": 2620,
      "ream": 2621,
      "ĠBasilis": 2622,
      "Ġleft": 2623,
      "ĠBasilisk": 2624,
      "Ġintensity": 2625,
      "ĠHag": 2626,
      "ĠOutlast": 2627,
      "ĠSurvival": 2628,
      "eret": 2629,
      "ĠTezz": 2630,
      "ĠTezzeret": 2631,
      "orce": 2632,
      "ĠDem": 2633,
      "ĠViv": 2634,
      "Ġreturned": 2635,
      "ĠVivien": 2636,
      "Ġforetell": 2637,
      "leg": 2638,
      "Ġwasn": 2639,
      "Ġsepar": 2640,
      "Ġexpend": 2641,
      "force": 2642,
      "inforce": 2643,
      "ĠReinforce": 2644,
      "Ġfollow": 2645,
      "Ġprodu": 2646,
      "ĠOnce": 2647,
      "legendary": 2648,
      "rate": 2649,
      "strate": 2650,
      "Ġad": 2651,
      "oyal": 2652,
      "ari": 2653,
      "irin": 2654,
      "ĠKirin": 2655,
      "ĠBadger": 2656,
      "Ġputting": 2657,
      "ĠCry": 2658,
      "ĠSlug": 2659,
      "Ġreduced": 2660,
      "Ġsk": 2661,
      "Ġtargeted": 2662,
      "Ġunattach": 2663,
      "ĠHarpy": 2664,
      "ĠDaut": 2665,
      "ĠDauthi": 2666,
      "Ġcounc": 2667,
      "Ġchose": 2668,
      "Ġcouncil": 2669,
      "ich": 2670,
      "verine": 2671,
      "ĠWolverine": 2672,
      "ĠTefer": 2673,
      "ĠTeferi": 2674,
      "ĠMet": 2675,
      "Ġblockers": 2676,
      "Ġstorage": 2677,
      "Ġtrans": 2678,
      "Ġtransform": 2679,
      "bble": 2680,
      "ĠBobble": 2681,
      "ĠVolver": 2682,
      "ĠBobblehead": 2683,
      "ĠSark": 2684,
      "ĠSarkhan": 2685,
      "ĠProvoke": 2686,
      "ĠAssassins": 2687,
      "eapon": 2688,
      "Ġtext": 2689,
      "Ġlegendaries": 2690,
      "Ġdash": 2691,
      "ope": 2692,
      "ĠFade": 2693,
      "Ġsecretly": 2694,
      "spe": 2695,
      "Ġnoncombat": 2696,
      "Ġassigns": 2697,
      "Ġfinality": 2698,
      "ĠAtog": 2699,
      "Ġmegamorph": 2700,
      "rue": 2701,
      "ĠInk": 2702,
      "rush": 2703,
      "zra": 2704,
      "ĠAzra": 2705,
      "Ġbid": 2706,
      "Ġkicker": 2707,
      "ating": 2708,
      "ĠWerewolf": 2709,
      "ĠSphere": 2710,
      "Ġdisguise": 2711,
      "Ġweapon": 2712,
      "ĠSagas": 2713,
      "oss": 2714,
      "vance": 2715,
      "Ġadvance": 2716,
      "Ġincl": 2717,
      "igod": 2718,
      "ĠDemigod": 2719,
      "ĠRoyal": 2720,
      "Ġnonlegendary": 2721,
      "Ġreplicate": 2722,
      "Ġdeclared": 2723,
      "ounty": 2724,
      "Ġintimidate": 2725,
      "Ġbut": 2726,
      "ĠRecover": 2727,
      "ification": 2728,
      "ĠTempt": 2729,
      "ĠTempting": 2730,
      "Ġwon": 2731,
      "ics": 2732,
      "Ġdecayed": 2733,
      "ĠInkling": 2734,
      "ĠElspe": 2735,
      "ĠElspeth": 2736,
      "Ġexist": 2737,
      "ĠDemonstrate": 2738,
      "Ġdice": 2739,
      "stalker": 2740,
      "11": 2741,
      "ĠForests": 2742,
      "ber": 2743,
      "ĠAnt": 2744,
      "riend": 2745,
      "ĠEmin": 2746,
      "ĠEminence": 2747,
      "Ġinclud": 2748,
      "ĠGar": 2749,
      "Ġprocess": 2750,
      "Ġtrue": 2751,
      "ĠSqui": 2752,
      "ĠSquid": 2753,
      "Ġdepletion": 2754,
      "ĠDetain": 2755,
      "ĠReplicate": 2756,
      "Ġtreat": 2757,
      "ruk": 2758,
      "ĠGarruk": 2759,
      "ĠSolt": 2760,
      "ĠSoltari": 2761,
      "Ġ19": 2762,
      "ĠPirates": 2763,
      "ĠGu": 2764,
      "Ġmyriad": 2765,
      "ĠForestwalk": 2766,
      "Ġescape": 2767,
      "arid": 2768,
      "ait": 2769,
      "ĠPack": 2770,
      "yo": 2771,
      "ely": 2772,
      "ĠKaya": 2773,
      "ĠCloak": 2774,
      "Ġtransforms": 2775,
      "endum": 2776,
      "ĠAddendum": 2777,
      "Ġtreated": 2778,
      "Ġdes": 2779,
      "Ġdiscover": 2780,
      "itch": 2781,
      "Ġoffer": 2782,
      "eel": 2783,
      "ĠRipp": 2784,
      "Ġinfect": 2785,
      "Ġfollowing": 2786,
      "ĠRipple": 2787,
      "Ġeven": 2788,
      "ists": 2789,
      "ents": 2790,
      "Ġnote": 2791,
      "Ġcreated": 2792,
      "var": 2793,
      "ĠSy": 2794,
      "ĠSheep": 2795,
      "Ġexploit": 2796,
      "Ġvote": 2797,
      "ĠVerse": 2798,
      "ĠSadd": 2799,
      "ĠSaddle": 2800,
      "Ġfreerunning": 2801,
      "Ġlandcycling": 2802,
      "Ġforest": 2803,
      "ĠGoblins": 2804,
      "ĠSlith": 2805,
      "Ġcry": 2806,
      "ĠForage": 2807,
      "Wall": 2808,
      "ras": 2809,
      "ĠVras": 2810,
      "ĠVraska": 2811,
      "ĠHomarid": 2812,
      "sists": 2813,
      "Ġconsists": 2814,
      "roma": 2815,
      "ĠChroma": 2816,
      "Ġdone": 2817,
      "Ġalread": 2818,
      "Ġdescend": 2819,
      "Ġalready": 2820,
      "orin": 2821,
      "ĠSorin": 2822,
      "Ġmove": 2823,
      "ĠSecret": 2824,
      "Ġactivating": 2825,
      "actics": 2826,
      "Ġmutates": 2827,
      "ami": 2828,
      "Ġboon": 2829,
      "eal": 2830,
      "ĠNah": 2831,
      "ĠNahiri": 2832,
      "ĠCame": 2833,
      "Ġdescended": 2834,
      "Ġbet": 2835,
      "ĠMountains": 2836,
      "Ġword": 2837,
      "ĠBolas": 2838,
      "ĠTargeting": 2839,
      "Ġencod": 2840,
      "Ġsuspected": 2841,
      "Ġforestwalk": 2842,
      "Ġencoded": 2843,
      "Ġwhose": 2844,
      "une": 2845,
      "ĠNightstalker": 2846,
      "elope": 2847,
      "ĠAntelope": 2848,
      "ĠMy": 2849,
      "Ġwhich": 2850,
      "sents": 2851,
      "resents": 2852,
      "Ġrepresents": 2853,
      "AL": 2854,
      "use": 2855,
      "Ġemerge": 2856,
      "ĠMasticore": 2857,
      "ĠVampires": 2858,
      "strike": 2859,
      "ĠHumans": 2860,
      "ĠYan": 2861,
      "eare": 2862,
      "alak": 2863,
      "Ġcounts": 2864,
      "ĠThalak": 2865,
      "ĠThalakos": 2866,
      "ote": 2867,
      "ĠPlaneswalkers": 2868,
      "ĠSpirits": 2869,
      "ĠHippo": 2870,
      "hort": 2871,
      "ĠCohort": 2872,
      "Ġskip": 2873,
      "ĠRogues": 2874,
      "Ġresolved": 2875,
      "nce": 2876,
      "Ġdifference": 2877,
      "ĠKi": 2878,
      "Ġsources": 2879,
      "ĠExperience": 2880,
      "ĠKarn": 2881,
      "ĠDepletion": 2882,
      "time": 2883,
      "ĠSpec": 2884,
      "Ġlasts": 2885,
      "Ġkeep": 2886,
      "Ġkeeps": 2887,
      "ĠPermanent": 2888,
      "yvar": 2889,
      "pic": 2890,
      "ĠBoo": 2891,
      "ĠSaga": 2892,
      "Ġprowl": 2893,
      "Ġoutlaws": 2894,
      "ĠRune": 2895,
      "Ġtoward": 2896,
      "Ġso": 2897,
      "ĠCamel": 2898,
      "Ġunlock": 2899,
      "ted": 2900,
      "ĠVisit": 2901,
      "orse": 2902,
      "ĠWind": 2903,
      "Ġhorse": 2904,
      "Ġhorsemanship": 2905,
      "air": 2906,
      "beare": 2907,
      "ĠTake": 2908,
      "ĠFort": 2909,
      "bearer": 2910,
      "Ġheal": 2911,
      "Ġprowess": 2912,
      "Ġsw": 2913,
      "ĠWren": 2914,
      "ĠWrenn": 2915,
      "ances": 2916,
      "Ġexperience": 2917,
      "Ġinstances": 2918,
      "LO": 2919,
      "YAL": 2920,
      "Ġdiscarding": 2921,
      "LOYAL": 2922,
      "LOYALTY": 2923,
      "ween": 2924,
      "Ġnames": 2925,
      "ĠWhite": 2926,
      "Ġbetween": 2927,
      "ĠConver": 2928,
      "ĠConverge": 2929,
      "ĠRadiance": 2930,
      "ĠPermanents": 2931,
      "astery": 2932,
      "Ġmastery": 2933,
      "ĠUr": 2934,
      "Ġmin": 2935,
      "ĠHunt": 2936,
      "ĠNix": 2937,
      "ĠRoom": 2938,
      "Ġregular": 2939,
      "ĠNixilis": 2940,
      "ĠEpic": 2941,
      "ĠSeek": 2942,
      "ĠMo": 2943,
      "Ġrepe": 2944,
      "Ġrepeat": 2945,
      "ĠLore": 2946,
      "Ġdrawn": 2947,
      "Ġhim": 2948,
      "za": 2949,
      "ĠRats": 2950,
      "ĠMinsc": 2951,
      "ĠMercenaries": 2952,
      "ĠUrza": 2953,
      "ail": 2954,
      "ĠDistribute": 2955,
      "Ġhour": 2956,
      "ĠWolves": 2957,
      "ĠMana": 2958,
      "Ġsuspended": 2959,
      "Ġverse": 2960,
      "ringer": 2961,
      "ĠSah": 2962,
      "eeli": 2963,
      "ĠSaheeli": 2964,
      "gr": 2965,
      "ĠKait": 2966,
      "ĠKaito": 2967,
      "ĠDilemma": 2968,
      "Ġweren": 2969,
      "Ġexerted": 2970,
      "ory": 2971,
      "fin": 2972,
      "itely": 2973,
      "Ġinde": 2974,
      "finitely": 2975,
      "Ġindefinitely": 2976,
      "ialize": 2977,
      "ĠSpecialize": 2978,
      "na": 2979,
      "Ġspl": 2980,
      "Ġsoul": 2981,
      "ĠVehicles": 2982,
      "Ġexploits": 2983,
      "stic": 2984,
      "Ġadds": 2985,
      "Ġcontrollers": 2986,
      "athran": 2987,
      "ĠMetathran": 2988,
      "ĠRed": 2989,
      "Ġne": 2990,
      "yber": 2991,
      "ĠCyber": 2992,
      "ĠCyberman": 2993,
      "Ġtide": 2994,
      "ĠSwamps": 2995,
      "rick": 2996,
      "ogriff": 2997,
      "Ġvalues": 2998,
      "ĠHippogriff": 2999,
      "Ġbargain": 3000,
      "Ġbargained": 3001,
      "daunt": 3002,
      "daunted": 3003,
      "ĠBringer": 3004,
      "ĠTribute": 3005,
      "Ġexchange": 3006,
      "Ġcrewed": 3007,
      "ĠMole": 3008,
      "ĠGreen": 3009,
      "ĠAdvent": 3010,
      "mate": 3011,
      "Ġminus": 3012,
      "ague": 3013,
      "ĠMong": 3014,
      "ymb": 3015,
      "Ġsymb": 3016,
      "Ġsymbol": 3017,
      "Ġhigher": 3018,
      "lac": 3019,
      "Ġreplac": 3020,
      "Ġreplacing": 3021,
      "Ġclo": 3022,
      "ĠDiv": 3023,
      "ĠTami": 3024,
      "Ġcloak": 3025,
      "ĠTamiyo": 3026,
      "Ġhaunt": 3027,
      "nth": 3028,
      "ĠSynth": 3029,
      "Ġdistribute": 3030,
      "ĠSkip": 3031,
      "ummon": 3032,
      "Ġcomplet": 3033,
      "orus": 3034,
      "Ġsearches": 3035,
      "Ġsplice": 3036,
      "ĠHad": 3037,
      "ĠMystic": 3038,
      "ĠTw": 3039,
      "Ġsick": 3040,
      "Ġtaps": 3041,
      "Ġsickness": 3042,
      "ĠHam": 3043,
      "Ġbol": 3044,
      "Ġfight": 3045,
      "Ġgu": 3046,
      "Ġmodification": 3047,
      "Ġwins": 3048,
      "Ġbolster": 3049,
      "Ġmodifications": 3050,
      "Ġdivinity": 3051,
      "Ġplaneswalk": 3052,
      "ĠUndaunted": 3053,
      "ĠTyvar": 3054,
      "Ġra": 3055,
      "Ġrad": 3056,
      "ĠCart": 3057,
      "Ġisland": 3058,
      "ouche": 3059,
      "ĠCartouche": 3060,
      "ĠZub": 3061,
      "ĠZubera": 3062,
      "ĠRal": 3063,
      "ĠLear": 3064,
      "right": 3065,
      "ĠLearn": 3066,
      "Ġ13": 3067,
      "ĠWith": 3068,
      "arse": 3069,
      "ĠNarse": 3070,
      "ĠNarset": 3071,
      "ĠBlue": 3072,
      "ĠLu": 3073,
      "Ġnine": 3074,
      "Ġneither": 3075,
      "Ġpo": 3076,
      "enty": 3077,
      "ĠFe": 3078,
      "Ġtwenty": 3079,
      "attacking": 3080,
      "ides": 3081,
      "Ġnonattacking": 3082,
      "ĠPri": 3083,
      "ĠKhan": 3084,
      "Ġlibraries": 3085,
      "ĠKhans": 3086,
      "Ġlore": 3087,
      "oster": 3088,
      "ild": 3089,
      "ĠTr": 3090,
      "ĠCoward": 3091,
      "uro": 3092,
      "ĠRow": 3093,
      "Ġpow": 3094,
      "ĠBlack": 3095,
      "ĠRowan": 3096,
      "Ġpowers": 3097,
      "ĠTravel": 3098,
      "Ġodd": 3099,
      "Aura": 3100,
      "ĠMeld": 3101,
      "ĠFlood": 3102,
      "rak": 3103,
      "ĠAshi": 3104,
      "ĠAshiok": 3105,
      "aos": 3106,
      "Ġspect": 3107,
      "Ġspectacle": 3108,
      "Ġnor": 3109,
      "ĠChorus": 3110,
      "Ġdilemma": 3111,
      "Ġislandwalk": 3112,
      "Ġim": 3113,
      "Ġful": 3114,
      "ĠKeep": 3115,
      "ĠMountainwalk": 3116,
      "Ġfully": 3117,
      "ĠDomri": 3118,
      "Ġevoke": 3119,
      "Ġswamp": 3120,
      "wag": 3121,
      "rushwag": 3122,
      "ĠAdventure": 3123,
      "rushwagg": 3124,
      "wick": 3125,
      "arri": 3126,
      "lywick": 3127,
      "ĠEllywick": 3128,
      "ĠBGUW": 3129,
      "Ġfriend": 3130,
      "ĠOffering": 3131,
      "Ġseparates": 3132,
      "Ġmir": 3133,
      "Ġmiracle": 3134,
      "ĠLair": 3135,
      "ised": 3136,
      "Ġpromised": 3137,
      "ĠRu": 3138,
      "ĠNumber": 3139,
      "Ġencore": 3140,
      "Ġcouldn": 3141,
      "Ġhaven": 3142,
      "Ġsummon": 3143,
      "Ġoverload": 3144,
      "Ġsurge": 3145,
      "Ġsummoning": 3146,
      "Ġguess": 3147,
      "Ġarm": 3148,
      "Ġtra": 3149,
      "Ġarmor": 3150,
      "Ġru": 3151,
      "ĠBrushwagg": 3152,
      "ĠVenture": 3153,
      "ĠOne": 3154,
      "Ġwor": 3155,
      "ena": 3156,
      "ĠHyena": 3157,
      "Ġplot": 3158,
      "Ġlandwalk": 3159,
      "Ġreduce": 3160,
      "ending": 3161,
      "ĠImpending": 3162,
      "ĠSand": 3163,
      "Ġcompleted": 3164,
      "Ġconvoke": 3165,
      "ĠBounty": 3166,
      "ĠAuro": 3167,
      "chs": 3168,
      "Ġproduce": 3169,
      "ĠAurochs": 3170,
      "Ġflood": 3171,
      "ĠGnoll": 3172,
      "ĠHamster": 3173,
      "Ġ'": 3174,
      "Ġpopulate": 3175,
      "Ġbooster": 3176,
      "ĠDivinity": 3177,
      "aces": 3178,
      "em": 3179,
      "ĠWarriors": 3180,
      "Ġswampwalk": 3181,
      "Ġincludes": 3182,
      "atch": 3183,
      "ify": 3184,
      "ĠKobolds": 3185,
      "Ġforage": 3186,
      "Ġcleave": 3187,
      "ĠCarri": 3188,
      "ĠYanling": 3189,
      "Ġpartner": 3190,
      "Ġice": 3191,
      "ĠShard": 3192,
      "spent": 3193,
      "Ġunspent": 3194,
      "Ġcycling": 3195,
      "Ġpack": 3196,
      "ĠGrave": 3197,
      "Ġbounty": 3198,
      "Ġdrafted": 3199,
      "ful": 3200,
      "vin": 3201,
      "ĠTactics": 3202,
      "Ġaff": 3203,
      "ĠDovin": 3204,
      "Ġright": 3205,
      "Ġdivides": 3206,
      "ĠDread": 3207,
      "Ġsl": 3208,
      "ĠNep": 3209,
      "ĠNote": 3210,
      "Ġequip": 3211,
      "hilim": 3212,
      "Ġreduces": 3213,
      "ĠNephilim": 3214,
      "ĠTreat": 3215,
      "ĠGold": 3216,
      "ĠMove": 3217,
      "ĠPoss": 3218,
      "Ġcontains": 3219,
      "Ġnoted": 3220,
      "Ġexalted": 3221,
      "tra": 3222,
      "ĠMine": 3223,
      "Ġowns": 3224,
      "ought": 3225,
      "ĠWalls": 3226,
      "ters": 3227,
      "ilob": 3228,
      "ĠTrilob": 3229,
      "ĠTrilobite": 3230,
      "ĠGuard": 3231,
      "ĠDi": 3232,
      "nought": 3233,
      "ĠLoc": 3234,
      "ĠDreadnought": 3235,
      "ĠLocus": 3236,
      "Ġwither": 3237,
      "aving": 3238,
      "ĠSwitch": 3239,
      "ĠSlo": 3240,
      "Ġblood": 3241,
      "Ġsupport": 3242,
      "ĠSloth": 3243,
      "ĠFate": 3244,
      "ĠFoods": 3245,
      "ĠPlainscycling": 3246,
      "Ġoffering": 3247,
      "Ġfuse": 3248,
      "ĠBloodrush": 3249,
      "ĠMag": 3250,
      "Ġincluding": 3251,
      "ĠInqu": 3252,
      "Ġtrigger": 3253,
      "ask": 3254,
      "ĠIce": 3255,
      "Ġsqu": 3256,
      "ainous": 3257,
      "Ġvill": 3258,
      "Ġvillainous": 3259,
      "13": 3260,
      "ously": 3261,
      "rif": 3262,
      "akes": 3263,
      "Ġworth": 3264,
      "creature": 3265,
      "ĠNoncreature": 3266,
      "inel": 3267,
      "ĠGith": 3268,
      "ĠSnail": 3269,
      "ĠJaya": 3270,
      "Ġrule": 3271,
      "ress": 3272,
      "aver": 3273,
      "ocolored": 3274,
      "Ġskips": 3275,
      "oth": 3276,
      "Ġseparate": 3277,
      "sion": 3278,
      "Ġmodes": 3279,
      "Ġfaces": 3280,
      "Ġmonocolored": 3281,
      "ĠEffect": 3282,
      "ĠHe": 3283,
      "ĠStarf": 3284,
      "ĠUnattach": 3285,
      "Ġcommon": 3286,
      "ĠEffects": 3287,
      "ĠStarfish": 3288,
      "Ġplays": 3289,
      "Ġlooks": 3290,
      "ĠColorless": 3291,
      "ĠDeath": 3292,
      "ulpt": 3293,
      "ĠWarlocks": 3294,
      "ĠTimeless": 3295,
      "Ġdream": 3296,
      "etch": 3297,
      "Ġactivates": 3298,
      "ĠKher": 3299,
      "ĠSurrak": 3300,
      "ĠSurrakar": 3301,
      "Ġuntaps": 3302,
      "ĠMonger": 3303,
      "ara": 3304,
      "Ġlearn": 3305,
      "Ġdrew": 3306,
      "Ġexample": 3307,
      "Ġwords": 3308,
      "had": 3309,
      "net": 3310,
      "Ġeg": 3311,
      "ang": 3312,
      "ĠDihad": 3313,
      "Ġegg": 3314,
      "ĠDihada": 3315,
      "li": 3316,
      "ko": 3317,
      "gest": 3318,
      "ĠLight": 3319,
      "ĠIngest": 3320,
      "ĠVir": 3321,
      "ĠOko": 3322,
      "Ġel": 3323,
      "ĠCarrier": 3324,
      "oot": 3325,
      "ĠFriend": 3326,
      "Ġhaunting": 3327,
      "fl": 3328,
      "amm": 3329,
      "Ġapp": 3330,
      "ĠSkeletons": 3331,
      "ĠPossum": 3332,
      "Ġapply": 3333,
      "ĠPage": 3334,
      "Ġhaving": 3335,
      "elve": 3336,
      "ĠFlame": 3337,
      "cna": 3338,
      "ĠBasri": 3339,
      "ĠEnd": 3340,
      "ĠVecna": 3341,
      "udy": 3342,
      "ĠWizards": 3343,
      "Ġproduced": 3344,
      "Ġactivation": 3345,
      "aze": 3346,
      "cy": 3347,
      "ĠFortification": 3348,
      "pending": 3349,
      "ĠMountaincycling": 3350,
      "ĠFeather": 3351,
      "Ġimpending": 3352,
      "uat": 3353,
      "Ġ14": 3354,
      "ĠHuat": 3355,
      "ĠHuatli": 3356,
      "az": 3357,
      "ĠTreasures": 3358,
      "Ġteammate": 3359,
      "ĠVo": 3360,
      "Ġ12": 3361,
      "ĠKnights": 3362,
      "isitor": 3363,
      "ĠInquisitor": 3364,
      "ora": 3365,
      "ĠKiora": 3366,
      "Ġplotted": 3367,
      "ĠGrowth": 3368,
      "Ġtactics": 3369,
      "Ġpage": 3370,
      "Ġactive": 3371,
      "told": 3372,
      "Ġdoom": 3373,
      "Ġforetold": 3374,
      "Ġcommitted": 3375,
      "Ġfin": 3376,
      "ĠBGRU": 3377,
      "eries": 3378,
      "14": 3379,
      "combat": 3380,
      "Ġpost": 3381,
      "ĠPrim": 3382,
      "Ġeverything": 3383,
      "escent": 3384,
      "Ġpostcombat": 3385,
      "ĠPrimarch": 3386,
      "rand": 3387,
      "eat": 3388,
      "ja": 3389,
      "ĠRepeat": 3390,
      "ĠVoja": 3391,
      "ĠGates": 3392,
      "ĠPlague": 3393,
      "ĠSquirrels": 3394,
      "Ġunattached": 3395,
      "hite": 3396,
      "oin": 3397,
      "pse": 3398,
      "teen": 3399,
      "white": 3400,
      "ĠBrick": 3401,
      "ĠSwampcycling": 3402,
      "ĠCorpse": 3403,
      "ael": 3404,
      "entinel": 3405,
      "ĠSentinel": 3406,
      "ĠLe": 3407,
      "Ġentering": 3408,
      "ĠTwin": 3409,
      "Ġvow": 3410,
      "ĠDinosaurs": 3411,
      "ĠWalker": 3412,
      "Ġescapes": 3413,
      "ĠHour": 3414,
      "Ġki": 3415,
      "ateseal": 3416,
      "Ġpersist": 3417,
      "ĠSoldiers": 3418,
      "ĠCoy": 3419,
      "Ġsquare": 3420,
      "Ġsect": 3421,
      "Ġelse": 3422,
      "Ġsector": 3423,
      "ĠWal": 3424,
      "ĠBirds": 3425,
      "enchant": 3426,
      "anup": 3427,
      "Ġcle": 3428,
      "Ġcleanup": 3429,
      "ov": 3430,
      "Ġ15": 3431,
      "irc": 3432,
      "ĠModified": 3433,
      "Ġcolo": 3434,
      "ĠWindgr": 3435,
      "Ġcolored": 3436,
      "ĠWindgrace": 3437,
      "Ġunearth": 3438,
      "reath": 3439,
      "ĠBod": 3440,
      "ĠBreath": 3441,
      "isp": 3442,
      "ĠVoid": 3443,
      "ĠQu": 3444,
      "ĠBody": 3445,
      "rack": 3446,
      "way": 3447,
      "inu": 3448,
      "Ġbrack": 3449,
      "illo": 3450,
      "ĠPo": 3451,
      "adillo": 3452,
      "ĠArmadillo": 3453,
      "ets": 3454,
      "Ġbrackets": 3455,
      "ier": 3456,
      "ĠBefore": 3457,
      "ha": 3458,
      "ject": 3459,
      "ne": 3460,
      "arves": 3461,
      "Ġdetain": 3462,
      "Ġrampage": 3463,
      "ĠDwarves": 3464,
      "ĠNaut": 3465,
      "ilus": 3466,
      "ĠAngr": 3467,
      "ĠNautilus": 3468,
      "ĠAngrath": 3469,
      "ium": 3470,
      "ysa": 3471,
      "asp": 3472,
      "eloc": 3473,
      "ĠTeysa": 3474,
      "ĠBlade": 3475,
      "elocity": 3476,
      "ĠThree": 3477,
      "ĠCoyote": 3478,
      "gle": 3479,
      "ti": 3480,
      "ĠNog": 3481,
      "ĠLightning": 3482,
      "ĠNoggle": 3483,
      "ĠDream": 3484,
      "ĠFuse": 3485,
      "Ġintens": 3486,
      "lt": 3487,
      "ĠMar": 3488,
      "ding": 3489,
      "ius": 3490,
      "ĠMid": 3491,
      "ĠDemons": 3492,
      "Ġbidding": 3493,
      "ggu": 3494,
      "ĠYanggu": 3495,
      "ĠTin": 3496,
      "Ġfourth": 3497,
      "ĠForestcycling": 3498,
      "arth": 3499,
      "ĠEarth": 3500,
      "ĠHeart": 3501,
      "ĠIslandcycling": 3502,
      "ĠTarm": 3503,
      "ĠNik": 3504,
      "ogoyf": 3505,
      "Ġskulk": 3506,
      "Ġtravel": 3507,
      "ĠTarmogoyf": 3508,
      "elf": 3509,
      "ĠVarm": 3510,
      "ĠSculpt": 3511,
      "ĠCats": 3512,
      "ĠFaeries": 3513,
      "Ġcrews": 3514,
      "ĠFortify": 3515,
      "ĠVarmint": 3516,
      "rice": 3517,
      "Ġwish": 3518,
      "Ġhow": 3519,
      "aring": 3520,
      "lyph": 3521,
      "ĠChaos": 3522,
      "ĠLuck": 3523,
      "Ġvowel": 3524,
      "kka": 3525,
      "sy": 3526,
      "ull": 3527,
      "Ġfull": 3528,
      "Ġnonwhite": 3529,
      "ĠDoom": 3530,
      "ĠLukka": 3531,
      "identity": 3532,
      "Ġidentity": 3533,
      "ĠClues": 3534,
      "Ġslime": 3535,
      "ĠFateful": 3536,
      "rey": 3537,
      "ĠFetch": 3538,
      "ĠMow": 3539,
      "ĠFlag": 3540,
      "ĠMowu": 3541,
      "ĠFlagbearer": 3542,
      "den": 3543,
      "urden": 3544,
      "Ġplague": 3545,
      "ager": 3546,
      "rie": 3547,
      "ĠClerics": 3548,
      "Ġundying": 3549,
      "ĠHit": 3550,
      "Ġannihilator": 3551,
      "Ġcumulative": 3552,
      "ĠGrand": 3553,
      "eldd": 3554,
      "ĠPheldd": 3555,
      "agrif": 3556,
      "ĠPhelddagrif": 3557,
      "Ġign": 3558,
      "ĠBra": 3559,
      "guard": 3560,
      "Ġignore": 3561,
      "ĠWild": 3562,
      "Ġmount": 3563,
      "Ġgrowth": 3564,
      "Ġmountain": 3565,
      "Ġloss": 3566,
      "ĠNag": 3567,
      "ief": 3568,
      "Ġwhether": 3569,
      "ĠNaga": 3570,
      "ĠTib": 3571,
      "ĠFire": 3572,
      "Ġfe": 3573,
      "Ġcollected": 3574,
      "ressure": 3575,
      "ĠTibalt": 3576,
      "ia": 3577,
      "Ġdescent": 3578,
      "Ġmire": 3579,
      "Ġnonenchant": 3580,
      "Ġlonger": 3581,
      "ĠTeyo": 3582,
      "Ġnonenchantment": 3583,
      "Ġtwelve": 3584,
      "entacle": 3585,
      "iner": 3586,
      "ĠTentacle": 3587,
      "aly": 3588,
      "Ġbrick": 3589,
      "iscov": 3590,
      "atchling": 3591,
      "ball": 3592,
      "eim": 3593,
      "ĠSil": 3594,
      "ĠMask": 3595,
      "ĠKeim": 3596,
      "ĠMagic": 3597,
      "ĠKeimi": 3598,
      "atho": 3599,
      "Ġninj": 3600,
      "ĠBRUW": 3601,
      "Ġninjutsu": 3602,
      "tti": 3603,
      "ĠRag": 3604,
      "demate": 3605,
      "aretti": 3606,
      "avan": 3607,
      "ĠThopters": 3608,
      "ĠPridemate": 3609,
      "Ġafflict": 3610,
      "ĠRagavan": 3611,
      "atrice": 3612,
      "ĠCock": 3613,
      "Ġyours": 3614,
      "ĠCockatrice": 3615,
      "lade": 3616,
      "elay": 3617,
      "upa": 3618,
      "ĠSoulblade": 3619,
      "Ġchaos": 3620,
      "Ġscavenge": 3621,
      "ĠMaster": 3622,
      "ĠDu": 3623,
      "Ġlow": 3624,
      "ĠKoth": 3625,
      "ĠStash": 3626,
      "ĠAven": 3627,
      "Ġguesses": 3628,
      "Ġlowest": 3629,
      "emon": 3630,
      "Ġmele": 3631,
      "Ġmelee": 3632,
      "ĠCom": 3633,
      "fen": 3634,
      "ving": 3635,
      "ĠRig": 3636,
      "ĠJoin": 3637,
      "ĠAllies": 3638,
      "Ġpoint": 3639,
      "fense": 3640,
      "Ġcor": 3641,
      "ĠTower": 3642,
      "ĠTide": 3643,
      "ĠRet": 3644,
      "Ġstash": 3645,
      "tuous": 3646,
      "ĠVirtuous": 3647,
      "Ġri": 3648,
      "Ġtribute": 3649,
      "ellow": 3650,
      "ĠBee": 3651,
      "Ġvisit": 3652,
      "ellowship": 3653,
      "stform": 3654,
      "ĠSan": 3655,
      "hostform": 3656,
      "ĠOrgg": 3657,
      "ial": 3658,
      "ĠWit": 3659,
      "ĠSm": 3660,
      "avite": 3661,
      "Ġconnive": 3662,
      "ĠCirc": 3663,
      "storm": 3664,
      "Ġforc": 3665,
      "ĠCowards": 3666,
      "ĠGravestorm": 3667,
      "Ġforces": 3668,
      "Ġcorp": 3669,
      "ines": 3670,
      "asu": 3671,
      "ĠLamm": 3672,
      "ĠInfection": 3673,
      "sych": 3674,
      "Ġcorpse": 3675,
      "ĠLammasu": 3676,
      "amut": 3677,
      "ĠBah": 3678,
      "ĠHeal": 3679,
      "ĠWhisp": 3680,
      "Ġcoins": 3681,
      "ĠRadha": 3682,
      "ĠBahamut": 3683,
      "ĠHealing": 3684,
      "ĠWhispers": 3685,
      "eor": 3686,
      "eur": 3687,
      "ĠGe": 3688,
      "ĠPang": 3689,
      "olin": 3690,
      "Ġfort": 3691,
      "ĠMeteor": 3692,
      "ĠGrandeur": 3693,
      "ĠPangolin": 3694,
      "ĠMeteorite": 3695,
      "for": 3696,
      "oe": 3697,
      "ices": 3698,
      "Ġfoe": 3699,
      "Ġchoices": 3700,
      "Ġj": 3701,
      "Ġart": 3702,
      "stead": 3703,
      "Ġthir": 3704,
      "ĠInstead": 3705,
      "Ġscream": 3706,
      "Ġvoting": 3707,
      "Ġkinds": 3708,
      "jection": 3709,
      "ĠBeeble": 3710,
      "men": 3711,
      "ĠAim": 3712,
      "Ġaffect": 3713,
      "ĠRasp": 3714,
      "utin": 3715,
      "ĠStudy": 3716,
      "unger": 3717,
      "ĠSaprolings": 3718,
      "ortex": 3719,
      "ĠRasputin": 3720,
      "ared": 3721,
      "ĠJared": 3722,
      "Ġbackup": 3723,
      "Ġhaunts": 3724,
      "ĠNiko": 3725,
      "ĠWombat": 3726,
      "Ġhit": 3727,
      "ĠJour": 3728,
      "ĠEvery": 3729,
      "ruption": 3730,
      "Ġvowels": 3731,
      "Ġmountainwalk": 3732,
      "Ġcorruption": 3733,
      "mless": 3734,
      "ĠTash": 3735,
      "ĠFatho": 3736,
      "Ġmag": 3737,
      "aped": 3738,
      "Ġflame": 3739,
      "ĠSword": 3740,
      "ĠSky": 3741,
      "ĠRevel": 3742,
      "Ġescaped": 3743,
      "ĠTasha": 3744,
      "ĠFathomless": 3745,
      "Ġmagnet": 3746,
      "Sp": 3747,
      "cer": 3748,
      "Ġsil": 3749,
      "ĠMox": 3750,
      "ĠCone": 3751,
      "ĠGuide": 3752,
      "oose": 3753,
      "uster": 3754,
      "ĠAc": 3755,
      "Ġdelay": 3756,
      "ĠMongoose": 3757,
      "ĠGuardian": 3758,
      "ĠSlime": 3759,
      "Spirit": 3760,
      "mn": 3761,
      "Ġcollection": 3762,
      "asher": 3763,
      "ĠThem": 3764,
      "ribery": 3765,
      "Ġinfection": 3766,
      "ram": 3767,
      "orates": 3768,
      "ĠWish": 3769,
      "ĠGen": 3770,
      "henra": 3771,
      "ĠKhenra": 3772,
      "annon": 3773,
      "Ġincorp": 3774,
      "Ġincorporates": 3775,
      "ĠCoil": 3776,
      "Ġaim": 3777,
      "ivis": 3778,
      "ĠBGRW": 3779,
      "Ġmanifests": 3780,
      "ĠDis": 3781,
      "Ġcontinu": 3782,
      "ĠOpen": 3783,
      "Ġsearched": 3784,
      "ĠCollection": 3785,
      "Ġduplic": 3786,
      "ĠOnly": 3787,
      "Ġfinish": 3788,
      "Ġcontinuously": 3789,
      "icator": 3790,
      "Ġoff": 3791,
      "Ġmone": 3792,
      "rix": 3793,
      "Ġmoney": 3794,
      "rong": 3795,
      "yn": 3796,
      "atic": 3797,
      "eding": 3798,
      "ĠGuff": 3799,
      "Ġsymbols": 3800,
      "ĠTwo": 3801,
      "ĠRock": 3802,
      "ealer": 3803,
      "Ġaffinity": 3804,
      "uck": 3805,
      "orius": 3806,
      "ĠDark": 3807,
      "Ġluck": 3808,
      "imult": 3809,
      "Ġblaze": 3810,
      "aneously": 3811,
      "intorius": 3812,
      "ĠQuintorius": 3813,
      "ĠRigger": 3814,
      "imultaneously": 3815,
      "print": 3816,
      "sis": 3817,
      "Ġfungus": 3818,
      "ĠSpace": 3819,
      "Ġforever": 3820,
      "Ġthirteen": 3821,
      "oud": 3822,
      "ĠEther": 3823,
      "egis": 3824,
      "ald": 3825,
      "ays": 3826,
      "imin": 3827,
      "ĠNonb": 3828,
      "ĠEtherium": 3829,
      "dom": 3830,
      "wer": 3831,
      "ĠCell": 3832,
      "rap": 3833,
      "Ġfate": 3834,
      "ĠSpark": 3835,
      "ima": 3836,
      "ĠElementals": 3837,
      "ĠScrap": 3838,
      "Ġhealing": 3839,
      "ĠLead": 3840,
      "ĠHollow": 3841,
      "ction": 3842,
      "apter": 3843,
      "Ġproduces": 3844,
      "erous": 3845,
      "lyp": 3846,
      "ĠCards": 3847,
      "Ġupkeeps": 3848,
      "Ġresolving": 3849,
      "ĠRust": 3850,
      "Demon": 3851,
      "gl": 3852,
      "Ġstays": 3853,
      "Ġfollowed": 3854,
      "ately": 3855,
      "ĠDaretti": 3856,
      "leight": 3857,
      "bon": 3858,
      "ood": 3859,
      "onge": 3860,
      "Ġnumb": 3861,
      "ĠSponge": 3862,
      "ĠAttractions": 3863,
      "Ġpool": 3864,
      "Ġguessed": 3865,
      "flame": 3866,
      "Ġnumbers": 3867,
      "ĠBel": 3868,
      "redit": 3869,
      "ĠWraiths": 3870,
      "val": 3871,
      "ĠRak": 3872,
      "Ġrese": 3873,
      "ĠZero": 3874,
      "ĠPrimo": 3875,
      "Ġreselect": 3876,
      "yster": 3877,
      "ĠDyn": 3878,
      "astic": 3879,
      "imate": 3880,
      "ĠOyster": 3881,
      "mony": 3882,
      "Ġfeather": 3883,
      "ĠCircle": 3884,
      "ĠDynastic": 3885,
      "divis": 3886,
      "iqu": 3887,
      "Ġtakes": 3888,
      "ĠIndivis": 3889,
      "ĠHeroes": 3890,
      "ĠSculpture": 3891,
      "ĠIndivisible": 3892,
      "15": 3893,
      "ĠCannon": 3894,
      "ened": 3895,
      "Ġamassed": 3896,
      "Ġfriends": 3897,
      "ĠMarit": 3898,
      "glass": 3899,
      "flect": 3900,
      "mory": 3901,
      "tered": 3902,
      "zation": 3903,
      "attered": 3904,
      "amor": 3905,
      "ĠLami": 3906,
      "ĠMice": 3907,
      "ĠMark": 3908,
      "riever": 3909,
      "ĠReflect": 3910,
      "ĠSpr": 3911,
      "ĠSpara": 3912,
      "ĠShattered": 3913,
      "usic": 3914,
      "Ġinstance": 3915,
      "ĠMemory": 3916,
      "ĠGlamor": 3917,
      "Ġcycles": 3918,
      "alyzation": 3919,
      "ĠRetriever": 3920,
      "ĠLamia": 3921,
      "ĠReflection": 3922,
      "ĠGlamorous": 3923,
      "itan": 3924,
      "ĠLage": 3925,
      "Ġfellowship": 3926,
      "Ġher": 3927,
      "Ġeon": 3928,
      "ĠStim": 3929,
      "Ġvanishing": 3930,
      "ĠChak": 3931,
      "Ġcycled": 3932,
      "iscovery": 3933,
      "ĠChakram": 3934,
      "do": 3935,
      "ying": 3936,
      "ĠGlyph": 3937,
      "Ġdying": 3938,
      "ruit": 3939,
      "ongreen": 3940,
      "ĠPhyrexians": 3941,
      "Ġvoid": 3942,
      "Ġlooked": 3943,
      "vention": 3944,
      "ĠFrodo": 3945,
      "ĠDevils": 3946,
      "ĠRecruit": 3947,
      "brand": 3948,
      "ĠBandit": 3949,
      "ledge": 3950,
      "ĠInspir": 3951,
      "Ġresults": 3952,
      "ĠFirebrand": 3953,
      "uence": 3954,
      "erub": 3955,
      "ĠFight": 3956,
      "aster": 3957,
      "Ġwind": 3958,
      "Ġgold": 3959,
      "rid": 3960,
      "ĠStar": 3961,
      "ĠBeaver": 3962,
      "ears": 3963,
      "ĠCherub": 3964,
      "ettle": 3965,
      "ĠNonland": 3966,
      "fluence": 3967,
      "ĠCherubael": 3968,
      "16": 3969,
      "jud": 3970,
      "nal": 3971,
      "zat": 3972,
      "Ġing": 3973,
      "ĠSzat": 3974,
      "Ġfateseal": 3975,
      "ĠPorc": 3976,
      "aph": 3977,
      "ĠCloud": 3978,
      "ĠAdjud": 3979,
      "ĠSeraph": 3980,
      "upine": 3981,
      "Ġvoted": 3982,
      "ĠPoint": 3983,
      "ĠJournal": 3984,
      "icators": 3985,
      "ĠPorcupine": 3986,
      "ĠAdjudicators": 3987,
      "oure": 3988,
      "ĠWeas": 3989,
      "rog": 3990,
      "ĠFren": 3991,
      "Ġpre": 3992,
      "Ġsimultaneously": 3993,
      "ĠNat": 3994,
      "Ġuniqu": 3995,
      "ested": 3996,
      "ĠNotebook": 3997,
      "ĠFriends": 3998,
      "ĠWeasel": 3999,
      "Ġunique": 4000,
      "rowhead": 4001,
      "Ġcasualty": 4002,
      "ender": 4003,
      "ĠWho": 4004,
      "ĠLl": 4005,
      "Ġdeath": 4006,
      "Ġregenerate": 4007,
      "Ġar": 4008,
      "leep": 4009,
      "Ġmat": 4010,
      "ĠSteel": 4011,
      "ĠSnakes": 4012,
      "Ġchapter": 4013,
      "ĠTrainer": 4014,
      "Ġrolled": 4015,
      "asmin": 4016,
      "ĠDefense": 4017,
      "ĠKasmin": 4018,
      "Ġflips": 4019,
      "Ġcopied": 4020,
      "Ġriot": 4021,
      "ĠKasmina": 4022,
      "far": 4023,
      "gin": 4024,
      "mfar": 4025,
      "ĠUgin": 4026,
      "ilib": 4027,
      "ĠPsych": 4028,
      "ĠVelocity": 4029,
      "ĠWarren": 4030,
      "ĠProtect": 4031,
      "ĠDelay": 4032,
      "ĠSkemfar": 4033,
      "Ġscrying": 4034,
      "ĠMidnight": 4035,
      "ilibuster": 4036,
      "ĠPsychic": 4037,
      "ĠBurden": 4038,
      "ĠViz": 4039,
      "Ġexp": 4040,
      "ĠEvie": 4041,
      "ĠVizier": 4042,
      "fire": 4043,
      "ĠBro": 4044,
      "ĠRh": 4045,
      "ĠRap": 4046,
      "El": 4047,
      "yl": 4048,
      "ĠIcy": 4049,
      "ĠTomb": 4050,
      "ĠFan": 4051,
      "ĠHave": 4052,
      "Ġnongreen": 4053,
      "ĠBlaring": 4054,
      "ĠCorruption": 4055,
      "ĠTiny": 4056,
      "ĠCrow": 4057,
      "inch": 4058,
      "alith": 4059,
      "uty": 4060,
      "Ġeye": 4061,
      "ĠSerra": 4062,
      "ĠManalith": 4063,
      "ĠStriker": 4064,
      "Ġeyeball": 4065,
      "au": 4066,
      "ĠCoru": 4067,
      "ĠRay": 4068,
      "ĠBeau": 4069,
      "ĠScream": 4070,
      "ĠRakish": 4071,
      "ĠCorusc": 4072,
      "titan": 4073,
      "anar": 4074,
      "angg": 4075,
      "chtitan": 4076,
      "ĠIniti": 4077,
      "ĠStangg": 4078,
      "ĠMechtitan": 4079,
      "Ġintensify": 4080,
      "ĠRevelers": 4081,
      "ĠInitiate": 4082,
      "aker": 4083,
      "amber": 4084,
      "ĠRager": 4085,
      "ĠPak": 4086,
      "Ġplains": 4087,
      "ĠKom": 4088,
      "ĠKamber": 4089,
      "ĠOper": 4090,
      "Ġinstants": 4091,
      "Ġfortified": 4092,
      "ĠAcorn": 4093,
      "ĠPako": 4094,
      "ĠKoma": 4095,
      "ĠSettle": 4096,
      "aldra": 4097,
      "Ġbribery": 4098,
      "Ġentwine": 4099,
      "ĠKaldra": 4100,
      "ĠSettlement": 4101,
      "rsp": 4102,
      "ĠCap": 4103,
      "anguard": 4104,
      "eron": 4105,
      "ĠWast": 4106,
      "ĠDav": 4107,
      "ĠEon": 4108,
      "ĠLaur": 4109,
      "ĠFry": 4110,
      "Ġdire": 4111,
      "Ġitem": 4112,
      "riel": 4113,
      "ĠVanguard": 4114,
      "ĠZnd": 4115,
      "ĠScaven": 4116,
      "ĠWarden": 4117,
      "rsplt": 4118,
      "ĠDavriel": 4119,
      "ĠLaurine": 4120,
      "ĠFrye": 4121,
      "ĠZndrsplt": 4122,
      "yes": 4123,
      "enk": 4124,
      "Ġyet": 4125,
      "chre": 4126,
      "ĠNontoken": 4127,
      "ĠKing": 4128,
      "ĠOchre": 4129,
      "ĠChild": 4130,
      "ĠInter": 4131,
      "Ġswitch": 4132,
      "ĠBrain": 4133,
      "tend": 4134,
      "yan": 4135,
      "ĠRyan": 4136,
      "Ġpupa": 4137,
      "ĠHon": 4138,
      "ĠPr": 4139,
      "ĠAttend": 4140,
      "ural": 4141,
      "Ġstickers": 4142,
      "akt": 4143,
      "Ġcome": 4144,
      "ĠAttendant": 4145,
      "ĠHatchling": 4146,
      "Ġfew": 4147,
      "Ġmem": 4148,
      "Ġomen": 4149,
      "Ġplayed": 4150,
      "ĠThorn": 4151,
      "ieve": 4152,
      "iple": 4153,
      "ĠPlainswalk": 4154,
      "nowledge": 4155,
      "ĠWeaver": 4156,
      "ĠBelieve": 4157,
      "Ġfewest": 4158,
      "Ġmemory": 4159,
      "Dra": 4160,
      "Zomb": 4161,
      "bound": 4162,
      "gard": 4163,
      "pies": 4164,
      "ser": 4165,
      "engard": 4166,
      "stain": 4167,
      "ĠCopies": 4168,
      "ĠFateseal": 4169,
      "ĠFrey": 4170,
      "Ġpain": 4171,
      "alise": 4172,
      "ĠPass": 4173,
      "Ġrebound": 4174,
      "ĠMerry": 4175,
      "ĠIsengard": 4176,
      "ĠWerewolves": 4177,
      "Ġwhichever": 4178,
      "Dragon": 4179,
      "Zombie": 4180,
      "ĠFreyalise": 4181,
      "hw": 4182,
      "enhw": 4183,
      "ĠSupp": 4184,
      "ĠRory": 4185,
      "ism": 4186,
      "ĠFer": 4187,
      "Ġpin": 4188,
      "Ġhar": 4189,
      "ĠYann": 4190,
      "ĠDefending": 4191,
      "ĠDogs": 4192,
      "pair": 4193,
      "Ġheist": 4194,
      "ĠGuenhw": 4195,
      "ĠYannik": 4196,
      "ĠGuenhwyvar": 4197,
      "ĠAg": 4198,
      "Ġbook": 4199,
      "Ġitself": 4200,
      "ĠZep": 4201,
      "ĠInsects": 4202,
      "shadow": 4203,
      "ĠMirran": 4204,
      "ĠInspiration": 4205,
      "app": 4206,
      "ses": 4207,
      "ust": 4208,
      "rerak": 4209,
      "ĠWould": 4210,
      "ĠAce": 4211,
      "ĠGri": 4212,
      "Ġsub": 4213,
      "rification": 4214,
      "ĠBeasts": 4215,
      "zied": 4216,
      "etrification": 4217,
      "rieve": 4218,
      "ĠDuel": 4219,
      "ĠFrenzied": 4220,
      "ĠAcererak": 4221,
      "ĠGrist": 4222,
      "ana": 4223,
      "ixir": 4224,
      "ĠSweep": 4225,
      "agin": 4226,
      "ĠImagin": 4227,
      "ĠSunsc": 4228,
      "rife": 4229,
      "ĠDack": 4230,
      "ĠPe": 4231,
      "allen": 4232,
      "ounding": 4233,
      "ĠServant": 4234,
      "ĠKeeper": 4235,
      "CR": 4236,
      "Equi": 4237,
      "pment": 4238,
      "ĠUlt": 4239,
      "ĠNCR": 4240,
      "Ġplanar": 4241,
      "ĠHorrors": 4242,
      "ostor": 4243,
      "ĠBlaze": 4244,
      "ĠNonbasic": 4245,
      "Equipment": 4246,
      "ged": 4247,
      "light": 4248,
      "ual": 4249,
      "witch": 4250,
      "ĠBal": 4251,
      "ĠFen": 4252,
      "eland": 4253,
      "ĠPsion": 4254,
      "uth": 4255,
      "acher": 4256,
      "loon": 4257,
      "ĠVortex": 4258,
      "ĠWarform": 4259,
      "rus": 4260,
      "ĠStone": 4261,
      "ĠBewitch": 4262,
      "Ġenlist": 4263,
      "ĠTeacher": 4264,
      "ĠRani": 4265,
      "Ġmultiple": 4266,
      "Ġseeks": 4267,
      "ĠWalrus": 4268,
      "ĠWitness": 4269,
      "forged": 4270,
      "lightened": 4271,
      "ĠBalloon": 4272,
      "ĠPsionic": 4273,
      "ĠStoneforged": 4274,
      "ĠBewitching": 4275,
      "Pl": 4276,
      "lich": 4277,
      "anow": 4278,
      "ams": 4279,
      "ĠBlessing": 4280,
      "ĠWis": 4281,
      "ifies": 4282,
      "Ġpressure": 4283,
      "ĠLegion": 4284,
      "osing": 4285,
      "ĠOmn": 4286,
      "omic": 4287,
      "ĠArchlich": 4288,
      "Ġbegins": 4289,
      "Ġintensifies": 4290,
      "ĠComet": 4291,
      "Ġsilence": 4292,
      "ĠLlanow": 4293,
      "ĠWisdom": 4294,
      "ĠLlanowar": 4295,
      "ury": 4296,
      "Ġstudy": 4297,
      "ĠGraveborn": 4298,
      "ĠPlaguebearer": 4299,
      "Ġduplicates": 4300,
      "ĠLeader": 4301,
      "Pier": 4302,
      "horn": 4303,
      "ĠCaz": 4304,
      "ĠBook": 4305,
      "leven": 4306,
      "ĠFast": 4307,
      "ĠPipp": 4308,
      "Ġeleven": 4309,
      "Ġdec": 4310,
      "ĠWorker": 4311,
      "ĠRedhorn": 4312,
      "Ġslumber": 4313,
      "Elf": 4314,
      "Piercer": 4315,
      "ĠCazur": 4316,
      "ĠPippin": 4317,
      "stealer": 4318,
      "ĠInf": 4319,
      "Ġreviv": 4320,
      "ĠDeep": 4321,
      "Ġvelocity": 4322,
      "ĠTheir": 4323,
      "ĠChar": 4324,
      "Ġfinal": 4325,
      "Ġrevival": 4326,
      "uity": 4327,
      "enuity": 4328,
      "asm": 4329,
      "ĠFive": 4330,
      "Ġwears": 4331,
      "Ġore": 4332,
      "Ġstorm": 4333,
      "ĠTemp": 4334,
      "Ġseparately": 4335,
      "entavite": 4336,
      "ĠGhostform": 4337,
      "ĠHob": 4338,
      "icke": 4339,
      "ĠNurg": 4340,
      "ĠPentavite": 4341,
      "ĠMate": 4342,
      "quin": 4343,
      "hood": 4344,
      "therhood": 4345,
      "Ġdoor": 4346,
      "Ġfourteen": 4347,
      "ĠTooth": 4348,
      "ĠMinotaurs": 4349,
      "ĠBobbleheads": 4350,
      "nequin": 4351,
      "ĠSprite": 4352,
      "ĠBrotherhood": 4353,
      "ĠFenstalker": 4354,
      "ĠNurgle": 4355,
      "ĠToothy": 4356,
      "ĠDar": 4357,
      "ĠTimin": 4358,
      "rag": 4359,
      "ĠHand": 4360,
      "Ġsearching": 4361,
      "ĠSpiders": 4362,
      "ĠSamut": 4363,
      "Ġrope": 4364,
      "ĠRule": 4365,
      "ĠGeist": 4366,
      "ĠWasteland": 4367,
      "ny": 4368,
      "oof": 4369,
      "enny": 4370,
      "raz": 4371,
      "ĠPressure": 4372,
      "Ġretrace": 4373,
      "kering": 4374,
      "ĠXen": 4375,
      "ĠShab": 4376,
      "ĠJenny": 4377,
      "Ġphasing": 4378,
      "ĠKrav": 4379,
      "ĠTinkering": 4380,
      "oofprint": 4381,
      "ĠShabraz": 4382,
      "An": 4383,
      "uit": 4384,
      "zes": 4385,
      "ĠHunger": 4386,
      "ĠMake": 4387,
      "ĠOka": 4388,
      "ĠFlint": 4389,
      "ĠOozes": 4390,
      "ĠRenewer": 4391,
      "ĠDaleks": 4392,
      "ĠMidway": 4393,
      "Angel": 4394,
      "ĠOkaun": 4395,
      "inth": 4396,
      "ĠLab": 4397,
      "ĠPain": 4398,
      "ĠProud": 4399,
      "olation": 4400,
      "pponents": 4401,
      "ĠOpponents": 4402,
      "yrinth": 4403,
      "ĠTransfigure": 4404,
      "Ġvisited": 4405,
      "ĠDarkst": 4406,
      "ĠStimulus": 4407,
      "ĠLabyrinth": 4408,
      "IS": 4409,
      "Lair": 4410,
      "pter": 4411,
      "Ġqual": 4412,
      "stal": 4413,
      "ĠBow": 4414,
      "ARDIS": 4415,
      "ĠTARDIS": 4416,
      "ĠGorm": 4417,
      "ĠHire": 4418,
      "ĠMire": 4419,
      "ĠMish": 4420,
      "ĠSpear": 4421,
      "ceiv": 4422,
      "rupter": 4423,
      "ĠArcan": 4424,
      "ĠDeserts": 4425,
      "ĠCorrupter": 4426,
      "ĠCommanders": 4427,
      "ails": 4428,
      "ĠSilvar": 4429,
      "Ġquality": 4430,
      "ĠMishra": 4431,
      "bt": 4432,
      "col": 4433,
      "rash": 4434,
      "vive": 4435,
      "Ġment": 4436,
      "ĠCrash": 4437,
      "oubt": 4438,
      "acob": 4439,
      "ĠSeven": 4440,
      "ĠDoubt": 4441,
      "Ġdemon": 4442,
      "Ġuse": 4443,
      "termin": 4444,
      "moth": 4445,
      "ĠJacob": 4446,
      "ĠFrogs": 4447,
      "Ġsurvive": 4448,
      "Ġmodular": 4449,
      "ĠProtocol": 4450,
      "Ġincreas": 4451,
      "rency": 4452,
      "Ġmatter": 4453,
      "Ġmentor": 4454,
      "Ġdemonstrate": 4455,
      "ĠProtocols": 4456,
      "tus": 4457,
      "Ġpass": 4458,
      "ĠMusic": 4459,
      "ession": 4460,
      "Ġpolyp": 4461,
      "ĠVirtus": 4462,
      "Ġaffected": 4463,
      "Sw": 4464,
      "nn": 4465,
      "wen": 4466,
      "aract": 4467,
      "amer": 4468,
      "erist": 4469,
      "ons": 4470,
      "ĠTry": 4471,
      "ĠGamer": 4472,
      "ĠLol": 4473,
      "ĠMight": 4474,
      "osis": 4475,
      "Ġumbra": 4476,
      "ĠVron": 4477,
      "ĠDeal": 4478,
      "ĠElmin": 4479,
      "ĠOwen": 4480,
      "ĠPhyl": 4481,
      "ĠChains": 4482,
      "Ġcharact": 4483,
      "redient": 4484,
      "ĠAllons": 4485,
      "Ġingredient": 4486,
      "ĠOmnath": 4487,
      "Swamp": 4488,
      "eristics": 4489,
      "ĠTrynn": 4490,
      "ĠLolth": 4491,
      "ĠVronos": 4492,
      "ĠElminster": 4493,
      "Ġcharacteristics": 4494,
      "alor": 4495,
      "iation": 4496,
      "rop": 4497,
      "eska": 4498,
      "ĠBetra": 4499,
      "ĠJeska": 4500,
      "ĠSkunk": 4501,
      "Ġdeclaring": 4502,
      "ĠRapid": 4503,
      "ĠBetray": 4504,
      "ock": 4505,
      "pl": 4506,
      "atou": 4507,
      "inatou": 4508,
      "Ġfetch": 4509,
      "ĠAnnihil": 4510,
      "ĠHorses": 4511,
      "uld": 4512,
      "ĠAminatou": 4513,
      "ĠAnnihilation": 4514,
      "fly": 4515,
      "good": 4516,
      "sgood": 4517,
      "itality": 4518,
      "Ġab": 4519,
      "Ġfame": 4520,
      "Ġhope": 4521,
      "Ġends": 4522,
      "ĠOsgood": 4523,
      "ĠUnw": 4524,
      "illed": 4525,
      "und": 4526,
      "ĠRegna": 4527,
      "shark": 4528,
      "ĠFrost": 4529,
      "ĠRope": 4530,
      "ĠBushy": 4531,
      "ĠBodyguard": 4532,
      "ĠSmash": 4533,
      "ĠSkyshark": 4534,
      "ĠOperation": 4535,
      "anaz": 4536,
      "ama": 4537,
      "ĠBlin": 4538,
      "onas": 4539,
      "ĠTong": 4540,
      "ĠTanaz": 4541,
      "rall": 4542,
      "Ġbait": 4543,
      "Ġsome": 4544,
      "ĠPre": 4545,
      "imag": 4546,
      "Ġ30": 4547,
      "yresis": 4548,
      "Ġshell": 4549,
      "avelin": 4550,
      "ĠVeil": 4551,
      "Ġphyresis": 4552,
      "ĠBlight": 4553,
      "ĠAntimag": 4554,
      "ĠRhonas": 4555,
      "ĠFanatic": 4556,
      "ĠTongue": 4557,
      "ĠTanazir": 4558,
      "ĠAntimagic": 4559,
      "nitch": 4560,
      "ĠCa": 4561,
      "Ġcredit": 4562,
      "ins": 4563,
      "Ġsnitch": 4564,
      "Ġwild": 4565,
      "ĠMord": 4566,
      "Ġghostform": 4567,
      "ainen": 4568,
      "ades": 4569,
      "alliation": 4570,
      "ĠMind": 4571,
      "Ġsculpt": 4572,
      "ĠLeth": 4573,
      "ĠEverywhere": 4574,
      "Ġplainswalk": 4575,
      "enkainen": 4576,
      "Plant": 4577,
      "ĠMordenkainen": 4578,
      "Ġsculptor": 4579,
      "kel": 4580,
      "ĠCal": 4581,
      "exist": 4582,
      "iskel": 4583,
      "ĠIng": 4584,
      "Ġhatchling": 4585,
      "ĠVen": 4586,
      "ĠThief": 4587,
      "ĠDevast": 4588,
      "shaker": 4589,
      "ĠRobots": 4590,
      "Ġdrafts": 4591,
      "ĠSorcerous": 4592,
      "ĠTriskel": 4593,
      "ĠEarthshaker": 4594,
      "ĠFerret": 4595,
      "ĠCalix": 4596,
      "ĠTriskelavite": 4597,
      "auts": 4598,
      "ju": 4599,
      "patch": 4600,
      "ĠCrag": 4601,
      "ĠBright": 4602,
      "ĠGra": 4603,
      "egative": 4604,
      "andrix": 4605,
      "Ġburden": 4606,
      "ĠNegative": 4607,
      "Ġwrong": 4608,
      "ĠPaw": 4609,
      "irl": 4610,
      "Ġnet": 4611,
      "ĠThun": 4612,
      "ĠReju": 4613,
      "ĠExtermin": 4614,
      "dertra": 4615,
      "ube": 4616,
      "Ġconspire": 4617,
      "venation": 4618,
      "ĠJuggernauts": 4619,
      "Ġhourglass": 4620,
      "Ġtraining": 4621,
      "ĠQuandrix": 4622,
      "ĠNatural": 4623,
      "Ġarrowhead": 4624,
      "ĠCragflame": 4625,
      "ĠPawpatch": 4626,
      "ĠThundertra": 4627,
      "ĠRejuvenation": 4628,
      "ĠThundertrap": 4629,
      "da": 4630,
      "kk": 4631,
      "vok": 4632,
      "ĠSleight": 4633,
      "ĠRho": 4634,
      "ĠUkk": 4635,
      "Ġdelve": 4636,
      "ĠEnlightened": 4637,
      "ilich": 4638,
      "ĠBats": 4639,
      "Ġconvok": 4640,
      "Ġconjures": 4641,
      "Ġchangeling": 4642,
      "ĠDemilich": 4643,
      "ĠWalk": 4644,
      "ĠRhoda": 4645,
      "ĠUkkima": 4646,
      "Ġconvoked": 4647,
      "Pit": 4648,
      "hall": 4649,
      "rant": 4650,
      "ĠAegis": 4651,
      "ĠRes": 4652,
      "ĠLasher": 4653,
      "iltr": 4654,
      "ilient": 4655,
      "Ġmid": 4656,
      "utter": 4657,
      "ĠMart": 4658,
      "ĠMoss": 4659,
      "pha": 4660,
      "ourge": 4661,
      "Ġalpha": 4662,
      "ĠDespair": 4663,
      "ĠSplash": 4664,
      "ĠElderhall": 4665,
      "Ġharmony": 4666,
      "ĠSunscourge": 4667,
      "ĠInfiltr": 4668,
      "ĠResilient": 4669,
      "Ġmidway": 4670,
      "ĠInfiltrator": 4671,
      "race": 4672,
      "ering": 4673,
      "ĠBret": 4674,
      "ĠSage": 4675,
      "ĠAug": 4676,
      "ĠDurn": 4677,
      "ĠRound": 4678,
      "ĠFest": 4679,
      "Ġdist": 4680,
      "ĠHope": 4681,
      "urb": 4682,
      "ĠPin": 4683,
      "Ġmine": 4684,
      "Ġhunger": 4685,
      "Ġgrace": 4686,
      "ĠZari": 4687,
      "ĠSpiritual": 4688,
      "Ġchoosing": 4689,
      "agard": 4690,
      "Ġbeta": 4691,
      "ĠSanction": 4692,
      "Ġenlists": 4693,
      "ĠDarkstar": 4694,
      "ĠBretagard": 4695,
      "ĠAugur": 4696,
      "ĠDurnan": 4697,
      "ĠFestering": 4698,
      "Ġdisturb": 4699,
      "ĠZariel": 4700,
      "ĠSanctions": 4701,
      "bond": 4702,
      "ĠCaves": 4703,
      "strid": 4704,
      "onic": 4705,
      "ĠSonic": 4706,
      "ĠAb": 4707,
      "ĠEstrid": 4708,
      "ĠRapt": 4709,
      "actery": 4710,
      "esid": 4711,
      "ketra": 4712,
      "Ġinvestig": 4713,
      "Ġrejection": 4714,
      "ĠThran": 4715,
      "ĠOketra": 4716,
      "ĠEnth": 4717,
      "ĠOxen": 4718,
      "ĠPraesid": 4719,
      "Ġsoulbond": 4720,
      "ĠRaptor": 4721,
      "ĠPraesidium": 4722,
      "ĠSinu": 4723,
      "ĠPig": 4724,
      "ĠPupa": 4725,
      "Ġglyph": 4726,
      "ĠKick": 4727,
      "ĠStrong": 4728,
      "iva": 4729,
      "ĠReverse": 4730,
      "Ġassigned": 4731,
      "ĠDreamstealer": 4732,
      "ĠWits": 4733,
      "valent": 4734,
      "Ġprevalent": 4735,
      "ĠProtectiva": 4736,
      "ĠSinuous": 4737,
      "ĠPigs": 4738,
      "ĠStronghold": 4739,
      "hyri": 4740,
      "mander": 4741,
      "amun": 4742,
      "error": 4743,
      "inion": 4744,
      "ĠDiscovery": 4745,
      "ĠTerror": 4746,
      "ral": 4747,
      "Ġdom": 4748,
      "ĠNakt": 4749,
      "ĠMay": 4750,
      "Ġgamm": 4751,
      "ĠOver": 4752,
      "Ġstop": 4753,
      "commander": 4754,
      "Ġnoncommander": 4755,
      "mmet": 4756,
      "ĠTemmet": 4757,
      "licated": 4758,
      "Ġrolls": 4759,
      "Ġmanifested": 4760,
      "ĠReplicated": 4761,
      "ĠSilver": 4762,
      "ĠZephyri": 4763,
      "Ġdominion": 4764,
      "ĠNaktamun": 4765,
      "Ġgamma": 4766,
      "ĠZephyrim": 4767,
      "Salamander": 4768,
      "bos": 4769,
      "snow": 4770,
      "ĠCiv": 4771,
      "Ġaid": 4772,
      "Ġaegis": 4773,
      "Ġsee": 4774,
      "Ġnonsnow": 4775,
      "Ġtotals": 4776,
      "ĠIncubation": 4777,
      "ĠForetelling": 4778,
      "agos": 4779,
      "ĠPhobos": 4780,
      "Ġdifferently": 4781,
      "ĠNonartifact": 4782,
      "Ġsectors": 4783,
      "ĠSculptor": 4784,
      "ĠXenagos": 4785,
      "ĠCivil": 4786,
      "ple": 4787,
      "rat": 4788,
      "aralyzation": 4789,
      "Ġtri": 4790,
      "lep": 4791,
      "lead": 4792,
      "Ġparalyzation": 4793,
      "ĠNael": 4794,
      "ĠPetrification": 4795,
      "irm": 4796,
      "ĠRead": 4797,
      "ĠWarlead": 4798,
      "ĠStrat": 4799,
      "ĠTelep": 4800,
      "ĠEyeball": 4801,
      "Ġrepeats": 4802,
      "ĠFeeding": 4803,
      "Ġdirection": 4804,
      "ĠSuppress": 4805,
      "Ġtriple": 4806,
      "ĠWarleader": 4807,
      "ĠStrateg": 4808,
      "foot": 4809,
      "hor": 4810,
      "lv": 4811,
      "master": 4812,
      "vath": 4813,
      "erfoot": 4814,
      "ĠBait": 4815,
      "ĠFlow": 4816,
      "ĠFury": 4817,
      "ĠArgu": 4818,
      "ĠEncl": 4819,
      "Ġwage": 4820,
      "ĠMold": 4821,
      "Ġplace": 4822,
      "ĠKhor": 4823,
      "ĠDevoure": 4824,
      "ĠNinjas": 4825,
      "Ġexiling": 4826,
      "ĠImps": 4827,
      "ĠCrabs": 4828,
      "ĠShrines": 4829,
      "ĠNonlegendary": 4830,
      "ĠSylv": 4831,
      "ĠFeed": 4832,
      "Ġimprovise": 4833,
      "Ġrust": 4834,
      "Ġsquad": 4835,
      "ĠMasked": 4836,
      "ĠSwordmaster": 4837,
      "ĠStars": 4838,
      "ĠIntervention": 4839,
      "ĠUltima": 4840,
      "ralling": 4841,
      "ĠEnthralling": 4842,
      "ĠFlowerfoot": 4843,
      "ĠArguel": 4844,
      "ĠEnclave": 4845,
      "ĠKhorvath": 4846,
      "ĠDevourer": 4847,
      "ĠSylvia": 4848,
      "Ele": 4849,
      "oa": 4850,
      "pip": 4851,
      "rof": 4852,
      "stral": 4853,
      "arox": 4854,
      "ĠGut": 4855,
      "ĠFounding": 4856,
      "Ġprof": 4857,
      "mance": 4858,
      "Ġbush": 4859,
      "Ġfilibuster": 4860,
      "ĠEng": 4861,
      "Ġcontested": 4862,
      "olly": 4863,
      "izoa": 4864,
      "ĠRejection": 4865,
      "ĠKarox": 4866,
      "ĠAvizoa": 4867,
      "ĠJolly": 4868,
      "ĠPerfor": 4869,
      "Ġsecrets": 4870,
      "ĠSmoke": 4871,
      "Ġfinishes": 4872,
      "ĠBandits": 4873,
      "pipes": 4874,
      "ĠGutpipes": 4875,
      "Ġprofit": 4876,
      "Ġbushido": 4877,
      "ĠPerformance": 4878,
      "dient": 4879,
      "kmoth": 4880,
      "wing": 4881,
      "ĠCreat": 4882,
      "ĠWound": 4883,
      "ĠSic": 4884,
      "ĠSepar": 4885,
      "ĠAeron": 4886,
      "ĠTender": 4887,
      "Ġawaken": 4888,
      "iss": 4889,
      "Ġdisc": 4890,
      "ĠIngre": 4891,
      "Ġorig": 4892,
      "olog": 4893,
      "ĠElixir": 4894,
      "ĠPhyresis": 4895,
      "guide": 4896,
      "ĠSouls": 4897,
      "ĠManifestation": 4898,
      "Ġdrafting": 4899,
      "ĠAwakening": 4900,
      "Ġregenerates": 4901,
      "overed": 4902,
      "Ġsoulshift": 4903,
      "ĠBladewing": 4904,
      "ĠMarine": 4905,
      "ĠWildguide": 4906,
      "ĠGeolog": 4907,
      "ĠBlinkmoth": 4908,
      "ĠDevastator": 4909,
      "ĠCreation": 4910,
      "ĠSicarian": 4911,
      "ĠSeparate": 4912,
      "ĠAeronaut": 4913,
      "Ġdiscovered": 4914,
      "ĠIngredient": 4915,
      "Ġorigin": 4916,
      "heart": 4917,
      "enial": 4918,
      "anana": 4919,
      "Ġticke": 4920,
      "itri": 4921,
      "ĠBanana": 4922,
      "ifold": 4923,
      "ĠSiv": 4924,
      "ĠTrue": 4925,
      "ĠEyes": 4926,
      "ĠLoyal": 4927,
      "Ġdenial": 4928,
      "ĠHive": 4929,
      "ĠInfluence": 4930,
      "Ġhide": 4931,
      "rival": 4932,
      "Ġinfluence": 4933,
      "ĠStal": 4934,
      "ivan": 4935,
      "ĠUnlock": 4936,
      "ĠUnrival": 4937,
      "Ġvortex": 4938,
      "ĠSlumber": 4939,
      "ĠNightmares": 4940,
      "ĠManifold": 4941,
      "ĠBoars": 4942,
      "ĠVolo": 4943,
      "ĠHammer": 4944,
      "ĠHeartfire": 4945,
      "ĠSanct": 4946,
      "ĠDuelist": 4947,
      "Ġticket": 4948,
      "ĠSivitri": 4949,
      "ĠTrueheart": 4950,
      "Ġhideaway": 4951,
      "ĠUnrivaled": 4952,
      "-<": 4953,
      "ks": 4954,
      "sw": 4955,
      "ĠCage": 4956,
      "ĠCold": 4957,
      "ĠBould": 4958,
      "ĠBall": 4959,
      "onna": 4960,
      "ĠSix": 4961,
      "ĠDonna": 4962,
      "ĠHistor": 4963,
      "Ġfift": 4964,
      "Ġsleight": 4965,
      "urous": 4966,
      "Ġmeld": 4967,
      "ĠMat": 4968,
      "ĠAtomic": 4969,
      "ĠAnoin": 4970,
      "ĠProsp": 4971,
      "istic": 4972,
      "ĠCase": 4973,
      "Ġkick": 4974,
      "ĠBloodstain": 4975,
      "ĠKrakens": 4976,
      "ĠParalyzation": 4977,
      "ĠTieflings": 4978,
      "ĠHunters": 4979,
      "ĠAdventurous": 4980,
      "ĠPriest": 4981,
      "Ġworks": 4982,
      "ĠMagnet": 4983,
      "ĠLethality": 4984,
      "ĠBoulder": 4985,
      "ĠBallistic": 4986,
      "ĠHistory": 4987,
      "Ġfifteen": 4988,
      "ĠAnointer": 4989,
      "ĠProsperous": 4990,
      "oman": 4991,
      "te": 4992,
      "ĠCapt": 4993,
      "aced": 4994,
      "ĠWoman": 4995,
      "ĠSleep": 4996,
      "ĠLoot": 4997,
      "vey": 4998,
      "utation": 4999,
      "Ġinter": 5000,
      "Ġreceiv": 5001,
      "ĠSplin": 5002,
      "ĠSpik": 5003,
      "ival": 5004,
      "Ġblight": 5005,
      "ĠSurvey": 5006,
      "ĠMines": 5007,
      "ĠSerf": 5008,
      "imidator": 5009,
      "ĠIntimidator": 5010,
      "ĠCroak": 5011,
      "ĠTransmutation": 5012,
      "ĠRevival": 5013,
      "burr": 5014,
      "ĠAvenger": 5015,
      "ĠSteelburr": 5016,
      "ĠThornpl": 5017,
      "ĠHobbit": 5018,
      "Ġoriginally": 5019,
      "ĠCaptain": 5020,
      "Ġintervention": 5021,
      "Ġreceived": 5022,
      "ĠSplinter": 5023,
      "ĠThornplate": 5024,
      "Fl": 5025,
      "Rief": 5026,
      "agon": 5027,
      "Ġtask": 5028,
      "inous": 5029,
      "ĠFinch": 5030,
      "Ġprime": 5031,
      "Ġsleep": 5032,
      "agell": 5033,
      "rial": 5034,
      "ĠShrie": 5035,
      "ĠOran": 5036,
      "ĠArco": 5037,
      "scape": 5038,
      "ĠBlaster": 5039,
      "ĠParagon": 5040,
      "Ġembark": 5041,
      "ĠFormation": 5042,
      "ĠRuinous": 5043,
      "ney": 5044,
      "ĠEverything": 5045,
      "ĠStarscape": 5046,
      "ĠCoruscation": 5047,
      "Ġitems": 5048,
      "ĠPrince": 5049,
      "Ġsubtract": 5050,
      "ĠWalked": 5051,
      "Flagell": 5052,
      "ĠShrieking": 5053,
      "Flagellant": 5054,
      "fast": 5055,
      "oral": 5056,
      "ĠGirl": 5057,
      "Ġdiscovery": 5058,
      "Ġloot": 5059,
      "Ġmo": 5060,
      "ution": 5061,
      "ĠRealm": 5062,
      "ĠPlund": 5063,
      "ĠStead": 5064,
      "ĠScience": 5065,
      "ĠAscen": 5066,
      "ĠContested": 5067,
      "ĠImposs": 5068,
      "Ġpoisonous": 5069,
      "ĠHarmony": 5070,
      "Ġcomplete": 5071,
      "Ġsilver": 5072,
      "ĠTemporal": 5073,
      "Ġabove": 5074,
      "ĠPlunderer": 5075,
      "ĠSteadfast": 5076,
      "ĠAscension": 5077,
      "ĠImpossible": 5078,
      "des": 5079,
      "sight": 5080,
      "Ġrib": 5081,
      "ĠCodes": 5082,
      "ĠBolt": 5083,
      "ĠSummon": 5084,
      "ĠAM": 5085,
      "ĠDuty": 5086,
      "ĠEzi": 5087,
      "ersion": 5088,
      "ands": 5089,
      "ical": 5090,
      "Ġsolve": 5091,
      "Ġmining": 5092,
      "ĠOre": 5093,
      "Ġstands": 5094,
      "ĠForesight": 5095,
      "ĠSkewer": 5096,
      "Ġkindred": 5097,
      "Ġwhom": 5098,
      "Ġdevoure": 5099,
      "ĠOtters": 5100,
      "ĠDiversion": 5101,
      "Ġjump": 5102,
      "ĠGeological": 5103,
      "Ġribbon": 5104,
      "ĠEzio": 5105,
      "Ġdevoured": 5106,
      "IN": 5107,
      "KIN": 5108,
      "Sh": 5109,
      "bara": 5110,
      "ging": 5111,
      "iams": 5112,
      "ltr": 5113,
      "mit": 5114,
      "ybara": 5115,
      "ĠCredit": 5116,
      "stial": 5117,
      "arines": 5118,
      "anx": 5119,
      "amarines": 5120,
      "ĠApp": 5121,
      "ĠTAL": 5122,
      "ĠRamp": 5123,
      "iser": 5124,
      "ĠUltr": 5125,
      "raiser": 5126,
      "Ġduty": 5127,
      "Ġprint": 5128,
      "alanx": 5129,
      "ĠEnmit": 5130,
      "Ġhead": 5131,
      "olism": 5132,
      "ĠValor": 5133,
      "ĠWarp": 5134,
      "ĠPhalanx": 5135,
      "ĠAnd": 5136,
      "Ġambit": 5137,
      "ĠContact": 5138,
      "ĠHyper": 5139,
      "ĠDesertwalk": 5140,
      "ĠAmy": 5141,
      "abolism": 5142,
      "ĠMoria": 5143,
      "ĠWilliams": 5144,
      "Ġforeshadow": 5145,
      "ĠCelestial": 5146,
      "ĠMetabolism": 5147,
      "ĠSpecies": 5148,
      "ĠWinds": 5149,
      "ĠCapybara": 5150,
      "ĠScavenging": 5151,
      "ĠHonour": 5152,
      "ĠVenser": 5153,
      "KING": 5154,
      "Shield": 5155,
      "ĠAppraiser": 5156,
      "ĠTALKING": 5157,
      "ĠRampager": 5158,
      "ĠUltramarines": 5159,
      "Ġprinted": 5160,
      "ĠEnmitic": 5161,
      "Ġheads": 5162,
      "Ġambitious": 5163,
      "Ar": 5164,
      "Ġpe": 5165,
      "ĠPond": 5166,
      "ĠInstig": 5167,
      "ctly": 5168,
      "Ġforag": 5169,
      "demn": 5170,
      "ĠForge": 5171,
      "Ġcondemn": 5172,
      "Ġmodal": 5173,
      "Ġcomponent": 5174,
      "Ġjust": 5175,
      "ĠAgate": 5176,
      "ĠExterminator": 5177,
      "ĠInstigator": 5178,
      "Ġforaging": 5179,
      "Ġcondemnation": 5180,
      "Oo": 5181,
      "Ph": 5182,
      "Vampire": 5183,
      "eamp": 5184,
      "imb": 5185,
      "rent": 5186,
      "Ġcage": 5187,
      "Ġtails": 5188,
      "ĠIrid": 5189,
      "ĠSling": 5190,
      "ĠLove": 5191,
      "Ġdiscov": 5192,
      "Ġtheft": 5193,
      "ellect": 5194,
      "ĠNet": 5195,
      "Ġdethrone": 5196,
      "ĠVinel": 5197,
      "ĠThrow": 5198,
      "ĠKnowledge": 5199,
      "ĠOmen": 5200,
      "ĠClimb": 5201,
      "Ġstrife": 5202,
      "ĠSteamp": 5203,
      "ĠProject": 5204,
      "ĠCurrent": 5205,
      "Ġevolve": 5206,
      "ĠIntellect": 5207,
      "Ġembalm": 5208,
      "ĠPossession": 5209,
      "ĠLey": 5210,
      "ĠHourglass": 5211,
      "ĠPolyp": 5212,
      "ĠCharger": 5213,
      "Ooze": 5214,
      "ĠIridescent": 5215,
      "ĠSlinger": 5216,
      "Ġdiscovers": 5217,
      "ĠVinelasher": 5218,
      "ĠSteampath": 5219,
      "dim": 5220,
      "kon": 5221,
      "pid": 5222,
      "vious": 5223,
      "repid": 5224,
      "ĠCure": 5225,
      "ension": 5226,
      "Ġcarn": 5227,
      "ĠDak": 5228,
      "ĠTask": 5229,
      "ĠRul": 5230,
      "ĠFilibuster": 5231,
      "egr": 5232,
      "ĠNe": 5233,
      "ĠNest": 5234,
      "vest": 5235,
      "ĠMama": 5236,
      "ries": 5237,
      "ĠElven": 5238,
      "Ġbegun": 5239,
      "ĠCombatant": 5240,
      "Ġdoing": 5241,
      "ĠProven": 5242,
      "allic": 5243,
      "ĠMons": 5244,
      "ĠAdv": 5245,
      "ister": 5246,
      "ĠDetectives": 5247,
      "Ġprotect": 5248,
      "Ġscries": 5249,
      "integr": 5250,
      "ĠIntrepid": 5251,
      "ĠTransdim": 5252,
      "ĠLeviathans": 5253,
      "Ġreprieve": 5254,
      "ĠCloister": 5255,
      "ĠMetallic": 5256,
      "avering": 5257,
      "ĠFlames": 5258,
      "ĠWalking": 5259,
      "Ġfeeding": 5260,
      "ĠDisintegr": 5261,
      "Ġprevious": 5262,
      "ĠCoruscating": 5263,
      "asma": 5264,
      "Ġincreased": 5265,
      "ĠUnwavering": 5266,
      "ensional": 5267,
      "Ġcarnage": 5268,
      "ĠDakkon": 5269,
      "ĠRulik": 5270,
      "ĠTransdimensional": 5271,
      "postor": 5272,
      "va": 5273,
      "ĠBri": 5274,
      "ase": 5275,
      "ĠWatch": 5276,
      "ĠAhead": 5277,
      "ĠAber": 5278,
      "ĠFung": 5279,
      "ĠFallen": 5280,
      "Ġske": 5281,
      "ĠPounc": 5282,
      "ĠPrey": 5283,
      "Ġmake": 5284,
      "Ġhides": 5285,
      "rider": 5286,
      "Ġdefense": 5287,
      "ĠWizardcycling": 5288,
      "ĠUnless": 5289,
      "ĠAdorn": 5290,
      "ĠWurms": 5291,
      "ĠTrapped": 5292,
      "ĠCrown": 5293,
      "ĠGorgons": 5294,
      "ĠOutrider": 5295,
      "ĠParade": 5296,
      "Ġafterlife": 5297,
      "ĠEternity": 5298,
      "Ġminimum": 5299,
      "Ġimpostor": 5300,
      "ĠComing": 5301,
      "Ġfortune": 5302,
      "Ġduplication": 5303,
      "ĠSculptures": 5304,
      "ĠSuppressor": 5305,
      "ĠAberrant": 5306,
      "ĠFungi": 5307,
      "Ġskewer": 5308,
      "ĠPouncer": 5309,
      "ĠAdorned": 5310,
      "rough": 5311,
      "ĠClock": 5312,
      "ĠWasp": 5313,
      "ĠTri": 5314,
      "ĠRuth": 5315,
      "ict": 5316,
      "ĠThin": 5317,
      "ĠThrough": 5318,
      "threat": 5319,
      "ĠElimin": 5320,
      "ogue": 5321,
      "Ġstore": 5322,
      "umphant": 5323,
      "avy": 5324,
      "ĠOrb": 5325,
      "estealer": 5326,
      "Ġknowledge": 5327,
      "ĠMulti": 5328,
      "petuous": 5329,
      "Ġpoisoned": 5330,
      "ĠEntity": 5331,
      "ĠImpetuous": 5332,
      "ĠHeavy": 5333,
      "ĠGenestealer": 5334,
      "ĠRecruiter": 5335,
      "ĠImaginary": 5336,
      "Ġinvestigates": 5337,
      "ĠWounds": 5338,
      "ĠTriumphant": 5339,
      "ĠRuthless": 5340,
      "ĠEliminator": 5341,
      "aaz": 5342,
      "cent": 5343,
      "sing": 5344,
      "ĠIg": 5345,
      "ĠWage": 5346,
      "ĠDisp": 5347,
      "ĠRit": 5348,
      "Ġsun": 5349,
      "urder": 5350,
      "ĠNash": 5351,
      "ĠMurder": 5352,
      "pple": 5353,
      "igaaz": 5354,
      "Ġusing": 5355,
      "ĠDec": 5356,
      "ĠKiss": 5357,
      "idance": 5358,
      "ĠShivan": 5359,
      "ĠStalker": 5360,
      "ĠStory": 5361,
      "ĠChief": 5362,
      "Ġflipp": 5363,
      "Ġguidance": 5364,
      "ĠMelds": 5365,
      "Ġripple": 5366,
      "ĠFighting": 5367,
      "ĠHonored": 5368,
      "ĠDarigaaz": 5369,
      "ĠIngenuity": 5370,
      "Ġsunburst": 5371,
      "ĠNashi": 5372,
      "Ġflipping": 5373,
      "Wime": 5374,
      "cing": 5375,
      "ktu": 5376,
      "uktu": 5377,
      "vax": 5378,
      "wl": 5379,
      "reak": 5380,
      "ĠCube": 5381,
      "ĠIcing": 5382,
      "ĠBreak": 5383,
      "ĠSell": 5384,
      "ĠTro": 5385,
      "ĠTuktu": 5386,
      "ĠRib": 5387,
      "ĠRun": 5388,
      "chel": 5389,
      "ĠArrow": 5390,
      "ĠMee": 5391,
      "ĠYouth": 5392,
      "ĠLanding": 5393,
      "ĠExc": 5394,
      "ĠHornet": 5395,
      "death": 5396,
      "ĠProte": 5397,
      "ĠTimey": 5398,
      "ĠSatchel": 5399,
      "ĠCrovax": 5400,
      "ĠTakeover": 5401,
      "ĠAdventurer": 5402,
      "ĠLeap": 5403,
      "ĠBrawl": 5404,
      "ĠGenius": 5405,
      "ĠImaginative": 5406,
      "Wimey": 5407,
      "ĠIcingdeath": 5408,
      "ĠTuktuk": 5409,
      "ĠRibbon": 5410,
      "ĠMeet": 5411,
      "ĠYouthful": 5412,
      "ĠProtege": 5413,
      "Col": 5414,
      "cal": 5415,
      "gth": 5416,
      "uka": 5417,
      "yser": 5418,
      "rede": 5419,
      "strial": 5420,
      "itter": 5421,
      "ĠBab": 5422,
      "ascal": 5423,
      "ĠRascal": 5424,
      "ĠLast": 5425,
      "Ġ11": 5426,
      "isition": 5427,
      "ĠFaces": 5428,
      "Ġfree": 5429,
      "ĠNuka": 5430,
      "ĠIndu": 5431,
      "veilled": 5432,
      "ĠShell": 5433,
      "Ġstren": 5434,
      "ĠPhage": 5435,
      "ĠUnity": 5436,
      "ĠUnrede": 5437,
      "ĠTheft": 5438,
      "ĠContrab": 5439,
      "ĠMany": 5440,
      "Ġsurveilled": 5441,
      "athy": 5442,
      "ĠPerpetually": 5443,
      "Ġquill": 5444,
      "ĠReprieve": 5445,
      "Ġbidder": 5446,
      "emed": 5447,
      "ĠInquisition": 5448,
      "ĠNature": 5449,
      "ĠProtector": 5450,
      "uldron": 5451,
      "ĠCauldron": 5452,
      "ĠTelepathy": 5453,
      "Ġprotects": 5454,
      "Cola": 5455,
      "strialist": 5456,
      "ĠBaby": 5457,
      "ĠIndustrialist": 5458,
      "Ġstrength": 5459,
      "ĠUnredeemed": 5460,
      "ĠContraband": 5461,
      "Fa": 5462,
      "new": 5463,
      "nades": 5464,
      "itro": 5465,
      "ĠBrand": 5466,
      "ĠButter": 5467,
      "ĠWater": 5468,
      "Ġpsych": 5469,
      "alad": 5470,
      "ĠArrowhead": 5471,
      "urion": 5472,
      "ĠNod": 5473,
      "ĠNitro": 5474,
      "ĠPalad": 5475,
      "ĠKeen": 5476,
      "ĠSpite": 5477,
      "ĠShess": 5478,
      "ĠReturned": 5479,
      "ĠInsight": 5480,
      "ĠChallen": 5481,
      "ĠCenturion": 5482,
      "ĠRabbits": 5483,
      "Ġvoter": 5484,
      "ĠGrenades": 5485,
      "ĠHarald": 5486,
      "Ġneed": 5487,
      "ĠPrism": 5488,
      "ĠAgents": 5489,
      "ĠGrady": 5490,
      "Faerie": 5491,
      "ĠButterfly": 5492,
      "Ġpsychosis": 5493,
      "ĠNode": 5494,
      "ĠPaladin": 5495,
      "ĠShessra": 5496,
      "ĠChallenge": 5497,
      "Crop": 5498,
      "eless": 5499,
      "eath": 5500,
      "oph": 5501,
      "ront": 5502,
      "ruth": 5503,
      "sor": 5504,
      "ĠCeas": 5505,
      "ĠCust": 5506,
      "eneath": 5507,
      "Ġtruth": 5508,
      "ĠBrave": 5509,
      "ĠBale": 5510,
      "lord": 5511,
      "acred": 5512,
      "ĠSacred": 5513,
      "ĠTah": 5514,
      "ĠFind": 5515,
      "ĠHoofprint": 5516,
      "icious": 5517,
      "Ġbeneath": 5518,
      "Ġsec": 5519,
      "urity": 5520,
      "Ġwar": 5521,
      "ĠVicious": 5522,
      "ĠThous": 5523,
      "Ġisolation": 5524,
      "omination": 5525,
      "ĠStrife": 5526,
      "odes": 5527,
      "ĠAnimate": 5528,
      "Ġshe": 5529,
      "umm": 5530,
      "ĠAlway": 5531,
      "ĠForeshadow": 5532,
      "isher": 5533,
      "ĠImpostor": 5534,
      "ĠMannequin": 5535,
      "ĠSkirm": 5536,
      "Ġincarnation": 5537,
      "Ġtrap": 5538,
      "ĠMagn": 5539,
      "ĠRules": 5540,
      "ĠVeiled": 5541,
      "ĠAbomination": 5542,
      "Ġawakening": 5543,
      "ĠSanctified": 5544,
      "ĠCeaseless": 5545,
      "ĠCustodes": 5546,
      "ĠBaleful": 5547,
      "Ġsecurity": 5548,
      "ĠThousand": 5549,
      "ĠAlways": 5550,
      "ĠSkirmisher": 5551,
      "aeron": 5552,
      "dle": 5553,
      "mant": 5554,
      "mpe": 5555,
      "nel": 5556,
      "self": 5557,
      "we": 5558,
      "enth": 5559,
      "Ġtort": 5560,
      "ĠBind": 5561,
      "ony": 5562,
      "ĠWins": 5563,
      "ĠAyes": 5564,
      "ĠTim": 5565,
      "ĠTun": 5566,
      "isper": 5567,
      "Ġlock": 5568,
      "Ġmusic": 5569,
      "ckery": 5570,
      "ĠKry": 5571,
      "Ġmannequin": 5572,
      "ĠPhaeron": 5573,
      "ĠBooster": 5574,
      "ĠRegener": 5575,
      "ĠTempe": 5576,
      "ĠOctopuses": 5577,
      "ĠTrader": 5578,
      "ĠWhisper": 5579,
      "ĠShields": 5580,
      "Ġincubation": 5581,
      "Ġcrystal": 5582,
      "ĠMockery": 5583,
      "Ġhimself": 5584,
      "ĠCarrion": 5585,
      "Ġpacks": 5586,
      "ĠThornmant": 5587,
      "ĠMightstone": 5588,
      "Ġtorture": 5589,
      "ĠBinding": 5590,
      "ĠAyesha": 5591,
      "ĠTiming": 5592,
      "ĠTunnel": 5593,
      "Ġlocked": 5594,
      "ĠKrydle": 5595,
      "ĠRegeneration": 5596,
      "ĠTempest": 5597,
      "ĠThornmantle": 5598,
      "bling": 5599,
      "iately": 5600,
      "Ġac": 5601,
      "reed": 5602,
      "Ġcur": 5603,
      "ĠImm": 5604,
      "ediately": 5605,
      "ĠSie": 5606,
      "ĠTail": 5607,
      "ĠFreed": 5608,
      "ĠNew": 5609,
      "keleton": 5610,
      "ĠOmin": 5611,
      "Ġchorus": 5612,
      "ĠContract": 5613,
      "yrdom": 5614,
      "ĠSwarm": 5615,
      "ĠDescent": 5616,
      "ĠUnearthly": 5617,
      "claw": 5618,
      "ĠNonexist": 5619,
      "ĠFortified": 5620,
      "ĠLeading": 5621,
      "ĠSteelclaw": 5622,
      "ĠPhylath": 5623,
      "ĠBetrayer": 5624,
      "ĠMartyrdom": 5625,
      "ĠStrategist": 5626,
      "Elemental": 5627,
      "Ġacorn": 5628,
      "Ġcurrency": 5629,
      "ĠImmediately": 5630,
      "ĠSiege": 5631,
      "ĠFreedom": 5632,
      "ĠOminous": 5633,
      "ĠNonexistent": 5634,
      "pitter": 5635,
      "vite": 5636,
      "Ġep": 5637,
      "ĠCab": 5638,
      "itters": 5639,
      "ĠBald": 5640,
      "ĠDown": 5641,
      "ĠLance": 5642,
      "ĠLet": 5643,
      "ĠMach": 5644,
      "Ġhoofprint": 5645,
      "igh": 5646,
      "Ġ25": 5647,
      "ĠVow": 5648,
      "ĠVitality": 5649,
      "Ġleaving": 5650,
      "ĠChitters": 5651,
      "ĠTetra": 5652,
      "eemer": 5653,
      "Ġwinch": 5654,
      "Ġremoves": 5655,
      "ption": 5656,
      "Ġnonblue": 5657,
      "ĠRepair": 5658,
      "ĠRedeemer": 5659,
      "Ġbloodstain": 5660,
      "ĠNonbl": 5661,
      "Ġmoves": 5662,
      "Ġepic": 5663,
      "ĠCabaretti": 5664,
      "ĠBaldur": 5665,
      "ĠMachines": 5666,
      "ĠChitterspitter": 5667,
      "ĠTetravite": 5668,
      "cel": 5669,
      "eak": 5670,
      "ĠBarge": 5671,
      "ĠSoot": 5672,
      "ĠFly": 5673,
      "ĠFellowship": 5674,
      "ĠFront": 5675,
      "ĠMad": 5676,
      "Ġplaying": 5677,
      "ĠPlate": 5678,
      "ĠSneak": 5679,
      "ĠCharm": 5680,
      "ĠAlluring": 5681,
      "ĠHalflings": 5682,
      "ĠComponent": 5683,
      "ĠParcel": 5684,
      "ĠSpores": 5685,
      "ĠNikara": 5686,
      "Ġjavelin": 5687,
      "Ġoffspring": 5688,
      "Ġingenuity": 5689,
      "rogate": 5690,
      "rogative": 5691,
      "Ġdirectly": 5692,
      "ĠInterrogate": 5693,
      "ĠPrerogative": 5694,
      "ĠStalking": 5695,
      "ĠSpikes": 5696,
      "ĠMadame": 5697,
      "Food": 5698,
      "dan": 5699,
      "lit": 5700,
      "linn": 5701,
      "pak": 5702,
      "rout": 5703,
      "vy": 5704,
      "vas": 5705,
      "wire": 5706,
      "ĠBribery": 5707,
      "edient": 5708,
      "ĠSch": 5709,
      "ĠSvy": 5710,
      "ĠRub": 5711,
      "Ġpalliation": 5712,
      "ĠHay": 5713,
      "ĠArlinn": 5714,
      "elun": 5715,
      "Ġsorc": 5716,
      "astra": 5717,
      "Ġlike": 5718,
      "ĠInvas": 5719,
      "ĠAttack": 5720,
      "quest": 5721,
      "ionable": 5722,
      "ĠVastra": 5723,
      "ĠThay": 5724,
      "wall": 5725,
      "ĠExec": 5726,
      "umble": 5727,
      "ĠUnquest": 5728,
      "Ġarea": 5729,
      "ĠIsolation": 5730,
      "ĠHaldan": 5731,
      "ĠCurrency": 5732,
      "ĠRecov": 5733,
      "ĠSunlit": 5734,
      "Ġsprout": 5735,
      "ĠCrystal": 5736,
      "ĠStimpak": 5737,
      "Ġexpedient": 5738,
      "ĠArcanum": 5739,
      "ĠSchem": 5740,
      "ĠSvyelun": 5741,
      "ĠHaywire": 5742,
      "Ġsorceries": 5743,
      "Ġlikewise": 5744,
      "ĠInvasion": 5745,
      "ĠExecution": 5746,
      "ĠUnquestionable": 5747,
      "ĠRecovery": 5748,
      "Is": 5749,
      "dog": 5750,
      "fold": 5751,
      "lite": 5752,
      "pine": 5753,
      "win": 5754,
      "zy": 5755,
      "strom": 5756,
      "ĠBurn": 5757,
      "ĠBlock": 5758,
      "ĠSect": 5759,
      "ĠSav": 5760,
      "ĠTax": 5761,
      "ĠGreat": 5762,
      "ĠLumber": 5763,
      "ĠLike": 5764,
      "ĠHop": 5765,
      "ĠNever": 5766,
      "ĠMael": 5767,
      "Ġhom": 5768,
      "Ġneare": 5769,
      "Ġreroll": 5770,
      "owage": 5771,
      "imy": 5772,
      "ĠStowage": 5773,
      "ĠBeams": 5774,
      "Ġlet": 5775,
      "Ġshuff": 5776,
      "ĠChosen": 5777,
      "ĠAlpine": 5778,
      "ĠLizards": 5779,
      "ĠSlimy": 5780,
      "ĠCitizens": 5781,
      "ĠGoaded": 5782,
      "ĠScions": 5783,
      "bearers": 5784,
      "Ġrules": 5785,
      "ĠDisenchant": 5786,
      "ĠScavenger": 5787,
      "ĠDarien": 5788,
      "ĠWatchdog": 5789,
      "Island": 5790,
      "winter": 5791,
      "ĠBlocking": 5792,
      "ĠSection": 5793,
      "ĠSavage": 5794,
      "ĠLumbering": 5795,
      "ĠHoplite": 5796,
      "ĠNeverwinter": 5797,
      "ĠMaelstrom": 5798,
      "Ġhomage": 5799,
      "Ġnearest": 5800,
      "Ġshuffled": 5801,
      "dic": 5802,
      "io": 5803,
      "iam": 5804,
      "lat": 5805,
      "morph": 5806,
      "ratic": 5807,
      "ude": 5808,
      "wre": 5809,
      "zerker": 5810,
      "enure": 5811,
      "reaten": 5812,
      "ansion": 5813,
      "orch": 5814,
      "erzerker": 5815,
      "itect": 5816,
      "ĠBio": 5817,
      "ĠBerzerker": 5818,
      "ĠSok": 5819,
      "ĠTiam": 5820,
      "ĠTenure": 5821,
      "geyser": 5822,
      "allee": 5823,
      "lymorph": 5824,
      "ĠMu": 5825,
      "Ġindic": 5826,
      "ĠVibr": 5827,
      "ĠThreaten": 5828,
      "holy": 5829,
      "cestral": 5830,
      "ĠShip": 5831,
      "ĠUnholy": 5832,
      "ĠAncestral": 5833,
      "ĠChant": 5834,
      "shield": 5835,
      "ĠAvid": 5836,
      "ĠJet": 5837,
      "ĠArchitect": 5838,
      "anium": 5839,
      "Ġinclude": 5840,
      "ĠInklings": 5841,
      "ĠLightshield": 5842,
      "ĠPolymorph": 5843,
      "ĠMagical": 5844,
      "ĠDuallee": 5845,
      "Ġexpansion": 5846,
      "ĠBraingeyser": 5847,
      "ĠDueling": 5848,
      "ĠCharlat": 5849,
      "asmic": 5850,
      "ĠPhylactery": 5851,
      "ĠBrawler": 5852,
      "wreck": 5853,
      "ĠSokratic": 5854,
      "ĠTiamat": 5855,
      "ĠTenured": 5856,
      "Ġindicated": 5857,
      "ĠVibranium": 5858,
      "ĠShipwreck": 5859,
      "ĠPolymorphine": 5860,
      "ĠDualleech": 5861,
      "ĠCharlatan": 5862,
      "Gn": 5863,
      "hire": 5864,
      "ystic": 5865,
      "Ġacc": 5866,
      "atana": 5867,
      "ĠCoach": 5868,
      "loring": 5869,
      "ĠSift": 5870,
      "ĠSapp": 5871,
      "ĠHakt": 5872,
      "alogue": 5873,
      "ĠMuse": 5874,
      "Ġgone": 5875,
      "ĠKatana": 5876,
      "Ġstored": 5877,
      "outing": 5878,
      "ĠMerchant": 5879,
      "ulf": 5880,
      "umal": 5881,
      "ĠMining": 5882,
      "ĠAdvisors": 5883,
      "spear": 5884,
      "Ġheight": 5885,
      "Ġincubates": 5886,
      "ĠNonwhite": 5887,
      "caster": 5888,
      "ĠInkcaster": 5889,
      "Ġsplit": 5890,
      "urotra": 5891,
      "ĠDialogue": 5892,
      "ĠSprouting": 5893,
      "Ġarrow": 5894,
      "Ġexploring": 5895,
      "ĠRhystic": 5896,
      "ĠArcanist": 5897,
      "ĠBetrayal": 5898,
      "ĠBrightflame": 5899,
      "ĠBrightspear": 5900,
      "ĠEngulf": 5901,
      "ĠNeurotra": 5902,
      "ĠDispel": 5903,
      "Gnome": 5904,
      "Ġaccept": 5905,
      "ĠSifters": 5906,
      "ĠSapphire": 5907,
      "ĠHaktos": 5908,
      "ĠNeurotraumal": 5909,
      "Eye": 5910,
      "When": 5911,
      "aanes": 5912,
      "aemon": 5913,
      "came": 5914,
      "cip": 5915,
      "oop": 5916,
      "itous": 5917,
      "onid": 5918,
      "ĠWinch": 5919,
      "ĠSort": 5920,
      "ĠDaemon": 5921,
      "ĠRage": 5922,
      "ĠRever": 5923,
      "ĠRod": 5924,
      "lel": 5925,
      "Ġprey": 5926,
      "aled": 5927,
      "allel": 5928,
      "Ġsup": 5929,
      "ĠPos": 5930,
      "ĠPalliation": 5931,
      "Ġetern": 5932,
      "Ġread": 5933,
      "Ġbecame": 5934,
      "cealed": 5935,
      "iverse": 5936,
      "ĠUniverse": 5937,
      "Ġvitality": 5938,
      "ĠHorrific": 5939,
      "ĠConcealed": 5940,
      "ulator": 5941,
      "ĠSnoop": 5942,
      "ĠRegulator": 5943,
      "ĠSlaanes": 5944,
      "ĠJavelin": 5945,
      "erty": 5946,
      "Ġ100": 5947,
      "ĠParallel": 5948,
      "ĠSurvivors": 5949,
      "ĠHagra": 5950,
      "berating": 5951,
      "ĠHeat": 5952,
      "anged": 5953,
      "Ġelixir": 5954,
      "ĠLeonid": 5955,
      "ĠFancy": 5956,
      "ĠSupply": 5957,
      "ĠPetal": 5958,
      "ĠPrecip": 5959,
      "ĠDecimate": 5960,
      "ĠReverberating": 5961,
      "Ġsuperty": 5962,
      "ĠPosition": 5963,
      "Ġeternalize": 5964,
      "ĠSlaanesh": 5965,
      "ĠLeonidas": 5966,
      "ĠPrecipitous": 5967,
      "Circ": 5968,
      "Ve": 5969,
      "bringer": 5970,
      "iosis": 5971,
      "rict": 5972,
      "sum": 5973,
      "atling": 5974,
      "ĠDawn": 5975,
      "ĠDrop": 5976,
      "Ġahead": 5977,
      "ĠGatling": 5978,
      "ĠLad": 5979,
      "ĠLock": 5980,
      "ĠInvent": 5981,
      "ĠInform": 5982,
      "mbiosis": 5983,
      "ĠMuster": 5984,
      "igan": 5985,
      "Ġrequi": 5986,
      "ĠShred": 5987,
      "ĠShape": 5988,
      "ĠExcess": 5989,
      "lligan": 5990,
      "ĠConsum": 5991,
      "ĠSnack": 5992,
      "avation": 5993,
      "Ġmulligan": 5994,
      "Ġmutated": 5995,
      "ĠConstrict": 5996,
      "Ġtakeover": 5997,
      "Ġtransformed": 5998,
      "ĠPackage": 5999,
      "ĠSymbiosis": 6000,
      "ĠHeist": 6001,
      "Ġmatrix": 6002,
      "ĠChildren": 6003,
      "ĠMatrix": 6004,
      "ĠSummons": 6005,
      "ĠExcavation": 6006,
      "Circuit": 6007,
      "Vehicle": 6008,
      "ĠDawnbringer": 6009,
      "ĠLads": 6010,
      "ĠInventory": 6011,
      "ĠInformation": 6012,
      "Ġrequire": 6013,
      "ĠConsume": 6014,
      "ĠConstrictor": 6015,
      "founding": 6016,
      "mine": 6017,
      "Ġge": 6018,
      "ĠCakes": 6019,
      "enna": 6020,
      "stspe": 6021,
      "order": 6022,
      "Ġcarri": 6023,
      "acious": 6024,
      "inger": 6025,
      "ĠGem": 6026,
      "Ġpetrification": 6027,
      "ĠHarb": 6028,
      "ĠArdent": 6029,
      "Ġfoot": 6030,
      "ĠInvoke": 6031,
      "ĠMeek": 6032,
      "olves": 6033,
      "Ġdeter": 6034,
      "ĠOwn": 6035,
      "omaly": 6036,
      "ĠExplo": 6037,
      "Ġnone": 6038,
      "ĠAnomaly": 6039,
      "ĠConfounding": 6040,
      "ĠGolems": 6041,
      "ĠArmour": 6042,
      "Ġproce": 6043,
      "Ġevolves": 6044,
      "ĠSerpents": 6045,
      "ĠSecrets": 6046,
      "neous": 6047,
      "ĠDustspe": 6048,
      "ĠCircuit": 6049,
      "ĠGenomic": 6050,
      "ĠRapacious": 6051,
      "ĠCapenna": 6052,
      "ĠFeeder": 6053,
      "ĠDisintegration": 6054,
      "ĠIgneous": 6055,
      "Ġgem": 6056,
      "Ġcarrion": 6057,
      "ĠHarbinger": 6058,
      "Ġdetermine": 6059,
      "ĠExplosion": 6060,
      "ĠDustspeaker": 6061,
      "hance": 6062,
      "iar": 6063,
      "jan": 6064,
      "my": 6065,
      "mers": 6066,
      "pelin": 6067,
      "press": 6068,
      "amil": 6069,
      "Ġtreasure": 6070,
      "ĠBur": 6071,
      "ĠDist": 6072,
      "ĠDup": 6073,
      "ĠTears": 6074,
      "lease": 6075,
      "ĠFamil": 6076,
      "andible": 6077,
      "ĠHack": 6078,
      "ĠArtist": 6079,
      "ĠEnhance": 6080,
      "ĠMandible": 6081,
      "ĠRelease": 6082,
      "aceful": 6083,
      "ĠOjan": 6084,
      "ĠZar": 6085,
      "ĠExpress": 6086,
      "Ġowned": 6087,
      "ĠChest": 6088,
      "ĠAssign": 6089,
      "guine": 6090,
      "licity": 6091,
      "Ġbanded": 6092,
      "Ġremoving": 6093,
      "ĠGlimmers": 6094,
      "Ġspite": 6095,
      "ĠCurses": 6096,
      "Ġcloaks": 6097,
      "ĠSanguine": 6098,
      "ĠClouds": 6099,
      "Ġplainscycling": 6100,
      "ĠZeppelin": 6101,
      "ĠPeaceful": 6102,
      "Army": 6103,
      "ĠBurst": 6104,
      "ĠDistract": 6105,
      "ĠDuplicity": 6106,
      "ĠFamiliar": 6107,
      "ĠHacker": 6108,
      "ĠEnhancement": 6109,
      "ĠMandibles": 6110,
      "ĠOjanen": 6111,
      "aim": 6112,
      "oil": 6113,
      "ĠCam": 6114,
      "ĠCult": 6115,
      "ĠCunning": 6116,
      "ences": 6117,
      "ĠCoal": 6118,
      "ĠCoexist": 6119,
      "Ġcro": 6120,
      "ĠBond": 6121,
      "ifth": 6122,
      "ĠSig": 6123,
      "ĠSight": 6124,
      "ĠAuld": 6125,
      "ardian": 6126,
      "ĠDone": 6127,
      "ĠEiv": 6128,
      "ĠRel": 6129,
      "ĠFut": 6130,
      "changed": 6131,
      "Ġfifth": 6132,
      "urist": 6133,
      "ĠPy": 6134,
      "ĠPile": 6135,
      "ĠMolt": 6136,
      "ĠMender": 6137,
      "Ġnest": 6138,
      "oskeleton": 6139,
      "quences": 6140,
      "ĠSpoil": 6141,
      "ĠExoskeleton": 6142,
      "Ġadded": 6143,
      "uno": 6144,
      "sequences": 6145,
      "ĠJuno": 6146,
      "Ġphyl": 6147,
      "ĠPlants": 6148,
      "Ġconsequences": 6149,
      "spawn": 6150,
      "apts": 6151,
      "ĠSatyrs": 6152,
      "Ġadapts": 6153,
      "Ġtrains": 6154,
      "ĠShards": 6155,
      "Ġyourself": 6156,
      "ĠJourney": 6157,
      "ĠTombspawn": 6158,
      "ĠUltimate": 6159,
      "Ġpasses": 6160,
      "Ġpeace": 6161,
      "ĠThink": 6162,
      "ĠNewt": 6163,
      "ĠCamarid": 6164,
      "ĠCoalition": 6165,
      "ĠCoexistence": 6166,
      "Ġcroak": 6167,
      "ĠSigardian": 6168,
      "ĠEivor": 6169,
      "ĠFuturist": 6170,
      "ĠPiles": 6171,
      "ĠMolting": 6172,
      "ĠSpoilers": 6173,
      "Ġphylactery": 6174,
      "Half": 6175,
      "Rise": 6176,
      "Tails": 6177,
      "oh": 6178,
      "support": 6179,
      "ĠCall": 6180,
      "atural": 6181,
      "ercycling": 6182,
      "ĠEight": 6183,
      "ĠLang": 6184,
      "ĠHigh": 6185,
      "Ġnatural": 6186,
      "ĠWarlord": 6187,
      "ider": 6188,
      "ĠPlasma": 6189,
      "llin": 6190,
      "ivercycling": 6191,
      "ĠRegrowth": 6192,
      "oidance": 6193,
      "ĠAvoidance": 6194,
      "Ġlegal": 6195,
      "ĠInciner": 6196,
      "Ġhadn": 6197,
      "ĠSkilled": 6198,
      "ĠLeeches": 6199,
      "ĠSyn": 6200,
      "Ġsoot": 6201,
      "ĠTwice": 6202,
      "Ġslivercycling": 6203,
      "araoh": 6204,
      "ĠBrallin": 6205,
      "ĠOperative": 6206,
      "Ġincrease": 6207,
      "sworn": 6208,
      "Pharaoh": 6209,
      "ĠIncinerator": 6210,
      "Faced": 6211,
      "Read": 6212,
      "brie": 6213,
      "faced": 6214,
      "hian": 6215,
      "rhian": 6216,
      "ĠGather": 6217,
      "Ġ16": 6218,
      "ĠHow": 6219,
      "ĠHere": 6220,
      "Ġtower": 6221,
      "Ġlower": 6222,
      "ĠNav": 6223,
      "ĠPyr": 6224,
      "igation": 6225,
      "ĠKenk": 6226,
      "Ġbegan": 6227,
      "Ġnonred": 6228,
      "ĠCatti": 6229,
      "rease": 6230,
      "ĠArchers": 6231,
      "ĠBull": 6232,
      "ĠBlades": 6233,
      "Ġdespair": 6234,
      "ĠSyne": 6235,
      "Ġexploited": 6236,
      "Ġislandcycling": 6237,
      "Ġswampcycling": 6238,
      "ĠRuiner": 6239,
      "Ġmountaincycling": 6240,
      "ĠSkysw": 6241,
      "Ġharvest": 6242,
      "Ġdecide": 6243,
      "Ġdecrease": 6244,
      "ĠHobbling": 6245,
      "Ġpassed": 6246,
      "Ready": 6247,
      "ĠHeresy": 6248,
      "ĠNavigation": 6249,
      "ĠPyrrhian": 6250,
      "ĠKenku": 6251,
      "ĠSkyswarm": 6252,
      "You": 6253,
      "bing": 6254,
      "jack": 6255,
      "nity": 6256,
      "rane": 6257,
      "eneric": 6258,
      "ernity": 6259,
      "ĠSigil": 6260,
      "ĠSub": 6261,
      "ĠSaw": 6262,
      "ĠSewer": 6263,
      "ĠArab": 6264,
      "ĠTact": 6265,
      "ĠRush": 6266,
      "ĠRider": 6267,
      "rava": 6268,
      "Ġposs": 6269,
      "icol": 6270,
      "ician": 6271,
      "Ġfury": 6272,
      "ĠNicol": 6273,
      "ĠDrag": 6274,
      "Ġgeneric": 6275,
      "ĠLift": 6276,
      "terrane": 6277,
      "ĠProbing": 6278,
      "ĠIllusions": 6279,
      "Ġdoubles": 6280,
      "ĠAscendant": 6281,
      "ĠRaccoons": 6282,
      "ĠModernity": 6283,
      "ĠEfrava": 6284,
      "ĠPeer": 6285,
      "ĠLegions": 6286,
      "ĠCaan": 6287,
      "ĠMartial": 6288,
      "ĠNonblack": 6289,
      "ĠSubterrane": 6290,
      "ĠSawjack": 6291,
      "ĠArabian": 6292,
      "ĠTactician": 6293,
      "Ġpossession": 6294,
      "ĠSubterranean": 6295,
      "ault": 6296,
      "con": 6297,
      "hib": 6298,
      "yver": 6299,
      "ĠCoura": 6300,
      "ĠBrib": 6301,
      "ĠWyver": 6302,
      "ĠDiffere": 6303,
      "ĠLure": 6304,
      "ĠLot": 6305,
      "ĠFal": 6306,
      "rain": 6307,
      "Ġbrain": 6308,
      "ĠPry": 6309,
      "ĠReorder": 6310,
      "Ġsticke": 6311,
      "ĠExhib": 6312,
      "ĠAnimation": 6313,
      "ĠAssault": 6314,
      "ĠRegal": 6315,
      "venture": 6316,
      "ĠJumble": 6317,
      "Ġdevour": 6318,
      "ĠImage": 6319,
      "ĠPests": 6320,
      "Ġadventure": 6321,
      "pical": 6322,
      "ĠRiggers": 6323,
      "bones": 6324,
      "ĠBelow": 6325,
      "Ġmentors": 6326,
      "ĠTropical": 6327,
      "ĠPrismatic": 6328,
      "Ġsupertypes": 6329,
      "ĠCourage": 6330,
      "ĠBribe": 6331,
      "ĠWyvern": 6332,
      "ĠDifferent": 6333,
      "ĠLotus": 6334,
      "ĠFalcon": 6335,
      "Ġstickered": 6336,
      "ĠExhibition": 6337,
      "ĠJumblebones": 6338,
      "cus": 6339,
      "gor": 6340,
      "kh": 6341,
      "uch": 6342,
      "wid": 6343,
      "yle": 6344,
      "atue": 6345,
      "anced": 6346,
      "Ġtenth": 6347,
      "ĠAut": 6348,
      "ĠDok": 6349,
      "ĠDri": 6350,
      "ĠDep": 6351,
      "ĠEmer": 6352,
      "ĠRouse": 6353,
      "ĠRapp": 6354,
      "ĠGall": 6355,
      "ĠField": 6356,
      "Ġfind": 6357,
      "ĠDead": 6358,
      "ths": 6359,
      "ĠStyle": 6360,
      "ĠStatue": 6361,
      "Ġundaunted": 6362,
      "ĠFocus": 6363,
      "ĠSpellgor": 6364,
      "ĠNights": 6365,
      "ĠSlivercycling": 6366,
      "ubs": 6367,
      "ostubs": 6368,
      "ĠChimney": 6369,
      "Ġclaim": 6370,
      "zzt": 6371,
      "Ġforestcycling": 6372,
      "ĠGreenwid": 6373,
      "ĠRukh": 6374,
      "ĠGuards": 6375,
      "Ġbloodthirst": 6376,
      "ĠMagician": 6377,
      "ĠFeral": 6378,
      "ĠSunscorch": 6379,
      "ĠEngine": 6380,
      "ĠAdvanced": 6381,
      "uchi": 6382,
      "ĠAutostubs": 6383,
      "ĠDokuchi": 6384,
      "ĠDrizzt": 6385,
      "ĠDepths": 6386,
      "ĠEmerald": 6387,
      "ĠRappel": 6388,
      "ĠGallery": 6389,
      "ĠSpellgorger": 6390,
      "ĠGreenwidow": 6391,
      "ĠSunscorched": 6392,
      "Frog": 6393,
      "by": 6394,
      "fang": 6395,
      "ma": 6396,
      "ĠCrush": 6397,
      "ĠCutter": 6398,
      "encer": 6399,
      "Ġcube": 6400,
      "ĠBig": 6401,
      "edic": 6402,
      "ĠAstral": 6403,
      "ĠGro": 6404,
      "rogr": 6405,
      "Ġdredge": 6406,
      "ĠHistoric": 6407,
      "Ġmatch": 6408,
      "ĠMedic": 6409,
      "quake": 6410,
      "Ġrev": 6411,
      "ĠGoma": 6412,
      "ĠBeam": 6413,
      "Ġunchanged": 6414,
      "Ġbecoming": 6415,
      "ĠGiants": 6416,
      "Ġmuster": 6417,
      "ĠElderfang": 6418,
      "Ġsurveils": 6419,
      "ĠGargoyles": 6420,
      "ĠFada": 6421,
      "ĠGremlins": 6422,
      "ĠReprogr": 6423,
      "amming": 6424,
      "ĠEarthquake": 6425,
      "ĠSilencer": 6426,
      "ĠUnwary": 6427,
      "ĠMatter": 6428,
      "ĠBriar": 6429,
      "ĠBride": 6430,
      "Ġletter": 6431,
      "ĠCrushing": 6432,
      "ĠBigby": 6433,
      "ĠGroom": 6434,
      "ĠMedicus": 6435,
      "ĠReprogramming": 6436,
      "bender": 6437,
      "eth": 6438,
      "game": 6439,
      "nith": 6440,
      "rest": 6441,
      "erom": 6442,
      "Ġtapp": 6443,
      "inery": 6444,
      "antom": 6445,
      "ĠGown": 6446,
      "lesh": 6447,
      "ĠFinery": 6448,
      "ĠFlesh": 6449,
      "ĠArrest": 6450,
      "ĠPox": 6451,
      "ĠRestart": 6452,
      "ĠDeceiv": 6453,
      "Ġstory": 6454,
      "ĠPherom": 6455,
      "ĠPhantom": 6456,
      "Ġvalor": 6457,
      "Ġunleash": 6458,
      "ĠProjection": 6459,
      "Ġcopying": 6460,
      "Ġnothing": 6461,
      "ĠOrnith": 6462,
      "ĠMinistor": 6463,
      "opter": 6464,
      "ĠTimebender": 6465,
      "Ġprovoke": 6466,
      "ĠFears": 6467,
      "ĠFearless": 6468,
      "ĠTeeth": 6469,
      "ĠServos": 6470,
      "ĠSkoph": 6471,
      "ĠProwler": 6472,
      "ifying": 6473,
      "ĠLlama": 6474,
      "Ġsubgame": 6475,
      "ualist": 6476,
      "Ġenlisted": 6477,
      "ĠAbsor": 6478,
      "ĠRites": 6479,
      "ĠRitualist": 6480,
      "ĠMagnifying": 6481,
      "Ġproceeding": 6482,
      "Ġtapping": 6483,
      "ĠDeceiver": 6484,
      "ĠPheromone": 6485,
      "ĠOrnithopter": 6486,
      "ĠMinistorum": 6487,
      "ĠSkophos": 6488,
      "ĠAbsorption": 6489,
      "Gorgon": 6490,
      "lid": 6491,
      "lony": 6492,
      "mage": 6493,
      "nus": 6494,
      "ĠCity": 6495,
      "arlid": 6496,
      "ĠColony": 6497,
      "erald": 6498,
      "entle": 6499,
      "entless": 6500,
      "Ġtax": 6501,
      "ĠSalam": 6502,
      "ĠTerm": 6503,
      "ants": 6504,
      "ĠGentle": 6505,
      "anders": 6506,
      "ĠHel": 6507,
      "ĠHerald": 6508,
      "ĠArach": 6509,
      "Ġlosing": 6510,
      "ĠNarf": 6511,
      "ĠPact": 6512,
      "ĠMost": 6513,
      "ĠVoy": 6514,
      "ĠPlumm": 6515,
      "Ġunity": 6516,
      "Ġ50": 6517,
      "Ġoutlast": 6518,
      "agants": 6519,
      "ĠTrail": 6520,
      "ĠBardic": 6521,
      "ĠMeatho": 6522,
      "ĠGnarlid": 6523,
      "Ġstarted": 6524,
      "ĠGlass": 6525,
      "Ġspending": 6526,
      "ĠPray": 6527,
      "ĠDivine": 6528,
      "ĠCarriage": 6529,
      "ĠEndless": 6530,
      "ĠCome": 6531,
      "ĠRetreat": 6532,
      "ĠDisarm": 6533,
      "ĠSparkmage": 6534,
      "ĠInspiring": 6535,
      "ĠRelentless": 6536,
      "Ġtaxes": 6537,
      "ĠSalamanders": 6538,
      "ĠTermagants": 6539,
      "ĠHelm": 6540,
      "ĠArachnus": 6541,
      "ĠNarfi": 6542,
      "ĠVoyager": 6543,
      "ĠPlummet": 6544,
      "ĠMeathook": 6545,
      "Bear": 6546,
      "Weapon": 6547,
      "tan": 6548,
      "anwe": 6549,
      "ĠBanish": 6550,
      "acre": 6551,
      "ĠSid": 6552,
      "ĠSec": 6553,
      "ĠAmb": 6554,
      "ĠRos": 6555,
      "ĠRelay": 6556,
      "ĠGet": 6557,
      "Ġpri": 6558,
      "ĠHanwe": 6559,
      "ĠPick": 6560,
      "ĠMile": 6561,
      "ĠMass": 6562,
      "ĠMarch": 6563,
      "riven": 6564,
      "thal": 6565,
      "toxic": 6566,
      "ĠSteal": 6567,
      "ĠScriven": 6568,
      "yrexian": 6569,
      "ires": 6570,
      "Ġdoctor": 6571,
      "Ġenlightened": 6572,
      "ĠMeria": 6573,
      "ĠFoil": 6574,
      "Ġlethal": 6575,
      "Ġshred": 6576,
      "ĠAltan": 6577,
      "ĠImport": 6578,
      "ĠInto": 6579,
      "ĠWeb": 6580,
      "ĠEmpires": 6581,
      "Ġextort": 6582,
      "ĠHarvest": 6583,
      "ĠArmory": 6584,
      "ĠBreathstealer": 6585,
      "ĠSmasher": 6586,
      "ĠStrategic": 6587,
      "ĠHypertoxic": 6588,
      "Ġpetal": 6589,
      "Phyrexian": 6590,
      "ĠBanishment": 6591,
      "ĠSidar": 6592,
      "ĠAmbush": 6593,
      "Ġprize": 6594,
      "ĠHanweir": 6595,
      "ĠMileva": 6596,
      "ĠMassacre": 6597,
      "ĠScrivener": 6598,
      "ĠAltanak": 6599,
      "ĠImportant": 6600,
      "cept": 6601,
      "iasma": 6602,
      "lave": 6603,
      "mates": 6604,
      "wor": 6605,
      "ĠCook": 6606,
      "ĠCoord": 6607,
      "itting": 6608,
      "ĠIon": 6609,
      "ĠBram": 6610,
      "inate": 6611,
      "inator": 6612,
      "ĠSumm": 6613,
      "ĠEver": 6614,
      "ĠGath": 6615,
      "chon": 6616,
      "ĠPun": 6617,
      "Ġcontain": 6618,
      "ĠMists": 6619,
      "ĠMiasma": 6620,
      "ĠVip": 6621,
      "ĠSpitting": 6622,
      "ssing": 6623,
      "ĠShare": 6624,
      "blewe": 6625,
      "teran": 6626,
      "yclave": 6627,
      "ĠVeteran": 6628,
      "ĠJab": 6629,
      "ĠTeam": 6630,
      "ĠDominate": 6631,
      "ĠDjinns": 6632,
      "mpted": 6633,
      "ĠCrossing": 6634,
      "ĠSkyclave": 6635,
      "ĠPerk": 6636,
      "Ġtempted": 6637,
      "ĠShieldwall": 6638,
      "ĠFabricator": 6639,
      "Ġteammates": 6640,
      "ĠRepose": 6641,
      "ĠUnderwor": 6642,
      "ĠGust": 6643,
      "ĠAccept": 6644,
      "ĠFrenzy": 6645,
      "Archon": 6646,
      "Ġembalmed": 6647,
      "ĠRuby": 6648,
      "ĠCookbook": 6649,
      "ĠCoordinator": 6650,
      "ĠIonize": 6651,
      "ĠBramblewe": 6652,
      "ĠSummary": 6653,
      "ĠEverflame": 6654,
      "ĠGathered": 6655,
      "ĠPunch": 6656,
      "ĠViper": 6657,
      "ĠJabari": 6658,
      "ĠUnderworld": 6659,
      "ĠBrambleweft": 6660,
      "Sledge": 6661,
      "cat": 6662,
      "coph": 6663,
      "emoth": 6664,
      "hemoth": 6665,
      "ipped": 6666,
      "kes": 6667,
      "solve": 6668,
      "wart": 6669,
      "enry": 6670,
      "arcoph": 6671,
      "anic": 6672,
      "ortal": 6673,
      "entch": 6674,
      "Ġcirc": 6675,
      "acon": 6676,
      "ĠSymph": 6677,
      "ĠSarcoph": 6678,
      "ĠAish": 6679,
      "ĠDenry": 6680,
      "ĠTze": 6681,
      "ĠGrant": 6682,
      "ĠLaw": 6683,
      "ray": 6684,
      "ĠArray": 6685,
      "urry": 6686,
      "ĠPyre": 6687,
      "ĠPortal": 6688,
      "mble": 6689,
      "Ġhund": 6690,
      "ellig": 6691,
      "ĠDrakes": 6692,
      "Ġasse": 6693,
      "ĠElite": 6694,
      "ĠFlurry": 6695,
      "ĠClaw": 6696,
      "ĠBehemoth": 6697,
      "ĠBeacon": 6698,
      "outlaw": 6699,
      "ĠCatch": 6700,
      "Ġdestroys": 6701,
      "ops": 6702,
      "ĠShadowcat": 6703,
      "ĠAffirm": 6704,
      "agus": 6705,
      "Ġcaused": 6706,
      "ĠIntellig": 6707,
      "Ġmanifestation": 6708,
      "ĠSkipped": 6709,
      "ĠAcid": 6710,
      "ĠDissolve": 6711,
      "ĠDarkness": 6712,
      "Eldrazi": 6713,
      "ĠXenos": 6714,
      "Ġabsor": 6715,
      "Elephant": 6716,
      "ĠStalwart": 6717,
      "ĠTroops": 6718,
      "ĠMagnus": 6719,
      "ĠScheme": 6720,
      "Ġcircle": 6721,
      "ĠSymphony": 6722,
      "ĠSarcophagus": 6723,
      "ĠAisha": 6724,
      "ĠTzeentch": 6725,
      "Ġhundred": 6726,
      "Ġassemble": 6727,
      "ĠAffirmative": 6728,
      "ĠIntelligence": 6729,
      "Ġabsorb": 6730,
      "19": 6731,
      "Call": 6732,
      "Fox": 6733,
      "bath": 6734,
      "cle": 6735,
      "cannon": 6736,
      "dos": 6737,
      "rith": 6738,
      "son": 6739,
      "xia": 6740,
      "orment": 6741,
      "ĠBold": 6742,
      "ĠBru": 6743,
      "lory": 6744,
      "ĠSimultaneously": 6745,
      "ĠTorment": 6746,
      "geance": 6747,
      "ĠGlory": 6748,
      "ĠArson": 6749,
      "Ġsupp": 6750,
      "ĠMus": 6751,
      "ĠThrice": 6752,
      "Ġtopmo": 6753,
      "ĠOath": 6754,
      "ĠStall": 6755,
      "ĠPhyrexia": 6756,
      "Ġchapt": 6757,
      "esting": 6758,
      "aptic": 6759,
      "ĠEfreets": 6760,
      "ĠSunbath": 6761,
      "Ġdungeons": 6762,
      "ĠMantle": 6763,
      "ĠBreathe": 6764,
      "ĠRakdos": 6765,
      "ĠReflections": 6766,
      "ĠInfesting": 6767,
      "plasmic": 6768,
      "ĠVengeance": 6769,
      "ĠGrav": 6770,
      "ĠExterminate": 6771,
      "Ġinvestigated": 6772,
      "ĠScheming": 6773,
      "ĠExecutioner": 6774,
      "ĠSynaptic": 6775,
      "Called": 6776,
      "ĠBruna": 6777,
      "ĠArsonist": 6778,
      "Ġsupply": 6779,
      "ĠMuscle": 6780,
      "Ġtopmost": 6781,
      "ĠOathsworn": 6782,
      "Ġchapters": 6783,
      "ĠSunbathing": 6784,
      "00": 6785,
      "Hor": 6786,
      "War": 6787,
      "ricate": 6788,
      "vail": 6789,
      "arrage": 6790,
      "ĠBring": 6791,
      "ĠBlow": 6792,
      "ĠBarrage": 6793,
      "inia": 6794,
      "acy": 6795,
      "ĠWield": 6796,
      "ĠDart": 6797,
      "ĠTrick": 6798,
      "Ġavail": 6799,
      "ĠRot": 6800,
      "antage": 6801,
      "roman": 6802,
      "Ġpick": 6803,
      "henge": 6804,
      "Ġfab": 6805,
      "ĠLegacy": 6806,
      "ĠPear": 6807,
      "Ġturning": 6808,
      "ĠVial": 6809,
      "Ġdealing": 6810,
      "Ġtwelf": 6811,
      "ĠBeyond": 6812,
      "otwall": 6813,
      "Ġ000": 6814,
      "ĠUnde": 6815,
      "ĠDragonfly": 6816,
      "phase": 6817,
      "ĠCataly": 6818,
      "ĠChapter": 6819,
      "ĠRootwall": 6820,
      "ĠDevouring": 6821,
      "Ġevenly": 6822,
      "Ġthirty": 6823,
      "Ġoffers": 6824,
      "ĠHollowhenge": 6825,
      "ĠBrood": 6826,
      "ĠWastes": 6827,
      "Plasmic": 6828,
      "ĠTeleport": 6829,
      "ĠSpiked": 6830,
      "ĠHyperphase": 6831,
      "ĠAdvantage": 6832,
      "ĠDisintegrator": 6833,
      "Ġpreviously": 6834,
      "ĠThinking": 6835,
      "ĠRubinia": 6836,
      "ĠPyroman": 6837,
      "Horror": 6838,
      "Warrior": 6839,
      "ĠBlows": 6840,
      "ĠWielder": 6841,
      "ĠTrickster": 6842,
      "Ġavailable": 6843,
      "Ġfabricate": 6844,
      "ĠPearl": 6845,
      "Ġtwelfth": 6846,
      "ĠUndead": 6847,
      "ĠCatalyst": 6848,
      "ĠRootwalla": 6849,
      "ĠPyromancer": 6850,
      "goth": 6851,
      "word": 6852,
      "ĠCar": 6853,
      "ĠCarn": 6854,
      "enious": 6855,
      "ĠColo": 6856,
      "amator": 6857,
      "ĠSuit": 6858,
      "ĠTrig": 6859,
      "Ġ17": 6860,
      "raption": 6861,
      "ĠHivis": 6862,
      "ĠArgoth": 6863,
      "Ġfren": 6864,
      "Ġsev": 6865,
      "ĠPath": 6866,
      "ĠPinch": 6867,
      "Ġempt": 6868,
      "ibou": 6869,
      "imus": 6870,
      "ssal": 6871,
      "ivore": 6872,
      "ĠAnimus": 6873,
      "ĠProcl": 6874,
      "ĠContraption": 6875,
      "ĠThreshers": 6876,
      "ĠAllure": 6877,
      "ĠStorms": 6878,
      "ribution": 6879,
      "arius": 6880,
      "ĠRetribution": 6881,
      "ĠChainsword": 6882,
      "ĠIngenious": 6883,
      "Ġstops": 6884,
      "ĠCaller": 6885,
      "ĠRosarius": 6886,
      "ĠCaribou": 6887,
      "ĠCarnivore": 6888,
      "ĠColossal": 6889,
      "ĠTriggered": 6890,
      "Ġfrenzy": 6891,
      "Ġseventh": 6892,
      "ĠPincher": 6893,
      "Ġempty": 6894,
      "ĠProclamator": 6895,
      "Dinosaur": 6896,
      "Mage": 6897,
      "houl": 6898,
      "maw": 6899,
      "til": 6900,
      "wind": 6901,
      "enrith": 6902,
      "itimate": 6903,
      "ĠSep": 6904,
      "ĠGhoul": 6905,
      "ĠLoud": 6906,
      "isel": 6907,
      "roly": 6908,
      "ĠUtil": 6909,
      "ĠHail": 6910,
      "alice": 6911,
      "cher": 6912,
      "Ġbel": 6913,
      "ĠLegitimate": 6914,
      "ctroly": 6915,
      "ĠKenrith": 6916,
      "ĠElectroly": 6917,
      "oted": 6918,
      "otes": 6919,
      "Ġunop": 6920,
      "ĠDragonfire": 6921,
      "ulcher": 6922,
      "ĠDevoted": 6923,
      "ĠChalice": 6924,
      "ĠAdept": 6925,
      "ĠBlast": 6926,
      "ĠWhirl": 6927,
      "ĠChanneler": 6928,
      "ĠDreadmaw": 6929,
      "ĠHeir": 6930,
      "ĠCoyotes": 6931,
      "ĠTemple": 6932,
      "ĠTempered": 6933,
      "ĠSanctum": 6934,
      "ĠSepulcher": 6935,
      "isela": 6936,
      "ĠUtility": 6937,
      "ĠHailer": 6938,
      "Ġbelow": 6939,
      "ĠElectrolyze": 6940,
      "Ġunopened": 6941,
      "ĠWhirlwind": 6942,
      "af": 6943,
      "eake": 6944,
      "kite": 6945,
      "mead": 6946,
      "nif": 6947,
      "nore": 6948,
      "pers": 6949,
      "zum": 6950,
      "ĠBus": 6951,
      "ĠBened": 6952,
      "iness": 6953,
      "inues": 6954,
      "asy": 6955,
      "ĠSunt": 6956,
      "ĠSacrific": 6957,
      "ĠAcl": 6958,
      "ĠTitan": 6959,
      "ĠGim": 6960,
      "leaf": 6961,
      "elter": 6962,
      "ĠNettle": 6963,
      "Ġcontinues": 6964,
      "ckus": 6965,
      "ĠKnif": 6966,
      "ĠSpeake": 6967,
      "ĠShelter": 6968,
      "otz": 6969,
      "ĠAngels": 6970,
      "ĠMutating": 6971,
      "ĠFaith": 6972,
      "ĠElderleaf": 6973,
      "ĠHellkite": 6974,
      "ĠStunning": 6975,
      "ĠEggs": 6976,
      "ĠRedistribute": 6977,
      "ĠRuckus": 6978,
      "ĠGoldmead": 6979,
      "cyst": 6980,
      "azotz": 6981,
      "ĠLethal": 6982,
      "ĠNaturalize": 6983,
      "Ġmoved": 6984,
      "ĠNezum": 6985,
      "iction": 6986,
      "ĠIgnore": 6987,
      "person": 6988,
      "ĠBusiness": 6989,
      "ĠBenediction": 6990,
      "ĠSuntail": 6991,
      "ĠSacrificing": 6992,
      "ĠAclazotz": 6993,
      "ĠTitanic": 6994,
      "ĠGimli": 6995,
      "ĠNettlecyst": 6996,
      "ĠKnife": 6997,
      "ĠSpeakeasy": 6998,
      "ĠGoldmeadow": 6999,
      "ĠNezumi": 7000,
      "ĠBusinessperson": 7001,
      "Av": 7002,
      "Brushwagg": 7003,
      "cient": 7004,
      "frag": 7005,
      "kir": 7006,
      "mast": 7007,
      "skir": 7008,
      "ton": 7009,
      "tains": 7010,
      "ulet": 7011,
      "ĠBoss": 7012,
      "ĠWood": 7013,
      "ĠSto": 7014,
      "ĠSable": 7015,
      "ĠDie": 7016,
      "ĠHaw": 7017,
      "esis": 7018,
      "ĠNine": 7019,
      "rier": 7020,
      "Ġretains": 7021,
      "ĠDeton": 7022,
      "ĠStand": 7023,
      "ĠAncient": 7024,
      "ĠBoon": 7025,
      "ĠOrcish": 7026,
      "ĠServer": 7027,
      "Ġboast": 7028,
      "ĠAmulet": 7029,
      "akstone": 7030,
      "ĠSpawns": 7031,
      "types": 7032,
      "ĠImskir": 7033,
      "ĠWeakstone": 7034,
      "ĠHarrier": 7035,
      "ĠGuan": 7036,
      "Ġswap": 7037,
      "ĠLeave": 7038,
      "ĠGenesis": 7039,
      "Ġsubtypes": 7040,
      "ĠDarksteel": 7041,
      "ĠBowmast": 7042,
      "ĠBlind": 7043,
      "ĠOverlord": 7044,
      "ĠReady": 7045,
      "ĠSuppressing": 7046,
      "ĠHyperfrag": 7047,
      "Avatar": 7048,
      "ĠStomp": 7049,
      "ĠHawk": 7050,
      "ĠDetonate": 7051,
      "ĠAncients": 7052,
      "ĠBowmasters": 7053,
      "Kanar": 7054,
      "Rogue": 7055,
      "iah": 7056,
      "wyn": 7057,
      "rectly": 7058,
      "enius": 7059,
      "ĠBub": 7060,
      "ĠWire": 7061,
      "ĠSol": 7062,
      "ĠDay": 7063,
      "ĠHook": 7064,
      "urant": 7065,
      "ĠYu": 7066,
      "ĠStab": 7067,
      "Ġ40": 7068,
      "ĠDruids": 7069,
      "ĠArtificers": 7070,
      "ĠUntapped": 7071,
      "Ġchampion": 7072,
      "eption": 7073,
      "ĠShapeshifters": 7074,
      "Ġsixth": 7075,
      "ĠGoats": 7076,
      "ĠEndurant": 7077,
      "ĠMarwyn": 7078,
      "Ġcorrectly": 7079,
      "rogenius": 7080,
      "ĠOmniss": 7081,
      "Ġkicks": 7082,
      "ĠDeception": 7083,
      "ĠExcept": 7084,
      "ĠNonblue": 7085,
      "Ġletters": 7086,
      "ĠPyrogenius": 7087,
      "ĠBubbling": 7088,
      "ĠWirefly": 7089,
      "ĠHooks": 7090,
      "Ġchampioned": 7091,
      "ĠOmnissiah": 7092,
      "Hy": 7093,
      "gic": 7094,
      "iash": 7095,
      "lace": 7096,
      "mara": 7097,
      "su": 7098,
      "sues": 7099,
      "xel": 7100,
      "enses": 7101,
      "atsu": 7102,
      "erk": 7103,
      "eror": 7104,
      "Ġcond": 7105,
      "Ġcraft": 7106,
      "ĠSenses": 7107,
      "ĠAxel": 7108,
      "ĠRumble": 7109,
      "ĠGave": 7110,
      "leer": 7111,
      "isan": 7112,
      "ĠUmara": 7113,
      "Ġfound": 7114,
      "ĠArtisan": 7115,
      "Ġ23": 7116,
      "ĠViash": 7117,
      "ĠThrall": 7118,
      "imatsu": 7119,
      "ĠShimatsu": 7120,
      "ĠStitch": 7121,
      "Ġensues": 7122,
      "itions": 7123,
      "ĠAction": 7124,
      "ĠBerserk": 7125,
      "ĠJast": 7126,
      "ĠTragic": 7127,
      "ĠEmperor": 7128,
      "Ġdecks": 7129,
      "Ġremaining": 7130,
      "Ġpairs": 7131,
      "ĠUrami": 7132,
      "ĠPrize": 7133,
      "ĠVoice": 7134,
      "ĠRevelation": 7135,
      "ĠScavengers": 7136,
      "Ġdecides": 7137,
      "ĠDevastating": 7138,
      "ĠDisplace": 7139,
      "Hydra": 7140,
      "Ġconditions": 7141,
      "ĠAxelrod": 7142,
      "ĠGaveleer": 7143,
      "ĠViashivan": 7144,
      "ĠThralls": 7145,
      "ĠStitched": 7146,
      "ĠDisplacement": 7147,
      "Skeleton": 7148,
      "eck": 7149,
      "istant": 7150,
      "mpy": 7151,
      "sire": 7152,
      "zon": 7153,
      "ĠCamp": 7154,
      "ens": 7155,
      "story": 7156,
      "ĠBr": 7157,
      "ĠSain": 7158,
      "ĠSong": 7159,
      "ĠSet": 7160,
      "ĠAid": 7161,
      "ĠEmpy": 7162,
      "ĠRive": 7163,
      "ĠHaze": 7164,
      "ĠNongreen": 7165,
      "Ġmark": 7166,
      "Ġhapp": 7167,
      "Ġeigh": 7168,
      "Ġnow": 7169,
      "apse": 7170,
      "iding": 7171,
      "ĠScorch": 7172,
      "ĠShamans": 7173,
      "Ġenchanting": 7174,
      "ĠCheck": 7175,
      "ĠAssistant": 7176,
      "ĠArchery": 7177,
      "ĠBackstory": 7178,
      "ĠGodsire": 7179,
      "ĠPlotting": 7180,
      "ĠPegasi": 7181,
      "ĠGuild": 7182,
      "Ġcompletely": 7183,
      "Ġdeciding": 7184,
      "teers": 7185,
      "ĠSynapse": 7186,
      "ĠSainted": 7187,
      "ĠEmpyrial": 7188,
      "ĠRiveteers": 7189,
      "ĠHazezon": 7190,
      "Ġmarked": 7191,
      "Ġhappens": 7192,
      "Ġeighth": 7193,
      "ĠScorching": 7194,
      "ĠGuildsworn": 7195,
      "Away": 7196,
      "ae": 7197,
      "bb": 7198,
      "cation": 7199,
      "canic": 7200,
      "friend": 7201,
      "rison": 7202,
      "ture": 7203,
      "vanic": 7204,
      "reign": 7205,
      "ĠCobb": 7206,
      "angel": 7207,
      "ĠSove": 7208,
      "ĠDig": 7209,
      "ĠRash": 7210,
      "ĠGal": 7211,
      "ĠGae": 7212,
      "ĠLost": 7213,
      "ĠFend": 7214,
      "ĠFound": 7215,
      "ĠHaz": 7216,
      "urture": 7217,
      "ĠNurture": 7218,
      "epter": 7219,
      "location": 7220,
      "Ġ29": 7221,
      "lockwise": 7222,
      "oret": 7223,
      "ĠPlaces": 7224,
      "ĠBefriend": 7225,
      "Ġbattles": 7226,
      "iang": 7227,
      "ĠScepter": 7228,
      "ĠUnspe": 7229,
      "ĠJiang": 7230,
      "ndicate": 7231,
      "ĠArchangel": 7232,
      "ĠMonks": 7233,
      "ĠTraps": 7234,
      "ĠTranslocation": 7235,
      "akable": 7236,
      "ĠUnicorns": 7237,
      "ĠRadAway": 7238,
      "Ġeveryone": 7239,
      "ĠVolcanic": 7240,
      "ĠGarrison": 7241,
      "ĠSyndicate": 7242,
      "Ġheals": 7243,
      "ĠCobbled": 7244,
      "ĠSovereign": 7245,
      "ĠRashka": 7246,
      "ĠGalvanic": 7247,
      "ĠGaea": 7248,
      "ĠFoundry": 7249,
      "ĠHazoret": 7250,
      "ĠNurturer": 7251,
      "ĠUnspeakable": 7252,
      "Soldi": 7253,
      "Th": 7254,
      "ancer": 7255,
      "eded": 7256,
      "ĠLancer": 7257,
      "Ġ111": 7258,
      "ision": 7259,
      "charge": 7260,
      "Ġburn": 7261,
      "ayer": 7262,
      "Ġdetermin": 7263,
      "ĠRest": 7264,
      "Ġexplo": 7265,
      "ĠFlayer": 7266,
      "Ġnonblock": 7267,
      "ĠDemonic": 7268,
      "umination": 7269,
      "ĠChang": 7270,
      "ĠDwarfhold": 7271,
      "ĠIllumination": 7272,
      "ĠBears": 7273,
      "ĠPerfect": 7274,
      "Ġ200": 7275,
      "Ġunlocked": 7276,
      "ĠVirus": 7277,
      "ĠGeyser": 7278,
      "ĠDischarge": 7279,
      "Ġdecision": 7280,
      "Ġproceeded": 7281,
      "Soldier": 7282,
      "This": 7283,
      "Ġdetermined": 7284,
      "Ġexplored": 7285,
      "Ġnonblocking": 7286,
      "ĠChanging": 7287,
      "Ġdecisions": 7288,
      "iev": 7289,
      "lide": 7290,
      "slide": 7291,
      "Ġclockwise": 7292,
      "ĠGand": 7293,
      "ĠGisela": 7294,
      "Ġwill": 7295,
      "Ġuses": 7296,
      "Ġ26": 7297,
      "ĠThiev": 7298,
      "ĠReass": 7299,
      "Ġ31": 7300,
      "Ġdrawing": 7301,
      "ĠUnblocked": 7302,
      "Ġattaches": 7303,
      "ĠMultiple": 7304,
      "Ġsurviv": 7305,
      "ĠThrulls": 7306,
      "embling": 7307,
      "ĠBeetle": 7308,
      "ĠRockslide": 7309,
      "Ġdoors": 7310,
      "ĠIngot": 7311,
      "ĠGraf": 7312,
      "Ġsupertype": 7313,
      "ĠRelics": 7314,
      "Ġassembles": 7315,
      "ĠBrisela": 7316,
      "ĠGandalf": 7317,
      "ĠThieving": 7318,
      "ĠReassembling": 7319,
      "Ġsurvived": 7320,
      "Ogre": 7321,
      "elect": 7322,
      "pie": 7323,
      "piph": 7324,
      "ºk": 7325,
      "Ãºk": 7326,
      "any": 7327,
      "erter": 7328,
      "ĠSelect": 7329,
      "ĠEpiph": 7330,
      "ĠUgl": 7331,
      "ĠForce": 7332,
      "ĠThrone": 7333,
      "rund": 7334,
      "ĠAlrund": 7335,
      "ĠDeserter": 7336,
      "ĠRebels": 7337,
      "ĠHomeland": 7338,
      "ĠCelebrity": 7339,
      "ocate": 7340,
      "ĠAntiqu": 7341,
      "ĠMagpie": 7342,
      "Ġaround": 7343,
      "ĠArcanis": 7344,
      "ĠAdvocate": 7345,
      "ĠContraptions": 7346,
      "ĠEpiphany": 7347,
      "ĠUglÃºk": 7348,
      "ĠHomelands": 7349,
      "ĠAntiquities": 7350,
      "Giant": 7351,
      "Gha": 7352,
      "nine": 7353,
      "pal": 7354,
      "itu": 7355,
      "ĠGive": 7356,
      "ersa": 7357,
      "ments": 7358,
      "ĠVitu": 7359,
      "Ġrecent": 7360,
      "Ġreorder": 7361,
      "Ġexchanged": 7362,
      "ĠOpal": 7363,
      "ĠZhan": 7364,
      "Ġvice": 7365,
      "Ġversa": 7366,
      "ĠIncarn": 7367,
      "ĠRadiant": 7368,
      "unkyard": 7369,
      "ĠBattlements": 7370,
      "Ġchanges": 7371,
      "ĠRooms": 7372,
      "Ġninety": 7373,
      "Ġjunkyard": 7374,
      "ĠEveryone": 7375,
      "ĠBroken": 7376,
      "ĠFencer": 7377,
      "ĠGeology": 7378,
      "Ghazi": 7379,
      "ĠZhang": 7380,
      "ĠIncarnate": 7381,
      "Mount": 7382,
      "brew": 7383,
      "iast": 7384,
      "xes": 7385,
      "Ġil": 7386,
      "Ġrol": 7387,
      "ston": 7388,
      "Ġtable": 7389,
      "itani": 7390,
      "ĠBog": 7391,
      "ĠTitani": 7392,
      "ĠFier": 7393,
      "Ġfar": 7394,
      "Ġline": 7395,
      "ĠClaim": 7396,
      "usiast": 7397,
      "ĠChitter": 7398,
      "ĠMinor": 7399,
      "ĠSwan": 7400,
      "Ġboxes": 7401,
      "ĠPowerston": 7402,
      "ĠDoctors": 7403,
      "Ġresolve": 7404,
      "Ġzero": 7405,
      "legal": 7406,
      "ĠFei": 7407,
      "ĠEnthusiast": 7408,
      "ĠRosie": 7409,
      "Ġillegal": 7410,
      "Ġrolling": 7411,
      "ĠBogbrew": 7412,
      "ĠTitania": 7413,
      "ĠFierce": 7414,
      "ĠClaimed": 7415,
      "ĠChittering": 7416,
      "ĠPowerstones": 7417,
      "Dev": 7418,
      "front": 7419,
      "iral": 7420,
      "lays": 7421,
      "miral": 7422,
      "sters": 7423,
      "Ġtie": 7424,
      "ĠWitch": 7425,
      "ĠGix": 7426,
      "Ġdisp": 7427,
      "ĠHost": 7428,
      "Ġfair": 7429,
      "Ġfought": 7430,
      "ĠWarning": 7431,
      "ĠKelp": 7432,
      "Ġstakes": 7433,
      "ĠMonocolored": 7434,
      "ĠAdmiral": 7435,
      "Ġchanged": 7436,
      "liced": 7437,
      "ĠStormfront": 7438,
      "Ġspliced": 7439,
      "ĠHamsters": 7440,
      "Ġradiation": 7441,
      "Ġrecently": 7442,
      "Devil": 7443,
      "Ġdisplays": 7444,
      "Pir": 7445,
      "Werewol": 7446,
      "aking": 7447,
      "cke": 7448,
      "tt": 7449,
      "redd": 7450,
      "Ġcir": 7451,
      "Ġtaking": 7452,
      "ĠWrith": 7453,
      "ĠSho": 7454,
      "ĠTome": 7455,
      "Ġfad": 7456,
      "Ġnorm": 7457,
      "ĠShredd": 7458,
      "ĠBecke": 7459,
      "Ġways": 7460,
      "Ġprevents": 7461,
      "cled": 7462,
      "Ġgoes": 7463,
      "Ġoriginal": 7464,
      "ĠBrass": 7465,
      "Pirate": 7466,
      "Werewolf": 7467,
      "Ġcircled": 7468,
      "ĠWrithing": 7469,
      "ĠShot": 7470,
      "Ġfading": 7471,
      "Ġnormally": 7472,
      "ĠShredder": 7473,
      "ĠBeckett": 7474,
      "Bol": 7475,
      "Mer": 7476,
      "clockwise": 7477,
      "ĠTown": 7478,
      "Ġ18": 7479,
      "roken": 7480,
      "Ġbroken": 7481,
      "Ġended": 7482,
      "Ġcounterclockwise": 7483,
      "Spider": 7484,
      "Ġsubtype": 7485,
      "Ġmulligans": 7486,
      "Bolas": 7487,
      "Merfolk": 7488,
      "ĠTownship": 7489
    },
    "merges": [
      [
        "Ġ",
        ","
      ],
      [
        "Ġ",
        "<"
      ],
      [
        "r",
        "e"
      ],
      [
        "Ġ",
        "{"
      ],
      [
        "Ġ",
        "C"
      ],
      [
        "e",
        "n"
      ],
      [
        "a",
        "t"
      ],
      [
        "s",
        "t"
      ],
      [
        "a",
        "r"
      ],
      [
        "ĠC",
        "o"
      ],
      [
        "re",
        "at"
      ],
      [
        "u",
        "re"
      ],
      [
        "reat",
        "ure"
      ],
      [
        "č",
        "Ċ"
      ],
      [
        "M",
        "E"
      ],
      [
        "N",
        "A"
      ],
      [
        "a",
        "n"
      ],
      [
        "a",
        "m"
      ],
      [
        "o",
        "r"
      ],
      [
        "e",
        "r"
      ],
      [
        "en",
        "t"
      ],
      [
        "Ġ",
        "c"
      ],
      [
        "Ġ",
        "t"
      ],
      [
        "ĠC",
        "reature"
      ],
      [
        "i",
        "t"
      ],
      [
        "en",
        "d"
      ],
      [
        "Ġ",
        "I"
      ],
      [
        "am",
        "e"
      ],
      [
        "n",
        "ame"
      ],
      [
        "o",
        "f"
      ],
      [
        "Ġ",
        "B"
      ],
      [
        "e",
        "x"
      ],
      [
        "o",
        "u"
      ],
      [
        "i",
        "n"
      ],
      [
        "ar",
        "t"
      ],
      [
        "l",
        "or"
      ],
      [
        "it",
        "y"
      ],
      [
        "ex",
        "t"
      ],
      [
        "ĠCo",
        "st"
      ],
      [
        "st",
        "art"
      ],
      [
        "ĠCo",
        "lor"
      ],
      [
        "d",
        "ent"
      ],
      [
        "dent",
        "ity"
      ],
      [
        "ĠI",
        "dentity"
      ],
      [
        "<",
        "|"
      ],
      [
        "E",
        "ME"
      ],
      [
        "H",
        "EME"
      ],
      [
        "T",
        "HEME"
      ],
      [
        "t",
        "ext"
      ],
      [
        "|",
        ">"
      ],
      [
        "end",
        "of"
      ],
      [
        "THEME",
        "S"
      ],
      [
        "endof",
        "text"
      ],
      [
        "A",
        "R"
      ],
      [
        "AR",
        "D"
      ],
      [
        "C",
        "ARD"
      ],
      [
        "NA",
        "ME"
      ],
      [
        "a",
        "c"
      ],
      [
        "A",
        "NA"
      ],
      [
        "C",
        "O"
      ],
      [
        "M",
        "ANA"
      ],
      [
        "S",
        "T"
      ],
      [
        "CO",
        "ST"
      ],
      [
        "a",
        "s"
      ],
      [
        "N",
        "E"
      ],
      [
        "T",
        "Y"
      ],
      [
        "I",
        "NE"
      ],
      [
        "L",
        "INE"
      ],
      [
        "P",
        "E"
      ],
      [
        "TY",
        "PE"
      ],
      [
        "o",
        "n"
      ],
      [
        "e",
        "d"
      ],
      [
        "Ġ",
        "W"
      ],
      [
        "Ġt",
        "h"
      ],
      [
        "i",
        "f"
      ],
      [
        "Ġ",
        "S"
      ],
      [
        "L",
        "E"
      ],
      [
        "A",
        "C"
      ],
      [
        "E",
        "X"
      ],
      [
        "O",
        "R"
      ],
      [
        "T",
        "EX"
      ],
      [
        "AC",
        "LE"
      ],
      [
        "OR",
        "ACLE"
      ],
      [
        "TEX",
        "T"
      ],
      [
        "Ġ",
        "."
      ],
      [
        "Ġ",
        "A"
      ],
      [
        "Ġ",
        "y"
      ],
      [
        "Ġy",
        "ou"
      ],
      [
        "ar",
        "d"
      ],
      [
        "Ġ",
        "â"
      ],
      [
        "Ġ",
        "D"
      ],
      [
        "Ģ",
        "Ķ"
      ],
      [
        "Ġâ",
        "ĢĶ"
      ],
      [
        "ĠB",
        "as"
      ],
      [
        "ĠBas",
        "ed"
      ],
      [
        "Ġ",
        "T"
      ],
      [
        "g",
        "e"
      ],
      [
        "Ġ",
        "a"
      ],
      [
        "Ġ",
        "E"
      ],
      [
        "Ġ",
        "R"
      ],
      [
        "an",
        "t"
      ],
      [
        "in",
        "g"
      ],
      [
        "Ġ",
        "\\"
      ],
      [
        "Ġc",
        "reature"
      ],
      [
        "Ġ",
        "G"
      ],
      [
        "l",
        "e"
      ],
      [
        "Ġ",
        "L"
      ],
      [
        "Ġ",
        "1"
      ],
      [
        "i",
        "s"
      ],
      [
        "r",
        "o"
      ],
      [
        "n",
        "t"
      ],
      [
        "Ġ",
        "U"
      ],
      [
        "Ġ",
        "F"
      ],
      [
        "e",
        "g"
      ],
      [
        "r",
        "a"
      ],
      [
        "Ġ",
        "d"
      ],
      [
        "er",
        "s"
      ],
      [
        "an",
        "d"
      ],
      [
        "Ġ",
        "p"
      ],
      [
        "Ġ",
        "H"
      ],
      [
        "a",
        "l"
      ],
      [
        "Ġth",
        "e"
      ],
      [
        "o",
        "k"
      ],
      [
        "c",
        "h"
      ],
      [
        "m",
        "an"
      ],
      [
        "ar",
        "y"
      ],
      [
        "i",
        "c"
      ],
      [
        "Ġ",
        "b"
      ],
      [
        "a",
        "y"
      ],
      [
        "ac",
        "t"
      ],
      [
        "h",
        "en"
      ],
      [
        "ok",
        "en"
      ],
      [
        "if",
        "act"
      ],
      [
        "m",
        "ent"
      ],
      [
        "ĠW",
        "hen"
      ],
      [
        "Ġ",
        "of"
      ],
      [
        "ĠA",
        "r"
      ],
      [
        "ge",
        "t"
      ],
      [
        "Ġc",
        "ard"
      ],
      [
        "Ġ",
        "f"
      ],
      [
        "ĠAr",
        "t"
      ],
      [
        "ch",
        "ant"
      ],
      [
        "e",
        "s"
      ],
      [
        "e",
        "l"
      ],
      [
        "end",
        "ary"
      ],
      [
        "ĠE",
        "n"
      ],
      [
        "Ġt",
        "o"
      ],
      [
        "oken",
        "s"
      ],
      [
        "Ġ",
        "s"
      ],
      [
        "ĠArt",
        "ifact"
      ],
      [
        "l",
        "y"
      ],
      [
        "ĠL",
        "eg"
      ],
      [
        "ĠLeg",
        "endary"
      ],
      [
        "a",
        "st"
      ],
      [
        "Ġ",
        "it"
      ],
      [
        "ĠEn",
        "chant"
      ],
      [
        "u",
        "r"
      ],
      [
        "u",
        "nt"
      ],
      [
        "ĠT",
        "okens"
      ],
      [
        "u",
        "man"
      ],
      [
        "ĠH",
        "uman"
      ],
      [
        "Ġyou",
        "r"
      ],
      [
        "Ġ",
        "l"
      ],
      [
        "Ġ",
        "N"
      ],
      [
        "Ġ",
        "w"
      ],
      [
        "i",
        "l"
      ],
      [
        "Ġ",
        "P"
      ],
      [
        "a",
        "ge"
      ],
      [
        "ro",
        "l"
      ],
      [
        "Ġ",
        "on"
      ],
      [
        "ĠI",
        "n"
      ],
      [
        "am",
        "age"
      ],
      [
        "Ġ",
        "m"
      ],
      [
        "Ġ",
        "("
      ],
      [
        "ly",
        "ing"
      ],
      [
        "ĠEnchant",
        "ment"
      ],
      [
        "v",
        "e"
      ],
      [
        "on",
        "t"
      ],
      [
        "ar",
        "get"
      ],
      [
        "Ġc",
        "ont"
      ],
      [
        "Ġcont",
        "rol"
      ],
      [
        "ĠF",
        "lying"
      ],
      [
        "ac",
        "k"
      ],
      [
        "Ġ",
        ":"
      ],
      [
        "e",
        "v"
      ],
      [
        "er",
        "y"
      ],
      [
        "Ġ",
        "an"
      ],
      [
        "or",
        "c"
      ],
      [
        "if",
        "ic"
      ],
      [
        "orc",
        "ery"
      ],
      [
        "Ġth",
        "is"
      ],
      [
        "u",
        "t"
      ],
      [
        "st",
        "ant"
      ],
      [
        "i",
        "r"
      ],
      [
        "m",
        "b"
      ],
      [
        "Ġ",
        "M"
      ],
      [
        "ur",
        "n"
      ],
      [
        "r",
        "ific"
      ],
      [
        "ac",
        "rific"
      ],
      [
        "Ġ",
        "h"
      ],
      [
        "ĠS",
        "orcery"
      ],
      [
        "Ġ",
        "or"
      ],
      [
        "ĠIn",
        "stant"
      ],
      [
        "k",
        "e"
      ],
      [
        "acrific",
        "e"
      ],
      [
        "Ġt",
        "arget"
      ],
      [
        "el",
        "l"
      ],
      [
        "ĠD",
        "ra"
      ],
      [
        "Ġ",
        "ent"
      ],
      [
        "Ġ",
        "g"
      ],
      [
        "ev",
        "er"
      ],
      [
        "ĠWhen",
        "ever"
      ],
      [
        "a",
        "in"
      ],
      [
        "Ġent",
        "ers"
      ],
      [
        "Ġc",
        "o"
      ],
      [
        "p",
        "ell"
      ],
      [
        "t",
        "ack"
      ],
      [
        "ĠCo",
        "unt"
      ],
      [
        "ac",
        "h"
      ],
      [
        "it",
        "h"
      ],
      [
        "ĠCount",
        "ers"
      ],
      [
        "ĠA",
        "t"
      ],
      [
        "Ġ",
        "and"
      ],
      [
        "Ġm",
        "ay"
      ],
      [
        "r",
        "i"
      ],
      [
        "ĠS",
        "acrifice"
      ],
      [
        "Ġw",
        "ith"
      ],
      [
        "ou",
        "nt"
      ],
      [
        "ĠD",
        "amage"
      ],
      [
        "e",
        "p"
      ],
      [
        "Ġc",
        "ast"
      ],
      [
        "o",
        "l"
      ],
      [
        "Ġ",
        "e"
      ],
      [
        "p",
        "p"
      ],
      [
        "Ġ",
        "in"
      ],
      [
        "Ġs",
        "pell"
      ],
      [
        "Ġ",
        "at"
      ],
      [
        "Ġp",
        "l"
      ],
      [
        "Ġt",
        "urn"
      ],
      [
        "Ġ",
        "o"
      ],
      [
        "am",
        "p"
      ],
      [
        "Ġc",
        "ount"
      ],
      [
        "Ġd",
        "e"
      ],
      [
        "c",
        "t"
      ],
      [
        "ĠDra",
        "w"
      ],
      [
        "Ġ",
        "n"
      ],
      [
        "i",
        "g"
      ],
      [
        "Ġth",
        "at"
      ],
      [
        "l",
        "o"
      ],
      [
        "o",
        "s"
      ],
      [
        "ro",
        "m"
      ],
      [
        "Ġ",
        "u"
      ],
      [
        "Ġ",
        "2"
      ],
      [
        "q",
        "u"
      ],
      [
        "Ġf",
        "rom"
      ],
      [
        "Ġpl",
        "ay"
      ],
      [
        "i",
        "b"
      ],
      [
        "i",
        "on"
      ],
      [
        "ĠC",
        "ard"
      ],
      [
        "Ġ",
        "Y"
      ],
      [
        "Ġ",
        "V"
      ],
      [
        "ĠY",
        "ou"
      ],
      [
        "Ġ",
        "re"
      ],
      [
        "i",
        "z"
      ],
      [
        "Ġ",
        "unt"
      ],
      [
        "Ġp",
        "ut"
      ],
      [
        "ĠT",
        "h"
      ],
      [
        "Ġplay",
        "er"
      ],
      [
        "ĠR",
        "e"
      ],
      [
        "ke",
        "ep"
      ],
      [
        "Ġ",
        ")"
      ],
      [
        "p",
        "keep"
      ],
      [
        "tack",
        "ing"
      ],
      [
        "Ġde",
        "al"
      ],
      [
        "ĠL",
        "if"
      ],
      [
        "Ġcard",
        "s"
      ],
      [
        "Ġ",
        "end"
      ],
      [
        "ĠI",
        "f"
      ],
      [
        "mb",
        "at"
      ],
      [
        "ĠW",
        "ar"
      ],
      [
        "Ġe",
        "ach"
      ],
      [
        "Ġd",
        "amage"
      ],
      [
        "Ġ",
        "get"
      ],
      [
        "iz",
        "ard"
      ],
      [
        "c",
        "k"
      ],
      [
        "'",
        "s"
      ],
      [
        "Ġf",
        "or"
      ],
      [
        "ĠD",
        "e"
      ],
      [
        "lo",
        "ck"
      ],
      [
        "i",
        "es"
      ],
      [
        "k",
        "er"
      ],
      [
        "Ġb",
        "e"
      ],
      [
        "u",
        "ra"
      ],
      [
        "Ġ",
        "as"
      ],
      [
        "u",
        "e"
      ],
      [
        "amp",
        "le"
      ],
      [
        "i",
        "le"
      ],
      [
        "r",
        "ample"
      ],
      [
        "t",
        "h"
      ],
      [
        "h",
        "t"
      ],
      [
        "Ġ",
        "K"
      ],
      [
        "ĠS",
        "p"
      ],
      [
        "ĠAt",
        "tacking"
      ],
      [
        "ĠA",
        "ura"
      ],
      [
        "'",
        "t"
      ],
      [
        "ri",
        "or"
      ],
      [
        "ib",
        "r"
      ],
      [
        "ĠWar",
        "rior"
      ],
      [
        "Ġl",
        "ibr"
      ],
      [
        "Ġlibr",
        "ary"
      ],
      [
        "ĠW",
        "izard"
      ],
      [
        "Ġcreature",
        "s"
      ],
      [
        "ast",
        "e"
      ],
      [
        "qu",
        "i"
      ],
      [
        "is",
        "c"
      ],
      [
        "at",
        "e"
      ],
      [
        "Ġunt",
        "il"
      ],
      [
        "Ġ",
        "ex"
      ],
      [
        "ol",
        "d"
      ],
      [
        "o",
        "w"
      ],
      [
        "os",
        "e"
      ],
      [
        "isc",
        "ard"
      ],
      [
        "a",
        "p"
      ],
      [
        "Ġcount",
        "er"
      ],
      [
        "in",
        "n"
      ],
      [
        "i",
        "d"
      ],
      [
        "ĠL",
        "and"
      ],
      [
        "h",
        "o"
      ],
      [
        "Ġc",
        "an"
      ],
      [
        "th",
        "er"
      ],
      [
        "c",
        "e"
      ],
      [
        "ĠE",
        "l"
      ],
      [
        "t",
        "o"
      ],
      [
        "on",
        "ent"
      ],
      [
        "ĠT",
        "rample"
      ],
      [
        "pp",
        "onent"
      ],
      [
        "reat",
        "e"
      ],
      [
        "Ġo",
        "pponent"
      ],
      [
        "ĠE",
        "qui"
      ],
      [
        "Ġg",
        "ain"
      ],
      [
        "Ġb",
        "eg"
      ],
      [
        "d",
        "d"
      ],
      [
        "r",
        "u"
      ],
      [
        "Ġon",
        "e"
      ],
      [
        "inn",
        "ing"
      ],
      [
        "Ġbeg",
        "inning"
      ],
      [
        "Ġdeal",
        "s"
      ],
      [
        "o",
        "re"
      ],
      [
        "ac",
        "e"
      ],
      [
        "i",
        "e"
      ],
      [
        "Ġ",
        "man"
      ],
      [
        "old",
        "i"
      ],
      [
        "ĠS",
        "oldi"
      ],
      [
        "i",
        "m"
      ],
      [
        "ĠSoldi",
        "er"
      ],
      [
        "s",
        "s"
      ],
      [
        "Ġat",
        "tack"
      ],
      [
        "Ġ",
        "is"
      ],
      [
        "Ġget",
        "s"
      ],
      [
        "ra",
        "ve"
      ],
      [
        "Ġh",
        "and"
      ],
      [
        "a",
        "d"
      ],
      [
        "y",
        "ard"
      ],
      [
        "Ġg",
        "rave"
      ],
      [
        "Ġgrave",
        "yard"
      ],
      [
        "w",
        "al"
      ],
      [
        "Ġit",
        "s"
      ],
      [
        "Ġ",
        "X"
      ],
      [
        "art",
        "ifact"
      ],
      [
        "ĠS",
        "h"
      ],
      [
        "o",
        "g"
      ],
      [
        "Ġ",
        "artifact"
      ],
      [
        "Ġt",
        "w"
      ],
      [
        "as",
        "h"
      ],
      [
        "Ġ",
        "if"
      ],
      [
        "pp",
        "ed"
      ],
      [
        "Ġman",
        "a"
      ],
      [
        "e",
        "ct"
      ],
      [
        "ĠH",
        "aste"
      ],
      [
        "Ġto",
        "p"
      ],
      [
        "Ġtw",
        "o"
      ],
      [
        "ĠEqui",
        "p"
      ],
      [
        "ĠTh",
        "is"
      ],
      [
        "Ġ",
        "O"
      ],
      [
        "ĠG",
        "o"
      ],
      [
        "eg",
        "ain"
      ],
      [
        "ĠLif",
        "egain"
      ],
      [
        "ĠF",
        "l"
      ],
      [
        "ĠC",
        "l"
      ],
      [
        "Ġb",
        "lock"
      ],
      [
        "an",
        "ce"
      ],
      [
        "b",
        "le"
      ],
      [
        "Ġl",
        "if"
      ],
      [
        "ri",
        "ke"
      ],
      [
        "Ġco",
        "st"
      ],
      [
        "ĠU",
        "pkeep"
      ],
      [
        "Ġan",
        "y"
      ],
      [
        "o",
        "m"
      ],
      [
        "Ġ",
        "3"
      ],
      [
        "ho",
        "ose"
      ],
      [
        "ig",
        "il"
      ],
      [
        "igil",
        "ance"
      ],
      [
        "Ġ",
        "Z"
      ],
      [
        "Ġ",
        "st"
      ],
      [
        "o",
        "mb"
      ],
      [
        "re",
        "e"
      ],
      [
        "le",
        "ss"
      ],
      [
        "ĠZ",
        "omb"
      ],
      [
        "ig",
        "ht"
      ],
      [
        "ĠEquip",
        "ment"
      ],
      [
        "ĠD",
        "iscard"
      ],
      [
        "an",
        "es"
      ],
      [
        "anes",
        "wal"
      ],
      [
        "ir",
        "st"
      ],
      [
        "Ġp",
        "ay"
      ],
      [
        "ir",
        "it"
      ],
      [
        "ĠZomb",
        "ie"
      ],
      [
        "ĠSp",
        "irit"
      ],
      [
        "ĠP",
        "l"
      ],
      [
        "Ġt",
        "oken"
      ],
      [
        "t",
        "le"
      ],
      [
        "Ġl",
        "and"
      ],
      [
        "ĠE",
        "le"
      ],
      [
        "ĠS",
        "t"
      ],
      [
        "E",
        "R"
      ],
      [
        "O",
        "W"
      ],
      [
        "P",
        "OW"
      ],
      [
        "POW",
        "ER"
      ],
      [
        "el",
        "d"
      ],
      [
        "aneswal",
        "ker"
      ],
      [
        "i",
        "eld"
      ],
      [
        "ĠB",
        "e"
      ],
      [
        "Ġcount",
        "ers"
      ],
      [
        "Ġlif",
        "e"
      ],
      [
        "Ġp",
        "er"
      ],
      [
        "at",
        "tle"
      ],
      [
        "ĠB",
        "G"
      ],
      [
        "ĠFl",
        "ash"
      ],
      [
        "Ġco",
        "mbat"
      ],
      [
        "Ġb",
        "attle"
      ],
      [
        "ĠCo",
        "mbat"
      ],
      [
        "u",
        "s"
      ],
      [
        "f",
        "ield"
      ],
      [
        "Ġbattle",
        "field"
      ],
      [
        "Ġex",
        "ile"
      ],
      [
        "ĠEl",
        "f"
      ],
      [
        "t",
        "urn"
      ],
      [
        "ĠV",
        "igilance"
      ],
      [
        "i",
        "an"
      ],
      [
        "ment",
        "al"
      ],
      [
        "Ġh",
        "as"
      ],
      [
        "ĠEle",
        "mental"
      ],
      [
        "man",
        "ent"
      ],
      [
        "ĠB",
        "R"
      ],
      [
        "ĠT",
        "arget"
      ],
      [
        "on",
        "g"
      ],
      [
        "Ġper",
        "manent"
      ],
      [
        "ĠS",
        "c"
      ],
      [
        "Ġattack",
        "s"
      ],
      [
        "ĠE",
        "x"
      ],
      [
        "ĠD",
        "ies"
      ],
      [
        "ĠR",
        "og"
      ],
      [
        "Ġc",
        "reate"
      ],
      [
        "ĠP",
        "h"
      ],
      [
        "ĠRog",
        "ue"
      ],
      [
        "l",
        "l"
      ],
      [
        "st",
        "ru"
      ],
      [
        "stru",
        "ct"
      ],
      [
        "er",
        "ic"
      ],
      [
        "ĠCl",
        "eric"
      ],
      [
        "Ġin",
        "to"
      ],
      [
        "y",
        "re"
      ],
      [
        "ĠPh",
        "yre"
      ],
      [
        "x",
        "ian"
      ],
      [
        "ĠPhyre",
        "xian"
      ],
      [
        "i",
        "v"
      ],
      [
        "Ġ",
        "-"
      ],
      [
        "i",
        "re"
      ],
      [
        "Ġu",
        "pkeep"
      ],
      [
        "o",
        "t"
      ],
      [
        "Ġm",
        "ore"
      ],
      [
        "Ġth",
        "en"
      ],
      [
        "ve",
        "al"
      ],
      [
        "a",
        "pped"
      ],
      [
        "ĠG",
        "R"
      ],
      [
        "u",
        "mb"
      ],
      [
        "ĠB",
        "U"
      ],
      [
        "ĠP",
        "ut"
      ],
      [
        "umb",
        "er"
      ],
      [
        "Ġu",
        "p"
      ],
      [
        "Ġn",
        "umber"
      ],
      [
        "Ġw",
        "h"
      ],
      [
        "Ġd",
        "o"
      ],
      [
        "ĠA",
        "dd"
      ],
      [
        "ĠA",
        "s"
      ],
      [
        "Ġgain",
        "s"
      ],
      [
        "l",
        "in"
      ],
      [
        "i",
        "ve"
      ],
      [
        "en",
        "ace"
      ],
      [
        "ĠSt",
        "rike"
      ],
      [
        "ĠPl",
        "aneswalker"
      ],
      [
        "el",
        "in"
      ],
      [
        "ĠBe",
        "ast"
      ],
      [
        "elin",
        "k"
      ],
      [
        "ĠI",
        "t"
      ],
      [
        "Ġ",
        "0"
      ],
      [
        "ĠG",
        "U"
      ],
      [
        "b",
        "lin"
      ],
      [
        "ĠGo",
        "blin"
      ],
      [
        "Ġd",
        "ra"
      ],
      [
        "n",
        "ight"
      ],
      [
        "ĠU",
        "n"
      ],
      [
        "ĠK",
        "night"
      ],
      [
        "Ġ",
        "v"
      ],
      [
        "c",
        "om"
      ],
      [
        "p",
        "y"
      ],
      [
        "g",
        "on"
      ],
      [
        "ou",
        "t"
      ],
      [
        "a",
        "ve"
      ],
      [
        "Ġu",
        "n"
      ],
      [
        "o",
        "ther"
      ],
      [
        "ow",
        "er"
      ],
      [
        "ĠF",
        "irst"
      ],
      [
        "Ġ",
        "en"
      ],
      [
        "amp",
        "ire"
      ],
      [
        "ĠV",
        "ampire"
      ],
      [
        "im",
        "e"
      ],
      [
        "il",
        "l"
      ],
      [
        "Ġn",
        "on"
      ],
      [
        "Ġan",
        "other"
      ],
      [
        "o",
        "d"
      ],
      [
        "Ġre",
        "veal"
      ],
      [
        "Ġdra",
        "w"
      ],
      [
        "am",
        "an"
      ],
      [
        "ĠSh",
        "aman"
      ],
      [
        "ĠT",
        "ut"
      ],
      [
        "ĠTut",
        "or"
      ],
      [
        "e",
        "re"
      ],
      [
        "ĠDra",
        "gon"
      ],
      [
        "ĠA",
        "n"
      ],
      [
        "ou",
        "ch"
      ],
      [
        "Ġblock",
        "ed"
      ],
      [
        "at",
        "ht"
      ],
      [
        "atht",
        "ouch"
      ],
      [
        "Ġbe",
        "com"
      ],
      [
        "Ġ",
        "4"
      ],
      [
        "ĠR",
        "U"
      ],
      [
        "e",
        "ar"
      ],
      [
        "ĠM",
        "enace"
      ],
      [
        "l",
        "ing"
      ],
      [
        "Ġthe",
        "ir"
      ],
      [
        "f",
        "ol"
      ],
      [
        "fol",
        "k"
      ],
      [
        "Ġp",
        "ower"
      ],
      [
        "Ġco",
        "lor"
      ],
      [
        "Ġa",
        "dd"
      ],
      [
        "ĠH",
        "or"
      ],
      [
        "ir",
        "d"
      ],
      [
        "ou",
        "l"
      ],
      [
        "t",
        "er"
      ],
      [
        "Ġh",
        "ave"
      ],
      [
        "es",
        "s"
      ],
      [
        "at",
        "ion"
      ],
      [
        "st",
        "ro"
      ],
      [
        "ĠCo",
        "n"
      ],
      [
        "b",
        "il"
      ],
      [
        "Ġt",
        "apped"
      ],
      [
        "it",
        "ion"
      ],
      [
        "r",
        "y"
      ],
      [
        "ĠU",
        "W"
      ],
      [
        "ĠM",
        "er"
      ],
      [
        "ĠEx",
        "ile"
      ],
      [
        "Ġen",
        "chant"
      ],
      [
        "Ġth",
        "ree"
      ],
      [
        "f",
        "end"
      ],
      [
        "ic",
        "ker"
      ],
      [
        "ĠB",
        "ird"
      ],
      [
        "Ġbecom",
        "es"
      ],
      [
        "p",
        "h"
      ],
      [
        "Ġ",
        "less"
      ],
      [
        "d",
        "e"
      ],
      [
        "Ġc",
        "hoose"
      ],
      [
        "Ġl",
        "ong"
      ],
      [
        "ĠLif",
        "elink"
      ],
      [
        "Ġo",
        "ther"
      ],
      [
        "p",
        "e"
      ],
      [
        "a",
        "ur"
      ],
      [
        "o",
        "ok"
      ],
      [
        "Ġadd",
        "ition"
      ],
      [
        "ib",
        "le"
      ],
      [
        "ĠC",
        "hoose"
      ],
      [
        "Ġa",
        "ll"
      ],
      [
        "struct",
        "ible"
      ],
      [
        "de",
        "structible"
      ],
      [
        "ĠC",
        "reate"
      ],
      [
        "ĠG",
        "W"
      ],
      [
        "t",
        "ect"
      ],
      [
        "stro",
        "y"
      ],
      [
        "w",
        "n"
      ],
      [
        "ĠR",
        "W"
      ],
      [
        "Ġst",
        "ep"
      ],
      [
        "Ġb",
        "l"
      ],
      [
        "ĠDe",
        "athtouch"
      ],
      [
        "Ġb",
        "y"
      ],
      [
        "Ġa",
        "bil"
      ],
      [
        "Ġd",
        "ies"
      ],
      [
        "ĠB",
        "W"
      ],
      [
        "Ġs",
        "acrifice"
      ],
      [
        "qu",
        "al"
      ],
      [
        "d",
        "ra"
      ],
      [
        "Ġe",
        "qual"
      ],
      [
        "G",
        "H"
      ],
      [
        "O",
        "U"
      ],
      [
        "S",
        "S"
      ],
      [
        "T",
        "OU"
      ],
      [
        "NE",
        "SS"
      ],
      [
        "GH",
        "NESS"
      ],
      [
        "TOU",
        "GHNESS"
      ],
      [
        "ĠRe",
        "ach"
      ],
      [
        "r",
        "or"
      ],
      [
        "ĠHor",
        "ror"
      ],
      [
        "oul",
        "d"
      ],
      [
        "d",
        "er"
      ],
      [
        "ĠP",
        "ro"
      ],
      [
        "u",
        "l"
      ],
      [
        "y",
        "c"
      ],
      [
        "ear",
        "ch"
      ],
      [
        "Ġon",
        "ly"
      ],
      [
        "Ġcontrol",
        "s"
      ],
      [
        "l",
        "and"
      ],
      [
        "Ġt",
        "ime"
      ],
      [
        "ĠE",
        "ach"
      ],
      [
        "f",
        "f"
      ],
      [
        "ĠRe",
        "turn"
      ],
      [
        "Ġo",
        "wn"
      ],
      [
        "Ġd",
        "iscard"
      ],
      [
        "Ġ",
        "am"
      ],
      [
        "ĠC",
        "at"
      ],
      [
        "Ġs",
        "orcery"
      ],
      [
        "u",
        "n"
      ],
      [
        "Ġf",
        "ace"
      ],
      [
        "ĠD",
        "ru"
      ],
      [
        "ĠDru",
        "id"
      ],
      [
        "a",
        "ble"
      ],
      [
        "Ġre",
        "turn"
      ],
      [
        "Ġaddition",
        "al"
      ],
      [
        "ou",
        "r"
      ],
      [
        "im",
        "ation"
      ],
      [
        "an",
        "imation"
      ],
      [
        "ĠRe",
        "animation"
      ],
      [
        "Ġf",
        "lying"
      ],
      [
        "ge",
        "l"
      ],
      [
        "ĠK",
        "icker"
      ],
      [
        "Ġn",
        "ext"
      ],
      [
        "ĠAn",
        "gel"
      ],
      [
        "ĠMer",
        "folk"
      ],
      [
        "Ġa",
        "re"
      ],
      [
        "ĠS",
        "n"
      ],
      [
        "ĠIn",
        "destructible"
      ],
      [
        "ĠD",
        "ev"
      ],
      [
        "al",
        "l"
      ],
      [
        "Ġw",
        "ould"
      ],
      [
        "Ġh",
        "aste"
      ],
      [
        "ĠF",
        "o"
      ],
      [
        "Ġth",
        "an"
      ],
      [
        "Ġv",
        "al"
      ],
      [
        "re",
        "as"
      ],
      [
        "reas",
        "ure"
      ],
      [
        "yc",
        "ling"
      ],
      [
        "Ġ",
        "le"
      ],
      [
        "ĠT",
        "reasure"
      ],
      [
        "fend",
        "er"
      ],
      [
        "Ġval",
        "ue"
      ],
      [
        "ĠS",
        "pell"
      ],
      [
        "ĠTh",
        "e"
      ],
      [
        "Ġon",
        "to"
      ],
      [
        "p",
        "ro"
      ],
      [
        "m",
        "on"
      ],
      [
        "Ġst",
        "rike"
      ],
      [
        "b",
        "lock"
      ],
      [
        "ĠArt",
        "ific"
      ],
      [
        "ĠArtific",
        "er"
      ],
      [
        "ĠIn",
        "s"
      ],
      [
        "Ġthe",
        "m"
      ],
      [
        "ĠU",
        "nt"
      ],
      [
        "z",
        "i"
      ],
      [
        "Ġs",
        "h"
      ],
      [
        "dra",
        "zi"
      ],
      [
        "ĠEl",
        "drazi"
      ],
      [
        "ic",
        "e"
      ],
      [
        "or",
        "ph"
      ],
      [
        "Ġin",
        "stant"
      ],
      [
        "ĠM",
        "ill"
      ],
      [
        "ĠDe",
        "mon"
      ],
      [
        "Ġco",
        "py"
      ],
      [
        "u",
        "m"
      ],
      [
        "ĠSpell",
        "s"
      ],
      [
        "ĠSc",
        "ry"
      ],
      [
        "ĠDe",
        "fender"
      ],
      [
        "m",
        "o"
      ],
      [
        "tect",
        "ion"
      ],
      [
        "ou",
        "g"
      ],
      [
        "n",
        "ess"
      ],
      [
        "as",
        "s"
      ],
      [
        "ĠIns",
        "ect"
      ],
      [
        "Ġdeal",
        "t"
      ],
      [
        "ĠC",
        "ycling"
      ],
      [
        "oug",
        "h"
      ],
      [
        "er",
        "ate"
      ],
      [
        "it",
        "e"
      ],
      [
        "ex",
        "pro"
      ],
      [
        "expro",
        "of"
      ],
      [
        "ĠUn",
        "block"
      ],
      [
        "ĠUnblock",
        "able"
      ],
      [
        "ĠC",
        "h"
      ],
      [
        "Ġwh",
        "ere"
      ],
      [
        "b",
        "ack"
      ],
      [
        "ĠFo",
        "od"
      ],
      [
        "at",
        "ive"
      ],
      [
        "ĠSc",
        "out"
      ],
      [
        "Ġunt",
        "ap"
      ],
      [
        "ur",
        "ing"
      ],
      [
        "ĠP",
        "ay"
      ],
      [
        "Ġt",
        "y"
      ],
      [
        "Ġam",
        "ong"
      ],
      [
        "ow",
        "n"
      ],
      [
        "ĠEnchant",
        "ed"
      ],
      [
        "a",
        "re"
      ],
      [
        "ou",
        "ble"
      ],
      [
        "ĠA",
        "l"
      ],
      [
        "Ġnon",
        "land"
      ],
      [
        "Ġbl",
        "ack"
      ],
      [
        "r",
        "ou"
      ],
      [
        "Ġf",
        "irst"
      ],
      [
        "i",
        "ant"
      ],
      [
        "Ġown",
        "er"
      ],
      [
        "os",
        "es"
      ],
      [
        "Ġspell",
        "s"
      ],
      [
        "mo",
        "ve"
      ],
      [
        "ĠCon",
        "struct"
      ],
      [
        "ĠDe",
        "stroy"
      ],
      [
        "Ġun",
        "less"
      ],
      [
        "ĠCo",
        "py"
      ],
      [
        "re",
        "en"
      ],
      [
        "Ġwh",
        "ite"
      ],
      [
        "m",
        "p"
      ],
      [
        "in",
        "os"
      ],
      [
        "inos",
        "aur"
      ],
      [
        "Ġex",
        "c"
      ],
      [
        "ĠD",
        "inosaur"
      ],
      [
        "Ġcost",
        "s"
      ],
      [
        "it",
        "ies"
      ],
      [
        "Ġcontrol",
        "l"
      ],
      [
        "ĠG",
        "iant"
      ],
      [
        "Ġenchant",
        "ment"
      ],
      [
        "on",
        "e"
      ],
      [
        "iv",
        "ate"
      ],
      [
        "ĠG",
        "ain"
      ],
      [
        "Ġg",
        "reen"
      ],
      [
        "Ġf",
        "our"
      ],
      [
        "Ġ",
        "5"
      ],
      [
        "Ġabil",
        "ity"
      ],
      [
        "ĠPro",
        "tection"
      ],
      [
        "Ġw",
        "as"
      ],
      [
        "ĠL",
        "ook"
      ],
      [
        "ĠA",
        "ct"
      ],
      [
        "ĠA",
        "ss"
      ],
      [
        "Ġt",
        "okens"
      ],
      [
        "ĠP",
        "ir"
      ],
      [
        "t",
        "ach"
      ],
      [
        "ĠM",
        "on"
      ],
      [
        "h",
        "if"
      ],
      [
        "ĠBG",
        "R"
      ],
      [
        "ĠA",
        "d"
      ],
      [
        "Ġat",
        "tacking"
      ],
      [
        "Ġt",
        "rample"
      ],
      [
        "Ġ",
        "name"
      ],
      [
        "Ġun",
        "der"
      ],
      [
        "ĠF",
        "ree"
      ],
      [
        "Ġre",
        "d"
      ],
      [
        "a",
        "ke"
      ],
      [
        "Ġthe",
        "y"
      ],
      [
        "ĠS",
        "earch"
      ],
      [
        "ĠH",
        "exproof"
      ],
      [
        "Ġpl",
        "aneswalker"
      ],
      [
        "ĠPir",
        "ate"
      ],
[...]
