{
  "version": "1.0",
  "truncation": null,
  "padding": {
    "strategy": "BatchLongest",
    "direction": "Right",
    "pad_to_multiple_of": null,
    "pad_id": 1,
    "pad_type_id": 0,
    "pad_token": "<|pad|>"
  },
  "added_tokens": [
    {
      "id": 0,
      "content": "<|endoftext|>",
      "single_word": false,
      "lstrip": false,
      "rstrip": false,
      "normalized": false,
      "special": true
    },
    {
      "id": 1,
      "content": "<|pad|>",
      "single_word": false,
      "lstrip": false,
      "rstrip": false,
      "normalized": false,
      "special": true
    }
  ],
  "normalizer": {
    "type": "Sequence",
    "normalizers": [
      {
        "type": "NFKC"
      }
    ]
  },
  "pre_tokenizer": {
    "type": "ByteLevel",
    "add_prefix_space": false,
    "trim_offsets": true,
    "use_regex": true
  },
  "post_processor": {
    "type": "ByteLevel",
    "add_prefix_space": true,
    "trim_offsets": false,
    "use_regex": true
  },
  "decoder": {
    "type": "ByteLevel",
    "add_prefix_space": true,
    "trim_offsets": true,
    "use_regex": true
  },
  "model": {
    "type": "BPE",
    "dropout": null,
    "unk_token": null,
    "continuing_subword_prefix": null,
    "end_of_word_suffix": null,
    "fuse_unk": false,
    "byte_fallback": false,
    "ignore_merges": false,
    "vocab": {
      "<|endoftext|>": 0,
      "<|pad|>": 1,
      "'": 2,
      "(": 3,
      ")": 4,
      ",": 5,
      "-": 6,
      ".": 7,
      "/": 8,
      "0": 9,
      "1": 10,
      "2": 11,
      "3": 12,
      "4": 13,
      "5": 14,
      "6": 15,
      "7": 16,
      "8": 17,
      "9": 18,
      ":": 19,
      "<": 20,
      ">": 21,
      "A": 22,
      "B": 23,
      "C": 24,
      "D": 25,
      "E": 26,
      "F": 27,
      "G": 28,
      "H": 29,
      "I": 30,
      "J": 31,
      "K": 32,
      "L": 33,
      "M": 34,
      "N": 35,
      "O": 36,
      "P": 37,
      "Q": 38,
      "R": 39,
      "S": 40,
      "T": 41,
      "U": 42,
      "V": 43,
      "W": 44,
      "X": 45,
      "Y": 46,
      "Z": 47,
      "\\": 48,
      "_": 49,
      "a": 50,
      "b": 51,
      "c": 52,
      "d": 53,
      "e": 54,
      "f": 55,
      "g": 56,
      "h": 57,
      "i": 58,
      "j": 59,
      "k": 60,
      "l": 61,
      "m": 62,
      "n": 63,
      "o": 64,
      "p": 65,
      "q": 66,
      "r": 67,
      "s": 68,
      "t": 69,
      "u": 70,
      "v": 71,
      "w": 72,
      "x": 73,
      "y": 74,
      "z": 75,
      "{": 76,
      "|": 77,
      "}": 78,
      "º": 79,
      "Ã": 80,
      "â": 81,
      "Ċ": 82,
      "č": 83,
      "Ġ": 84,
      "Ģ": 85,
      "Ī": 86,
      "Ĵ": 87,
      "Ķ": 88,
      "Ġ,": 89,
      "Ġ<": 90,
      "en": 91,
      "re": 92,
      "Ġ{": 93,
      "ĠC": 94,
      "te": 95,
      "at": 96,
      "end": 97,
      "of": 98,
      "ĠCo": 99,
      "ure": 100,
      "reat": 101,
      "reature": 102,
      "xt": 103,
      "text": 104,
      "|>": 105,
      "endof": 106,
      "endoftext": 107,
      "<|": 108,
      "čĊ": 109,
      "ME": 110,
      "NA": 111,
      "an": 112,
      "am": 113,
      "or": 114,
      "st": 115,
      "Ġc": 116,
      "Ġt": 117,
      "ĠCreature": 118,
      "ti": 119,
      "ar": 120,
      "ĠI": 121,
      "ame": 122,
      "name": 123,
      "ĠB": 124,
      "er": 125,
      "ou": 126,
      "in": 127,
      "ty": 128,
      "lor": 129,
      "ĠCost": 130,
      "den": 131,
      "ĠColor": 132,
      "tity": 133,
      "dentity": 134,
      "ĠIdentity": 135,
      "EME": 136,
      "HEME": 137,
      "THEME": 138,
      "THEMES": 139,
      "as": 140,
      "ac": 141,
      "AR": 142,
      "ARD": 143,
      "CARD": 144,
      "NAME": 145,
      "ANA": 146,
      "CO": 147,
      "MANA": 148,
      "ST": 149,
      "COST": 150,
      "NE": 151,
      "on": 152,
      "TY": 153,
      "INE": 154,
      "LINE": 155,
      "PE": 156,
      "TYPE": 157,
      "ĠW": 158,
      "Ġth": 159,
      "ed": 160,
      "Ġ.": 161,
      "ĠS": 162,
      "LE": 163,
      "AC": 164,
      "EX": 165,
      "OR": 166,
      "TEX": 167,
      "ACLE": 168,
      "ORACLE": 169,
      "TEXT": 170,
      "ĠA": 171,
      "Ġy": 172,
      "Ġyou": 173,
      "ard": 174,
      "Ġâ": 175,
      "ĠD": 176,
      "ĢĶ": 177,
      "ĠâĢĶ": 178,
      "ĠBas": 179,
      "ĠBased": 180,
      "ge": 181,
      "ĠT": 182,
      "Ġa": 183,
      "ĠE": 184,
      "ĠR": 185,
      "ing": 186,
      "Ġ\\": 187,
      "Ġcreature": 188,
      "ant": 189,
      "ter": 190,
      "ĠG": 191,
      "le": 192,
      "it": 193,
      "ĠL": 194,
      "ent": 195,
      "Ġ1": 196,
      "is": 197,
      "ro": 198,
      "ĠU": 199,
      "if": 200,
      "ra": 201,
      "ĠF": 202,
      "eg": 203,
      "Ġd": 204,
      "and": 205,
      "Ġp": 206,
      "Ġthe": 207,
      "al": 208,
      "ĠH": 209,
      "ch": 210,
      "man": 211,
      "ok": 212,
      "ters": 213,
      "ary": 214,
      "fac": 215,
      "Ġb": 216,
      "ay": 217,
      "ic": 218,
      "hen": 219,
      "tifac": 220,
      "tifact": 221,
      "oken": 222,
      "ment": 223,
      "Ġof": 224,
      "ĠWhen": 225,
      "un": 226,
      "get": 227,
      "ĠAr": 228,
      "Ġcard": 229,
      "Ġs": 230,
      "ll": 231,
      "Ġf": 232,
      "es": 233,
      "ĠEn": 234,
      "Ġto": 235,
      "endary": 236,
      "ĠArtifact": 237,
      "okens": 238,
      "Ġit": 239,
      "ĠLeg": 240,
      "ĠLegendary": 241,
      "ur": 242,
      "ĠFl": 243,
      "chant": 244,
      "Ġl": 245,
      "ĠTokens": 246,
      "uman": 247,
      "Ġyour": 248,
      "ĠHuman": 249,
      "Ġw": 250,
      "ĠN": 251,
      "ĠEnchant": 252,
      "ĠP": 253,
      "Ġon": 254,
      "age": 255,
      "ĠIn": 256,
      "Ġm": 257,
      "amage": 258,
      "ying": 259,
      "Ġ(": 260,
      "tro": 261,
      "ve": 262,
      "arget": 263,
      "ĠEnchantment": 264,
      "Ġe": 265,
      "Ġcon": 266,
      "Ġcontro": 267,
      "Ġ:": 268,
      "ĠFlying": 269,
      "ack": 270,
      "Ġan": 271,
      "Ġen": 272,
      "ery": 273,
      "orc": 274,
      "Ġthis": 275,
      "orcery": 276,
      "ev": 277,
      "pe": 278,
      "Ġcontrol": 279,
      "stant": 280,
      "ut": 281,
      "ice": 282,
      "mb": 283,
      "urn": 284,
      "rif": 285,
      "ast": 286,
      "ĠM": 287,
      "acrif": 288,
      "Ġh": 289,
      "Ġor": 290,
      "ir": 291,
      "ĠSorcery": 292,
      "ĠInstant": 293,
      "ke": 294,
      "Ġtarget": 295,
      "ld": 296,
      "acrifice": 297,
      "Ġg": 298,
      "ĠDra": 299,
      "ever": 300,
      "ain": 301,
      "ĠWhenever": 302,
      "Ġenters": 303,
      "Ġco": 304,
      "pell": 305,
      "tack": 306,
      "ach": 307,
      "ĠCoun": 308,
      "ith": 309,
      "oun": 310,
      "Ġand": 311,
      "Ġmay": 312,
      "ĠAt": 313,
      "ri": 314,
      "ĠCounters": 315,
      "ate": 316,
      "ĠSacrifice": 317,
      "Ġwith": 318,
      "ĠDamage": 319,
      "Ġcast": 320,
      "Ġun": 321,
      "pp": 322,
      "Ġin": 323,
      "Ġspell": 324,
      "Ġturn": 325,
      "Ġpl": 326,
      "Ġat": 327,
      "Ġo": 328,
      "Ġde": 329,
      "Ġcoun": 330,
      "amp": 331,
      "xi": 332,
      "Ġn": 333,
      "ĠDraw": 334,
      "lo": 335,
      "ig": 336,
      "Ġ2": 337,
      "Ġthat": 338,
      "ie": 339,
      "os": 340,
      "rom": 341,
      "Ġfrom": 342,
      "ep": 343,
      "qu": 344,
      "il": 345,
      "Ġplay": 346,
      "ĠY": 347,
      "ĠCard": 348,
      "ĠV": 349,
      "ĠYou": 350,
      "Ġre": 351,
      "Ġplayer": 352,
      "ife": 353,
      "Ġput": 354,
      "Ġ)": 355,
      "ĠTh": 356,
      "ĠRe": 357,
      "Ġend": 358,
      "Ġdeal": 359,
      "ck": 360,
      "ĠDe": 361,
      "Ġcards": 362,
      "keep": 363,
      "pkeep": 364,
      "tacking": 365,
      "iz": 366,
      "Ġeach": 367,
      "Ġdamage": 368,
      "ĠIf": 369,
      "Ġget": 370,
      "mbat": 371,
      "ĠWar": 372,
      "til": 373,
      "th": 374,
      "'s": 375,
      "Ġfor": 376,
      "izard": 377,
      "ker": 378,
      "lock": 379,
      "Ġbe": 380,
      "Ġas": 381,
      "ura": 382,
      "ue": 383,
      "ample": 384,
      "rample": 385,
      "ht": 386,
      "br": 387,
      "ble": 388,
      "'t": 389,
      "ĠK": 390,
      "ho": 391,
      "Ġli": 392,
      "ĠAttacking": 393,
      "Ġlibr": 394,
      "Ġcreatures": 395,
      "ĠAura": 396,
      "Ġlibrary": 397,
      "rior": 398,
      "ĠWarrior": 399,
      "Ġu": 400,
      "Ġuntil": 401,
      "ĠWizard": 402,
      "ĠSp": 403,
      "isc": 404,
      "aste": 405,
      "qui": 406,
      "to": 407,
      "ow": 408,
      "Ġcounter": 409,
      "reate": 410,
      "iscard": 411,
      "ose": 412,
      "xile": 413,
      "Ġcan": 414,
      "inn": 415,
      "ther": 416,
      "ies": 417,
      "ĠLand": 418,
      "ce": 419,
      "onent": 420,
      "pponent": 421,
      "Ġopponent": 422,
      "Ġgain": 423,
      "ap": 424,
      "lin": 425,
      "ĠTrample": 426,
      "dd": 427,
      "id": 428,
      "ĠEqui": 429,
      "Ġdeals": 430,
      "Ġbeg": 431,
      "Ġone": 432,
      "inning": 433,
      "Ġbeginning": 434,
      "Ġman": 435,
      "ru": 436,
      "old": 437,
      "cti": 438,
      "ss": 439,
      "Ġis": 440,
      "ier": 441,
      "Ġgets": 442,
      "rave": 443,
      "Ġattack": 444,
      "oldier": 445,
      "ĠSoldier": 446,
      "Ġhand": 447,
      "yard": 448,
      "Ġgrave": 449,
      "Ġgraveyard": 450,
      "ore": 451,
      "ad": 452,
      "Ġits": 453,
      "Ġar": 454,
      "ĠX": 455,
      "wal": 456,
      "im": 457,
      "Ġartifact": 458,
      "ĠSh": 459,
      "Ġtw": 460,
      "og": 461,
      "Ġ3": 462,
      "ash": 463,
      "Ġif": 464,
      "ER": 465,
      "OW": 466,
      "POW": 467,
      "POWER": 468,
      "Ġmana": 469,
      "pped": 470,
      "Ġtwo": 471,
      "ĠThis": 472,
      "Ġtop": 473,
      "ĠHaste": 474,
      "ĠEquip": 475,
      "Ġblock": 476,
      "Ġlife": 477,
      "ĠGo": 478,
      "ĠO": 479,
      "ĠLif": 480,
      "egain": 481,
      "ĠLifegain": 482,
      "Ġany": 483,
      "ĠCl": 484,
      "Ġcost": 485,
      "ance": 486,
      "om": 487,
      "rike": 488,
      "ĠUpkeep": 489,
      "hoose": 490,
      "lf": 491,
      "igil": 492,
      "igilance": 493,
      "ĠZ": 494,
      "less": 495,
      "ĠUn": 496,
      "ree": 497,
      "iti": 498,
      "omb": 499,
      "ĠZomb": 500,
      "ĠDiscard": 501,
      "ĠEquipment": 502,
      "Ġpay": 503,
      "ight": 504,
      "anes": 505,
      "aneswal": 506,
      "irst": 507,
      "tle": 508,
      "Ġtoken": 509,
      "aneswalker": 510,
      "irit": 511,
      "ĠZombie": 512,
      "Ġland": 513,
      "ĠSpirit": 514,
      "ĠPl": 515,
      "ct": 516,
      "ield": 517,
      "ĠEle": 518,
      "ion": 519,
      "Ġper": 520,
      "Ġcounters": 521,
      "attle": 522,
      "ĠBe": 523,
      "Ġbattle": 524,
      "ĠBG": 525,
      "ĠFlash": 526,
      "Ġcombat": 527,
      "field": 528,
      "Ġbattlefield": 529,
      "us": 530,
      "Ġcreate": 531,
      "ace": 532,
      "Ġexile": 533,
      "ĠCombat": 534,
      "manent": 535,
      "turn": 536,
      "Ġhas": 537,
      "Ġpermanent": 538,
      "ĠElf": 539,
      "ong": 540,
      "ĠVigilance": 541,
      "ĠSt": 542,
      "mental": 543,
      "ĠElemental": 544,
      "ĠTarget": 545,
      "Ġattacks": 546,
      "ĠSc": 547,
      "ĠBR": 548,
      "ĠDies": 549,
      "ĠRog": 550,
      "ĠPh": 551,
      "ĠRogue": 552,
      "Ġinto": 553,
      "stru": 554,
      "Ġ-": 555,
      "ol": 556,
      "eric": 557,
      "ĠCleric": 558,
      "ĠCon": 559,
      "yre": 560,
      "ĠPhyre": 561,
      "xian": 562,
      "ĠPhyrexian": 563,
      "Ġupkeep": 564,
      "Ġthen": 565,
      "Ġnon": 566,
      "Ġmore": 567,
      "veal": 568,
      "apped": 569,
      "umb": 570,
      "umber": 571,
      "ĠPut": 572,
      "Ġnumber": 573,
      "ĠBU": 574,
      "ted": 575,
      "Ġwh": 576,
      "Ġup": 577,
      "ĠGR": 578,
      "ire": 579,
      "ĠAdd": 580,
      "Ġdo": 581,
      "ĠLife": 582,
      "ear": 583,
      "Ġgains": 584,
      "ĠAs": 585,
      "Ġ0": 586,
      "GH": 587,
      "OU": 588,
      "SS": 589,
      "TOU": 590,
      "NESS": 591,
      "GHNESS": 592,
      "TOUGHNESS": 593,
      "enace": 594,
      "ĠPlaneswalker": 595,
      "ĠIt": 596,
      "Ġdra": 597,
      "ĠBeast": 598,
      "ĠStrike": 599,
      "ling": 600,
      "link": 601,
      "blin": 602,
      "ĠGoblin": 603,
      "ower": 604,
      "Ġv": 605,
      "Ġ4": 606,
      "com": 607,
      "ĠGU": 608,
      "ave": 609,
      "py": 610,
      "other": 611,
      "gon": 612,
      "out": 613,
      "night": 614,
      "ĠKnight": 615,
      "ĠFirst": 616,
      "ampire": 617,
      "ly": 618,
      "ĠVampire": 619,
      "Ġdraw": 620,
      "Ġanother": 621,
      "ill": 622,
      "Ġreveal": 623,
      "ime": 624,
      "ĠAn": 625,
      "od": 626,
      "Ġblocked": 627,
      "aman": 628,
      "ĠShaman": 629,
      "ĠDragon": 630,
      "Ġbecom": 631,
      "ouch": 632,
      "ĠTut": 633,
      "ĠTutor": 634,
      "se": 635,
      "Ġpower": 636,
      "Ġtheir": 637,
      "atht": 638,
      "athtouch": 639,
      "Ġcolor": 640,
      "ĠMenace": 641,
      "fol": 642,
      "folk": 643,
      "ĠRU": 644,
      "Ġfl": 645,
      "Ġadd": 646,
      "chan": 647,
      "stro": 648,
      "ess": 649,
      "Ġhave": 650,
      "ird": 651,
      "ĠHor": 652,
      "Ġst": 653,
      "bil": 654,
      "ĠPro": 655,
      "Ġtapped": 656,
      "ation": 657,
      "ition": 658,
      "ĠMer": 659,
      "ry": 660,
      "ĠUW": 661,
      "ĠExile": 662,
      "Ġthree": 663,
      "Ġbecomes": 664,
      "fend": 665,
      "ive": 666,
      "icker": 667,
      "ph": 668,
      "ĠBird": 669,
      "Ġless": 670,
      "chanted": 671,
      "Ġother": 672,
      "Ġlong": 673,
      "de": 674,
      "Ġchoose": 675,
      "aur": 676,
      "stroy": 677,
      "ĠLifelink": 678,
      "Ġaddition": 679,
      "Ġall": 680,
      "ers": 681,
      "ĠChoose": 682,
      "ook": 683,
      "ĠCreate": 684,
      "wn": 685,
      "ot": 686,
      "Ġbl": 687,
      "ctible": 688,
      "structible": 689,
      "destructible": 690,
      "tecti": 691,
      "tep": 692,
      "Ġstep": 693,
      "ĠGW": 694,
      "ity": 695,
      "Ġby": 696,
      "ĠRW": 697,
      "xp": 698,
      "Ġabil": 699,
      "ĠDeathtouch": 700,
      "Ġne": 701,
      "qual": 702,
      "Ġsacrifice": 703,
      "Ġequal": 704,
      "Ġdies": 705,
      "Ġunt": 706,
      "ould": 707,
      "ĠBW": 708,
      "ere": 709,
      "ror": 710,
      "Ġonly": 711,
      "ĠReach": 712,
      "ĠHorror": 713,
      "Ġcontrols": 714,
      "yc": 715,
      "ff": 716,
      "earch": 717,
      "Ġtime": 718,
      "Ġown": 719,
      "land": 720,
      "ĠEach": 721,
      "ul": 722,
      "Ġdiscard": 723,
      "ĠReturn": 724,
      "Ġam": 725,
      "Ġsorcery": 726,
      "Ġfac": 727,
      "Ġgre": 728,
      "ĠCat": 729,
      "Ġface": 730,
      "ĠEld": 731,
      "vate": 732,
      "Ġflying": 733,
      "Ġreturn": 734,
      "Ġnext": 735,
      "our": 736,
      "Ġadditional": 737,
      "ĠDru": 738,
      "ĠDruid": 739,
      "able": 740,
      "Ġ<|": 741,
      "gel": 742,
      "ĠMerfolk": 743,
      "imation": 744,
      "animation": 745,
      "ĠReanimation": 746,
      "ĠAngel": 747,
      "ĠKicker": 748,
      "ĠSn": 749,
      "Ġwhi": 750,
      "Ġwould": 751,
      "der": 752,
      "Ġare": 753,
      "Ġval": 754,
      "all": 755,
      "Ġhaste": 756,
      "ĠDev": 757,
      "Ġthan": 758,
      "ĠIndestructible": 759,
      "Ġvalue": 760,
      "reas": 761,
      "Ġle": 762,
      "ycling": 763,
      "reasure": 764,
      "ĠTreasure": 765,
      "ĠFo": 766,
      "fender": 767,
      "Ġonto": 768,
      "ĠThe": 769,
      "tif": 770,
      "Ġstrike": 771,
      "Ġsh": 772,
      "ĠSpell": 773,
      "mon": 774,
      "Ġthem": 775,
      "tific": 776,
      "erate": 777,
      "block": 778,
      "ĠArtific": 779,
      "ĠArtificer": 780,
      "zi": 781,
      "razi": 782,
      "ĠEldrazi": 783,
      "Ġinstant": 784,
      "Ġcopy": 785,
      "orph": 786,
      "Ġex": 787,
      "iv": 788,
      "ĠDemon": 789,
      "mo": 790,
      "Ġdealt": 791,
      "oug": 792,
      "ness": 793,
      "ĠMill": 794,
      "ĠSpells": 795,
      "um": 796,
      "tection": 797,
      "ĠScry": 798,
      "ĠDefender": 799,
      "ough": 800,
      "ass": 801,
      "ĠCycling": 802,
      "ĠInse": 803,
      "ĠInsect": 804,
      "Ġenchant": 805,
      "exp": 806,
      "roof": 807,
      "exproof": 808,
      "Ġwhere": 809,
      "ĠCh": 810,
      "ĠUnblock": 811,
      "back": 812,
      "ĠUnblockable": 813,
      "Ġuntap": 814,
      "ative": 815,
      "ĠScout": 816,
      "mp": 817,
      "Ġty": 818,
      "ĠFood": 819,
      "uring": 820,
      "Ġamong": 821,
      "ĠPay": 822,
      "own": 823,
      "ĠEnchanted": 824,
      "Ġblack": 825,
      "ouble": 826,
      "Ġ5": 827,
      "are": 828,
      "Ġnonland": 829,
      "Ġfirst": 830,
      "Ġowner": 831,
      "oses": 832,
      "ĠPi": 833,
      "Ġspells": 834,
      "iant": 835,
      "move": 836,
      "ĠDestroy": 837,
      "Ġplaneswalker": 838,
      "Ġunless": 839,
      "Ġwhite": 840,
      "struct": 841,
      "ĠConstruct": 842,
      "Ġcontroll": 843,
      "red": 844,
      "Ġexc": 845,
      "inos": 846,
      "inosaur": 847,
      "Ġenchantment": 848,
      "ĠDinosaur": 849,
      "ities": 850,
      "ĠCopy": 851,
      "Ġcosts": 852,
      "one": 853,
      "ĠGiant": 854,
      "ount": 855,
      "Ġfour": 856,
      "Ġgreen": 857,
      "Ġability": 858,
      "rate": 859,
      "ĠGain": 860,
      "Ġwas": 861,
      "ĠActi": 862,
      "ĠActivate": 863,
      "Ġtokens": 864,
      "ĠProtection": 865,
      "tach": 866,
      "ĠAss": 867,
      "ĠLook": 868,
      "Ġname": 869,
      "Ġattacking": 870,
      "Ġtrample": 871,
      "ĠPirate": 872,
      "Ġunder": 873,
      "Ġred": 874,
      "ĠFree": 875,
      "ĠMon": 876,
      "ĠBGR": 877,
      "Ġthey": 878,
      "ste": 879,
      "hif": 880,
      "lem": 881,
      "ĠAd": 882,
      "ĠSearch": 883,
      "ake": 884,
      "ĠDevo": 885,
      "Ġch": 886,
      "ĠHexproof": 887,
      "ĠBo": 888,
      "ĠRat": 889,
      "ĠTurn": 890,
      "Ġbas": 891,
      "Ġcontroller": 892,
      "ĠUntil": 893,
      "enerate": 894,
      "Ġr": 895,
      "Ġtap": 896,
      "Ġway": 897,
      "Ġduring": 898,
      "ĠMorph": 899,
      "el": 900,
      "uff": 901,
      "av": 902,
      "ĠEquipped": 903,
      "Ġwithout": 904,
      "ept": 905,
      "ĠWarlock": 906,
      "Ġno": 907,
      "ĠAll": 908,
      "ĠWard": 909,
      "uffle": 910,
      "Ġloses": 911,
      "Ġexcept": 912,
      "Ġcho": 913,
      "ĪĴ": 914,
      "ĠâĪĴ": 915,
      "ĠMut": 916,
      "ĠFa": 917,
      "ĠCounterspell": 918,
      "ĠNo": 919,
      "ĠPar": 920,
      "assin": 921,
      "ĠAssassin": 922,
      "ĠVe": 923,
      "erie": 924,
      "ĠDrain": 925,
      "Ġdown": 926,
      "pend": 927,
      "Ġtough": 928,
      "Ġtoughness": 929,
      "trol": 930,
      "ĠControl": 931,
      "apes": 932,
      "ĠFore": 933,
      "ĠLizard": 934,
      "ĠDouble": 935,
      "walk": 936,
      "ĠSnake": 937,
      "ĠFlashback": 938,
      "ĠSur": 939,
      "acti": 940,
      "hic": 941,
      "hicle": 942,
      "ĠShapes": 943,
      "ĠShapeshif": 944,
      "ĠShapeshifter": 945,
      "ĠVehicle": 946,
      "Ġshuffle": 947,
      "Ġlook": 948,
      "ĠCreatures": 949,
      "TK": 950,
      "ĠReg": 951,
      "stead": 952,
      "Ġdestroy": 953,
      "ĠNoble": 954,
      "vok": 955,
      "Ġinstead": 956,
      "voke": 957,
      "ĠRegenerate": 958,
      "Ġenchanted": 959,
      "inj": 960,
      "vis": 961,
      "ĠGolem": 962,
      "Ġabilities": 963,
      "hin": 964,
      "ĠNinj": 965,
      "ĠOr": 966,
      "veil": 967,
      "ĠRo": 968,
      "ĠThen": 969,
      "ĠFor": 970,
      "ĠFaerie": 971,
      "Ġthose": 972,
      "ip": 973,
      "ĠOrc": 974,
      "ĠMin": 975,
      "Ġdon": 976,
      "ĠTap": 977,
      "rou": 978,
      "led": 979,
      "vat": 980,
      "tal": 981,
      "Ġtype": 982,
      "ĠOther": 983,
      "ĠUp": 984,
      "oy": 985,
      "Ġsearch": 986,
      "ĠSl": 987,
      "Ġrest": 988,
      "Ġpermanents": 989,
      "uspend": 990,
      "ĠWall": 991,
      "arge": 992,
      "ĠDevoid": 993,
      "Ġbot": 994,
      "tom": 995,
      "Ġbottom": 996,
      "acrific": 997,
      "Ġsacrific": 998,
      "vatar": 999,
      "ĠAvatar": 1000,
      "Ġexi": 1001,
      "Ġmill": 1002,
      "ade": 1003,
      "ĠClue": 1004,
      "anding": 1005,
      "stig": 1006,
      "rev": 1007,
      "Ġattach": 1008,
      "vestig": 1009,
      "vestigate": 1010,
      "ater": 1011,
      "erker": 1012,
      "ĠAl": 1013,
      "ĠAdvis": 1014,
      "ĠAdvisor": 1015,
      "ver": 1016,
      "ĠBers": 1017,
      "ĠBerserker": 1018,
      "ist": 1019,
      ">'": 1020,
      "ĠMount": 1021,
      "fall": 1022,
      "ĠLandfall": 1023,
      "gy": 1024,
      "ergy": 1025,
      "Ġblue": 1026,
      "Ġexiled": 1027,
      "ise": 1028,
      "ec": 1029,
      "Ġvigilance": 1030,
      "yr": 1031,
      "arf": 1032,
      "ĠBRU": 1033,
      "Ġopponents": 1034,
      "Ġacti": 1035,
      "ĠSuspend": 1036,
      "ulative": 1037,
      "umulative": 1038,
      "ĠDw": 1039,
      "ken": 1040,
      "ond": 1041,
      "ĠSnow": 1042,
      "Ġchoice": 1043,
      "res": 1044,
      "ĠCumulative": 1045,
      "ĠSliv": 1046,
      "ft": 1047,
      "ĠDog": 1048,
      "ner": 1049,
      "tner": 1050,
      "ĠJ": 1051,
      "ĠTo": 1052,
      "ĠDwarf": 1053,
      "olf": 1054,
      "Ġdoes": 1055,
      "Ġbasic": 1056,
      "revent": 1057,
      "ison": 1058,
      "oison": 1059,
      "ĠTime": 1060,
      "ound": 1061,
      "Ġlands": 1062,
      "fending": 1063,
      "ect": 1064,
      "ĠPartner": 1065,
      "gre": 1066,
      "ĠOgre": 1067,
      "ish": 1068,
      "Ġgreater": 1069,
      "Ġdefending": 1070,
      "ĠNight": 1071,
      "Ġfive": 1072,
      "ĠMutant": 1073,
      "ane": 1074,
      "ĠArc": 1075,
      "ĠEx": 1076,
      "Ġleg": 1077,
      "Ġremove": 1078,
      "ĠDetecti": 1079,
      "ĠArch": 1080,
      "ĠArcane": 1081,
      "ĠSurveil": 1082,
      "ĠDetective": 1083,
      "ĠFog": 1084,
      "ĠWolf": 1085,
      "pent": 1086,
      "ĠConvoke": 1087,
      "rew": 1088,
      "ĠThey": 1089,
      "ĠGRW": 1090,
      "Ġactivate": 1091,
      "Ġcolorless": 1092,
      "ĠSliver": 1093,
      "mm": 1094,
      "tin": 1095,
      "Ġuntapped": 1096,
      "ls": 1097,
      "Ġlifelink": 1098,
      "UW": 1099,
      "Ġlose": 1100,
      "Ġpaying": 1101,
      "Ġdoesn": 1102,
      "Ġpro": 1103,
      "mare": 1104,
      "ĠNightmare": 1105,
      "ix": 1106,
      "co": 1107,
      "Ġnamed": 1108,
      "ĠIll": 1109,
      "usion": 1110,
      "ĠIllusion": 1111,
      "ert": 1112,
      "ĠReb": 1113,
      "aid": 1114,
      "her": 1115,
      "ĠRemove": 1116,
      "ains": 1117,
      "ting": 1118,
      "alty": 1119,
      "tion": 1120,
      "ĠFace": 1121,
      "token": 1122,
      "ĠBUW": 1123,
      "ĠImp": 1124,
      "tern": 1125,
      "hold": 1126,
      "Ġlegendary": 1127,
      "Ġnontoken": 1128,
      "ĠDel": 1129,
      "ĠTree": 1130,
      "ĠTreefolk": 1131,
      "ĠGUW": 1132,
      "ĠTurned": 1133,
      "ger": 1134,
      "ĠMonk": 1135,
      "ĠReveal": 1136,
      "zen": 1137,
      "ĠCiti": 1138,
      "ĠCitizen": 1139,
      "Ġdiscards": 1140,
      "lif": 1141,
      "otaur": 1142,
      "ĠMinotaur": 1143,
      "ĠLandwalk": 1144,
      "Ġk": 1145,
      "cen": 1146,
      "Ġph": 1147,
      "Ġthere": 1148,
      "creature": 1149,
      "ĠWur": 1150,
      "ĠWurm": 1151,
      "andom": 1152,
      "Ġrandom": 1153,
      "ĠMercen": 1154,
      "Ġartifacts": 1155,
      "ĠIs": 1156,
      "ĠCrew": 1157,
      "Ġmany": 1158,
      "ick": 1159,
      "osen": 1160,
      "Ġ6": 1161,
      "Ġchosen": 1162,
      "Ġequi": 1163,
      "ipe": 1164,
      "wipe": 1165,
      "ardwipe": 1166,
      "ĠBoardwipe": 1167,
      "Ġphas": 1168,
      "orm": 1169,
      "ĠBack": 1170,
      "ĠIsland": 1171,
      "roud": 1172,
      "ĠSke": 1173,
      "ĠForest": 1174,
      "ĠAlly": 1175,
      "ĠPlant": 1176,
      "ĠSw": 1177,
      "Ġnoncreature": 1178,
      "ĠSphin": 1179,
      "ĠSphinx": 1180,
      "ĠBGRUW": 1181,
      "ĠSpid": 1182,
      "let": 1183,
      "leton": 1184,
      "xplo": 1185,
      "Ġreveals": 1186,
      "ien": 1187,
      "ĠCas": 1188,
      "ĠSkeleton": 1189,
      "ĠArm": 1190,
      "Ġequipped": 1191,
      "ĠSpider": 1192,
      "Ġtargets": 1193,
      "ĠMercenary": 1194,
      "ĠArcher": 1195,
      "ĠDes": 1196,
      "ĠChan": 1197,
      "ub": 1198,
      "ĠThres": 1199,
      "ĠThreshold": 1200,
      "ĠSam": 1201,
      "pes": 1202,
      "stow": 1203,
      "ĠPrevent": 1204,
      "earth": 1205,
      "Ġpays": 1206,
      "Ġtypes": 1207,
      "ĠSqu": 1208,
      "roll": 1209,
      "ĠUnt": 1210,
      "lood": 1211,
      "Ġblocks": 1212,
      "ĠInvestigate": 1213,
      "ĠUntap": 1214,
      "ifest": 1215,
      "urai": 1216,
      "ĠSamurai": 1217,
      "ĠInc": 1218,
      "liferate": 1219,
      "ĠThat": 1220,
      "ĠNinja": 1221,
      "ĠCounter": 1222,
      "Ġsacrifices": 1223,
      "Ġtotal": 1224,
      "ĠSwamp": 1225,
      "ĠUnearth": 1226,
      "ĠHy": 1227,
      "ind": 1228,
      "ĠYour": 1229,
      "Ġindestructible": 1230,
      "ĠEnergy": 1231,
      "ĠProw": 1232,
      "adow": 1233,
      "iri": 1234,
      "Ġsc": 1235,
      "ights": 1236,
      "dra": 1237,
      "ĠAny": 1238,
      "fling": 1239,
      "ĠMan": 1240,
      "ĠAltern": 1241,
      "ĠAlternative": 1242,
      "ĠSer": 1243,
      "ĠHydra": 1244,
      "rone": 1245,
      "lot": 1246,
      "ĠKor": 1247,
      "Ġorder": 1248,
      "Ġable": 1249,
      "Ġattached": 1250,
      "ĠBlood": 1251,
      "ĠPoison": 1252,
      "adness": 1253,
      "mmand": 1254,
      "ĠDrake": 1255,
      "op": 1256,
      "ile": 1257,
      "ung": 1258,
      "icked": 1259,
      "Ġdeathtouch": 1260,
      "cade": 1261,
      "ĠArmy": 1262,
      "ungus": 1263,
      "ĠFear": 1264,
      "Ġblocking": 1265,
      "aves": 1266,
      "ze": 1267,
      "ĠFungus": 1268,
      "even": 1269,
      "oyalty": 1270,
      "ĠDeliri": 1271,
      "ĠDelirium": 1272,
      "Ġleaves": 1273,
      "Ġscry": 1274,
      "ĠFro": 1275,
      "gu": 1276,
      "ide": 1277,
      "ero": 1278,
      "cho": 1279,
      "Ġisn": 1280,
      "econd": 1281,
      "raft": 1282,
      "Ġseven": 1283,
      "xic": 1284,
      "Ġmenace": 1285,
      "ĠGod": 1286,
      "Ġwhen": 1287,
      "ulti": 1288,
      "ĠFrog": 1289,
      "phant": 1290,
      "ĠCent": 1291,
      "ĠOo": 1292,
      "ĠRoll": 1293,
      "ĠCentaur": 1294,
      "ĠDevil": 1295,
      "ĠElephant": 1296,
      "Ġamount": 1297,
      "ĠOoze": 1298,
      "Ġbanding": 1299,
      "ĠHorse": 1300,
      "ĠShroud": 1301,
      "ĠRUW": 1302,
      "irre": 1303,
      "ĠSquirre": 1304,
      "Ġwhile": 1305,
      "Ġals": 1306,
      "Ġalso": 1307,
      "uts": 1308,
      "ĠProliferate": 1309,
      "cend": 1310,
      "Ġnot": 1311,
      "Ġpaid": 1312,
      "tell": 1313,
      "ĠProwess": 1314,
      "sp": 1315,
      "utsu": 1316,
      "Ġhad": 1317,
      "ĠBat": 1318,
      "ither": 1319,
      "ĠRebel": 1320,
      "Ġage": 1321,
      "gr": 1322,
      "isgu": 1323,
      "isguise": 1324,
      "ĠDrone": 1325,
      "ĠSou": 1326,
      "Ġbo": 1327,
      "ĠSquirrel": 1328,
      "ĠMadness": 1329,
      "ine": 1330,
      "arg": 1331,
      "ator": 1332,
      "ĠNinjutsu": 1333,
      "ĠCascade": 1334,
      "up": 1335,
      "ell": 1336,
      "ĠBestow": 1337,
      "ĠLe": 1338,
      "ĠIncub": 1339,
      "ĠPlains": 1340,
      "Ġgame": 1341,
      "ĠDesert": 1342,
      "edal": 1343,
      "ĠVedal": 1344,
      "ĠVedalken": 1345,
      "Ġmu": 1346,
      "Ġkicked": 1347,
      "Ġsame": 1348,
      "row": 1349,
      "ift": 1350,
      "ĠDom": 1351,
      "ĠTe": 1352,
      "ĠSti": 1353,
      "Ġthough": 1354,
      "ally": 1355,
      "ĠSpl": 1356,
      "Ġsour": 1357,
      "fect": 1358,
      "ĠShadow": 1359,
      "ĠBanding": 1360,
      "Ġcommand": 1361,
      "Ġbase": 1362,
      "jinn": 1363,
      "ĠDjinn": 1364,
      "ĠEcho": 1365,
      "Ġcasts": 1366,
      "ckers": 1367,
      "ĠStickers": 1368,
      "ĠBackgr": 1369,
      "ĠBackground": 1370,
      "ĠRhin": 1371,
      "ĠRhino": 1372,
      "Ġout": 1373,
      "alted": 1374,
      "tered": 1375,
      "Ġcharge": 1376,
      "Ġplayers": 1377,
      "ĠGoad": 1378,
      "Ġspent": 1379,
      "Ġsecond": 1380,
      "ĠSap": 1381,
      "roling": 1382,
      "ĠSaproling": 1383,
      "ĠCharge": 1384,
      "ĠFights": 1385,
      "kin": 1386,
      "Ġdouble": 1387,
      "ithkin": 1388,
      "ĠKithkin": 1389,
      "Ġhexproof": 1390,
      "sh": 1391,
      "ĠMountain": 1392,
      "ĠToxic": 1393,
      "ĠActivated": 1394,
      "Ġenter": 1395,
      "ĠForetell": 1396,
      "tes": 1397,
      "sc": 1398,
      "ĠDisguise": 1399,
      "ĠBGU": 1400,
      "ĠDomain": 1401,
      "Ġonce": 1402,
      "ĠHal": 1403,
      "vel": 1404,
      "ĠExplo": 1405,
      "ĠChange": 1406,
      "aus": 1407,
      "Ġcaus": 1408,
      "ĠManifest": 1409,
      "ĠHalfling": 1410,
      "Ġlast": 1411,
      "aw": 1412,
      "ĠHero": 1413,
      "fer": 1414,
      "rig": 1415,
      "ĠFish": 1416,
      "ĠExalted": 1417,
      "indred": 1418,
      "ĠMe": 1419,
      "ĠAff": 1420,
      "ĠMulti": 1421,
      "ord": 1422,
      "inity": 1423,
      "craft": 1424,
      "ag": 1425,
      "ĠInfect": 1426,
      "ĠKindred": 1427,
      "ian": 1428,
      "Ġsource": 1429,
      "ĠMutate": 1430,
      "ĠThop": 1431,
      "ĠRan": 1432,
      "Ġflash": 1433,
      "Ġplus": 1434,
      "fore": 1435,
      "ather": 1436,
      "ĠAm": 1437,
      "ied": 1438,
      "mer": 1439,
      "tu": 1440,
      "Ġcould": 1441,
      "Ġdraws": 1442,
      "Ġprotection": 1443,
      "mid": 1444,
      "lored": 1445,
      "Ġboth": 1446,
      "Ġmills": 1447,
      "ĠRanger": 1448,
      "Ġsix": 1449,
      "cto": 1450,
      "pus": 1451,
      "ĠOcto": 1452,
      "ĠOctopus": 1453,
      "ous": 1454,
      "ĠGRU": 1455,
      "ĠThopter": 1456,
      "Ġward": 1457,
      "ĠElder": 1458,
      "ĠBRW": 1459,
      "Ġrevealed": 1460,
      "Ġreach": 1461,
      "ran": 1462,
      "ĠBear": 1463,
      "ĠPe": 1464,
      "ĠPlot": 1465,
      "ĠCur": 1466,
      "ĠAmass": 1467,
      "core": 1468,
      "ĠDuring": 1469,
      "king": 1470,
      "icate": 1471,
      "Ġphase": 1472,
      "Ġbefore": 1473,
      "ĠToken": 1474,
      "ĠCast": 1475,
      "Ġtrig": 1476,
      "petu": 1477,
      "colored": 1478,
      "ĠAttach": 1479,
      "ĠAbil": 1480,
      "elp": 1481,
      "ĠAbilities": 1482,
      "Ġhelp": 1483,
      "ĠTroll": 1484,
      "amorph": 1485,
      "egamorph": 1486,
      "ĠDo": 1487,
      "Ġmon": 1488,
      "ts": 1489,
      "tr": 1490,
      "petually": 1491,
      "rage": 1492,
      "ffect": 1493,
      "Ġev": 1494,
      "ĠBoar": 1495,
      "ĠEnrage": 1496,
      "Ġperpetually": 1497,
      "anking": 1498,
      "coun": 1499,
      "terable": 1500,
      "ĠUncoun": 1501,
      "ĠUncounterable": 1502,
      "sity": 1503,
      "ost": 1504,
      "ĠPho": 1505,
      "orn": 1506,
      "arch": 1507,
      "Ġrather": 1508,
      "Ġmuch": 1509,
      "geon": 1510,
      "ungeon": 1511,
      "ĠFlip": 1512,
      "ĠDice": 1513,
      "ĠEsc": 1514,
      "enix": 1515,
      "ize": 1516,
      "ĠPhoenix": 1517,
      "anid": 1518,
      "ĠTyr": 1519,
      "ĠTyranid": 1520,
      "ĠDry": 1521,
      "ĠDryad": 1522,
      "ĠEl": 1523,
      "form": 1524,
      "ĠChangeling": 1525,
      "'ve": 1526,
      "ab": 1527,
      "ĠSpe": 1528,
      "ĠAlien": 1529,
      "ired": 1530,
      "star": 1531,
      "Ġchooses": 1532,
      "ĠSerpent": 1533,
      "ape": 1534,
      "Ġsur": 1535,
      "Ġres": 1536,
      "ship": 1537,
      "ĠLord": 1538,
      "ves": 1539,
      "ĠEv": 1540,
      "Ġeffect": 1541,
      "ĠDevotion": 1542,
      "ĠBu": 1543,
      "Ġputs": 1544,
      "Ġ7": 1545,
      "rans": 1546,
      "ĠBGW": 1547,
      "fter": 1548,
      "Ġbecome": 1549,
      "ĠBuy": 1550,
      "ĠAffinity": 1551,
      "ĠHell": 1552,
      "yri": 1553,
      "aven": 1554,
      "ath": 1555,
      "rab": 1556,
      "int": 1557,
      "ĠBuyback": 1558,
      "Ġmut": 1559,
      "Ġmutate": 1560,
      "Ġenergy": 1561,
      "jure": 1562,
      "timid": 1563,
      "ite": 1564,
      "ee": 1565,
      "ort": 1566,
      "Ġexiles": 1567,
      "me": 1568,
      "yriad": 1569,
      "ĠLevel": 1570,
      "ĠCrab": 1571,
      "Ġshare": 1572,
      "timidate": 1573,
      "bit": 1574,
      "arting": 1575,
      "ĠBl": 1576,
      "Ġcasting": 1577,
      "ĠGift": 1578,
      "Ġinvestigate": 1579,
      "oon": 1580,
      "'re": 1581,
      "isco": 1582,
      "ĠRab": 1583,
      "ĠRabbit": 1584,
      "ĠMyr": 1585,
      "ĠMegamorph": 1586,
      "Ġwho": 1587,
      "ster": 1588,
      "Ġband": 1589,
      "ĠBard": 1590,
      "ĠFox": 1591,
      "Ġleast": 1592,
      "10": 1593,
      "Ġdiv": 1594,
      "ĠOff": 1595,
      "Ġwin": 1596,
      "ĠPower": 1597,
      "lle": 1598,
      "acle": 1599,
      "fin": 1600,
      "hap": 1601,
      "ĠSpellshap": 1602,
      "ĠSpellshaper": 1603,
      "ĠSpend": 1604,
      "ĠRing": 1605,
      "enown": 1606,
      "ĠPlay": 1607,
      "ved": 1608,
      "Ġattacked": 1609,
      "here": 1610,
      "ĠGn": 1611,
      "wise": 1612,
      "ĠWh": 1613,
      "ĠSoul": 1614,
      "Ġrem": 1615,
      "ĠKra": 1616,
      "Ġsacrificed": 1617,
      "Ġmod": 1618,
      "ctor": 1619,
      "Ġnew": 1620,
      "uest": 1621,
      "Ġsurveil": 1622,
      "ĠOtherwise": 1623,
      "iffer": 1624,
      "ĠTra": 1625,
      "ĠFlicker": 1626,
      "crow": 1627,
      "ĠScare": 1628,
      "ĠScarecrow": 1629,
      "asant": 1630,
      "ĠPeasant": 1631,
      "strosity": 1632,
      "ĠMonstrosity": 1633,
      "Ġdiffer": 1634,
      "ĠTapped": 1635,
      "Ġcountered": 1636,
      "ĠCurse": 1637,
      "ĠDoctor": 1638,
      "ĠKraken": 1639,
      "Ġactivated": 1640,
      "ute": 1641,
      "Ġpoison": 1642,
      "ĠBecom": 1643,
      "ĠBecomes": 1644,
      "ĠCoin": 1645,
      "iscover": 1646,
      "stone": 1647,
      "bot": 1648,
      "ĠRobot": 1649,
      "ĠKav": 1650,
      "ĠKavu": 1651,
      "Ġflip": 1652,
      "Ġturned": 1653,
      "ush": 1654,
      "ĠRather": 1655,
      "Ġ10": 1656,
      "ring": 1657,
      "ĠPowerstone": 1658,
      "arian": 1659,
      "arb": 1660,
      "entor": 1661,
      "iden": 1662,
      "idence": 1663,
      "Ġloyalty": 1664,
      "ome": 1665,
      "ĠLoyalty": 1666,
      "ĠBarb": 1667,
      "ĠBarbarian": 1668,
      "ĠMentor": 1669,
      "ĠMinion": 1670,
      "ĠEscape": 1671,
      "ĠAscend": 1672,
      "ĠBush": 1673,
      "Ġvo": 1674,
      "ido": 1675,
      "ĠIncubator": 1676,
      "Ġtim": 1677,
      "Ġtimes": 1678,
      "Ġform": 1679,
      "est": 1680,
      "ĠHeroic": 1681,
      "ĠTur": 1682,
      "ĠTurtle": 1683,
      "Ġroll": 1684,
      "ĠRebound": 1685,
      "Ġeither": 1686,
      "ĠBushido": 1687,
      "ĠGnome": 1688,
      "ĠSoulb": 1689,
      "ĠClash": 1690,
      "licate": 1691,
      "Ġexcess": 1692,
      "Ġdev": 1693,
      "ĠTrans": 1694,
      "ĠMyriad": 1695,
      "apt": 1696,
      "Ġcreates": 1697,
      "ouse": 1698,
      "cod": 1699,
      "ark": 1700,
      "Ġdevo": 1701,
      "ĠRaid": 1702,
      "llect": 1703,
      "ĠComp": 1704,
      "viv": 1705,
      "mpts": 1706,
      "ĠSplice": 1707,
      "itz": 1708,
      "ĠMir": 1709,
      "ĠMouse": 1710,
      "Ġoil": 1711,
      "ĠPlayers": 1712,
      "Ġcauses": 1713,
      "Ġcommander": 1714,
      "ak": 1715,
      "Ġremo": 1716,
      "ĠGrif": 1717,
      "ĠGriffin": 1718,
      "rint": 1719,
      "ron": 1720,
      "ĠIntimidate": 1721,
      "Ġexplo": 1722,
      "Ġdevotion": 1723,
      "Ġal": 1724,
      "ĠSurviv": 1725,
      "ĠEncore": 1726,
      "ĠSat": 1727,
      "ĠIts": 1728,
      "ĠAdapt": 1729,
      "Ġten": 1730,
      "Ġconjure": 1731,
      "Ġremoved": 1732,
      "ĠPers": 1733,
      "ĠSoulbond": 1734,
      "ĠPersist": 1735,
      "arn": 1736,
      "ug": 1737,
      "ĠFlanking": 1738,
      "ĠBackup": 1739,
      "ĠSatyr": 1740,
      "change": 1741,
      "argain": 1742,
      "ĠMulticolored": 1743,
      "ĠSpec": 1744,
      "gers": 1745,
      "Ġdifferent": 1746,
      "ĠUnd": 1747,
      "Ġtwice": 1748,
      "ĠGarg": 1749,
      "oyle": 1750,
      "ĠGargoyle": 1751,
      "ular": 1752,
      "Ġnonb": 1753,
      "rime": 1754,
      "anish": 1755,
      "nel": 1756,
      "ĠImprint": 1757,
      "ĠAstar": 1758,
      "ĠHom": 1759,
      "ĠAstartes": 1760,
      "acco": 1761,
      "ĠRacco": 1762,
      "ĠRaccoon": 1763,
      "Ġpile": 1764,
      "Ġtriggers": 1765,
      "spring": 1766,
      "aut": 1767,
      "anishing": 1768,
      "Ġstill": 1769,
      "ĠMage": 1770,
      "ĠNec": 1771,
      "ĠNecron": 1772,
      "Ġpa": 1773,
      "ĠClone": 1774,
      "ĠVo": 1775,
      "ĠChannel": 1776,
      "ĠOffspring": 1777,
      "ĠExplore": 1778,
      "Ġmain": 1779,
      "where": 1780,
      "ĠOt": 1781,
      "awn": 1782,
      "Ġbeing": 1783,
      "ĠElk": 1784,
      "ĠRec": 1785,
      "cl": 1786,
      "ĠExt": 1787,
      "read": 1788,
      "fig": 1789,
      "Ġphases": 1790,
      "figure": 1791,
      "ĠOil": 1792,
      "ĠDiscover": 1793,
      "ĠStorm": 1794,
      "ĠOtter": 1795,
      "ĠMagecraft": 1796,
      "ĠGate": 1797,
      "Ġcolors": 1798,
      "cil": 1799,
      "ĠSpawn": 1800,
      "ĠCro": 1801,
      "ĠSk": 1802,
      "Ġwhenever": 1803,
      "Ġanywhere": 1804,
      "ĠVanishing": 1805,
      "ĠApe": 1806,
      "Ġresol": 1807,
      "Ġflashback": 1808,
      "anion": 1809,
      "ĠServ": 1810,
      "tw": 1811,
      "ĠAttr": 1812,
      "load": 1813,
      "action": 1814,
      "verload": 1815,
      "ĠAttraction": 1816,
      "Ġmanifest": 1817,
      "ĠCor": 1818,
      "onfigure": 1819,
      "ality": 1820,
      "ĠReconfigure": 1821,
      "Ġdie": 1822,
      "istor": 1823,
      "ps": 1824,
      "Ġprevent": 1825,
      "ĠStun": 1826,
      "ĠPer": 1827,
      "ĠCyc": 1828,
      "lops": 1829,
      "ĠCyclops": 1830,
      "et": 1831,
      "ĠDungeon": 1832,
      "Ġpar": 1833,
      "ĠProto": 1834,
      "ning": 1835,
      "law": 1836,
      "manship": 1837,
      "mmit": 1838,
      "Ġdestroyed": 1839,
      "merge": 1840,
      "ĠDash": 1841,
      "Ġcoin": 1842,
      "rup": 1843,
      "uspe": 1844,
      "ĠBand": 1845,
      "Ġgraveyards": 1846,
      "istoric": 1847,
      "ĠServo": 1848,
      "ĠMod": 1849,
      "now": 1850,
      "type": 1851,
      "Ġhistoric": 1852,
      "ĠWe": 1853,
      "codile": 1854,
      "ĠCrocodile": 1855,
      "ĠPrototype": 1856,
      "Ġ8": 1857,
      "ĠExchange": 1858,
      "ĠMoon": 1859,
      "Ġreg": 1860,
      "Ġmorph": 1861,
      "inality": 1862,
      "itiative": 1863,
      "ĠBargain": 1864,
      "Ġunblock": 1865,
      "Ġunblocked": 1866,
      "era": 1867,
      "ided": 1868,
      "ĠUndying": 1869,
      "ĠIncubate": 1870,
      "ĠEvoke": 1871,
      "orgon": 1872,
      "ven": 1873,
      "ĠBands": 1874,
      "llation": 1875,
      "ĠConste": 1876,
      "ĠConstellation": 1877,
      "ale": 1878,
      "ĠMoonfolk": 1879,
      "ĠMounts": 1880,
      "cycling": 1881,
      "ĠGorgon": 1882,
      "ĠPilot": 1883,
      "Ġwere": 1884,
      "Ġgreate": 1885,
      "Ġgreatest": 1886,
      "ĠCorrup": 1887,
      "ĠOut": 1888,
      "ĠEf": 1889,
      "ualty": 1890,
      "ĠWither": 1891,
      "ĠMor": 1892,
      "hil": 1893,
      "olve": 1894,
      "ĠSplit": 1895,
      "ĠSouls": 1896,
      "ĠEfree": 1897,
      "ĠParty": 1898,
      "hift": 1899,
      "Ġplaneswalkers": 1900,
      "rovis": 1901,
      "rovise": 1902,
      "ĠGl": 1903,
      "strou": 1904,
      "Ġmonstrou": 1905,
      "Ġmonstrous": 1906,
      "ĠRenown": 1907,
      "ulus": 1908,
      "ĠDevour": 1909,
      "ĠEfreet": 1910,
      "alize": 1911,
      "ĠSpecter": 1912,
      "Ġsnow": 1913,
      "icorn": 1914,
      "ĠUnicorn": 1915,
      "unning": 1916,
      "Ġte": 1917,
      "ĠExploit": 1918,
      "ĠShade": 1919,
      "ĠSoulshift": 1920,
      "ĠMetal": 1921,
      "Ġshuffles": 1922,
      "iath": 1923,
      "ĠLev": 1924,
      "ĠImprovise": 1925,
      "iathan": 1926,
      "ĠLeviathan": 1927,
      "ĠExert": 1928,
      "ĠModular": 1929,
      "reer": 1930,
      "reerunning": 1931,
      "ĠHide": 1932,
      "ĠCasualty": 1933,
      "away": 1934,
      "ĠMetalcraft": 1935,
      "ĠWill": 1936,
      "ĠOverload": 1937,
      "Ġdraft": 1938,
      "culus": 1939,
      "unculus": 1940,
      "ĠHomunculus": 1941,
      "ĠZombies": 1942,
      "bid": 1943,
      "ĠMorbid": 1944,
      "Ġgrou": 1945,
      "Ġexplores": 1946,
      "Ġgroup": 1947,
      "Human": 1948,
      "ĠEvolve": 1949,
      "thirst": 1950,
      "Ġalone": 1951,
      "Ġafter": 1952,
      "Ġeffects": 1953,
      "Ġdied": 1954,
      "ĠBlitz": 1955,
      "ĠTie": 1956,
      "Ġemb": 1957,
      "ĠVoting": 1958,
      "ĠAddition": 1959,
      "ĠAdditional": 1960,
      "ĠSpree": 1961,
      "ĠBloodthirst": 1962,
      "ĠTempts": 1963,
      "ĠMonarch": 1964,
      "Ġlost": 1965,
      "ĠHideaway": 1966,
      "ĠSurvivor": 1967,
      "ading": 1968,
      "ĠGlim": 1969,
      "ĠDescend": 1970,
      "20": 1971,
      "ĠTiefling": 1972,
      "ĠCorrupted": 1973,
      "Ġdefender": 1974,
      "olt": 1975,
      "ĠEntw": 1976,
      "ĠEntwine": 1977,
      "Ġcyc": 1978,
      "ĠSir": 1979,
      "ĠSiren": 1980,
      "Ġcontrolled": 1981,
      "Ġbestow": 1982,
      "ĠGlimmer": 1983,
      "ĠFading": 1984,
      "Ġfe": 1985,
      "ĠHellion": 1986,
      "Ġattacker": 1987,
      "Ġfore": 1988,
      "Ġstarting": 1989,
      "Ġvotes": 1990,
      "ĠRi": 1991,
      "ĠDelve": 1992,
      "ĠWor": 1993,
      "Ġdid": 1994,
      "Ġdidn": 1995,
      "ĠRole": 1996,
      "ni": 1997,
      "ĠThru": 1998,
      "Ġemblem": 1999,
      "ĠThrull": 2000,
      "Ġ9": 2001,
      "ĠGre": 2002,
      "Ġshroud": 2003,
      "oyf": 2004,
      "Ġstun": 2005,
      "ĠBol": 2006,
      "ĠScion": 2007,
      "tly": 2008,
      "aun": 2009,
      "ĠJug": 2010,
      "gern": 2011,
      "ĠJuggern": 2012,
      "Ġremains": 2013,
      "ĠChim": 2014,
      "avenge": 2015,
      "wer": 2016,
      "ulk": 2017,
      "Ġspend": 2018,
      "enture": 2019,
      "rib": 2020,
      "Ġparty": 2021,
      "ĠCollect": 2022,
      "Ġcause": 2023,
      "Ġcycle": 2024,
      "ĠRad": 2025,
      "ĠChimera": 2026,
      "add": 2027,
      "arnation": 2028,
      "Ġrep": 2029,
      "ĠQ": 2030,
      "kicker": 2031,
      "ĠMultikicker": 2032,
      "ĠWorld": 2033,
      "ĠHorsemanship": 2034,
      "nihil": 2035,
      "alm": 2036,
      "ĠCave": 2037,
      "ĠScien": 2038,
      "Ġdiscarded": 2039,
      "ĠNom": 2040,
      "ĠNomad": 2041,
      "ince": 2042,
      "Ġsize": 2043,
      "ĠIncarnation": 2044,
      "ĠJuggernaut": 2045,
      "aster": 2046,
      "tist": 2047,
      "ĠCouncil": 2048,
      "Ġfights": 2049,
      "urg": 2050,
      "Ġregenerate": 2051,
      "ander": 2052,
      "Ġevery": 2053,
      "eek": 2054,
      "uspect": 2055,
      "ĠEmerge": 2056,
      "ĠTrap": 2057,
      "Ġgo": 2058,
      "Ġgoad": 2059,
      "Ġcame": 2060,
      "ĠScientist": 2061,
      "Ġmonarch": 2062,
      "Ġresolves": 2063,
      "Ġcl": 2064,
      "ĠOx": 2065,
      "gain": 2066,
      "Ġagain": 2067,
      "Ġshield": 2068,
      "ĠGoat": 2069,
      "Ġprom": 2070,
      "ĠEmp": 2071,
      "nihilator": 2072,
      "ĠLess": 2073,
      "ĠLesson": 2074,
      "alf": 2075,
      "Ġshares": 2076,
      "Ġsince": 2077,
      "Ġamass": 2078,
      "egas": 2079,
      "ĠPegas": 2080,
      "alam": 2081,
      "former": 2082,
      "ĠPerformer": 2083,
      "apon": 2084,
      "cay": 2085,
      "cayed": 2086,
      "Ġclash": 2087,
      "ĠLiv": 2088,
      "ĠLiving": 2089,
      "ackal": 2090,
      "ĠJackal": 2091,
      "Ġgift": 2092,
      "ĠPegasus": 2093,
      "unk": 2094,
      "ĠLands": 2095,
      "Ġcop": 2096,
      "ĠStri": 2097,
      "list": 2098,
      "iance": 2099,
      "bent": 2100,
      "yee": 2101,
      "ĠEmb": 2102,
      "ĠGuest": 2103,
      "loyee": 2104,
      "ĠHellbent": 2105,
      "ĠEmployee": 2106,
      "ĠEmbalm": 2107,
      "aries": 2108,
      "alamander": 2109,
      "ĠTransm": 2110,
      "Ġhalf": 2111,
      "ĠScavenge": 2112,
      "Ġdecl": 2113,
      "hurg": 2114,
      "ĠLhurg": 2115,
      "ĠLhurgoyf": 2116,
      "cess": 2117,
      "Ġbeen": 2118,
      "ulate": 2119,
      "opulate": 2120,
      "nive": 2121,
      "ĠOf": 2122,
      "Ġevidence": 2123,
      "down": 2124,
      "pen": 2125,
      "ĠAfter": 2126,
      "ym": 2127,
      "ob": 2128,
      "ĠEtern": 2129,
      "andra": 2130,
      "Ġhig": 2131,
      "ĠChandra": 2132,
      "Ġentered": 2133,
      "ĠSkulk": 2134,
      "ĠTransmute": 2135,
      "Ġdeck": 2136,
      "Ġmost": 2137,
      "ĠShield": 2138,
      "ĠSalamander": 2139,
      "ces": 2140,
      "orage": 2141,
      "Ġdungeon": 2142,
      "Ġsticker": 2143,
      "Ġleave": 2144,
      "ĠOrcs": 2145,
      "ĠQuest": 2146,
      "ĠSun": 2147,
      "ĠJunk": 2148,
      "Ġfewer": 2149,
      "ymph": 2150,
      "ĠArchon": 2151,
      "ĠStarting": 2152,
      "ĠCoven": 2153,
      "Ġdeclare": 2154,
      "aken": 2155,
      "waken": 2156,
      "ĠShr": 2157,
      "ĠEternalize": 2158,
      "thing": 2159,
      "ribute": 2160,
      "Ġshadow": 2161,
      "Ġover": 2162,
      "ĠNymph": 2163,
      "ĠStrive": 2164,
      "Ġsp": 2165,
      "Ġregenerated": 2166,
      "he": 2167,
      "ĠEnlist": 2168,
      "quest": 2169,
      "rowth": 2170,
      "Ġcopies": 2171,
      "ether": 2172,
      "olver": 2173,
      "ence": 2174,
      "Ġdread": 2175,
      "ĠShark": 2176,
      "ĠAwaken": 2177,
      "Ġfade": 2178,
      "Ġredu": 2179,
      "Ġro": 2180,
      "ampion": 2181,
      "ĠThose": 2182,
      "Ġmode": 2183,
      "bur": 2184,
      "Ġkind": 2185,
      "ĠAnnihilator": 2186,
      "ign": 2187,
      "iph": 2188,
      "Ġenough": 2189,
      "ĠClo": 2190,
      "erm": 2191,
      "Ġquest": 2192,
      "ĠChampion": 2193,
      "ĠAur": 2194,
      "ĠAuras": 2195,
      "ĠBoast": 2196,
      "upp": 2197,
      "ĠExtort": 2198,
      "ĠCiph": 2199,
      "Ġsteps": 2200,
      "ĠShrine": 2201,
      "ĠCipher": 2202,
      "Ġproliferate": 2203,
      "ĠInsp": 2204,
      "Ġopen": 2205,
      "ĠFinality": 2206,
      "ĠSquad": 2207,
      "ĠWra": 2208,
      "ĠWraith": 2209,
      "Ġdup": 2210,
      "Ġeight": 2211,
      "Ġcomp": 2212,
      "ĠCompanion": 2213,
      "ĠGerm": 2214,
      "ĠConnive": 2215,
      "lessing": 2216,
      "Ġenchantments": 2217,
      "trace": 2218,
      "burst": 2219,
      "Ġowners": 2220,
      "Ġinc": 2221,
      "Ġcom": 2222,
      "ĠFreerunning": 2223,
      "Ġremain": 2224,
      "mlin": 2225,
      "ĠGremlin": 2226,
      "ĠGraft": 2227,
      "ĠPra": 2228,
      "ĠEvidence": 2229,
      "Ġdivided": 2230,
      "Ġduplicate": 2231,
      "ĠKob": 2232,
      "ĠKobold": 2233,
      "ious": 2234,
      "leave": 2235,
      "ctacle": 2236,
      "born": 2237,
      "Ġturns": 2238,
      "ult": 2239,
      "asic": 2240,
      "Ġpaired": 2241,
      "astery": 2242,
      "Ġexp": 2243,
      "Ġroom": 2244,
      "ĠFr": 2245,
      "ĠSunburst": 2246,
      "ĠOn": 2247,
      "ĠWhile": 2248,
      "oll": 2249,
      "ĠCommand": 2250,
      "ĠMiracle": 2251,
      "ecre": 2252,
      "rod": 2253,
      "Ġcity": 2254,
      "ĠBattle": 2255,
      "ĠRetrace": 2256,
      "ani": 2257,
      "ĠMirrod": 2258,
      "Ġnonbl": 2259,
      "ĠMirrodin": 2260,
      "Ġcrime": 2261,
      "esc": 2262,
      "ĠRev": 2263,
      "orp": 2264,
      "Ġflanking": 2265,
      "gg": 2266,
      "upport": 2267,
      "ĠEerie": 2268,
      "ining": 2269,
      "ĠInspired": 2270,
      "Ġblessing": 2271,
      "Ġsuspend": 2272,
      "ech": 2273,
      "leate": 2274,
      "ĠCompleate": 2275,
      "ĠCompleated": 2276,
      "ĠInitiative": 2277,
      "etor": 2278,
      "ĠPraetor": 2279,
      "Ġmodif": 2280,
      "ĠOutlaw": 2281,
      "talion": 2282,
      "ĠBattalion": 2283,
      "jani": 2284,
      "ĠAjani": 2285,
      "Ġpromise": 2286,
      "asing": 2287,
      "ĠPhasing": 2288,
      "Ġnonblack": 2289,
      "ĠAether": 2290,
      "ĠAetherborn": 2291,
      "bricate": 2292,
      "ĠBolster": 2293,
      "ĠLeech": 2294,
      "ĠArtifacts": 2295,
      "Ġnonbasic": 2296,
      "ĠFabricate": 2297,
      "Ġmulti": 2298,
      "ues": 2299,
      "amant": 2300,
      "ĠAdamant": 2301,
      "ele": 2302,
      "actal": 2303,
      "ĠFractal": 2304,
      "ĠRaven": 2305,
      "ĠRavenous": 2306,
      "ĠAnother": 2307,
      "ĠPopulate": 2308,
      "cious": 2309,
      "ĠFero": 2310,
      "ĠFerocious": 2311,
      "aliant": 2312,
      "ĠValiant": 2313,
      "redge": 2314,
      "Ġgained": 2315,
      "mbra": 2316,
      "ĠSag": 2317,
      "ĠRevolt": 2318,
      "Ġsay": 2319,
      "Ġlesser": 2320,
      "lic": 2321,
      "artifact": 2322,
      "Ġback": 2323,
      "gered": 2324,
      "letion": 2325,
      "Ġseek": 2326,
      "spire": 2327,
      "ĠDredge": 2328,
      "sign": 2329,
      "ĠCrime": 2330,
      "ĠCommit": 2331,
      "ĠMite": 2332,
      "Ġassign": 2333,
      "Ġday": 2334,
      "ĠProwl": 2335,
      "inship": 2336,
      "ĠKinship": 2337,
      "leash": 2338,
      "Ġanything": 2339,
      "Ġtriggered": 2340,
      "ĠTraining": 2341,
      "Ġpair": 2342,
      "ox": 2343,
      "Ġround": 2344,
      "axi": 2345,
      "mum": 2346,
      "Ġmaxi": 2347,
      "Ġmilled": 2348,
      "Ġmaximum": 2349,
      "sa": 2350,
      "Ġrenown": 2351,
      "Ġsadd": 2352,
      "Ġsaddled": 2353,
      "hi": 2354,
      "Ġteam": 2355,
      "ĠUnleash": 2356,
      "Ġresult": 2357,
      "ĠRiot": 2358,
      "erse": 2359,
      "ampage": 2360,
      "Ġexert": 2361,
      "ĠJace": 2362,
      "Ġmust": 2363,
      "ĠWhale": 2364,
      "ĠSuspect": 2365,
      "Ġhe": 2366,
      "Ġtoxic": 2367,
      "Ġmulticolored": 2368,
      "pa": 2369,
      "ĠUmbra": 2370,
      "uph": 2371,
      "ĠOuph": 2372,
      "ĠOuphe": 2373,
      "Ġnonartifact": 2374,
      "Ġdivide": 2375,
      "Ġsoon": 2376,
      "ĠConspire": 2377,
      "han": 2378,
      "ĠAlliance": 2379,
      "Ġhigh": 2380,
      "Ġcomes": 2381,
      "Ġhands": 2382,
      "ĠJell": 2383,
      "ĠJelly": 2384,
      "Ġincub": 2385,
      "ĠSecond": 2386,
      "lict": 2387,
      "actly": 2388,
      "Ġexactly": 2389,
      "ĠIslandwalk": 2390,
      "ticore": 2391,
      "ĠLic": 2392,
      "Ġcommit": 2393,
      "ĠManticore": 2394,
      "Ġcommanders": 2395,
      "ĠLicid": 2396,
      "ĠWicked": 2397,
      "eep": 2398,
      "ced": 2399,
      "Ġgive": 2400,
      "ipp": 2401,
      "EL": 2402,
      "VEL": 2403,
      "ĠLE": 2404,
      "ction": 2405,
      "ĠCommander": 2406,
      "ĠLEVEL": 2407,
      "ĠLil": 2408,
      "iana": 2409,
      "ĠLiliana": 2410,
      "Ġesc": 2411,
      "ove": 2412,
      "ĠWeird": 2413,
      "Ġrenowned": 2414,
      "Ġincubate": 2415,
      "ĠCele": 2416,
      "ĠNon": 2417,
      "ud": 2418,
      "ĠMore": 2419,
      "start": 2420,
      "Ġprow": 2421,
      "ĠAssist": 2422,
      "Ġlater": 2423,
      "Ġnight": 2424,
      "Ġcas": 2425,
      "ĠSwampwalk": 2426,
      "ten": 2427,
      "Ġinten": 2428,
      "Ġaren": 2429,
      "attach": 2430,
      "Ġz": 2431,
      "Ġtake": 2432,
      "Ġunpa": 2433,
      "Ġunpaired": 2434,
      "ĠCleave": 2435,
      "Ġrounded": 2436,
      "Ġzone": 2437,
      "ump": 2438,
      "ĠHipp": 2439,
      "ĠExtra": 2440,
      "ĠUnder": 2441,
      "ma": 2442,
      "ĠTransform": 2443,
      "min": 2444,
      "side": 2445,
      "Ġext": 2446,
      "Ġoutside": 2447,
      "erien": 2448,
      "ĠMonster": 2449,
      "erience": 2450,
      "fish": 2451,
      "ĠJellyfish": 2452,
      "ĠEgg": 2453,
      "Ġecho": 2454,
      "ĠMap": 2455,
      "ĠAge": 2456,
      "ination": 2457,
      "ingle": 2458,
      "Ġsingle": 2459,
      "bration": 2460,
      "Ġbands": 2461,
      "ĠCelebration": 2462,
      "growth": 2463,
      "ĠSpectacle": 2464,
      "ĠUndergrowth": 2465,
      "yond": 2466,
      "ye": 2467,
      "ĠSpore": 2468,
      "ĠElves": 2469,
      "Ġextra": 2470,
      "ĠSurge": 2471,
      "book": 2472,
      "ĠSupport": 2473,
      "issa": 2474,
      "ĠNissa": 2475,
      "eti": 2476,
      "ĠYeti": 2477,
      "Ġlegend": 2478,
      "throne": 2479,
      "Ġoutlaw": 2480,
      "Ġpiles": 2481,
      "Ġventure": 2482,
      "ĠSpi": 2483,
      "ĠDecayed": 2484,
      "Ġbeyond": 2485,
      "lee": 2486,
      "ĠMelee": 2487,
      "Ġspore": 2488,
      "Ġlevel": 2489,
      "ĠScorp": 2490,
      "ĠScorpion": 2491,
      "ĠJump": 2492,
      "head": 2493,
      "key": 2494,
      "ĠMonkey": 2495,
      "Ġprev": 2496,
      "Ġfear": 2497,
      "alker": 2498,
      "ĠBasic": 2499,
      "Ġmadness": 2500,
      "ĠWorm": 2501,
      "Ġstack": 2502,
      "ĠRampage": 2503,
      "combat": 2504,
      "Ġ20": 2505,
      "ĠDale": 2506,
      "ĠDalek": 2507,
      "Wor": 2508,
      "emb": 2509,
      "niv": 2510,
      "Ġconniv": 2511,
      "ĠAssemb": 2512,
      "Worker": 2513,
      "Ġconnives": 2514,
      "ĠAssembly": 2515,
      "Ġcollect": 2516,
      "Ġcompanion": 2517,
      "ĠCurs": 2518,
      "mbination": 2519,
      "Ġcombination": 2520,
      "Ġopening": 2521,
      "ward": 2522,
      "life": 2523,
      "Ġtied": 2524,
      "ĠProcess": 2525,
      "ĠProcessor": 2526,
      "ka": 2527,
      "ollow": 2528,
      "ĠHar": 2529,
      "ĠDethrone": 2530,
      "Ġcascade": 2531,
      "ĠSpike": 2532,
      "Ġclashing": 2533,
      "Ġattackers": 2534,
      "ĠAfflict": 2535,
      "alate": 2536,
      "Ġchan": 2537,
      "ĠSlivers": 2538,
      "ĠEscalate": 2539,
      "ĠWeapon": 2540,
      "aya": 2541,
      "ĠCursed": 2542,
      "tain": 2543,
      "ĠNa": 2544,
      "Ġhighest": 2545,
      "Ġchange": 2546,
      "ĠShuffle": 2547,
      "ĠMastery": 2548,
      "Ġinitiative": 2549,
      "istribute": 2550,
      "adox": 2551,
      "ĠParadox": 2552,
      "ley": 2553,
      "Ġreturns": 2554,
      "ĠParley": 2555,
      "Ġmodified": 2556,
      "ĠRally": 2557,
      "ĠAfterlife": 2558,
      "cast": 2559,
      "ĠForecast": 2560,
      "ĠRep": 2561,
      "isit": 2562,
      "ĠPest": 2563,
      "ĠToy": 2564,
      "Ġphased": 2565,
      "ĠArmor": 2566,
      "du": 2567,
      "Ġsacrificing": 2568,
      "enant": 2569,
      "ĠLie": 2570,
      "utenant": 2571,
      "ĠLieutenant": 2572,
      "ented": 2573,
      "ĠBehold": 2574,
      "ĠIslands": 2575,
      "Ġprevented": 2576,
      "ĠBeholder": 2577,
      "Ġspellbook": 2578,
      "ĠAmp": 2579,
      "lify": 2580,
      "ĠAmplify": 2581,
      "sist": 2582,
      "ĠDraft": 2583,
      "ĠEye": 2584,
      "Ġtempts": 2585,
      "12": 2586,
      "arate": 2587,
      "eparate": 2588,
      "ren": 2589,
      "ĠSorc": 2590,
      "ĠHaun": 2591,
      "ĠFormid": 2592,
      "ĠHaunt": 2593,
      "ĠFormidable": 2594,
      "Ġcrew": 2595,
      "ĠGRUW": 2596,
      "Ġblitz": 2597,
      "ream": 2598,
      "ĠEnter": 2599,
      "yo": 2600,
      "Ġprodu": 2601,
      "ĠClown": 2602,
      "erew": 2603,
      "ilem": 2604,
      "ilemma": 2605,
      "Ġintensity": 2606,
      "ĠWerew": 2607,
      "ĠCar": 2608,
      "ĠConjure": 2609,
      "last": 2610,
      "Ġwasn": 2611,
      "sided": 2612,
      "ĠStorage": 2613,
      "Ġtarge": 2614,
      "Ġbegin": 2615,
      "Ġtargeted": 2616,
      "yal": 2617,
      "Ġad": 2618,
      "lly": 2619,
      "orce": 2620,
      "Ġfollow": 2621,
      "Ġthird": 2622,
      "zz": 2623,
      "force": 2624,
      "inforce": 2625,
      "ĠGide": 2626,
      "leg": 2627,
      "ĠReinforce": 2628,
      "ĠGideon": 2629,
      "ĠBasil": 2630,
      "isk": 2631,
      "ĠBasilisk": 2632,
      "ĠVolver": 2633,
      "Ġputting": 2634,
      "Ġhasn": 2635,
      "ĠSurvival": 2636,
      "Ġreduced": 2637,
      "legendary": 2638,
      "ĠBad": 2639,
      "Ġleft": 2640,
      "ĠDaut": 2641,
      "Ġsecre": 2642,
      "ĠDauthi": 2643,
      "ĠSlug": 2644,
      "ĠOutlast": 2645,
      "Ġforetell": 2646,
      "Ġseparate": 2647,
      "ĠHarpy": 2648,
      "ĠDragons": 2649,
      "ĠCry": 2650,
      "oung": 2651,
      "ĠYoung": 2652,
      "Ġgoaded": 2653,
      "Ġstorage": 2654,
      "AL": 2655,
      "Ġfinality": 2656,
      "cted": 2657,
      "Ġsk": 2658,
      "eret": 2659,
      "Ġchose": 2660,
      "ĠTezz": 2661,
      "ĠOnce": 2662,
      "ĠTezzeret": 2663,
      "ĠHag": 2664,
      "Ġreturned": 2665,
      "Ġadv": 2666,
      "ĠTemp": 2667,
      "ĠOffer": 2668,
      "bble": 2669,
      "Ġtrans": 2670,
      "ĠBobble": 2671,
      "Ġtransform": 2672,
      "ĠBobblehead": 2673,
      "Ġunattach": 2674,
      "Ġexpend": 2675,
      "ĠViv": 2676,
      "ĠVivien": 2677,
      "ĠTefer": 2678,
      "ĠTeferi": 2679,
      "irin": 2680,
      "ĠKirin": 2681,
      "erer": 2682,
      "ĠSorcerer": 2683,
      "ĠDem": 2684,
      "Ġtext": 2685,
      "Ġkicker": 2686,
      "eapon": 2687,
      "Ġblockers": 2688,
      "peat": 2689,
      "Ġassigns": 2690,
      "Ġdisguise": 2691,
      "ĠSark": 2692,
      "ĠSarkhan": 2693,
      "Ġmegamorph": 2694,
      "rue": 2695,
      "Ġlegendaries": 2696,
      "ĠReplicate": 2697,
      "ĠBadger": 2698,
      "zra": 2699,
      "ĠAzra": 2700,
      "Ġadvance": 2701,
      "Ġweapon": 2702,
      "ĠAssassins": 2703,
      "ĠReco": 2704,
      "ĠSphere": 2705,
      "ĠProvoke": 2706,
      "ĠFade": 2707,
      "ĠNi": 2708,
      "Ġcouncil": 2709,
      "Ġincl": 2710,
      "Ġexist": 2711,
      "Ġnoncombat": 2712,
      "ĠSagas": 2713,
      "ĠAtog": 2714,
      "Ġreplicate": 2715,
      "riend": 2716,
      "LO": 2717,
      "YAL": 2718,
      "LOYAL": 2719,
      "LOYALTY": 2720,
      "rush": 2721,
      "Ġsecretly": 2722,
      "Ġdeclared": 2723,
      "ĠWolver": 2724,
      "ĠWolverine": 2725,
      "stalker": 2726,
      "Ġnonlegendary": 2727,
      "Ġwon": 2728,
      "Ġbut": 2729,
      "ĠWerewolf": 2730,
      "astic": 2731,
      "strate": 2732,
      "oss": 2733,
      "Ġdash": 2734,
      "ĠForests": 2735,
      "ĠRecover": 2736,
      "Ġtrue": 2737,
      "Ġinclud": 2738,
      "ber": 2739,
      "ĠInk": 2740,
      "pletion": 2741,
      "Ġdepletion": 2742,
      "igod": 2743,
      "ĠDemigod": 2744,
      "11": 2745,
      "Ġintimidate": 2746,
      "ĠTempting": 2747,
      "Ġdecayed": 2748,
      "Ġcreated": 2749,
      "Ġalread": 2750,
      "Ġalready": 2751,
      "ĠEmin": 2752,
      "ĠEminence": 2753,
      "ĠEls": 2754,
      "peth": 2755,
      "ĠElspeth": 2756,
      "Ġescape": 2757,
      "ari": 2758,
      "Ġdice": 2759,
      "pple": 2760,
      "ĠDetain": 2761,
      "Ġ19": 2762,
      "ĠYan": 2763,
      "Ġfollowing": 2764,
      "Ġtreate": 2765,
      "ĠRoyal": 2766,
      "Ġtreated": 2767,
      "Ġprocess": 2768,
      "ĠSqui": 2769,
      "ĠSquid": 2770,
      "ĠPirates": 2771,
      "yn": 2772,
      "ĠForestwalk": 2773,
      "ĠPri": 2774,
      "Ġinst": 2775,
      "ents": 2776,
      "Ġforest": 2777,
      "ĠInkling": 2778,
      "arid": 2779,
      "Ġmyriad": 2780,
      "Ġdiscover": 2781,
      "ĠGar": 2782,
      "Ġdes": 2783,
      "ait": 2784,
      "Ġtransforms": 2785,
      "olves": 2786,
      "ĠPack": 2787,
      "ounty": 2788,
      "ĠSolt": 2789,
      "ĠSoltari": 2790,
      "actic": 2791,
      "ruk": 2792,
      "ĠGarruk": 2793,
      "ĠKaya": 2794,
      "endum": 2795,
      "ĠVerse": 2796,
      "ĠAddendum": 2797,
      "ĠDemonstrate": 2798,
      "Ġfu": 2799,
      "ravel": 2800,
      "ĠRipple": 2801,
      "hiri": 2802,
      "ĠGoblins": 2803,
      "ĠNahiri": 2804,
      "Ġcry": 2805,
      "itch": 2806,
      "Ġconsist": 2807,
      "Ġeven": 2808,
      "Ġconsists": 2809,
      "Ġlandcycling": 2810,
      "ĠHun": 2811,
      "vating": 2812,
      "Ġactivating": 2813,
      "Ġfreerunning": 2814,
      "ĠSheep": 2815,
      "Ġnote": 2816,
      "ĠSadd": 2817,
      "ĠGu": 2818,
      "Ġforestwalk": 2819,
      "ĠSaddle": 2820,
      "orin": 2821,
      "ĠSorin": 2822,
      "its": 2823,
      "var": 2824,
      "Ġmove": 2825,
      "Ġdescend": 2826,
      "Ġboon": 2827,
      "Ġvote": 2828,
      "ĠHomarid": 2829,
      "ĠCloak": 2830,
      "mor": 2831,
      "Ġoffer": 2832,
      "ĠHumans": 2833,
      "ĠNightstalker": 2834,
      "Ġdone": 2835,
      "une": 2836,
      "ĠSlith": 2837,
      "ĠTarge": 2838,
      "ĠForage": 2839,
      "ĠTargeting": 2840,
      "arm": 2841,
      "actics": 2842,
      "Wall": 2843,
      "Ġemerge": 2844,
      "Ġword": 2845,
      "ĠCame": 2846,
      "Ġdescended": 2847,
      "ras": 2848,
      "ĠVras": 2849,
      "ĠMountains": 2850,
      "ĠVraska": 2851,
      "Ġmutates": 2852,
      "roma": 2853,
      "ĠChroma": 2854,
      "pic": 2855,
      "ĠMy": 2856,
      "Ġlasts": 2857,
      "Ġwhich": 2858,
      "resents": 2859,
      "Ġrepresents": 2860,
      "ĠHippo": 2861,
      "ami": 2862,
      "ĠSecre": 2863,
      "Ġencod": 2864,
      "Ġencoded": 2865,
      "strike": 2866,
      "ĠExp": 2867,
      "Ġsuspe": 2868,
      "Ġsuspected": 2869,
      "ĠMet": 2870,
      "Ġwhose": 2871,
      "ĠDep": 2872,
      "ĠMastic": 2873,
      "ĠMasticore": 2874,
      "Ġcounts": 2875,
      "be": 2876,
      "Ġso": 2877,
      "Ġsuspect": 2878,
      "ĠRogues": 2879,
      "ĠPlaneswalkers": 2880,
      "arer": 2881,
      "bearer": 2882,
      "time": 2883,
      "ĠBolas": 2884,
      "telo": 2885,
      "ĠAntelo": 2886,
      "ĠAntelope": 2887,
      "orse": 2888,
      "Ġhorse": 2889,
      "Ġhorsemanship": 2890,
      "ĠKi": 2891,
      "Ġresolved": 2892,
      "alak": 2893,
      "ĠThalak": 2894,
      "ĠThalakos": 2895,
      "Ġkeep": 2896,
      "ĠVampires": 2897,
      "Ġkeeps": 2898,
      "ĠBoo": 2899,
      "Ġsources": 2900,
      "Ġskip": 2901,
      "ĠUr": 2902,
      "ĠRune": 2903,
      "ĠSecret": 2904,
      "Ġunlock": 2905,
      "ĠTake": 2906,
      "ĠPermanent": 2907,
      "ĠExperience": 2908,
      "Ġmin": 2909,
      "ĠVisit": 2910,
      "ĠDepletion": 2911,
      "Ġprowl": 2912,
      "Ġtoward": 2913,
      "ĠCamel": 2914,
      "lis": 2915,
      "ĠAdv": 2916,
      "za": 2917,
      "Ġheal": 2918,
      "ĠUrza": 2919,
      "ĠSa": 2920,
      "ood": 2921,
      "ĠKarn": 2922,
      "Ġsw": 2923,
      "Ġdifference": 2924,
      "Ġprowess": 2925,
      "hort": 2926,
      "ĠCohort": 2927,
      "ĠSpirits": 2928,
      "Ġinde": 2929,
      "itely": 2930,
      "finitely": 2931,
      "Ġindefinitely": 2932,
      "air": 2933,
      "Ġdiscarding": 2934,
      "ĠConver": 2935,
      "ĠConverge": 2936,
      "yvar": 2937,
      "ĠRoom": 2938,
      "een": 2939,
      "lac": 2940,
      "Ġoutlaws": 2941,
      "ection": 2942,
      "ĠRats": 2943,
      "ĠRadiance": 2944,
      "ĠPermanents": 2945,
      "rad": 2946,
      "ication": 2947,
      "Ġverse": 2948,
      "Ġregular": 2949,
      "ĠSaga": 2950,
      "ances": 2951,
      "ĠWind": 2952,
      "Ġinstances": 2953,
      "eren": 2954,
      "Ġweren": 2955,
      "ialize": 2956,
      "ĠSeek": 2957,
      "ĠSpecialize": 2958,
      "ĠSyn": 2959,
      "Ġnames": 2960,
      "ĠMo": 2961,
      "xilis": 2962,
      "ĠMana": 2963,
      "ĠNixilis": 2964,
      "ĠEpic": 2965,
      "ymb": 2966,
      "Ġdrawn": 2967,
      "Ġadds": 2968,
      "use": 2969,
      "mate": 2970,
      "erted": 2971,
      "Ġexerted": 2972,
      "Ġsuspended": 2973,
      "Ġrepeat": 2974,
      "eli": 2975,
      "ĠMercenaries": 2976,
      "heeli": 2977,
      "ĠSaheeli": 2978,
      "ĠWhite": 2979,
      "Ġexperience": 2980,
      "ĠMinsc": 2981,
      "stic": 2982,
      "ĠWren": 2983,
      "ĠWolves": 2984,
      "Ġinfect": 2985,
      "ĠWrenn": 2986,
      "orus": 2987,
      "ĠBring": 2988,
      "yber": 2989,
      "ĠCyber": 2990,
      "ĠCyberman": 2991,
      "Ġmastery": 2992,
      "aunted": 2993,
      "Ġexploits": 2994,
      "Ġhim": 2995,
      "Ġbetw": 2996,
      "Ġbetween": 2997,
      "Ġsymb": 2998,
      "Ġsymbol": 2999,
      "ummon": 3000,
      "ĠRed": 3001,
      "Ġcontrollers": 3002,
      "Ġminus": 3003,
      "na": 3004,
      "ĠLore": 3005,
      "ĠVehicles": 3006,
      "athran": 3007,
      "ĠMetathran": 3008,
      "Ġrad": 3009,
      "ĠDistribute": 3010,
      "Ġvalues": 3011,
      "ĠKait": 3012,
      "ĠKaito": 3013,
      "rick": 3014,
      "Ġclo": 3015,
      "ĠHe": 3016,
      "riff": 3017,
      "Ġplaneswal": 3018,
      "ogriff": 3019,
      "ĠSwamps": 3020,
      "ĠHippogriff": 3021,
      "Ġcloak": 3022,
      "Ġplaneswalk": 3023,
      "Ġsick": 3024,
      "Ġsickness": 3025,
      "ĠSkip": 3026,
      "ĠMole": 3027,
      "Ġhigher": 3028,
      "ĠBringer": 3029,
      "Ġspl": 3030,
      "ĠDilemma": 3031,
      "ĠTribute": 3032,
      "Ġbargain": 3033,
      "Ġbargained": 3034,
      "ĠMystic": 3035,
      "Ġtide": 3036,
      "ko": 3037,
      "Ġcrewed": 3038,
      "ĠGreen": 3039,
      "Ġgu": 3040,
      "ague": 3041,
      "Ġdivinity": 3042,
      "Ġhour": 3043,
      "ĠUndaunted": 3044,
      "ĠHunt": 3045,
      "ail": 3046,
      "touch": 3047,
      "ĠDiv": 3048,
      "Ġsou": 3049,
      "ĠCartouch": 3050,
      "ĠCartouche": 3051,
      "Ġcomple": 3052,
      "Ġfight": 3053,
      "Ġreplac": 3054,
      "Ġreplacing": 3055,
      "Ġtaps": 3056,
      "Ġwins": 3057,
      "Ġ13": 3058,
      "Ġbol": 3059,
      "Ġbolster": 3060,
      "Ġaff": 3061,
      "ĠHam": 3062,
      "oster": 3063,
      "ĠTw": 3064,
      "Ġhaun": 3065,
      "Ġdraf": 3066,
      "arse": 3067,
      "ĠNarse": 3068,
      "ĠNarset": 3069,
      "ĠRal": 3070,
      "ĠChorus": 3071,
      "enty": 3072,
      "ĠTami": 3073,
      "ĠTyvar": 3074,
      "ĠLo": 3075,
      "Ġnine": 3076,
      "Ġtwenty": 3077,
      "Ġsearches": 3078,
      "ĠTamiyo": 3079,
      "attacking": 3080,
      "Ġnonattacking": 3081,
      "Ġexchange": 3082,
      "ĠSynth": 3083,
      "Ġdistribute": 3084,
      "Ġbid": 3085,
      "Ġisland": 3086,
      "Ġsplice": 3087,
      "ĠHad": 3088,
      "Ġlibraries": 3089,
      "Ġmodification": 3090,
      "Ġmodifications": 3091,
      "ĠLear": 3092,
      "ĠMong": 3093,
      "Ġneither": 3094,
      "ĠLearn": 3095,
      "ĠCoward": 3096,
      "Ġfriend": 3097,
      "ĠBlue": 3098,
      "Ġfully": 3099,
      "Ġsummon": 3100,
      "ĠZub": 3101,
      "Ġsummoning": 3102,
      "ĠZubera": 3103,
      "aos": 3104,
      "rak": 3105,
      "uro": 3106,
      "ides": 3107,
      "ĠAdventure": 3108,
      "ĠTravel": 3109,
      "Ġpowers": 3110,
      "right": 3111,
      "ĠLu": 3112,
      "ĠFate": 3113,
      "ĠBlack": 3114,
      "ĠKeep": 3115,
      "Ġcouldn": 3116,
      "Aura": 3117,
      "ĠTri": 3118,
      "ild": 3119,
      "ĠWith": 3120,
      "Ġflood": 3121,
      "Ġproduce": 3122,
      "Ġseparates": 3123,
      "li": 3124,
      "wick": 3125,
      "Ġim": 3126,
      "ĠElly": 3127,
      "ĠFe": 3128,
      "ĠMeld": 3129,
      "Ġswamp": 3130,
      "ĠEllywick": 3131,
      "Ġoverload": 3132,
      "ised": 3133,
      "ĠKhan": 3134,
      "ĠBGUW": 3135,
      "Ġpromised": 3136,
      "ĠKhans": 3137,
      "Ġconvoke": 3138,
      "ĠDomri": 3139,
      "Ġislandwalk": 3140,
      "ĠRu": 3141,
      "Ġnor": 3142,
      "Ġbooster": 3143,
      "ĠMountainwalk": 3144,
      "Ġevoke": 3145,
      "Ġguess": 3146,
      "Ġpopulate": 3147,
      "Ġodd": 3148,
      "ĠNumber": 3149,
      "Ġpartner": 3150,
      "ĠLair": 3151,
      "Ġspe": 3152,
      "ĠFlood": 3153,
      "Ġspectacle": 3154,
      "ĠVenture": 3155,
      "Ġlore": 3156,
      "ĠAshi": 3157,
      "Ġsoul": 3158,
      "ĠAshiok": 3159,
      "Ġencore": 3160,
      "ena": 3161,
      "ĠHyena": 3162,
      "Ġlandwalk": 3163,
      "Ġ'": 3164,
      "ĠOne": 3165,
      "Ġpack": 3166,
      "Ġhaven": 3167,
      "ĠRow": 3168,
      "ĠRowan": 3169,
      "Ġru": 3170,
      "ĠAuro": 3171,
      "chs": 3172,
      "ĠAurochs": 3173,
      "Ġsurge": 3174,
      "art": 3175,
      "ĠWarriors": 3176,
      "ĠKobolds": 3177,
      "wag": 3178,
      "ĠNep": 3179,
      "hilim": 3180,
      "rushwag": 3181,
      "ĠNephilim": 3182,
      "rushwagg": 3183,
      "Ġdilemma": 3184,
      "Ġarmor": 3185,
      "Ġreduce": 3186,
      "Ġswampwalk": 3187,
      "ĠGnoll": 3188,
      "Ġcompleted": 3189,
      "Ġforage": 3190,
      "ĠShard": 3191,
      "cus": 3192,
      "ĠHamster": 3193,
      "tains": 3194,
      "Ġmir": 3195,
      "Ġincludes": 3196,
      "Ġdrafted": 3197,
      "Ġmiracle": 3198,
      "ĠCarri": 3199,
      "ĠOffering": 3200,
      "ending": 3201,
      "ĠSand": 3202,
      "Ġwor": 3203,
      "ĠImpending": 3204,
      "Ġcleave": 3205,
      "ĠDivinity": 3206,
      "vin": 3207,
      "ĠDovin": 3208,
      "Ġcolle": 3209,
      "ĠYanling": 3210,
      "ib": 3211,
      "ĠBrushwagg": 3212,
      "Ġcycling": 3213,
      "Ġcontains": 3214,
      "ĠMove": 3215,
      "Ġequip": 3216,
      "spent": 3217,
      "Ġunspent": 3218,
      "Ġsl": 3219,
      "Ġdivides": 3220,
      "atch": 3221,
      "ĠTreat": 3222,
      "Ġreduces": 3223,
      "bite": 3224,
      "ĠTactics": 3225,
      "Ġplot": 3226,
      "lobite": 3227,
      "ĠTrilobite": 3228,
      "ĠDread": 3229,
      "tra": 3230,
      "Ġexalted": 3231,
      "aving": 3232,
      "Ġice": 3233,
      "Ġtrigger": 3234,
      "ĠGold": 3235,
      "ĠWalls": 3236,
      "Ġright": 3237,
      "Ġowns": 3238,
      "Ġpo": 3239,
      "Ġincluding": 3240,
      "ĠInf": 3241,
      "ĠMine": 3242,
      "ĠLocus": 3243,
      "ĠNote": 3244,
      "ĠBounty": 3245,
      "ĠBloodrush": 3246,
      "ĠGith": 3247,
      "ful": 3248,
      "ĠFoods": 3249,
      "ĠPlainscycling": 3250,
      "oth": 3251,
      "ĠGrave": 3252,
      "ought": 3253,
      "Ġsqu": 3254,
      "nought": 3255,
      "akes": 3256,
      "ĠDreadnought": 3257,
      "ĠPoss": 3258,
      "ĠColorless": 3259,
      "ĠSwitch": 3260,
      "13": 3261,
      "Ġnoted": 3262,
      "ĠGuard": 3263,
      "Ġdream": 3264,
      "ĠEffect": 3265,
      "Ġbounty": 3266,
      "ĠInqu": 3267,
      "ĠEffects": 3268,
      "ainous": 3269,
      "ĠStarf": 3270,
      "Ġvill": 3271,
      "ĠStarfish": 3272,
      "Ġvillainous": 3273,
      "Ġstart": 3274,
      "ress": 3275,
      "Ġblood": 3276,
      "ĠDeath": 3277,
      "ĠKher": 3278,
      "Ġrule": 3279,
      "Ġsupport": 3280,
      "ĠMag": 3281,
      "teen": 3282,
      "ĠDi": 3283,
      "Ġel": 3284,
      "Ġwither": 3285,
      "Ġskips": 3286,
      "ĠSlo": 3287,
      "ĠSloth": 3288,
      "sion": 3289,
      "ask": 3290,
      "ĠFriend": 3291,
      "ĠNoncreature": 3292,
      "ĠSurrak": 3293,
      "ously": 3294,
      "Ġworth": 3295,
      "ĠSurrakar": 3296,
      "Ġdrew": 3297,
      "ĠUnattach": 3298,
      "ocolored": 3299,
      "Ġhaving": 3300,
      "Ġfaces": 3301,
      "ĠWarlocks": 3302,
      "ĠJaya": 3303,
      "Ġwords": 3304,
      "ĠIce": 3305,
      "ĠFlame": 3306,
      "ĠMar": 3307,
      "Ġplays": 3308,
      "Ġlooks": 3309,
      "cna": 3310,
      "ĠEnd": 3311,
      "ĠVecna": 3312,
      "ĠTimeless": 3313,
      "Ġoffering": 3314,
      "Ġ12": 3315,
      "ada": 3316,
      "Ġcommon": 3317,
      "Ġuntaps": 3318,
      "Ġmonocolored": 3319,
      "Ġmodes": 3320,
      "ĠWizards": 3321,
      "etch": 3322,
      "Ġproduced": 3323,
      "aver": 3324,
      "Ġactivates": 3325,
      "ĠMountaincycling": 3326,
      "Ġteammate": 3327,
      "ĠCarrier": 3328,
      "eld": 3329,
      "Ġvow": 3330,
      "Ġlearn": 3331,
      "Ġexample": 3332,
      "ĠVir": 3333,
      "cy": 3334,
      "vation": 3335,
      "Ġeg": 3336,
      "ĠPage": 3337,
      "Ġactivation": 3338,
      "Ġki": 3339,
      "Ġegg": 3340,
      "gest": 3341,
      "Ġapp": 3342,
      "ĠIngest": 3343,
      "Ġapply": 3344,
      "ĠMonger": 3345,
      "pt": 3346,
      "ulpt": 3347,
      "ja": 3348,
      "ara": 3349,
      "ĠOko": 3350,
      "ĠVoja": 3351,
      "ĠLight": 3352,
      "aze": 3353,
      "ient": 3354,
      "Ġfuse": 3355,
      "Ġentering": 3356,
      "uat": 3357,
      "ĠHuat": 3358,
      "Ġhaunting": 3359,
      "ĠHuatli": 3360,
      "isitor": 3361,
      "ĠInquisitor": 3362,
      "ĠBasri": 3363,
      "tification": 3364,
      "ĠFortification": 3365,
      "Ġpage": 3366,
      "Ġfate": 3367,
      "ĠSquirrels": 3368,
      "march": 3369,
      "ĠPrimarch": 3370,
      "Ġund": 3371,
      "Ġtactics": 3372,
      "Ġescapes": 3373,
      "udy": 3374,
      "hada": 3375,
      "ĠSoldiers": 3376,
      "ĠKnights": 3377,
      "ĠTreasures": 3378,
      "ĠDihada": 3379,
      "ĠSte": 3380,
      "anup": 3381,
      "Ġcle": 3382,
      "ĠWo": 3383,
      "ĠWal": 3384,
      "ĠDinosaurs": 3385,
      "Ġcleanup": 3386,
      "az": 3387,
      "ora": 3388,
      "ĠGrowth": 3389,
      "pending": 3390,
      "ĠKiora": 3391,
      "Ġimpending": 3392,
      "ĠPossum": 3393,
      "eart": 3394,
      "Ġunattached": 3395,
      "Ġunearth": 3396,
      "ĠSkeletons": 3397,
      "Ġeverything": 3398,
      "escent": 3399,
      "ĠFeather": 3400,
      "pse": 3401,
      "Ġ14": 3402,
      "ĠSnail": 3403,
      "ĠCorpse": 3404,
      "Ġelse": 3405,
      "net": 3406,
      "ĠLightning": 3407,
      "ĠBrick": 3408,
      "ĠRepeat": 3409,
      "Ġdoom": 3410,
      "ĠFortif": 3411,
      "Ġactive": 3412,
      "ĠGates": 3413,
      "loc": 3414,
      "told": 3415,
      "Ġforetold": 3416,
      "idd": 3417,
      "eries": 3418,
      "Ġpost": 3419,
      "Ġbidd": 3420,
      "Ġsquare": 3421,
      "Ġpostcombat": 3422,
      "ĠBreat": 3423,
      "Ġdel": 3424,
      "ĠPlague": 3425,
      "ĠBirds": 3426,
      "14": 3427,
      "oin": 3428,
      "ĠTwin": 3429,
      "ne": 3430,
      "enchant": 3431,
      "ĠSwampcycling": 3432,
      "isp": 3433,
      "Ġfin": 3434,
      "ĠVoid": 3435,
      "Ġplotted": 3436,
      "gle": 3437,
      "hite": 3438,
      "white": 3439,
      "asp": 3440,
      "ĠNog": 3441,
      "Ġpersist": 3442,
      "ĠBGRU": 3443,
      "Ġcommitted": 3444,
      "Ġvowel": 3445,
      "ĠNoggle": 3446,
      "rand": 3447,
      "act": 3448,
      "ĠSen": 3449,
      "urden": 3450,
      "locity": 3451,
      "sif": 3452,
      "ĠVarm": 3453,
      "Ġintensif": 3454,
      "mory": 3455,
      "ĠVarmint": 3456,
      "Ġ15": 3457,
      "adill": 3458,
      "ĠArmadill": 3459,
      "ĠArmadillo": 3460,
      "ets": 3461,
      "ha": 3462,
      "rack": 3463,
      "Ġbrack": 3464,
      "Ġbrackets": 3465,
      "ĠBlade": 3466,
      "ang": 3467,
      "isi": 3468,
      "Ġdetain": 3469,
      "ah": 3470,
      "util": 3471,
      "irc": 3472,
      "ĠNautil": 3473,
      "ĠNautilus": 3474,
      "ĠBod": 3475,
      "Ġfo": 3476,
      "ĠBody": 3477,
      "ĠDream": 3478,
      "grace": 3479,
      "ĠWindgrace": 3480,
      "Ġundying": 3481,
      "Ġsect": 3482,
      "ĠFlag": 3483,
      "ĠAngr": 3484,
      "tinel": 3485,
      "Ġskulk": 3486,
      "ĠSentinel": 3487,
      "Ġsector": 3488,
      "ĠFlagbearer": 3489,
      "ĠAngrath": 3490,
      "ified": 3491,
      "Ġcolored": 3492,
      "ĠModified": 3493,
      "way": 3494,
      "ĠWalker": 3495,
      "ĠBefore": 3496,
      "seal": 3497,
      "ĠBreath": 3498,
      "Ġtravel": 3499,
      "ĠHour": 3500,
      "ggu": 3501,
      "ium": 3502,
      "ĠTarm": 3503,
      "ogoyf": 3504,
      "ĠYanggu": 3505,
      "ĠTarmogoyf": 3506,
      "ĠCoyo": 3507,
      "arves": 3508,
      "ĠDwarves": 3509,
      "ĠWhisp": 3510,
      "Ġgrowth": 3511,
      "Ġinf": 3512,
      "ĠIm": 3513,
      "Ġhow": 3514,
      "sy": 3515,
      "Ġannihilator": 3516,
      "lyph": 3517,
      "ĠQu": 3518,
      "Ġcrews": 3519,
      "ĠClerics": 3520,
      "ĠForestcycling": 3521,
      "Ġfull": 3522,
      "ager": 3523,
      "ĠHit": 3524,
      "ĠDemons": 3525,
      "ĠFaeries": 3526,
      "rice": 3527,
      "arth": 3528,
      "ĠEarth": 3529,
      "Ġlonger": 3530,
      "cer": 3531,
      "Ġign": 3532,
      "Ġignore": 3533,
      "ĠChaos": 3534,
      "Ġrampage": 3535,
      "ĠIslandcycling": 3536,
      "Ġslime": 3537,
      "ĠTin": 3538,
      "rap": 3539,
      "ĠBra": 3540,
      "ĠGe": 3541,
      "Ġtwel": 3542,
      "Ġfourth": 3543,
      "guard": 3544,
      "ĠFortify": 3545,
      "Ġtwelve": 3546,
      "dag": 3547,
      "ĠPheld": 3548,
      "Ġwhether": 3549,
      "dagrif": 3550,
      "ĠPhelddagrif": 3551,
      "amm": 3552,
      "ory": 3553,
      "ĠMid": 3554,
      "ĠClues": 3555,
      "Ġloss": 3556,
      "Ġplague": 3557,
      "ĠHeart": 3558,
      "Ġnonenchant": 3559,
      "ĠBRUW": 3560,
      "ĠLuck": 3561,
      "Ġnonenchantment": 3562,
      "ius": 3563,
      "kka": 3564,
      "ĠMow": 3565,
      "ĠThree": 3566,
      "Ġchaos": 3567,
      "iscov": 3568,
      "ĠLukka": 3569,
      "Ġbidding": 3570,
      "ĠMowu": 3571,
      "aring": 3572,
      "ĠFire": 3573,
      "rie": 3574,
      "uster": 3575,
      "Ġnonwhite": 3576,
      "ĠCoyote": 3577,
      "tex": 3578,
      "ortex": 3579,
      "Ġlow": 3580,
      "ĠNag": 3581,
      "ĠCats": 3582,
      "ĠOrgg": 3583,
      "Ġcollected": 3584,
      "Ġlowest": 3585,
      "ĠNaga": 3586,
      "fen": 3587,
      "ĠFetch": 3588,
      "Ġdescent": 3589,
      "Ġninj": 3590,
      "fense": 3591,
      "Ġninjutsu": 3592,
      "Ġbrick": 3593,
      "ĠForm": 3594,
      "ĠDoom": 3595,
      "identity": 3596,
      "Ġidentity": 3597,
      "ĠDis": 3598,
      "ĠTib": 3599,
      "ĠFuse": 3600,
      "alt": 3601,
      "aly": 3602,
      "ĠSculpt": 3603,
      "Ġfoe": 3604,
      "ĠTibalt": 3605,
      "ĠTent": 3606,
      "ĠTower": 3607,
      "ĠKoth": 3608,
      "ĠTentacle": 3609,
      "ĠFateful": 3610,
      "Ġafflict": 3611,
      "tti": 3612,
      "ĠSil": 3613,
      "ĠGrand": 3614,
      "Ġmount": 3615,
      "aretti": 3616,
      "Ġguesses": 3617,
      "Ġpoint": 3618,
      "Ġmountain": 3619,
      "ysa": 3620,
      "Ġcumulative": 3621,
      "owship": 3622,
      "ellowship": 3623,
      "ĠTeysa": 3624,
      "ressure": 3625,
      "ple": 3626,
      "ving": 3627,
      "atrice": 3628,
      "ĠCock": 3629,
      "tuous": 3630,
      "ĠVirtuous": 3631,
      "ĠCockatrice": 3632,
      "ball": 3633,
      "Ġwish": 3634,
      "ĠMagic": 3635,
      "Ġvowels": 3636,
      "atho": 3637,
      "ĠWild": 3638,
      "ĠTide": 3639,
      "Sp": 3640,
      "ĠSm": 3641,
      "Ġcoins": 3642,
      "atchling": 3643,
      "for": 3644,
      "stform": 3645,
      "hostform": 3646,
      "Ġscavenge": 3647,
      "iner": 3648,
      "Ġconnive": 3649,
      "ĠMaster": 3650,
      "avite": 3651,
      "utin": 3652,
      "ĠRasp": 3653,
      "ief": 3654,
      "ĠJoin": 3655,
      "ĠTeyo": 3656,
      "ĠCowards": 3657,
      "ĠRasputin": 3658,
      "oot": 3659,
      "Ġcorp": 3660,
      "Ġtribute": 3661,
      "Ġmire": 3662,
      "ĠWombat": 3663,
      "Spirit": 3664,
      "Ġcorpse": 3665,
      "Ġri": 3666,
      "ĠMask": 3667,
      "ĠStash": 3668,
      "upa": 3669,
      "ĠNiko": 3670,
      "sych": 3671,
      "Ġmele": 3672,
      "Ġcontin": 3673,
      "Ġart": 3674,
      "Ġmelee": 3675,
      "ĠCirc": 3676,
      "ĠTash": 3677,
      "Ġhit": 3678,
      "ĠTasha": 3679,
      "Ġforc": 3680,
      "ĠMox": 3681,
      "ader": 3682,
      "Ġforces": 3683,
      "ĠAc": 3684,
      "Ġstash": 3685,
      "per": 3686,
      "va": 3687,
      "ines": 3688,
      "ĠAven": 3689,
      "ĠThem": 3690,
      "ĠAllies": 3691,
      "ĠInstead": 3692,
      "ĠThopters": 3693,
      "Ġkinds": 3694,
      "ĠOnly": 3695,
      "asu": 3696,
      "ĠRag": 3697,
      "ĠLamm": 3698,
      "avan": 3699,
      "ĠEvery": 3700,
      "ĠRagavan": 3701,
      "ĠLammasu": 3702,
      "lade": 3703,
      "Ġsil": 3704,
      "ĠBee": 3705,
      "ĠSlime": 3706,
      "Ġscream": 3707,
      "ĠSoulblade": 3708,
      "ĠSky": 3709,
      "ĠRadha": 3710,
      "Ġcor": 3711,
      "ĠSan": 3712,
      "aling": 3713,
      "ices": 3714,
      "Ġchoices": 3715,
      "ĠHealing": 3716,
      "ĠWhispers": 3717,
      "ael": 3718,
      "eim": 3719,
      "olin": 3720,
      "ĠPang": 3721,
      "ĠKeim": 3722,
      "demate": 3723,
      "ĠRock": 3724,
      "ĠPridemate": 3725,
      "ĠPangolin": 3726,
      "ĠKeimi": 3727,
      "teor": 3728,
      "ĠMeteor": 3729,
      "Ġbackup": 3730,
      "ĠMeteorite": 3731,
      "emon": 3732,
      "rong": 3733,
      "ĠAim": 3734,
      "amut": 3735,
      "ĠBah": 3736,
      "Ġoff": 3737,
      "ĠRevel": 3738,
      "Ġsearched": 3739,
      "Ġhaunts": 3740,
      "Ġdelay": 3741,
      "ĠBahamut": 3742,
      "ia": 3743,
      "mless": 3744,
      "ĠFatho": 3745,
      "ĠCone": 3746,
      "ĠFathomless": 3747,
      "au": 3748,
      "men": 3749,
      "oud": 3750,
      "ĠRet": 3751,
      "redit": 3752,
      "ĠNonb": 3753,
      "ĠInfection": 3754,
      "eur": 3755,
      "Ġj": 3756,
      "ret": 3757,
      "storm": 3758,
      "ĠBGRW": 3759,
      "ĠGravestorm": 3760,
      "ĠGrandeur": 3761,
      "ĠRig": 3762,
      "rix": 3763,
      "ared": 3764,
      "ĠJour": 3765,
      "ĠJared": 3766,
      "ĠSaprolings": 3767,
      "ĠBeeble": 3768,
      "sis": 3769,
      "Ġfungus": 3770,
      "ged": 3771,
      "eding": 3772,
      "aped": 3773,
      "ĠSword": 3774,
      "Ġforever": 3775,
      "Ġamassed": 3776,
      "Ġescaped": 3777,
      "Ġmountainwalk": 3778,
      "print": 3779,
      "uously": 3780,
      "ays": 3781,
      "imin": 3782,
      "Ġcontinuously": 3783,
      "jection": 3784,
      "Ġthir": 3785,
      "ĠEther": 3786,
      "asher": 3787,
      "ĠStudy": 3788,
      "ribery": 3789,
      "ĠEtherium": 3790,
      "ope": 3791,
      "ĠCell": 3792,
      "Ġflame": 3793,
      "ruption": 3794,
      "Ġsymbols": 3795,
      "ĠTwo": 3796,
      "Ġcorruption": 3797,
      "zat": 3798,
      "ĠSzat": 3799,
      "ĠSpark": 3800,
      "atic": 3801,
      "Ġtakes": 3802,
      "Ġvoting": 3803,
      "Ġcollection": 3804,
      "wine": 3805,
      "Ġent": 3806,
      "ĠDark": 3807,
      "ĠGen": 3808,
      "ĠUl": 3809,
      "aler": 3810,
      "Ġyours": 3811,
      "Ġmone": 3812,
      "ĠScrap": 3813,
      "Ġupkeeps": 3814,
      "Ġblaze": 3815,
      "Ġfeather": 3816,
      "Ġentwine": 3817,
      "Ġmoney": 3818,
      "mn": 3819,
      "ris": 3820,
      "orate": 3821,
      "Ġaim": 3822,
      "ĠGuff": 3823,
      "Ġincorp": 3824,
      "orates": 3825,
      "Ġincorporates": 3826,
      "ram": 3827,
      "Ġstays": 3828,
      "redient": 3829,
      "Ġresolving": 3830,
      "ĠWraiths": 3831,
      "Ġproduces": 3832,
      "Ġhealing": 3833,
      "ĠRust": 3834,
      "lect": 3835,
      "ĠFre": 3836,
      "Ġrese": 3837,
      "ĠGuardian": 3838,
      "Ġinfection": 3839,
      "Ġreselect": 3840,
      "dom": 3841,
      "ual": 3842,
      "egis": 3843,
      "ĠNat": 3844,
      "Ġmanifests": 3845,
      "bon": 3846,
      "iqu": 3847,
      "ĠDaretti": 3848,
      "ĠRap": 3849,
      "Ġuniqu": 3850,
      "Ġcount": 3851,
      "ĠCards": 3852,
      "ĠOpen": 3853,
      "ĠGuide": 3854,
      "Ġguessed": 3855,
      "Ġfinish": 3856,
      "Ġunique": 3857,
      "elf": 3858,
      "fle": 3859,
      "ial": 3860,
      "erous": 3861,
      "ĠWish": 3862,
      "ĠRak": 3863,
      "icator": 3864,
      "henra": 3865,
      "Ġmag": 3866,
      "ĠRefle": 3867,
      "ĠKhenra": 3868,
      "ĠCloud": 3869,
      "Ġvanishing": 3870,
      "Ġmagnet": 3871,
      "ĠReflection": 3872,
      "non": 3873,
      "ĠCoil": 3874,
      "annon": 3875,
      "Ġaffinity": 3876,
      "ĠAv": 3877,
      "ĠIng": 3878,
      "ĠZero": 3879,
      "ĠPrimo": 3880,
      "oose": 3881,
      "uck": 3882,
      "ĠBal": 3883,
      "Ġluck": 3884,
      "ĠSpace": 3885,
      "Ġvoid": 3886,
      "Ġcycles": 3887,
      "ĠMongoose": 3888,
      "Ġfriends": 3889,
      "ĠMarit": 3890,
      "ĠCircle": 3891,
      "do": 3892,
      "ledge": 3893,
      "ĠFrodo": 3894,
      "div": 3895,
      "ĠLage": 3896,
      "ĠIndiv": 3897,
      "ĠElementals": 3898,
      "isible": 3899,
      "iscovery": 3900,
      "Ġthirteen": 3901,
      "ĠIndivisible": 3902,
      "ĠHollow": 3903,
      "apter": 3904,
      "Ġflips": 3905,
      "Ġexplore": 3906,
      "Ġinstance": 3907,
      "zation": 3908,
      "asmin": 3909,
      "ĠLami": 3910,
      "ĠUg": 3911,
      "Ġfellowship": 3912,
      "ĠKasmin": 3913,
      "Ġfollowed": 3914,
      "Ġpool": 3915,
      "ĠFriends": 3916,
      "alyzation": 3917,
      "ĠLamia": 3918,
      "ĠKasmina": 3919,
      "15": 3920,
      "ĠColle": 3921,
      "amor": 3922,
      "mony": 3923,
      "Ġrolled": 3924,
      "ĠGlamor": 3925,
      "Ġimp": 3926,
      "Ġintensify": 3927,
      "ĠCollection": 3928,
      "ĠGlamorous": 3929,
      "Demon": 3930,
      "lu": 3931,
      "tan": 3932,
      "leight": 3933,
      "ilib": 3934,
      "imult": 3935,
      "ults": 3936,
      "istic": 3937,
      "aneously": 3938,
      "ĠHeroes": 3939,
      "Ġresults": 3940,
      "ĠRigger": 3941,
      "luence": 3942,
      "ilibuster": 3943,
      "imultaneously": 3944,
      "yster": 3945,
      "onge": 3946,
      "ĠDyn": 3947,
      "Ġeon": 3948,
      "ural": 3949,
      "ĠSponge": 3950,
      "ĠOyster": 3951,
      "ĠInspir": 3952,
      "ĠDynastic": 3953,
      "ust": 3954,
      "reen": 3955,
      "anar": 3956,
      "orius": 3957,
      "ĠRager": 3958,
      "ĠGlyph": 3959,
      "Ġmat": 3960,
      "ongreen": 3961,
      "intorius": 3962,
      "ĠAttractions": 3963,
      "ĠQuintorius": 3964,
      "ĠUgin": 3965,
      "ĠBurden": 3966,
      "brand": 3967,
      "ĠStar": 3968,
      "ears": 3969,
      "ĠChak": 3970,
      "ĠSerra": 3971,
      "ĠFirebrand": 3972,
      "ĠChakram": 3973,
      "rog": 3974,
      "tested": 3975,
      "yp": 3976,
      "ĠBro": 3977,
      "ĠLl": 3978,
      "Ġwind": 3979,
      "olyp": 3980,
      "Ġnumbers": 3981,
      "ĠVelocity": 3982,
      "Ġriot": 3983,
      "fl": 3984,
      "far": 3985,
      "mfar": 3986,
      "ĠWho": 3987,
      "ĠPre": 3988,
      "ĠPorc": 3989,
      "ĠPsych": 3990,
      "ĠSpara": 3991,
      "ĠSkemfar": 3992,
      "upine": 3993,
      "rowhead": 3994,
      "ĠMemory": 3995,
      "ĠNonland": 3996,
      "flame": 3997,
      "ĠPorcupine": 3998,
      "ĠPsychic": 3999,
      "ĠCome": 4000,
      "erub": 4001,
      "leep": 4002,
      "ĠFan": 4003,
      "ĠCherub": 4004,
      "ĠCherubael": 4005,
      "jud": 4006,
      "nal": 4007,
      "Ġher": 4008,
      "Ġgold": 4009,
      "ĠAdjud": 4010,
      "Ġlooked": 4011,
      "ĠRecru": 4012,
      "Ġcycled": 4013,
      "ĠAcorn": 4014,
      "ĠJournal": 4015,
      "icators": 4016,
      "ĠAdjudicators": 4017,
      "ĠCannon": 4018,
      "ĠIcy": 4019,
      "ĠMice": 4020,
      "rid": 4021,
      "ĠDefense": 4022,
      "ĠWarren": 4023,
      "ĠDevils": 4024,
      "ĠStriker": 4025,
      "gl": 4026,
      "alith": 4027,
      "Ġbook": 4028,
      "ĠMark": 4029,
      "Ġitself": 4030,
      "ĠPhyrexians": 4031,
      "ĠManalith": 4032,
      "Ġvoted": 4033,
      "ĠCorruption": 4034,
      "Ġcopied": 4035,
      "ĠSculpture": 4036,
      "glass": 4037,
      "oint": 4038,
      "rying": 4039,
      "yes": 4040,
      "ender": 4041,
      "anguard": 4042,
      "ĠPoint": 4043,
      "ĠViz": 4044,
      "ĠVanguard": 4045,
      "usic": 4046,
      "Ġscrying": 4047,
      "ĠRakish": 4048,
      "ĠVizier": 4049,
      "west": 4050,
      "Ġing": 4051,
      "Ġdying": 4052,
      "ĠKing": 4053,
      "Ġfewest": 4054,
      "ĠNotebook": 4055,
      "ene": 4056,
      "ened": 4057,
      "ating": 4058,
      "terven": 4059,
      "riever": 4060,
      "Ġnongreen": 4061,
      "Ġplayed": 4062,
      "ixir": 4063,
      "nowledge": 4064,
      "Ġswitch": 4065,
      "ĠRetriever": 4066,
      "tervention": 4067,
      "ĠCrow": 4068,
      "ĠTrainer": 4069,
      "Ġcasualty": 4070,
      "Pl": 4071,
      "ĠRh": 4072,
      "Ġpr": 4073,
      "Ġeye": 4074,
      "Ġplanar": 4075,
      "ĠScream": 4076,
      "ĠSnakes": 4077,
      "ĠDelay": 4078,
      "ĠRevelers": 4079,
      "Ġeyeball": 4080,
      "inch": 4081,
      "Ġcome": 4082,
      "Ġdeath": 4083,
      "ĠBeaver": 4084,
      "Ġchapter": 4085,
      "Ġfateseal": 4086,
      "ĠTomb": 4087,
      "ĠRay": 4088,
      "ĠLaur": 4089,
      "ĠThorn": 4090,
      "ĠDefending": 4091,
      "ĠBlaring": 4092,
      "ĠFren": 4093,
      "ĠSteel": 4094,
      "ĠTiny": 4095,
      "ĠBrain": 4096,
      "ĠLaurine": 4097,
      "ĠCap": 4098,
      "amber": 4099,
      "Ġpain": 4100,
      "Ġsub": 4101,
      "osing": 4102,
      "ĠVortex": 4103,
      "ĠKamber": 4104,
      "ĠMidnight": 4105,
      "fire": 4106,
      "pies": 4107,
      "attered": 4108,
      "ĠCopies": 4109,
      "ĠFry": 4110,
      "ĠShattered": 4111,
      "ĠStone": 4112,
      "ettle": 4113,
      "ĠNontoken": 4114,
      "forged": 4115,
      "ĠFrye": 4116,
      "ĠStoneforged": 4117,
      "Dra": 4118,
      "Zomb": 4119,
      "bound": 4120,
      "rerak": 4121,
      "angg": 4122,
      "eron": 4123,
      "ĠAce": 4124,
      "raz": 4125,
      "ĠFer": 4126,
      "Ġrebound": 4127,
      "Ġfortif": 4128,
      "ĠShab": 4129,
      "ĠStangg": 4130,
      "Dragon": 4131,
      "Zombie": 4132,
      "ĠAcererak": 4133,
      "Ġfortified": 4134,
      "ĠShabraz": 4135,
      "aker": 4136,
      "uty": 4137,
      "yl": 4138,
      "ĠDav": 4139,
      "ĠFen": 4140,
      "ĠIniti": 4141,
      "riel": 4142,
      "aph": 4143,
      "ĠSeraph": 4144,
      "pair": 4145,
      "ĠDavriel": 4146,
      "ĠInitiate": 4147,
      "ĠBlessing": 4148,
      "asel": 4149,
      "ĠEon": 4150,
      "ĠWarden": 4151,
      "Ġinstants": 4152,
      "ĠChild": 4153,
      "akt": 4154,
      "ĠWeasel": 4155,
      "ĠSunsc": 4156,
      "ĠCoru": 4157,
      "ase": 4158,
      "Ġdire": 4159,
      "ĠHave": 4160,
      "ĠOper": 4161,
      "Ġstorm": 4162,
      "ĠProte": 4163,
      "ĠMerry": 4164,
      "Ġseeks": 4165,
      "ĠWerewolves": 4166,
      "Ġwhichever": 4167,
      "ĠInspiration": 4168,
      "ĠCorusc": 4169,
      "sight": 4170,
      "yan": 4171,
      "Ġite": 4172,
      "titan": 4173,
      "ĠRyan": 4174,
      "Ġpin": 4175,
      "aldra": 4176,
      "ĠHatchling": 4177,
      "chtitan": 4178,
      "Ġsimultaneously": 4179,
      "rite": 4180,
      "ili": 4181,
      "ĠKaldra": 4182,
      "ĠSprite": 4183,
      "ĠZar": 4184,
      "ĠBeau": 4185,
      "ĠCont": 4186,
      "ĠArchli": 4187,
      "ĠMechtitan": 4188,
      "tract": 4189,
      "Ġitem": 4190,
      "ĠArchlich": 4191,
      "ses": 4192,
      "ĠSupp": 4193,
      "ĠPass": 4194,
      "Ġomen": 4195,
      "ĠBeasts": 4196,
      "ĠEvie": 4197,
      "ĠWeaver": 4198,
      "ĠFenstalker": 4199,
      "16": 4200,
      "gard": 4201,
      "tend": 4202,
      "engard": 4203,
      "stain": 4204,
      "ĠWit": 4205,
      "Ġbribery": 4206,
      "ĠAttend": 4207,
      "allen": 4208,
      "ĠDogs": 4209,
      "ĠTooth": 4210,
      "ĠIsengard": 4211,
      "ostor": 4212,
      "ĠWitness": 4213,
      "ĠAttendant": 4214,
      "ĠToothy": 4215,
      "emory": 4216,
      "Ġve": 4217,
      "ured": 4218,
      "Ġpupa": 4219,
      "icke": 4220,
      "Ġmemory": 4221,
      "ĠDeep": 4222,
      "ĠWarform": 4223,
      "ĠKom": 4224,
      "rus": 4225,
      "ĠZep": 4226,
      "ĠTransfigure": 4227,
      "Ġrope": 4228,
      "Ġmultiple": 4229,
      "ĠWalrus": 4230,
      "Ġvelocity": 4231,
      "ĠKoma": 4232,
      "dr": 4233,
      "lt": 4234,
      "lie": 4235,
      "ndr": 4236,
      "ser": 4237,
      "Ġac": 4238,
      "ĠRever": 4239,
      "ads": 4240,
      "ĠZndr": 4241,
      "ĠBelie": 4242,
      "splt": 4243,
      "ĠPlainswalk": 4244,
      "Ġexploit": 4245,
      "yalise": 4246,
      "ĠNonbasic": 4247,
      "ĠFreyalise": 4248,
      "ĠZndrsplt": 4249,
      "ĠBelieve": 4250,
      "Ġtra": 4251,
      "Ġburden": 4252,
      "ury": 4253,
      "agin": 4254,
      "ĠBlaze": 4255,
      "Ġheist": 4256,
      "ĠImagin": 4257,
      "An": 4258,
      "Equi": 4259,
      "pment": 4260,
      "anow": 4261,
      "stal": 4262,
      "ĠRory": 4263,
      "ĠHand": 4264,
      "Ġhun": 4265,
      "acher": 4266,
      "ĠScaven": 4267,
      "ounding": 4268,
      "ĠTeacher": 4269,
      "Ġstickers": 4270,
      "ĠDaleks": 4271,
      "ĠLlanow": 4272,
      "Angel": 4273,
      "Equipment": 4274,
      "ĠLlanowar": 4275,
      "oof": 4276,
      "ams": 4277,
      "ĠBook": 4278,
      "ĠWis": 4279,
      "ĠWaste": 4280,
      "leven": 4281,
      "chre": 4282,
      "ĠLegion": 4283,
      "ĠPsion": 4284,
      "Ġeleven": 4285,
      "uth": 4286,
      "Ġdec": 4287,
      "ĠOchre": 4288,
      "ĠSweep": 4289,
      "ĠFateseal": 4290,
      "ĠUlti": 4291,
      "oofprint": 4292,
      "ĠWisdom": 4293,
      "ĠPsionic": 4294,
      "acob": 4295,
      "ĠNe": 4296,
      "Ġplains": 4297,
      "loon": 4298,
      "Ġstudy": 4299,
      "ĠJacob": 4300,
      "ĠArcan": 4301,
      "ĠMirran": 4302,
      "ĠBalloon": 4303,
      "CR": 4304,
      "entavite": 4305,
      "ĠFast": 4306,
      "egative": 4307,
      "Ġpass": 4308,
      "aled": 4309,
      "ĠHon": 4310,
      "Ġfif": 4311,
      "Ġwears": 4312,
      "ĠNCR": 4313,
      "ĠNegative": 4314,
      "ĠPentavite": 4315,
      "rification": 4316,
      "Ġincreas": 4317,
      "ĠBobbleheads": 4318,
      "witch": 4319,
      "ĠAg": 4320,
      "ĠGorm": 4321,
      "ĠGhostform": 4322,
      "Ġpressure": 4323,
      "ĠPak": 4324,
      "ĠMate": 4325,
      "Ġhar": 4326,
      "hood": 4327,
      "therhood": 4328,
      "ĠBewitch": 4329,
      "zied": 4330,
      "ĠInsects": 4331,
      "ected": 4332,
      "Ġphasing": 4333,
      "ĠLeader": 4334,
      "shadow": 4335,
      "Ġaffected": 4336,
      "ĠKeeper": 4337,
      "Ġslumber": 4338,
      "Ġintensifies": 4339,
      "rieve": 4340,
      "ĠBrotherhood": 4341,
      "ĠFrenzied": 4342,
      "ĠPako": 4343,
      "ĠBewitching": 4344,
      "Ġcredit": 4345,
      "ĠHob": 4346,
      "quin": 4347,
      "olation": 4348,
      "stealer": 4349,
      "Ġsearching": 4350,
      "ĠHunger": 4351,
      "nequin": 4352,
      "gic": 4353,
      "ĠPain": 4354,
      "Ġuse": 4355,
      "ĠOmn": 4356,
      "ĠServant": 4357,
      "hw": 4358,
      "enhw": 4359,
      "ĠSettle": 4360,
      "ĠTimin": 4361,
      "Ġbait": 4362,
      "ĠMake": 4363,
      "ĠXen": 4364,
      "shark": 4365,
      "ĠGuenhw": 4366,
      "ĠPlaguebearer": 4367,
      "ĠSkyshark": 4368,
      "ĠComet": 4369,
      "Plant": 4370,
      "ĠSettlement": 4371,
      "ĠGuenhwyvar": 4372,
      "Elf": 4373,
      "Pier": 4374,
      "alor": 4375,
      "ny": 4376,
      "enny": 4377,
      "itality": 4378,
      "ĠHorrors": 4379,
      "Ġfourteen": 4380,
      "ĠJenny": 4381,
      "ĠSpiders": 4382,
      "ĠDeserts": 4383,
      "ĠRani": 4384,
      "Ġsilence": 4385,
      "Piercer": 4386,
      "ĠWould": 4387,
      "Ġyet": 4388,
      "ĠGri": 4389,
      "ĠFlint": 4390,
      "ĠNurg": 4391,
      "idance": 4392,
      "ĠChar": 4393,
      "ĠCommanders": 4394,
      "trap": 4395,
      "ĠGraveborn": 4396,
      "Ġfinal": 4397,
      "ĠGrist": 4398,
      "ĠNurgle": 4399,
      "ĠCaz": 4400,
      "ĠDar": 4401,
      "ĠBetra": 4402,
      "ession": 4403,
      "ĠTheir": 4404,
      "ĠWalk": 4405,
      "ĠGeist": 4406,
      "ĠCazur": 4407,
      "horn": 4408,
      "mulus": 4409,
      "ĠDack": 4410,
      "ĠHire": 4411,
      "rife": 4412,
      "ppin": 4413,
      "Ġvisi": 4414,
      "ĠPippin": 4415,
      "ĠMinotaurs": 4416,
      "ĠStimulus": 4417,
      "nik": 4418,
      "ĠYannik": 4419,
      "ĠRedhorn": 4420,
      "Ġmatter": 4421,
      "Ġvisited": 4422,
      "ĠDue": 4423,
      "ald": 4424,
      "ĠMish": 4425,
      "ceiv": 4426,
      "ored": 4427,
      "omic": 4428,
      "yresis": 4429,
      "ĠRegna": 4430,
      "ĠRope": 4431,
      "Ġphyresis": 4432,
      "ĠKrav": 4433,
      "ĠWorker": 4434,
      "Ġbegins": 4435,
      "Ġseparately": 4436,
      "ĠNatural": 4437,
      "ĠMishra": 4438,
      "Lair": 4439,
      "hield": 4440,
      "over": 4441,
      "ĠBow": 4442,
      "Ġab": 4443,
      "ĠPressure": 4444,
      "ĠFrogs": 4445,
      "ails": 4446,
      "ĠSmash": 4447,
      "kaun": 4448,
      "vive": 4449,
      "wen": 4450,
      "zes": 4451,
      "Ġment": 4452,
      "Ġqual": 4453,
      "inth": 4454,
      "ĠLab": 4455,
      "ĠFive": 4456,
      "ĠArg": 4457,
      "irm": 4458,
      "Ġore": 4459,
      "igh": 4460,
      "kering": 4461,
      "imate": 4462,
      "ĠOkaun": 4463,
      "ĠOwen": 4464,
      "Ġdoor": 4465,
      "moth": 4466,
      "Ġchoosing": 4467,
      "yrinth": 4468,
      "ĠSamut": 4469,
      "ĠOozes": 4470,
      "Ġsurvive": 4471,
      "Ġduplicates": 4472,
      "ĠTinkering": 4473,
      "ĠEverywhere": 4474,
      "Ġmentor": 4475,
      "Ġquality": 4476,
      "ĠLabyrinth": 4477,
      "IS": 4478,
      "col": 4479,
      "ju": 4480,
      "pl": 4481,
      "amer": 4482,
      "ARDIS": 4483,
      "ĠSeven": 4484,
      "ĠTARDIS": 4485,
      "tering": 4486,
      "termin": 4487,
      "ĠGamer": 4488,
      "rop": 4489,
      "ĠReju": 4490,
      "pponents": 4491,
      "ĠOpponents": 4492,
      "ĠAnti": 4493,
      "Ġnet": 4494,
      "ĠMind": 4495,
      "ĠSkunk": 4496,
      "ĠProtocol": 4497,
      "venation": 4498,
      "Ġchangeling": 4499,
      "ĠRejuvenation": 4500,
      "ĠProtocols": 4501,
      "Sw": 4502,
      "spe": 4503,
      "uit": 4504,
      "lep": 4505,
      "Ġfetch": 4506,
      "Ġwrong": 4507,
      "ĠPir": 4508,
      "Ġvisit": 4509,
      "ĠTelep": 4510,
      "ĠCorrupter": 4511,
      "ĠRule": 4512,
      "ĠMidway": 4513,
      "Swamp": 4514,
      "rash": 4515,
      "ĠCrash": 4516,
      "rag": 4517,
      "rall": 4518,
      "Ġfame": 4519,
      "ĠInv": 4520,
      "Ġenlist": 4521,
      "Ġretrace": 4522,
      "illed": 4523,
      "ĠHorses": 4524,
      "ĠChains": 4525,
      "ĠLeth": 4526,
      "Ġingredient": 4527,
      "Ġenlists": 4528,
      "cept": 4529,
      "ana": 4530,
      "ĠSage": 4531,
      "Ġghostform": 4532,
      "ĠAnnihil": 4533,
      "ube": 4534,
      "ĠSpear": 4535,
      "rency": 4536,
      "ĠWasteland": 4537,
      "ĠAnnihilation": 4538,
      "iation": 4539,
      "light": 4540,
      "uity": 4541,
      "ylac": 4542,
      "enuity": 4543,
      "ins": 4544,
      "onas": 4545,
      "tery": 4546,
      "eska": 4547,
      "ĠMire": 4548,
      "ĠUnw": 4549,
      "ĠJeska": 4550,
      "ĠBats": 4551,
      "ĠElmin": 4552,
      "Ġmodular": 4553,
      "ĠRapid": 4554,
      "ĠFanatic": 4555,
      "ĠRhonas": 4556,
      "lightened": 4557,
      "ylactery": 4558,
      "ĠElminster": 4559,
      "bt": 4560,
      "lavite": 4561,
      "anaz": 4562,
      "oubt": 4563,
      "inion": 4564,
      "ĠDoubt": 4565,
      "ĠTris": 4566,
      "ĠTanaz": 4567,
      "ĠLol": 4568,
      "ĠLasher": 4569,
      "Ġdom": 4570,
      "ĠMight": 4571,
      "kelavite": 4572,
      "ĠVeil": 4573,
      "ĠFrost": 4574,
      "ĠSplash": 4575,
      "ĠRobots": 4576,
      "ĠSilvar": 4577,
      "Ġhunger": 4578,
      "ĠOmnath": 4579,
      "ĠTriskelavite": 4580,
      "ĠTanazir": 4581,
      "ĠLolth": 4582,
      "Ġdominion": 4583,
      "auts": 4584,
      "good": 4585,
      "hall": 4586,
      "nn": 4587,
      "sgood": 4588,
      "ĠCaves": 4589,
      "ĠBret": 4590,
      "ĠTong": 4591,
      "ĠTry": 4592,
      "ĠFight": 4593,
      "ĠProud": 4594,
      "Ġconvok": 4595,
      "ĠVron": 4596,
      "ĠThief": 4597,
      "Ġends": 4598,
      "ĠOsgood": 4599,
      "Ġvortex": 4600,
      "ourge": 4601,
      "agard": 4602,
      "ĠElderhall": 4603,
      "ĠBushy": 4604,
      "Ġpart": 4605,
      "ĠJuggernauts": 4606,
      "Ġdeclaring": 4607,
      "ĠShrines": 4608,
      "ĠBodyguard": 4609,
      "ĠFerret": 4610,
      "ĠSunscourge": 4611,
      "ĠOperation": 4612,
      "ĠBretagard": 4613,
      "ĠTongue": 4614,
      "ĠTrynn": 4615,
      "Ġconvoked": 4616,
      "ĠVronos": 4617,
      "mag": 4618,
      "mander": 4619,
      "ama": 4620,
      "ĠRene": 4621,
      "andrix": 4622,
      "Ġpolyp": 4623,
      "Ġhope": 4624,
      "Ġglyph": 4625,
      "iel": 4626,
      "osis": 4627,
      "ĠStrong": 4628,
      "Ġnoncom": 4629,
      "Ġshell": 4630,
      "Ġdrafts": 4631,
      "ĠSorcerous": 4632,
      "ĠQuandrix": 4633,
      "ĠSilver": 4634,
      "ĠZariel": 4635,
      "ĠAntimag": 4636,
      "ĠRenewer": 4637,
      "ĠStronghold": 4638,
      "Ġnoncommander": 4639,
      "ĠAntimagic": 4640,
      "bond": 4641,
      "ons": 4642,
      "ĠAegis": 4643,
      "ĠDurn": 4644,
      "ĠRound": 4645,
      "ĠFes": 4646,
      "ĠMusic": 4647,
      "ĠDeal": 4648,
      "ĠKick": 4649,
      "ades": 4650,
      "Ġarrowhead": 4651,
      "Ġ30": 4652,
      "ĠAllons": 4653,
      "ĠDespair": 4654,
      "Ġsoulbond": 4655,
      "Ġimprovise": 4656,
      "ĠSuppress": 4657,
      "ĠDurnan": 4658,
      "ĠFestering": 4659,
      "Pit": 4660,
      "bos": 4661,
      "rant": 4662,
      "Ġfilibuster": 4663,
      "Ġwild": 4664,
      "ĠMoss": 4665,
      "iltr": 4666,
      "ĠSpiritual": 4667,
      "ĠPhobos": 4668,
      "Ġconjures": 4669,
      "ĠNonlegendary": 4670,
      "Ġcomplete": 4671,
      "ĠInfiltr": 4672,
      "Ġdelve": 4673,
      "ĠInfiltrator": 4674,
      "fly": 4675,
      "tus": 4676,
      "ĠCal": 4677,
      "ĠBait": 4678,
      "Ġaffect": 4679,
      "leader": 4680,
      "Ġsome": 4681,
      "ĠMay": 4682,
      "Ġdemon": 4683,
      "ĠVen": 4684,
      "ĠWarleader": 4685,
      "Ġumbra": 4686,
      "Ġstop": 4687,
      "alliation": 4688,
      "ĠDevast": 4689,
      "ĠExtermin": 4690,
      "Ġsculpt": 4691,
      "ĠBlight": 4692,
      "ĠVirtus": 4693,
      "ĠCalix": 4694,
      "Ġdemonstrate": 4695,
      "Ġsculptor": 4696,
      "uous": 4697,
      "atou": 4698,
      "inuous": 4699,
      "inatou": 4700,
      "ĠSinuous": 4701,
      "ĠHope": 4702,
      "xist": 4703,
      "avelin": 4704,
      "ĠAminatou": 4705,
      "Ġsilver": 4706,
      "kain": 4707,
      "ming": 4708,
      "amun": 4709,
      "denkain": 4710,
      "ĠAug": 4711,
      "ĠDiscovery": 4712,
      "Ġdist": 4713,
      "oke": 4714,
      "ĠEnth": 4715,
      "urb": 4716,
      "ĠNakt": 4717,
      "Ġhatchling": 4718,
      "Ġexiling": 4719,
      "mmet": 4720,
      "ĠTemmet": 4721,
      "shaker": 4722,
      "agos": 4723,
      "ĠMordenkain": 4724,
      "ctions": 4725,
      "ĠNonartifact": 4726,
      "Ġsquad": 4727,
      "ĠWoman": 4728,
      "ĠEarthshaker": 4729,
      "ĠSmoke": 4730,
      "ĠSanctions": 4731,
      "ĠDarkstar": 4732,
      "ĠXenagos": 4733,
      "ĠAugur": 4734,
      "Ġdisturb": 4735,
      "ĠNaktamun": 4736,
      "ĠMordenkainen": 4737,
      "ible": 4738,
      "kk": 4739,
      "nitch": 4740,
      "ĠCiv": 4741,
      "urer": 4742,
      "arac": 4743,
      "onic": 4744,
      "ĠWound": 4745,
      "ĠSiv": 4746,
      "ĠSleight": 4747,
      "ĠSonic": 4748,
      "ĠAb": 4749,
      "teristic": 4750,
      "itri": 4751,
      "ĠUkk": 4752,
      "under": 4753,
      "Ġsnitch": 4754,
      "ĠEncl": 4755,
      "Ġmid": 4756,
      "Ġmeld": 4757,
      "Ġconspire": 4758,
      "ĠThunder": 4759,
      "ima": 4760,
      "Ġcharac": 4761,
      "Ġparalyzation": 4762,
      "Ġdrafting": 4763,
      "ĠCivil": 4764,
      "ĠSivitri": 4765,
      "teristics": 4766,
      "ĠUkkima": 4767,
      "ĠEnclave": 4768,
      "Ġmidway": 4769,
      "ĠThundertrap": 4770,
      "Ġcharacteristics": 4771,
      "ax": 4772,
      "foot": 4773,
      "master": 4774,
      "Ġtri": 4775,
      "ifes": 4776,
      "ĠFlower": 4777,
      "ĠPupa": 4778,
      "Ġmanifes": 4779,
      "ĠUnlock": 4780,
      "self": 4781,
      "ĠElixir": 4782,
      "Ġregenerates": 4783,
      "Ġassigned": 4784,
      "ĠDemili": 4785,
      "ĠSwordmaster": 4786,
      "Ġharmony": 4787,
      "ĠWalked": 4788,
      "Ġtriple": 4789,
      "ĠFlowerfoot": 4790,
      "Ġmanifested": 4791,
      "ĠDemilich": 4792,
      "hyri": 4793,
      "strid": 4794,
      "Ġticke": 4795,
      "ĠBlink": 4796,
      "ĠBolt": 4797,
      "ĠBright": 4798,
      "ĠWits": 4799,
      "ĠEstrid": 4800,
      "inger": 4801,
      "antle": 4802,
      "ral": 4803,
      "Ġpe": 4804,
      "ĠPin": 4805,
      "Ġreviv": 4806,
      "ĠRead": 4807,
      "Ġrolls": 4808,
      "Ġdifferently": 4809,
      "ĠOxen": 4810,
      "ĠReplicated": 4811,
      "ĠHunters": 4812,
      "Ġhourglass": 4813,
      "ĠZephyri": 4814,
      "Ġticket": 4815,
      "ĠBlinkmoth": 4816,
      "Ġrevival": 4817,
      "ĠZephyrim": 4818,
      "da": 4819,
      "mpe": 4820,
      "ĠCrag": 4821,
      "ĠRes": 4822,
      "ĠRho": 4823,
      "ĠHistor": 4824,
      "Ġbush": 4825,
      "ĠPig": 4826,
      "irl": 4827,
      "Ġdefense": 4828,
      "ilient": 4829,
      "pha": 4830,
      "ĠTempe": 4831,
      "Ġalpha": 4832,
      "ĠHammer": 4833,
      "ĠFeeding": 4834,
      "ĠCragflame": 4835,
      "ĠResilient": 4836,
      "ĠRhoda": 4837,
      "ĠHistory": 4838,
      "Ġbushido": 4839,
      "ĠPigs": 4840,
      "ject": 4841,
      "patch": 4842,
      "snow": 4843,
      "ta": 4844,
      "error": 4845,
      "ĠTerror": 4846,
      "ĠRapt": 4847,
      "ĠPaw": 4848,
      "Ġcontested": 4849,
      "pel": 4850,
      "Ġrejection": 4851,
      "Ġbeta": 4852,
      "ĠStrate": 4853,
      "ĠPhyresis": 4854,
      "Ġnonsnow": 4855,
      "ĠProject": 4856,
      "ivan": 4857,
      "ĠImps": 4858,
      "Ġmodal": 4859,
      "ĠDreamstealer": 4860,
      "ĠSculptor": 4861,
      "ĠStars": 4862,
      "ĠRecruit": 4863,
      "Ġdirection": 4864,
      "ĠUltima": 4865,
      "Ġplainswalk": 4866,
      "ralling": 4867,
      "ĠEnthralling": 4868,
      "ĠRaptor": 4869,
      "ĠPawpatch": 4870,
      "race": 4871,
      "valed": 4872,
      "ĠTender": 4873,
      "Ġaid": 4874,
      "Ġaegis": 4875,
      "Ġ11": 4876,
      "ĠFounding": 4877,
      "ĠHive": 4878,
      "mance": 4879,
      "Ġsleep": 4880,
      "Ġmine": 4881,
      "Ġgrace": 4882,
      "rivaled": 4883,
      "Ġplace": 4884,
      "uel": 4885,
      "ĠShrie": 4886,
      "ĠOver": 4887,
      "ĠUnrivaled": 4888,
      "ĠNinjas": 4889,
      "Ġtotals": 4890,
      "guide": 4891,
      "ĠVolo": 4892,
      "ĠPerfor": 4893,
      "ĠLoot": 4894,
      "Ġinfluence": 4895,
      "ĠWildguide": 4896,
      "Ġfinishes": 4897,
      "Ġtraining": 4898,
      "ĠArguel": 4899,
      "ĠShrieking": 4900,
      "ĠPerformance": 4901,
      "Ele": 4902,
      "amma": 4903,
      "arox": 4904,
      "ĠSic": 4905,
      "iss": 4906,
      "ĠFury": 4907,
      "alent": 4908,
      "Ġsee": 4909,
      "Ġwage": 4910,
      "ĠIntervention": 4911,
      "Ġhide": 4912,
      "Ġgamma": 4913,
      "ĠThran": 4914,
      "ĠKarox": 4915,
      "imum": 4916,
      "Ġknowledge": 4917,
      "Ġprevalent": 4918,
      "ĠEyeball": 4919,
      "Ġsecrets": 4920,
      "Ġminimum": 4921,
      "Ġrust": 4922,
      "ĠInfluence": 4923,
      "ĠGenes": 4924,
      "ĠLethality": 4925,
      "ĠSicarian": 4926,
      "Ġhideaway": 4927,
      "Fl": 4928,
      "Salamander": 4929,
      "wing": 4930,
      "tect": 4931,
      "Ġtask": 4932,
      "ĠEyes": 4933,
      "ĠLoy": 4934,
      "entur": 4935,
      "llant": 4936,
      "agellant": 4937,
      "ĠIntimid": 4938,
      "utter": 4939,
      "Ġorig": 4940,
      "Ġdethrone": 4941,
      "low": 4942,
      "Ġreceiv": 4943,
      "ĠArco": 4944,
      "Ġprotect": 4945,
      "ĠForetelling": 4946,
      "ĠNael": 4947,
      "ĠAdventur": 4948,
      "ĠBladewing": 4949,
      "Ġsectors": 4950,
      "ĠThornpl": 4951,
      "Ġacorn": 4952,
      "ĠReverse": 4953,
      "ĠHobbit": 4954,
      "Flagellant": 4955,
      "ĠLoyal": 4956,
      "ĠIntimidator": 4957,
      "Ġorigin": 4958,
      "Ġreceived": 4959,
      "ĠAdventurous": 4960,
      "ĠThornplate": 4961,
      "biti": 4962,
      "oa": 4963,
      "olo": 4964,
      "pip": 4965,
      "rince": 4966,
      "trification": 4967,
      "via": 4968,
      "ĠCredit": 4969,
      "ĠCold": 4970,
      "ĠSyl": 4971,
      "ĠGut": 4972,
      "Ġdiscovery": 4973,
      "Ġprime": 4974,
      "ĠPrince": 4975,
      "Ġmo": 4976,
      "ĠMold": 4977,
      "ketra": 4978,
      "rial": 4979,
      "izoa": 4980,
      "ĠOketra": 4981,
      "ĠStal": 4982,
      "ĠProsp": 4983,
      "Ġambiti": 4984,
      "ĠJoll": 4985,
      "lshift": 4986,
      "ĠLey": 4987,
      "ĠPetrification": 4988,
      "ĠBandit": 4989,
      "Ġsoulshift": 4990,
      "ĠMarine": 4991,
      "ĠGeolo": 4992,
      "ĠAvizoa": 4993,
      "ĠDevastator": 4994,
      "pipes": 4995,
      "ĠSylvia": 4996,
      "ĠGutpipes": 4997,
      "ĠProsperous": 4998,
      "Ġambitious": 4999,
      "ĠJolly": 5000,
      "Vampire": 5001,
      "Ġden": 5002,
      "anx": 5003,
      "stral": 5004,
      "ĠSix": 5005,
      "ĠAeron": 5006,
      "alanx": 5007,
      "ĠCount": 5008,
      "ĠOre": 5009,
      "ĠPhalanx": 5010,
      "ĠDevourer": 5011,
      "ĠParalyzation": 5012,
      "ĠIncubation": 5013,
      "ĠDesertwalk": 5014,
      "ĠCrabs": 5015,
      "Ġdevoured": 5016,
      "ĠSpecies": 5017,
      "ĠHarmony": 5018,
      "ĠMasked": 5019,
      "ĠIngredient": 5020,
      "ĠContact": 5021,
      "Ġfifteen": 5022,
      "Ġabove": 5023,
      "Ġoriginally": 5024,
      "Ġdenial": 5025,
      "ĠAeronaut": 5026,
      "des": 5027,
      "ĠCreat": 5028,
      "ĠCage": 5029,
      "ĠCodes": 5030,
      "oral": 5031,
      "inous": 5032,
      "ĠSummon": 5033,
      "Ġloot": 5034,
      "ĠMat": 5035,
      "ĠForge": 5036,
      "ĠMines": 5037,
      "ĠHyper": 5038,
      "ĠBloodstain": 5039,
      "scape": 5040,
      "ĠManifestation": 5041,
      "ĠAmy": 5042,
      "ĠBoars": 5043,
      "ĠBlaster": 5044,
      "Ġpoisoned": 5045,
      "ĠOtters": 5046,
      "ĠTieflings": 5047,
      "ĠTemporal": 5048,
      "Ġrepeats": 5049,
      "ĠRuinous": 5050,
      "ĠEverything": 5051,
      "ĠStarscape": 5052,
      "Ġsubtract": 5053,
      "ĠCreation": 5054,
      "Ar": 5055,
      "hor": 5056,
      "kes": 5057,
      "sw": 5058,
      "ution": 5059,
      "ĠBall": 5060,
      "aces": 5061,
      "ĠSeparate": 5062,
      "Ġawaken": 5063,
      "ifold": 5064,
      "Ġsleight": 5065,
      "esid": 5066,
      "ĠEnlightened": 5067,
      "ĠPond": 5068,
      "threat": 5069,
      "ĠKhor": 5070,
      "ĠContested": 5071,
      "ĠAscen": 5072,
      "ersion": 5073,
      "ĠForesight": 5074,
      "vath": 5075,
      "ĠNightmares": 5076,
      "Ġkindred": 5077,
      "ĠCase": 5078,
      "ĠManifold": 5079,
      "ĠElimin": 5080,
      "Ġpoisonous": 5081,
      "ĠCroak": 5082,
      "ĠPraesid": 5083,
      "Ġheads": 5084,
      "ĠDiversion": 5085,
      "Ġincreased": 5086,
      "ĠBallistic": 5087,
      "ĠKhorvath": 5088,
      "ĠAscension": 5089,
      "ĠEliminator": 5090,
      "ĠPraesidium": 5091,
      "sing": 5092,
      "rer": 5093,
      "ĠBould": 5094,
      "ĠEzi": 5095,
      "unde": 5096,
      "ĠNet": 5097,
      "ĠValor": 5098,
      "Ġusing": 5099,
      "ogue": 5100,
      "ĠUnless": 5101,
      "ĠPlunde": 5102,
      "ĠAnoin": 5103,
      "ĠProtecti": 5104,
      "ĠSlumber": 5105,
      "Ġkick": 5106,
      "ĠBandits": 5107,
      "Ġembark": 5108,
      "Ġfeeding": 5109,
      "ĠScience": 5110,
      "ĠPriest": 5111,
      "ĠPossession": 5112,
      "ĠMagnet": 5113,
      "ĠAvenger": 5114,
      "ĠSuppressor": 5115,
      "ĠBoulder": 5116,
      "ĠEzio": 5117,
      "ĠPlunderer": 5118,
      "ĠAnointer": 5119,
      "ĠProtectiva": 5120,
      "ging": 5121,
      "ks": 5122,
      "kon": 5123,
      "rent": 5124,
      "tellect": 5125,
      "ofit": 5126,
      "stial": 5127,
      "Ġtails": 5128,
      "ĠBri": 5129,
      "inted": 5130,
      "ĠWatch": 5131,
      "ĠSto": 5132,
      "ĠSleep": 5133,
      "ĠDak": 5134,
      "Ġdisco": 5135,
      "Ġdiscov": 5136,
      "ĠIntellect": 5137,
      "Ġmining": 5138,
      "vey": 5139,
      "vered": 5140,
      "ĠRejection": 5141,
      "ĠSurvey": 5142,
      "ĠCurrent": 5143,
      "ĠCrova": 5144,
      "ĠAwakening": 5145,
      "ĠCelestial": 5146,
      "Ġguidance": 5147,
      "ĠFeed": 5148,
      "Ġworks": 5149,
      "ney": 5150,
      "ĠHeartfire": 5151,
      "Ġjump": 5152,
      "Ġprofit": 5153,
      "Ġprinted": 5154,
      "Ġitems": 5155,
      "Ġprotects": 5156,
      "ĠDakkon": 5157,
      "Ġdiscovered": 5158,
      "Ġdiscovers": 5159,
      "ĠCrovax": 5160,
      "-<": 5161,
      "agon": 5162,
      "bara": 5163,
      "miti": 5164,
      "ybara": 5165,
      "Ġrib": 5166,
      "Ġcarn": 5167,
      "ony": 5168,
      "ĠSling": 5169,
      "ĠAM": 5170,
      "Ġtheft": 5171,
      "ĠEnmiti": 5172,
      "ĠChit": 5173,
      "ĠParade": 5174,
      "ĠParagon": 5175,
      "ĠDetectives": 5176,
      "ĠSkewer": 5177,
      "athy": 5178,
      "ĠMoria": 5179,
      "burr": 5180,
      "ĠSteelburr": 5181,
      "ĠCapybara": 5182,
      "gical": 5183,
      "ĠTelepathy": 5184,
      "ĠGeological": 5185,
      "Ġribbon": 5186,
      "Ġcarnage": 5187,
      "ĠSlinger": 5188,
      "ĠEnmitic": 5189,
      "Col": 5190,
      "IN": 5191,
      "KIN": 5192,
      "fast": 5193,
      "iter": 5194,
      "uka": 5195,
      "ĠCure": 5196,
      "ĠWasp": 5197,
      "ĠApp": 5198,
      "ĠAyes": 5199,
      "ĠTAL": 5200,
      "iser": 5201,
      "raiser": 5202,
      "ĠFilibuster": 5203,
      "ands": 5204,
      "ĠNuka": 5205,
      "ĠAtomic": 5206,
      "ĠThin": 5207,
      "ĠRealm": 5208,
      "ĠWarp": 5209,
      "adfast": 5210,
      "Ġstands": 5211,
      "Ġwhom": 5212,
      "ĠKrakens": 5213,
      "Ġembalm": 5214,
      "ĠWinds": 5215,
      "ĠFlames": 5216,
      "ĠSteadfast": 5217,
      "ĠNonbl": 5218,
      "Ġimpostor": 5219,
      "ĠRecruiter": 5220,
      "ĠCoruscating": 5221,
      "ĠImaginary": 5222,
      "ĠExterminator": 5223,
      "Cola": 5224,
      "KING": 5225,
      "ĠAppraiser": 5226,
      "ĠAyesha": 5227,
      "ĠTALKING": 5228,
      "rough": 5229,
      "ĠCapt": 5230,
      "ĠAhead": 5231,
      "ĠDuty": 5232,
      "Ġduty": 5233,
      "Ġsolve": 5234,
      "ĠNash": 5235,
      "ĠNest": 5236,
      "ĠPris": 5237,
      "ĠInstig": 5238,
      "utation": 5239,
      "ĠThrough": 5240,
      "ĠWizardcycling": 5241,
      "ctly": 5242,
      "ĠCombatant": 5243,
      "Ġflipp": 5244,
      "ĠProven": 5245,
      "Ġblight": 5246,
      "umphant": 5247,
      "ĠChallen": 5248,
      "ĠSerf": 5249,
      "ĠTransmutation": 5250,
      "Ġcrystal": 5251,
      "ĠTriumphant": 5252,
      "ĠNature": 5253,
      "ĠProtector": 5254,
      "ĠAgate": 5255,
      "ĠVenser": 5256,
      "ĠWounds": 5257,
      "ĠCaptain": 5258,
      "ĠNashi": 5259,
      "ĠPrism": 5260,
      "ĠInstigator": 5261,
      "Ġflipping": 5262,
      "ĠChallenge": 5263,
      "Oo": 5264,
      "dim": 5265,
      "dicate": 5266,
      "imb": 5267,
      "iams": 5268,
      "pid": 5269,
      "tre": 5270,
      "tune": 5271,
      "yer": 5272,
      "ension": 5273,
      "onna": 5274,
      "ĠDonna": 5275,
      "ism": 5276,
      "Ġske": 5277,
      "ĠIntre": 5278,
      "Ġmake": 5279,
      "rider": 5280,
      "ampath": 5281,
      "Ġfortune": 5282,
      "ĠClimb": 5283,
      "olism": 5284,
      "Ġdoing": 5285,
      "ĠAnd": 5286,
      "ĠWurms": 5287,
      "petuous": 5288,
      "Ġevolve": 5289,
      "abolism": 5290,
      "ĠTransdim": 5291,
      "ĠOutrider": 5292,
      "ĠWilliams": 5293,
      "Ġcomponent": 5294,
      "ĠMetabolism": 5295,
      "ĠTakeover": 5296,
      "ĠSteampath": 5297,
      "ĠWalking": 5298,
      "ĠImpetuous": 5299,
      "ĠCharger": 5300,
      "ĠBetrayer": 5301,
      "Ooze": 5302,
      "ensional": 5303,
      "Ġskewer": 5304,
      "ĠIntrepid": 5305,
      "ĠTransdimensional": 5306,
      "cent": 5307,
      "Ġtrap": 5308,
      "ĠIrid": 5309,
      "inel": 5310,
      "ĠFung": 5311,
      "ĠFinch": 5312,
      "ĠEntity": 5313,
      "Ġhides": 5314,
      "Ġintervention": 5315,
      "Ġ25": 5316,
      "ĠVi": 5317,
      "ĠVinel": 5318,
      "ĠKnowledge": 5319,
      "ĠOmen": 5320,
      "ĠTheft": 5321,
      "Ġchorus": 5322,
      "ĠOrb": 5323,
      "ĠElven": 5324,
      "Ġforeshadow": 5325,
      "ĠAdventurer": 5326,
      "ĠFormation": 5327,
      "ĠProtege": 5328,
      "ĠIridescent": 5329,
      "ĠFungi": 5330,
      "ĠVinelasher": 5331,
      "Shield": 5332,
      "eak": 5333,
      "ease": 5334,
      "ĠCau": 5335,
      "ĠCease": 5336,
      "tealer": 5337,
      "asma": 5338,
      "ĠRamp": 5339,
      "ĠLast": 5340,
      "ĠPoun": 5341,
      "Ġepic": 5342,
      "Ġconde": 5343,
      "ĠMama": 5344,
      "ldron": 5345,
      "ĠAttack": 5346,
      "ries": 5347,
      "Ġforag": 5348,
      "Ġisolation": 5349,
      "ĠShell": 5350,
      "ĠShivan": 5351,
      "ĠSneak": 5352,
      "ĠAdorn": 5353,
      "Ġscries": 5354,
      "Ġinvestigates": 5355,
      "Ġvoter": 5356,
      "Ġduplic": 5357,
      "avering": 5358,
      "ĠHourglass": 5359,
      "mnation": 5360,
      "ĠCoruscation": 5361,
      "ĠUnwavering": 5362,
      "ĠGenestealer": 5363,
      "ĠCauldron": 5364,
      "ĠCeaseless": 5365,
      "ĠRampager": 5366,
      "ĠPouncer": 5367,
      "Ġcondemnation": 5368,
      "Ġforaging": 5369,
      "ĠAdorned": 5370,
      "Ġduplication": 5371,
      "Rief": 5372,
      "heart": 5373,
      "ik": 5374,
      "Ġqui": 5375,
      "reak": 5376,
      "ĠCube": 5377,
      "tegr": 5378,
      "ĠComing": 5379,
      "ĠBreak": 5380,
      "integr": 5381,
      "ĠTrue": 5382,
      "ĠRul": 5383,
      "ĠHoofprint": 5384,
      "urion": 5385,
      "Ġwar": 5386,
      "ĠYouth": 5387,
      "ĠThrow": 5388,
      "ĠRel": 5389,
      "ĠKiss": 5390,
      "ĠStory": 5391,
      "ĠOran": 5392,
      "ĠCenturion": 5393,
      "ĠLeap": 5394,
      "ront": 5395,
      "ĠCrown": 5396,
      "ĠGorgons": 5397,
      "Ġreprieve": 5398,
      "ĠDisintegr": 5399,
      "ĠDuelist": 5400,
      "ĠTempest": 5401,
      "Ġquill": 5402,
      "ĠTrueheart": 5403,
      "ĠRulik": 5404,
      "ĠYouthful": 5405,
      "bbon": 5406,
      "cing": 5407,
      "mantle": 5408,
      "ruth": 5409,
      "Ġtruth": 5410,
      "ĠIcing": 5411,
      "ĠBlock": 5412,
      "ĠWage": 5413,
      "ĠRub": 5414,
      "ĠRuth": 5415,
      "ĠLove": 5416,
      "ĠFind": 5417,
      "ĠFellowship": 5418,
      "ĠFallen": 5419,
      "ĠDec": 5420,
      "ĠShess": 5421,
      "omination": 5422,
      "death": 5423,
      "ival": 5424,
      "ĠMons": 5425,
      "avy": 5426,
      "ĠImposs": 5427,
      "ĠLeviathans": 5428,
      "Ġafterlife": 5429,
      "ĠRibbon": 5430,
      "ĠRevival": 5431,
      "Ġprevious": 5432,
      "ĠHeavy": 5433,
      "ĠMelds": 5434,
      "ĠGenius": 5435,
      "ĠThornmantle": 5436,
      "ĠHonored": 5437,
      "ĠAbomination": 5438,
      "ĠIcingdeath": 5439,
      "ĠBlocking": 5440,
      "ĠRuthless": 5441,
      "ĠShessra": 5442,
      "ĠImpossible": 5443,
      "Crop": 5444,
      "aeron": 5445,
      "pit": 5446,
      "zerker": 5447,
      "anana": 5448,
      "strial": 5449,
      "Ġcage": 5450,
      "ĠBer": 5451,
      "ĠBanana": 5452,
      "ĠAber": 5453,
      "ĠTah": 5454,
      "ĠGrad": 5455,
      "ĠGirl": 5456,
      "itro": 5457,
      "Ġpsych": 5458,
      "chel": 5459,
      "terspit": 5460,
      "ĠArrowhead": 5461,
      "ĠFly": 5462,
      "ĠNitro": 5463,
      "ĠPolyp": 5464,
      "ĠIndu": 5465,
      "vest": 5466,
      "Ġhoofprint": 5467,
      "ĠUnity": 5468,
      "ĠStalker": 5469,
      "ĠPhaeron": 5470,
      "umble": 5471,
      "ĠAnimate": 5472,
      "ĠGolems": 5473,
      "isher": 5474,
      "ĠImpostor": 5475,
      "ĠMannequin": 5476,
      "Ġwinch": 5477,
      "ĠSatchel": 5478,
      "ĠSkirm": 5479,
      "ĠEternity": 5480,
      "ĠShields": 5481,
      "ĠCarrion": 5482,
      "Ġjust": 5483,
      "Ġmoves": 5484,
      "ĠChitterspit": 5485,
      "strialist": 5486,
      "ĠBerzerker": 5487,
      "ĠAberrant": 5488,
      "ĠGrady": 5489,
      "Ġpsychosis": 5490,
      "ĠIndustrialist": 5491,
      "ĠSkirmisher": 5492,
      "ĠChitterspitter": 5493,
      "Ph": 5494,
      "Wime": 5495,
      "wl": 5496,
      "yser": 5497,
      "reaten": 5498,
      "amar": 5499,
      "ĠIg": 5500,
      "ĠBarge": 5501,
      "ĠBribery": 5502,
      "ĠTun": 5503,
      "ĠTask": 5504,
      "ĠFaces": 5505,
      "ched": 5506,
      "Ġfree": 5507,
      "veilled": 5508,
      "ĠThreaten": 5509,
      "ĠKeen": 5510,
      "ĠSpite": 5511,
      "ĠLanding": 5512,
      "ĠOmin": 5513,
      "ĠPhage": 5514,
      "ĠMerchant": 5515,
      "allic": 5516,
      "ĠTimey": 5517,
      "ĠMany": 5518,
      "tramar": 5519,
      "Ġsurveilled": 5520,
      "eemer": 5521,
      "ĠTrapped": 5522,
      "ĠHarald": 5523,
      "ĠRepair": 5524,
      "ĠMetallic": 5525,
      "ĠRedeemer": 5526,
      "ĠMagn": 5527,
      "Ġelixir": 5528,
      "ĠBrawl": 5529,
      "Ġripple": 5530,
      "ĠUltramar": 5531,
      "ĠPrey": 5532,
      "ĠSculptures": 5533,
      "ĠScavenging": 5534,
      "ĠArcanum": 5535,
      "ĠHonour": 5536,
      "Wimey": 5537,
      "ĠTunnel": 5538,
      "ĠOminous": 5539,
      "ĠUltramarines": 5540,
      "aaz": 5541,
      "em": 5542,
      "gist": 5543,
      "ktu": 5544,
      "uktu": 5545,
      "rede": 5546,
      "ĠBind": 5547,
      "ĠBrand": 5548,
      "types": 5549,
      "asion": 5550,
      "ĠWater": 5551,
      "edient": 5552,
      "ĠSection": 5553,
      "ĠDown": 5554,
      "ĠTax": 5555,
      "ĠTuktu": 5556,
      "unburst": 5557,
      "Ġsunburst": 5558,
      "ĠInsight": 5559,
      "igaaz": 5560,
      "ĠVitality": 5561,
      "ĠSplin": 5562,
      "Ġbegun": 5563,
      "Ġmannequin": 5564,
      "ĠUnrede": 5565,
      "ĠPhyl": 5566,
      "Ġstrife": 5567,
      "ĠChief": 5568,
      "mpak": 5569,
      "ĠBooster": 5570,
      "ĠAlway": 5571,
      "ĠStimpak": 5572,
      "ĠHalflings": 5573,
      "ĠTrader": 5574,
      "ĠPerpetually": 5575,
      "Ġexpedient": 5576,
      "new": 5577,
      "ĠWhisper": 5578,
      "ĠDarigaaz": 5579,
      "ĠInvasion": 5580,
      "ĠStrategist": 5581,
      "emed": 5582,
      "ĠBinding": 5583,
      "ĠTuktuk": 5584,
      "ĠSplinter": 5585,
      "ĠUnredeemed": 5586,
      "ĠPhylath": 5587,
      "ĠAlways": 5588,
      "Fa": 5589,
      "Is": 5590,
      "bling": 5591,
      "iate": 5592,
      "ĠImm": 5593,
      "ĠBrave": 5594,
      "ĠWins": 5595,
      "ediate": 5596,
      "ĠSell": 5597,
      "ĠTim": 5598,
      "ĠRun": 5599,
      "enth": 5600,
      "ister": 5601,
      "icious": 5602,
      "ĠArrow": 5603,
      "ĠMad": 5604,
      "ĠVicious": 5605,
      "holy": 5606,
      "cel": 5607,
      "ĠUnquest": 5608,
      "ĠUnholy": 5609,
      "ionable": 5610,
      "ĠBeams": 5611,
      "ĠContract": 5612,
      "Ġvitality": 5613,
      "Ġneed": 5614,
      "ĠReturned": 5615,
      "ĠParcel": 5616,
      "ĠLizards": 5617,
      "ĠMeet": 5618,
      "ĠCloister": 5619,
      "ĠReprieve": 5620,
      "ĠCrystal": 5621,
      "Ġoffspring": 5622,
      "ĠImaginative": 5623,
      "Faerie": 5624,
      "Island": 5625,
      "ĠImmediate": 5626,
      "ĠTiming": 5627,
      "ĠMadame": 5628,
      "ĠUnquestionable": 5629,
      "ĠImmediately": 5630,
      "cal": 5631,
      "dan": 5632,
      "ener": 5633,
      "ĠClock": 5634,
      "ĠBab": 5635,
      "lord": 5636,
      "ascal": 5637,
      "acred": 5638,
      "ĠSie": 5639,
      "ĠSacred": 5640,
      "ĠRascal": 5641,
      "ĠGreat": 5642,
      "alad": 5643,
      "ĠPalad": 5644,
      "astra": 5645,
      "ĠMu": 5646,
      "ĠVastra": 5647,
      "ckery": 5648,
      "Ġstore": 5649,
      "ĠChosen": 5650,
      "ĠRegener": 5651,
      "ĠJet": 5652,
      "ĠDescent": 5653,
      "ĠLet": 5654,
      "ĠGoaded": 5655,
      "ĠHaldan": 5656,
      "raband": 5657,
      "ĠRabbits": 5658,
      "Ġincarnation": 5659,
      "bearers": 5660,
      "ĠMockery": 5661,
      "Ġbidder": 5662,
      "ĠIngenuity": 5663,
      "ĠContraband": 5664,
      "ĠBaby": 5665,
      "ĠSiege": 5666,
      "ĠPaladin": 5667,
      "ĠRegeneration": 5668,
      "came": 5669,
      "io": 5670,
      "mic": 5671,
      "rdom": 5672,
      "very": 5673,
      "vite": 5674,
      "ĠCust": 5675,
      "ĠBio": 5676,
      "tyrdom": 5677,
      "asmic": 5678,
      "ĠSoot": 5679,
      "ĠTro": 5680,
      "terrog": 5681,
      "ĠGren": 5682,
      "les": 5683,
      "ĠInterrog": 5684,
      "Ġmusic": 5685,
      "Ġhom": 5686,
      "Ġindicate": 5687,
      "ĠThous": 5688,
      "Ġbecame": 5689,
      "ĠPhylactery": 5690,
      "odes": 5691,
      "ĠForeshadow": 5692,
      "ĠIsolation": 5693,
      "ĠSwarm": 5694,
      "ĠLeading": 5695,
      "ĠTetra": 5696,
      "Ġnonblue": 5697,
      "ĠRecovery": 5698,
      "ĠHeat": 5699,
      "ĠHeist": 5700,
      "Ġbloodstain": 5701,
      "ĠMartyrdom": 5702,
      "ĠFancy": 5703,
      "ĠNew": 5704,
      "ĠDarien": 5705,
      "Elemental": 5706,
      "ĠCustodes": 5707,
      "ĠGrenades": 5708,
      "ĠInterrogate": 5709,
      "Ġhomage": 5710,
      "Ġindicated": 5711,
      "ĠThousand": 5712,
      "ĠTetravite": 5713,
      "app": 5714,
      "kara": 5715,
      "ĠCab": 5716,
      "atural": 5717,
      "Ġcur": 5718,
      "Ġtreasure": 5719,
      "ĠBale": 5720,
      "ĠSigil": 5721,
      "ĠLads": 5722,
      "ĠFigh": 5723,
      "ĠNod": 5724,
      "ĠMach": 5725,
      "keleton": 5726,
      "Ġnatural": 5727,
      "wall": 5728,
      "ĠStrife": 5729,
      "Ġleaving": 5730,
      "Ġshe": 5731,
      "ĠAlluring": 5732,
      "ecution": 5733,
      "ĠExecution": 5734,
      "ĠPetal": 5735,
      "Ġmutated": 5736,
      "ĠComponent": 5737,
      "Ġincubation": 5738,
      "ĠHagra": 5739,
      "ĠNikara": 5740,
      "ĠAvid": 5741,
      "ĠMightstone": 5742,
      "ĠVeiled": 5743,
      "ĠCabaretti": 5744,
      "Ġcurrency": 5745,
      "ĠBaleful": 5746,
      "ĠFighting": 5747,
      "ĠNode": 5748,
      "ĠMachines": 5749,
      "dle": 5750,
      "gth": 5751,
      "ric": 5752,
      "tor": 5753,
      "enured": 5754,
      "stric": 5755,
      "Ġtort": 5756,
      "ĠBurn": 5757,
      "ĠButter": 5758,
      "ĠWinch": 5759,
      "edom": 5760,
      "ĠTenured": 5761,
      "lel": 5762,
      "isition": 5763,
      "ĠFront": 5764,
      "allel": 5765,
      "urder": 5766,
      "ĠNone": 5767,
      "ĠMurder": 5768,
      "Ġplaying": 5769,
      "ĠVow": 5770,
      "ĠThay": 5771,
      "ĠKry": 5772,
      "imy": 5773,
      "ĠConstric": 5774,
      "Ġnone": 5775,
      "ĠHornet": 5776,
      "Ġstren": 5777,
      "ĠSnack": 5778,
      "ĠCharm": 5779,
      "ĠParallel": 5780,
      "ĠSlimy": 5781,
      "ĠOctopuses": 5782,
      "Ġremoves": 5783,
      "ĠInquisition": 5784,
      "Ġrules": 5785,
      "ĠFortified": 5786,
      "ĠFreedom": 5787,
      "ĠArcanist": 5788,
      "ĠAgents": 5789,
      "xistent": 5790,
      "Ġawakening": 5791,
      "Ġtorture": 5792,
      "ĠButterfly": 5793,
      "ĠNonexistent": 5794,
      "ĠKrydle": 5795,
      "ĠConstrictor": 5796,
      "Ġstrength": 5797,
      "caster": 5798,
      "my": 5799,
      "ock": 5800,
      "ratic": 5801,
      "wre": 5802,
      "ĠCakes": 5803,
      "ansion": 5804,
      "loring": 5805,
      "ĠSok": 5806,
      "ĠDual": 5807,
      "ĠTail": 5808,
      "leech": 5809,
      "alogue": 5810,
      "Ġbene": 5811,
      "Ġsup": 5812,
      "Ġlock": 5813,
      "Ġreroll": 5814,
      "ĠKen": 5815,
      "ĠShip": 5816,
      "ĠUniv": 5817,
      "ĠPlate": 5818,
      "Ġarea": 5819,
      "Ġlet": 5820,
      "claw": 5821,
      "Ġexpansion": 5822,
      "Ġexploring": 5823,
      "Ġtransformed": 5824,
      "ĠInkcaster": 5825,
      "Ġpacks": 5826,
      "ĠDialogue": 5827,
      "ĠDispel": 5828,
      "Ġmatrix": 5829,
      "rogative": 5830,
      "ĠPrerogative": 5831,
      "ĠSteelclaw": 5832,
      "Ġdirectly": 5833,
      "Army": 5834,
      "wreck": 5835,
      "ĠSokratic": 5836,
      "ĠDualleech": 5837,
      "Ġbeneath": 5838,
      "Ġsuper": 5839,
      "Ġlocked": 5840,
      "ĠShipwreck": 5841,
      "ĠUniverse": 5842,
      "dur": 5843,
      "dog": 5844,
      "fold": 5845,
      "fied": 5846,
      "linn": 5847,
      "pine": 5848,
      "ude": 5849,
      "we": 5850,
      "wage": 5851,
      "atling": 5852,
      "strom": 5853,
      "ĠBur": 5854,
      "ĠGatling": 5855,
      "ĠLance": 5856,
      "ĠArlinn": 5857,
      "ĠPol": 5858,
      "ĠMael": 5859,
      "kewise": 5860,
      "Ġgone": 5861,
      "Ġlikewise": 5862,
      "ĠSprou": 5863,
      "ctified": 5864,
      "Ġshuff": 5865,
      "orphine": 5866,
      "ĠAlpine": 5867,
      "ĠArmour": 5868,
      "ĠUnearthly": 5869,
      "ĠCurrency": 5870,
      "ĠSurvivors": 5871,
      "ĠScions": 5872,
      "ymorphine": 5873,
      "ĠNonwhite": 5874,
      "ĠSpikes": 5875,
      "Ġinclude": 5876,
      "Ġhimself": 5877,
      "ĠDisenchant": 5878,
      "ĠSanctified": 5879,
      "Ġjavelin": 5880,
      "ĠBaldur": 5881,
      "ĠScavenger": 5882,
      "ĠStalking": 5883,
      "ĠWatchdog": 5884,
      "ĠStowage": 5885,
      "ĠBurst": 5886,
      "ĠPolymorphine": 5887,
      "ĠMaelstrom": 5888,
      "ĠSprouting": 5889,
      "Ġshuffled": 5890,
      "Eye": 5891,
      "Food": 5892,
      "aim": 5893,
      "iam": 5894,
      "lit": 5895,
      "mers": 5896,
      "win": 5897,
      "wire": 5898,
      "anic": 5899,
      "Ġcar": 5900,
      "dent": 5901,
      "ĠSif": 5902,
      "ĠTiam": 5903,
      "ĠHay": 5904,
      "ĠArdent": 5905,
      "ĠNever": 5906,
      "ĠPalliation": 5907,
      "ĠMuse": 5908,
      "rion": 5909,
      "Ġrequi": 5910,
      "ider": 5911,
      "Ġstored": 5912,
      "Ġowned": 5913,
      "ĠChant": 5914,
      "ĠGlimmers": 5915,
      "ĠSunlit": 5916,
      "ĠSpores": 5917,
      "berating": 5918,
      "Ġcloaks": 5919,
      "ĠMagical": 5920,
      "Ġaccept": 5921,
      "ĠReverberating": 5922,
      "ĠRules": 5923,
      "ĠMatrix": 5924,
      "winter": 5925,
      "Ġcarrion": 5926,
      "ĠSifters": 5927,
      "ĠTiamat": 5928,
      "ĠHaywire": 5929,
      "ĠNeverwinter": 5930,
      "Ġrequire": 5931,
      "When": 5932,
      "cip": 5933,
      "lat": 5934,
      "lite": 5935,
      "Ġge": 5936,
      "ĠCam": 5937,
      "order": 5938,
      "ĠBrib": 5939,
      "onid": 5940,
      "ĠSch": 5941,
      "ĠSort": 5942,
      "ĠDust": 5943,
      "geyser": 5944,
      "itous": 5945,
      "ĠHop": 5946,
      "Ġsec": 5947,
      "llin": 5948,
      "Ġtower": 5949,
      "urity": 5950,
      "brani": 5951,
      "umal": 5952,
      "ĠMining": 5953,
      "ĠArchite": 5954,
      "Ġproce": 5955,
      "ĠCitizens": 5956,
      "Ġphylactery": 5957,
      "ĠLeonid": 5958,
      "ĠAffirm": 5959,
      "Ġremoving": 5960,
      "Ġheight": 5961,
      "urotra": 5962,
      "ĠBrallin": 5963,
      "ĠPrecip": 5964,
      "ĠBraingeyser": 5965,
      "ĠNeurotra": 5966,
      "Ġincrease": 5967,
      "ĠCharlat": 5968,
      "ĠDueling": 5969,
      "speaker": 5970,
      "Ġpeace": 5971,
      "ĠSummons": 5972,
      "ĠVibrani": 5973,
      "ĠDecimate": 5974,
      "Ġgem": 5975,
      "ĠCamarid": 5976,
      "ĠBribe": 5977,
      "ĠSche": 5978,
      "ĠDustspeaker": 5979,
      "ĠHoplite": 5980,
      "Ġsecurity": 5981,
      "ĠArchitect": 5982,
      "ĠLeonidas": 5983,
      "ĠAffirmative": 5984,
      "ĠPrecipitous": 5985,
      "ĠNeurotraumal": 5986,
      "ĠCharlatan": 5987,
      "ĠVibranium": 5988,
      "hire": 5989,
      "ike": 5990,
      "kh": 5991,
      "vy": 5992,
      "enna": 5993,
      "ĠCunning": 5994,
      "ĠCoach": 5995,
      "amili": 5996,
      "ĠSvy": 5997,
      "ĠDup": 5998,
      "ĠDrop": 5999,
      "ĠRod": 6000,
      "ĠLumber": 6001,
      "ĠLike": 6002,
      "ĠFamili": 6003,
      "Ġpalliation": 6004,
      "ĠHarb": 6005,
      "ĠHakt": 6006,
      "Ġfury": 6007,
      "ĠInvoke": 6008,
      "Ġetern": 6009,
      "ĠMuster": 6010,
      "pphire": 6011,
      "Ġread": 6012,
      "elun": 6013,
      "ĠExcess": 6014,
      "Ġ100": 6015,
      "entory": 6016,
      "Ġspite": 6017,
      "licity": 6018,
      "ĠCurses": 6019,
      "ĠSapphire": 6020,
      "ĠRukh": 6021,
      "ĠShards": 6022,
      "ĠImage": 6023,
      "Ġingenuity": 6024,
      "ĠCapenna": 6025,
      "Ġpassed": 6026,
      "Ġpasses": 6027,
      "ĠBetrayal": 6028,
      "ĠInventory": 6029,
      "ĠSvyelun": 6030,
      "ĠDuplicity": 6031,
      "ĠLumbering": 6032,
      "ĠFamiliar": 6033,
      "ĠHarbinger": 6034,
      "ĠHaktos": 6035,
      "Ġeternalize": 6036,
      "con": 6037,
      "ek": 6038,
      "rane": 6039,
      "ystic": 6040,
      "zy": 6041,
      "Ġcro": 6042,
      "ĠSub": 6043,
      "ĠDiffer": 6044,
      "Ġahead": 6045,
      "terrane": 6046,
      "ĠLights": 6047,
      "ĠFal": 6048,
      "ĠHow": 6049,
      "faced": 6050,
      "ĠArtist": 6051,
      "ĠEngu": 6052,
      "Ġbegan": 6053,
      "Ġadded": 6054,
      "changed": 6055,
      "Ġnest": 6056,
      "Ġneare": 6057,
      "ulator": 6058,
      "rease": 6059,
      "ĠChest": 6060,
      "ĠAssign": 6061,
      "ĠRegulator": 6062,
      "ĠJumble": 6063,
      "ĠMeek": 6064,
      "Ġevolves": 6065,
      "ĠBull": 6066,
      "ĠSkilled": 6067,
      "ĠExpress": 6068,
      "ĠGuards": 6069,
      "ĠGem": 6070,
      "bones": 6071,
      "ĠRhystic": 6072,
      "ĠChildren": 6073,
      "Ġtrains": 6074,
      "Ġdecrease": 6075,
      "Ġfifth": 6076,
      "spear": 6077,
      "ĠBrightspear": 6078,
      "ĠBriar": 6079,
      "ĠThink": 6080,
      "ĠNonblack": 6081,
      "ĠBrawler": 6082,
      "Ġcroak": 6083,
      "ĠSubterrane": 6084,
      "ĠDifferent": 6085,
      "ĠLightshield": 6086,
      "ĠFalcon": 6087,
      "ĠEngulf": 6088,
      "Ġnearest": 6089,
      "ĠJumblebones": 6090,
      "ĠSubterranean": 6091,
      "aanes": 6092,
      "ault": 6093,
      "bing": 6094,
      "founding": 6095,
      "hian": 6096,
      "rout": 6097,
      "rhian": 6098,
      "uld": 6099,
      "ences": 6100,
      "acious": 6101,
      "ĠSight": 6102,
      "ĠAuld": 6103,
      "ĠRage": 6104,
      "ĠRush": 6105,
      "ĠRider": 6106,
      "lease": 6107,
      "Ġpet": 6108,
      "ĠNav": 6109,
      "ĠPyr": 6110,
      "Ġconse": 6111,
      "pelin": 6112,
      "ĠMol": 6113,
      "igation": 6114,
      "quences": 6115,
      "ĠRelease": 6116,
      "cestral": 6117,
      "apts": 6118,
      "ĠShred": 6119,
      "ĠConfounding": 6120,
      "ĠAncestral": 6121,
      "semb": 6122,
      "Ġsticke": 6123,
      "ĠProbing": 6124,
      "ĠPiles": 6125,
      "ĠAssault": 6126,
      "ĠSlaanes": 6127,
      "ĠJavelin": 6128,
      "Ġlegal": 6129,
      "ĠArchers": 6130,
      "guine": 6131,
      "ĠSatyrs": 6132,
      "Ġsprout": 6133,
      "ĠPests": 6134,
      "Ġadapts": 6135,
      "ĠInklings": 6136,
      "ĠSecrets": 6137,
      "ĠSynap": 6138,
      "ĠTwice": 6139,
      "Ġislandcycling": 6140,
      "neous": 6141,
      "Ġfoot": 6142,
      "ĠCircuit": 6143,
      "ĠSanguine": 6144,
      "ĠRapacious": 6145,
      "ĠZeppelin": 6146,
      "ĠLegions": 6147,
      "ĠBrightflame": 6148,
      "ĠIgneous": 6149,
      "ĠNewt": 6150,
      "Ġpetrification": 6151,
      "ĠNavigation": 6152,
      "ĠPyrrhian": 6153,
      "Ġconsequences": 6154,
      "ĠMolting": 6155,
      "Ġstickered": 6156,
      "ĠSlaanesh": 6157,
      "Ve": 6158,
      "cav": 6159,
      "ited": 6160,
      "oil": 6161,
      "oidance": 6162,
      "ract": 6163,
      "support": 6164,
      "atana": 6165,
      "ĠBond": 6166,
      "ercycling": 6167,
      "ĠSav": 6168,
      "ĠArab": 6169,
      "ĠDist": 6170,
      "ĠDawn": 6171,
      "ĠLang": 6172,
      "rain": 6173,
      "ĠHere": 6174,
      "Ġbrain": 6175,
      "uno": 6176,
      "Ġsorc": 6177,
      "llig": 6178,
      "oskeleton": 6179,
      "bringer": 6180,
      "ĠKatana": 6181,
      "ĠSpoil": 6182,
      "ĠOwn": 6183,
      "aceful": 6184,
      "Ġvalor": 6185,
      "ivercycling": 6186,
      "ĠAdvisors": 6187,
      "ĠJuno": 6188,
      "ĠExcav": 6189,
      "ĠExoskeleton": 6190,
      "ĠIllusions": 6191,
      "Ġmullig": 6192,
      "Ġdoubles": 6193,
      "ĠPeaceful": 6194,
      "ĠBlades": 6195,
      "Ġbanded": 6196,
      "Ġexploited": 6197,
      "ĠLeeches": 6198,
      "ĠProwler": 6199,
      "Ġincubates": 6200,
      "Ġtakeover": 6201,
      "Ġforestcycling": 6202,
      "Ġdespair": 6203,
      "Ġsoot": 6204,
      "Ġsplit": 6205,
      "Ġslivercycling": 6206,
      "Ġundaunted": 6207,
      "ĠJourney": 6208,
      "ĠClouds": 6209,
      "ĠAvoidance": 6210,
      "sworn": 6211,
      "Vehicle": 6212,
      "ĠSavage": 6213,
      "ĠArabian": 6214,
      "ĠDistract": 6215,
      "ĠDawnbringer": 6216,
      "ĠHeresy": 6217,
      "Ġsorceries": 6218,
      "ĠSpoilers": 6219,
      "ĠExcavation": 6220,
      "Ġmulligan": 6221,
      "Circ": 6222,
      "Rise": 6223,
      "exist": 6224,
      "game": 6225,
      "hance": 6226,
      "mine": 6227,
      "oop": 6228,
      "sum": 6229,
      "yver": 6230,
      "ĠCult": 6231,
      "ĠCoal": 6232,
      "ĠCoexist": 6233,
      "ĠWyver": 6234,
      "ĠTactic": 6235,
      "termine": 6236,
      "Ġ16": 6237,
      "ĠHigh": 6238,
      "ĠEnhance": 6239,
      "ĠPy": 6240,
      "ĠInform": 6241,
      "ĠMender": 6242,
      "Ġdetermine": 6243,
      "ĠConsum": 6244,
      "ĠSnoop": 6245,
      "ĠFocus": 6246,
      "ĠPlants": 6247,
      "Ġhadn": 6248,
      "ĠExplosion": 6249,
      "ĠRaccoons": 6250,
      "ĠSyne": 6251,
      "ĠLock": 6252,
      "ĠRuiner": 6253,
      "ĠGenomic": 6254,
      "Ġsubgame": 6255,
      "ĠFeral": 6256,
      "Ġdecide": 6257,
      "ĠUltimate": 6258,
      "Ġpetal": 6259,
      "Circuit": 6260,
      "ĠCoalition": 6261,
      "ĠCoexistence": 6262,
      "ĠWyvern": 6263,
      "ĠTactician": 6264,
      "ĠEnhancement": 6265,
      "ĠInformation": 6266,
      "ĠConsume": 6267,
      "aan": 6268,
      "jack": 6269,
      "nity": 6270,
      "run": 6271,
      "wid": 6272,
      "eneric": 6273,
      "rey": 6274,
      "rest": 6275,
      "ĠCaan": 6276,
      "Ġcube": 6277,
      "Ġtapp": 6278,
      "erom": 6279,
      "ernity": 6280,
      "ĠSaw": 6281,
      "ĠTears": 6282,
      "ĠEiv": 6283,
      "ĠLure": 6284,
      "ĠFut": 6285,
      "ĠField": 6286,
      "Ġposs": 6287,
      "Ġprey": 6288,
      "ĠArrest": 6289,
      "urist": 6290,
      "Ġlower": 6291,
      "Ġyourself": 6292,
      "ĠPos": 6293,
      "Ġgeneric": 6294,
      "ĠWarlord": 6295,
      "cealed": 6296,
      "ssing": 6297,
      "ĠLift": 6298,
      "omaly": 6299,
      "ĠBeam": 6300,
      "ĠPherom": 6301,
      "ĠConcealed": 6302,
      "ĠAnomaly": 6303,
      "ĠNights": 6304,
      "spawn": 6305,
      "ĠPeer": 6306,
      "ĠTrail": 6307,
      "ĠCrossing": 6308,
      "ĠModernity": 6309,
      "Ġclaim": 6310,
      "Ġadventure": 6311,
      "ĠPackage": 6312,
      "ĠGreenwid": 6313,
      "ĠTombspawn": 6314,
      "Ġplainscycling": 6315,
      "ĠHobbling": 6316,
      "Ġmentors": 6317,
      "ĠRuby": 6318,
      "Ġsupertypes": 6319,
      "Ġtapping": 6320,
      "ĠSawjack": 6321,
      "ĠEivor": 6322,
      "ĠFuturist": 6323,
      "Ġpossession": 6324,
      "ĠPosition": 6325,
      "ĠPheromone": 6326,
      "ĠGreenwidow": 6327,
      "Re": 6328,
      "aemon": 6329,
      "brie": 6330,
      "orched": 6331,
      "Ġtenth": 6332,
      "ĠSig": 6333,
      "ardian": 6334,
      "ĠDaemon": 6335,
      "ĠGather": 6336,
      "rogr": 6337,
      "Ġpri": 6338,
      "ĠHack": 6339,
      "ĠNarf": 6340,
      "rific": 6341,
      "Ġrev": 6342,
      "thal": 6343,
      "ady": 6344,
      "Ġarrow": 6345,
      "ĠShape": 6346,
      "Ġnonred": 6347,
      "ĠHorrific": 6348,
      "Ġstory": 6349,
      "ĠCatti": 6350,
      "Ġlethal": 6351,
      "ĠGiants": 6352,
      "ĠRegrowth": 6353,
      "ĠSlivercycling": 6354,
      "ĠSerpents": 6355,
      "ĠReprogr": 6356,
      "amming": 6357,
      "Ġmountaincycling": 6358,
      "ĠSunscorched": 6359,
      "ĠDisintegration": 6360,
      "Ready": 6361,
      "ĠSigardian": 6362,
      "Ġprize": 6363,
      "ĠHacker": 6364,
      "ĠNarfi": 6365,
      "ĠReprogramming": 6366,
      "Fac": 6367,
      "Frog": 6368,
      "Gn": 6369,
      "Half": 6370,
      "Tails": 6371,
      "iosis": 6372,
      "jan": 6373,
      "lid": 6374,
      "anced": 6375,
      "arlid": 6376,
      "ĠSymph": 6377,
      "ĠSymb": 6378,
      "ĠEight": 6379,
      "Ġenlis": 6380,
      "ĠMost": 6381,
      "ĠReorder": 6382,
      "ths": 6383,
      "ĠOjan": 6384,
      "Ġdoctor": 6385,
      "ĠGnarlid": 6386,
      "ĠDepths": 6387,
      "ĠAdvanced": 6388,
      "ĠOperative": 6389,
      "ĠSupply": 6390,
      "ĠUnwary": 6391,
      "Faced": 6392,
      "Gnome": 6393,
      "ĠSymphony": 6394,
      "ĠSymbiosis": 6395,
      "Ġenlisted": 6396,
      "ĠOjanen": 6397,
      "You": 6398,
      "fang": 6399,
      "lony": 6400,
      "uch": 6401,
      "atue": 6402,
      "ĠCoura": 6403,
      "ĠColony": 6404,
      "edic": 6405,
      "ĠAmb": 6406,
      "ĠAish": 6407,
      "ĠAstral": 6408,
      "ĠDok": 6409,
      "ĠDone": 6410,
      "ĠGet": 6411,
      "ĠLot": 6412,
      "icol": 6413,
      "Ġfind": 6414,
      "ĠNicol": 6415,
      "ĠPry": 6416,
      "ĠPact": 6417,
      "ĠMedic": 6418,
      "ĠDrag": 6419,
      "ĠDead": 6420,
      "ĠGoma": 6421,
      "ĠPlum": 6422,
      "ĠPlasma": 6423,
      "ĠBelow": 6424,
      "ĠStatue": 6425,
      "Ġbecoming": 6426,
      "Ġshred": 6427,
      "mpted": 6428,
      "ĠImport": 6429,
      "ĠInciner": 6430,
      "ĠElderfang": 6431,
      "met": 6432,
      "Ġsurveils": 6433,
      "ĠAscendant": 6434,
      "ĠGargoyles": 6435,
      "Ġtempted": 6436,
      "ĠGremlins": 6437,
      "ĠBreathstealer": 6438,
      "uchi": 6439,
      "ĠCourage": 6440,
      "ĠAmbush": 6441,
      "ĠAisha": 6442,
      "ĠDokuchi": 6443,
      "ĠLotus": 6444,
      "ĠMedicus": 6445,
      "ĠPlummet": 6446,
      "ĠImportant": 6447,
      "ĠIncinerator": 6448,
      "bition": 6449,
      "encer": 6450,
      "ĠCall": 6451,
      "ĠCrush": 6452,
      "ĠWood": 6453,
      "ĠSalam": 6454,
      "ĠEmer": 6455,
      "ĠRit": 6456,
      "ĠGrant": 6457,
      "ĠFada": 6458,
      "anders": 6459,
      "unch": 6460,
      "Ġlosing": 6461,
      "ĠPunch": 6462,
      "Ġunchanged": 6463,
      "ĠVip": 6464,
      "Ġdealing": 6465,
      "ires": 6466,
      "ĠProjection": 6467,
      "ĠRegal": 6468,
      "ĠMinistor": 6469,
      "ĠExhi": 6470,
      "ĠTeam": 6471,
      "ĠBardic": 6472,
      "Ġdevour": 6473,
      "ĠRites": 6474,
      "ĠEmpires": 6475,
      "ĠDivine": 6476,
      "Ġbloodthirst": 6477,
      "ĠEndless": 6478,
      "ĠSilencer": 6479,
      "ĠMagician": 6480,
      "ĠSkysw": 6481,
      "ualist": 6482,
      "ĠRappel": 6483,
      "ĠTeleport": 6484,
      "ĠPrismatic": 6485,
      "ĠRelay": 6486,
      "Ġproceeding": 6487,
      "ĠCrushing": 6488,
      "ĠSalamanders": 6489,
      "ĠEmerald": 6490,
      "ĠRitualist": 6491,
      "ĠViper": 6492,
      "ĠMinistorum": 6493,
      "ĠExhibition": 6494,
      "ĠSkyswarm": 6495,
      "eth": 6496,
      "ewer": 6497,
      "oh": 6498,
      "oph": 6499,
      "ĠSewer": 6500,
      "ĠRouse": 6501,
      "antage": 6502,
      "antom": 6503,
      "ĠGent": 6504,
      "ĠGall": 6505,
      "lesh": 6506,
      "ifying": 6507,
      "rava": 6508,
      "ĠFlesh": 6509,
      "Ġdredge": 6510,
      "ĠPick": 6511,
      "ĠMile": 6512,
      "imus": 6513,
      "ĠPhantom": 6514,
      "ĠAnimus": 6515,
      "Ġ50": 6516,
      "Ġdestroys": 6517,
      "ĠTeeth": 6518,
      "ĠSkoph": 6519,
      "ĠEfrava": 6520,
      "ĠGlass": 6521,
      "pical": 6522,
      "ĠAdvantage": 6523,
      "Ġswampcycling": 6524,
      "Ġteammates": 6525,
      "araoh": 6526,
      "ĠDisarm": 6527,
      "ĠLlama": 6528,
      "Ġharvest": 6529,
      "Pharaoh": 6530,
      "ĠMagnifying": 6531,
      "ĠTropical": 6532,
      "ĠGentle": 6533,
      "ĠGallery": 6534,
      "ĠMileva": 6535,
      "ĠSkophos": 6536,
      "19": 6537,
      "sor": 6538,
      "wor": 6539,
      "ĠCarn": 6540,
      "tial": 6541,
      "ĠBanish": 6542,
      "ĠSec": 6543,
      "ĠSimultaneously": 6544,
      "ĠPox": 6545,
      "Ġmatch": 6546,
      "Ġmuster": 6547,
      "ĠRestart": 6548,
      "toxic": 6549,
      "ivore": 6550,
      "ĠAltan": 6551,
      "Ġoutlast": 6552,
      "ĠChimney": 6553,
      "Ġcopying": 6554,
      "ĠPray": 6555,
      "ĠUnderwor": 6556,
      "ĠCarriage": 6557,
      "ĠMartial": 6558,
      "ĠSteal": 6559,
      "ĠRiggers": 6560,
      "ĠReflections": 6561,
      "Ġabsor": 6562,
      "ĠHypertoxic": 6563,
      "Ġletter": 6564,
      "ĠCarnivore": 6565,
      "ĠBanishment": 6566,
      "ĠAltanak": 6567,
      "ĠUnderworld": 6568,
      "Ġabsorb": 6569,
      "gor": 6570,
      "gine": 6571,
      "iasma": 6572,
      "ku": 6573,
      "nus": 6574,
      "wart": 6575,
      "ĠCook": 6576,
      "Ġtax": 6577,
      "arted": 6578,
      "arco": 6579,
      "tyle": 6580,
      "ĠSarco": 6581,
      "ĠStyle": 6582,
      "ĠAut": 6583,
      "ĠDri": 6584,
      "ĠGro": 6585,
      "itting": 6586,
      "entless": 6587,
      "ĠArach": 6588,
      "ĠEngine": 6589,
      "urry": 6590,
      "ĠFlurry": 6591,
      "ĠMist": 6592,
      "ĠMiasma": 6593,
      "quake": 6594,
      "ĠVoy": 6595,
      "ĠDeceiv": 6596,
      "Ġassemb": 6597,
      "ĠSpitting": 6598,
      "ĠAnimation": 6599,
      "Ġstarted": 6600,
      "phag": 6601,
      "ĠCataly": 6602,
      "ĠSpellgor": 6603,
      "ubs": 6604,
      "ostubs": 6605,
      "ĠPerk": 6606,
      "Ġextort": 6607,
      "ĠRepose": 6608,
      "zzt": 6609,
      "ĠEarthquake": 6610,
      "ĠAccept": 6611,
      "ĠBrood": 6612,
      "ĠNaturalize": 6613,
      "ĠStalwart": 6614,
      "ĠRelentless": 6615,
      "ĠKenku": 6616,
      "ĠCookbook": 6617,
      "Ġtaxes": 6618,
      "ĠSarcophag": 6619,
      "ĠAutostubs": 6620,
      "ĠDrizzt": 6621,
      "ĠGroom": 6622,
      "ĠArachnus": 6623,
      "ĠMists": 6624,
      "ĠVoyager": 6625,
      "ĠDeceiver": 6626,
      "ĠCatalyst": 6627,
      "ĠSpellgorger": 6628,
      "ĠSarcophagus": 6629,
      "Fox": 6630,
      "Gorgon": 6631,
      "by": 6632,
      "solve": 6633,
      "ĠCutter": 6634,
      "anwe": 6635,
      "ĠBig": 6636,
      "ĠBrun": 6637,
      "inery": 6638,
      "ĠSid": 6639,
      "ĠEver": 6640,
      "ĠRos": 6641,
      "ĠGra": 6642,
      "ĠFinery": 6643,
      "Ġpick": 6644,
      "ĠHel": 6645,
      "ĠHanwe": 6646,
      "ĠInto": 6647,
      "ĠMarch": 6648,
      "ĠShare": 6649,
      "outlaw": 6650,
      "Ġnothing": 6651,
      "ĠDjinns": 6652,
      "ĠWeb": 6653,
      "ĠShieldwall": 6654,
      "ĠHarvest": 6655,
      "ĠHeir": 6656,
      "ĠBreathe": 6657,
      "ĠDissolve": 6658,
      "ĠAcid": 6659,
      "ĠRetreat": 6660,
      "ĠInspiring": 6661,
      "Plasmic": 6662,
      "ĠMatter": 6663,
      "ĠBride": 6664,
      "ĠFeeder": 6665,
      "Ġembalmed": 6666,
      "ĠExecutioner": 6667,
      "ĠBigby": 6668,
      "ĠBruna": 6669,
      "ĠSidar": 6670,
      "ĠEverflame": 6671,
      "ĠHelm": 6672,
      "ĠHanweir": 6673,
      "Bear": 6674,
      "Call": 6675,
      "bender": 6676,
      "sorp": 6677,
      "vail": 6678,
      "amator": 6679,
      "tic": 6680,
      "ĠBlow": 6681,
      "acon": 6682,
      "ĠSep": 6683,
      "Ġavail": 6684,
      "ĠGown": 6685,
      "ĠLaw": 6686,
      "andible": 6687,
      "ĠHistoric": 6688,
      "cher": 6689,
      "ĠNine": 6690,
      "ĠIntell": 6691,
      "ĠMandible": 6692,
      "Ġunity": 6693,
      "Ġunleash": 6694,
      "igence": 6695,
      "ĠThrice": 6696,
      "ĠUnde": 6697,
      "ĠBeacon": 6698,
      "yrexian": 6699,
      "ĠProcl": 6700,
      "phase": 6701,
      "ulcher": 6702,
      "ĠJab": 6703,
      "ĠTimebender": 6704,
      "Ġprovoke": 6705,
      "ĠFearless": 6706,
      "ĠServos": 6707,
      "ĠArmory": 6708,
      "ĠTemple": 6709,
      "ispl": 6710,
      "ĠAbsorp": 6711,
      "Elephant": 6712,
      "ĠHyperphase": 6713,
      "Phyrexian": 6714,
      "ĠMagnus": 6715,
      "ĠScheming": 6716,
      "ĠSynaptic": 6717,
      "Called": 6718,
      "ĠBlows": 6719,
      "ĠSepulcher": 6720,
      "Ġavailable": 6721,
      "ĠIntelligence": 6722,
      "ĠMandibles": 6723,
      "ĠUndead": 6724,
      "ĠProclamator": 6725,
      "ĠJabari": 6726,
      "ĠAbsorption": 6727,
      "cle": 6728,
      "dos": 6729,
      "dred": 6730,
      "hou": 6731,
      "hers": 6732,
      "mary": 6733,
      "mage": 6734,
      "ĠCoord": 6735,
      "inate": 6736,
      "inator": 6737,
      "acy": 6738,
      "ĠWield": 6739,
      "ĠSum": 6740,
      "ĠDart": 6741,
      "ĠTerm": 6742,
      "ants": 6743,
      "teran": 6744,
      "ĠGhou": 6745,
      "ĠHail": 6746,
      "Ġsupp": 6747,
      "ĠLegacy": 6748,
      "ĠPinch": 6749,
      "Ġenlightened": 6750,
      "ĠMus": 6751,
      "ĠDrakes": 6752,
      "riven": 6753,
      "ĠVial": 6754,
      "ĠBeyond": 6755,
      "ĠScriven": 6756,
      "ĠMeria": 6757,
      "steel": 6758,
      "ela": 6759,
      "ĠVeteran": 6760,
      "ĠThreshers": 6761,
      "ĠFears": 6762,
      "ĠDominate": 6763,
      "Ġcaused": 6764,
      "ĠMeatho": 6765,
      "agants": 6766,
      "Ġinvestigated": 6767,
      "ĠEfreets": 6768,
      "Ġspending": 6769,
      "Ġevenly": 6770,
      "Ġoffers": 6771,
      "ĠSparkmage": 6772,
      "ĠDarksteel": 6773,
      "ĠRakdos": 6774,
      "Ġhundred": 6775,
      "ĠXenos": 6776,
      "plasmic": 6777,
      "ĠStrategic": 6778,
      "ĠThinking": 6779,
      "ĠNonblue": 6780,
      "ĠDisintegrator": 6781,
      "ĠCoordinator": 6782,
      "ĠWielder": 6783,
      "ĠSummary": 6784,
      "ĠTermagants": 6785,
      "ĠGhoul": 6786,
      "ĠHailer": 6787,
      "Ġsupply": 6788,
      "ĠPincher": 6789,
      "ĠMuscle": 6790,
      "ĠScrivener": 6791,
      "ĠMeathook": 6792,
      "00": 6793,
      "abricate": 6794,
      "bath": 6795,
      "ci": 6796,
      "lave": 6797,
      "wind": 6798,
      "enious": 6799,
      "ĠCity": 6800,
      "orment": 6801,
      "ortal": 6802,
      "Ġcirc": 6803,
      "arrage": 6804,
      "ĠIon": 6805,
      "ĠBoss": 6806,
      "ĠBarrage": 6807,
      "acre": 6808,
      "ĠAcl": 6809,
      "geance": 6810,
      "ĠTit": 6811,
      "ĠTze": 6812,
      "ĠTrick": 6813,
      "ĠTorment": 6814,
      "ĠRot": 6815,
      "entch": 6816,
      "Ġ17": 6817,
      "chon": 6818,
      "Ġfabricate": 6819,
      "ĠPortal": 6820,
      "Ġcontain": 6821,
      "ĠMass": 6822,
      "ĠMantle": 6823,
      "Ġunop": 6824,
      "Ġturning": 6825,
      "ĠShel": 6826,
      "Ġtwelf": 6827,
      "ĠContrap": 6828,
      "Ġ000": 6829,
      "ĠAnci": 6830,
      "otz": 6831,
      "otwall": 6832,
      "yclave": 6833,
      "ĠChapter": 6834,
      "ĠAdept": 6835,
      "ĠBoon": 6836,
      "ĠAllure": 6837,
      "ĠRootwall": 6838,
      "ĠExcept": 6839,
      "ĠWhirl": 6840,
      "ĠSkyclave": 6841,
      "Ġmanifestation": 6842,
      "ĠDevouring": 6843,
      "ĠSunbath": 6844,
      "azotz": 6845,
      "ĠSmasher": 6846,
      "Ġcontinues": 6847,
      "ĠDarkness": 6848,
      "ĠIngenious": 6849,
      "ĠArgoth": 6850,
      "ĠVengeance": 6851,
      "Archon": 6852,
      "ĠIonize": 6853,
      "ĠAclazotz": 6854,
      "ĠTzeentch": 6855,
      "ĠTrickster": 6856,
      "ĠMassacre": 6857,
      "Ġunopened": 6858,
      "ĠShelter": 6859,
      "Ġtwelfth": 6860,
      "ĠContraption": 6861,
      "ĠAncients": 6862,
      "ĠRootwalla": 6863,
      "ĠWhirlwind": 6864,
      "ĠSunbathing": 6865,
      "Hy": 6866,
      "Mage": 6867,
      "Rogue": 6868,
      "Sledge": 6869,
      "Weapon": 6870,
      "cat": 6871,
      "ipped": 6872,
      "ked": 6873,
      "rith": 6874,
      "ulet": 6875,
      "ĠColo": 6876,
      "inia": 6877,
      "ĠSable": 6878,
      "ĠGath": 6879,
      "ĠLegiti": 6880,
      "ĠNettle": 6881,
      "ĠPyre": 6882,
      "ssal": 6883,
      "ctum": 6884,
      "ĠDragonfire": 6885,
      "ered": 6886,
      "ĠShadowcat": 6887,
      "ĠAmulet": 6888,
      "ĠElite": 6889,
      "ĠSkipped": 6890,
      "ĠSpiked": 6891,
      "ĠCarib": 6892,
      "ĠGuan": 6893,
      "ĠGust": 6894,
      "cyst": 6895,
      "ĠCoyotes": 6896,
      "ĠSanctum": 6897,
      "Ġstops": 6898,
      "ĠExterminate": 6899,
      "ĠStomp": 6900,
      "ĠRubinia": 6901,
      "Ġpreviously": 6902,
      "Ġcircle": 6903,
      "Hydra": 6904,
      "ĠColossal": 6905,
      "ĠGathered": 6906,
      "ĠLegitimate": 6907,
      "ĠNettlecyst": 6908,
      "ĠCaribou": 6909,
      "Eld": 6910,
      "Hor": 6911,
      "cannon": 6912,
      "maw": 6913,
      "nith": 6914,
      "pers": 6915,
      "son": 6916,
      "sues": 6917,
      "tched": 6918,
      "zum": 6919,
      "Ġcraft": 6920,
      "Ġtreat": 6921,
      "ĠBold": 6922,
      "ĠBus": 6923,
      "ĠBened": 6924,
      "iness": 6925,
      "lory": 6926,
      "ĠSuit": 6927,
      "ĠTrig": 6928,
      "ĠGlory": 6929,
      "ĠLoud": 6930,
      "roman": 6931,
      "alice": 6932,
      "iction": 6933,
      "ĠArson": 6934,
      "Ġfren": 6935,
      "urant": 6936,
      "ĠPear": 6937,
      "Ġemp": 6938,
      "Ġensues": 6939,
      "xia": 6940,
      "ĠYu": 6941,
      "bricator": 6942,
      "apters": 6943,
      "Ġtopmo": 6944,
      "ĠStab": 6945,
      "ĠPhyrexia": 6946,
      "ĠDragonfly": 6947,
      "ĠCatch": 6948,
      "ĠFoil": 6949,
      "ĠChalice": 6950,
      "Ġchapters": 6951,
      "ĠFabricator": 6952,
      "ĠOrnith": 6953,
      "ops": 6954,
      "opter": 6955,
      "ĠStitched": 6956,
      "meadow": 6957,
      "esting": 6958,
      "akstone": 6959,
      "ĠWeakstone": 6960,
      "ribution": 6961,
      "ĠEggs": 6962,
      "ĠDreadmaw": 6963,
      "ĠGoldmeadow": 6964,
      "ĠInfesting": 6965,
      "ĠEndurant": 6966,
      "ĠRetribution": 6967,
      "ĠFrenzy": 6968,
      "ĠWastes": 6969,
      "ĠNezum": 6970,
      "ĠLethal": 6971,
      "ĠSuppressing": 6972,
      "ĠTempered": 6973,
      "ĠTroops": 6974,
      "ĠPyroman": 6975,
      "ĠCaller": 6976,
      "ĠGrav": 6977,
      "Eldrazi": 6978,
      "Horror": 6979,
      "person": 6980,
      "ĠBusiness": 6981,
      "ĠBenediction": 6982,
      "ĠTriggered": 6983,
      "ĠArsonist": 6984,
      "Ġfrenzy": 6985,
      "ĠPearl": 6986,
      "Ġempty": 6987,
      "Ġtopmost": 6988,
      "ĠOrnithopter": 6989,
      "ĠNezumi": 6990,
      "ĠPyromancer": 6991,
      "ĠBusinessperson": 6992,
      "Brushwagg": 6993,
      "Dinosaur": 6994,
      "af": 6995,
      "ctro": 6996,
      "istant": 6997,
      "kir": 6998,
      "skir": 6999,
      "ton": 7000,
      "tail": 7001,
      "enry": 7002,
      "reign": 7003,
      "ĠBram": 7004,
      "ĠSain": 7005,
      "ĠSacrific": 7006,
      "ĠSove": 7007,
      "ĠDenry": 7008,
      "leaf": 7009,
      "ĠHaw": 7010,
      "henge": 7011,
      "rier": 7012,
      "ckus": 7013,
      "ĠDeton": 7014,
      "blewe": 7015,
      "ĠOath": 7016,
      "ĠClaw": 7017,
      "ĠElectro": 7018,
      "ĠBehe": 7019,
      "lyze": 7020,
      "ĠAngels": 7021,
      "ĠAssistant": 7022,
      "ĠElderleaf": 7023,
      "ĠTragic": 7024,
      "ĠStorms": 7025,
      "Ġdecks": 7026,
      "ĠSuntail": 7027,
      "ĠHarrier": 7028,
      "arius": 7029,
      "ĠGuild": 7030,
      "Ġswap": 7031,
      "ĠRedistribute": 7032,
      "ĠRuckus": 7033,
      "ĠImskir": 7034,
      "Ġthirty": 7035,
      "ĠHollowhenge": 7036,
      "ĠKenrith": 7037,
      "ĠRosarius": 7038,
      "ĠTitanic": 7039,
      "ĠBramblewe": 7040,
      "ĠSainted": 7041,
      "ĠSacrificing": 7042,
      "ĠSovereign": 7043,
      "ĠHawk": 7044,
      "ĠDetonate": 7045,
      "ĠOathsworn": 7046,
      "ĠElectrolyze": 7047,
      "ĠBehemoth": 7048,
      "ĠGuildsworn": 7049,
      "ĠBrambleweft": 7050,
      "Avatar": 7051,
      "ixt": 7052,
      "word": 7053,
      "orch": 7054,
      "story": 7055,
      "asy": 7056,
      "ĠWire": 7057,
      "ray": 7058,
      "ĠArray": 7059,
      "Ġsev": 7060,
      "Ġsixt": 7061,
      "ĠPath": 7062,
      "ĠThrall": 7063,
      "ashivan": 7064,
      "ĠStall": 7065,
      "ĠScorch": 7066,
      "ĠDruids": 7067,
      "ĠAction": 7068,
      "akeasy": 7069,
      "ĠDevoted": 7070,
      "ĠFaith": 7071,
      "ĠBackstory": 7072,
      "ĠSpeakeasy": 7073,
      "ĠPerfect": 7074,
      "ĠPegasi": 7075,
      "Ġdungeons": 7076,
      "ĠPrize": 7077,
      "Ġsubtypes": 7078,
      "ĠChainsword": 7079,
      "ĠViashivan": 7080,
      "Ġletters": 7081,
      "ĠScheme": 7082,
      "ĠWirefly": 7083,
      "Ġseventh": 7084,
      "Ġsixth": 7085,
      "ĠThralls": 7086,
      "ĠScorching": 7087,
      "War": 7088,
      "dition": 7089,
      "frag": 7090,
      "iah": 7091,
      "kite": 7092,
      "mpy": 7093,
      "nife": 7094,
      "san": 7095,
      "sire": 7096,
      "enius": 7097,
      "rectly": 7098,
      "tisan": 7099,
      "ĠBub": 7100,
      "ĠEmpy": 7101,
      "ĠGim": 7102,
      "ĠUtil": 7103,
      "ĠHiv": 7104,
      "ĠArtisan": 7105,
      "Ġfound": 7106,
      "Ġcondition": 7107,
      "Ġenchan": 7108,
      "Ġbelow": 7109,
      "ĠKnife": 7110,
      "ĠStand": 7111,
      "ĠStart": 7112,
      "umination": 7113,
      "Ġchampion": 7114,
      "ĠShapeshifters": 7115,
      "ĠIllumination": 7116,
      "ĠUntapped": 7117,
      "ĠServer": 7118,
      "ĠGodsire": 7119,
      "ĠLeave": 7120,
      "ĠHellkite": 7121,
      "ĠSpawns": 7122,
      "ĠStunning": 7123,
      "Ġremaining": 7124,
      "Ġcorrectly": 7125,
      "rogenius": 7126,
      "ĠOmniss": 7127,
      "ĠReady": 7128,
      "Ġmoved": 7129,
      "ĠHyperfrag": 7130,
      "ĠPyrogenius": 7131,
      "Ġassemble": 7132,
      "Warrior": 7133,
      "ĠBubbling": 7134,
      "ĠEmpyrial": 7135,
      "ĠGimli": 7136,
      "ĠUtility": 7137,
      "ĠHivis": 7138,
      "Ġconditions": 7139,
      "Ġenchanting": 7140,
      "Ġchampioned": 7141,
      "ĠOmnissiah": 7142,
      "Away": 7143,
      "Kanar": 7144,
      "eck": 7145,
      "lide": 7146,
      "mas": 7147,
      "nore": 7148,
      "su": 7149,
      "slide": 7150,
      "xel": 7151,
      "ĠCamp": 7152,
      "atsu": 7153,
      "ĠBlin": 7154,
      "erk": 7155,
      "erald": 7156,
      "ĠSong": 7157,
      "ĠSol": 7158,
      "ĠAxel": 7159,
      "ĠDie": 7160,
      "ĠDispl": 7161,
      "ĠRumble": 7162,
      "ĠGand": 7163,
      "ĠGave": 7164,
      "leer": 7165,
      "ĠFend": 7166,
      "ĠHook": 7167,
      "ĠHerald": 7168,
      "ĠArchan": 7169,
      "Ġmark": 7170,
      "Ġnow": 7171,
      "Ġ23": 7172,
      "epter": 7173,
      "imatsu": 7174,
      "ĠShimatsu": 7175,
      "acement": 7176,
      "ĠScepter": 7177,
      "Ġ40": 7178,
      "ĠCheck": 7179,
      "ĠOrcish": 7180,
      "ĠBerserk": 7181,
      "Ġboast": 7182,
      "ĠBlast": 7183,
      "ĠUnicorns": 7184,
      "ĠRadAway": 7185,
      "ĠRockslide": 7186,
      "ĠScavengers": 7187,
      "ĠBowmas": 7188,
      "ĠOverlord": 7189,
      "ĠGenesis": 7190,
      "ĠIgnore": 7191,
      "ĠBlind": 7192,
      "ĠAxelrod": 7193,
      "ĠDisplacement": 7194,
      "ĠGandalf": 7195,
      "ĠGaveleer": 7196,
      "ĠHooks": 7197,
      "ĠArchangel": 7198,
      "Ġmarked": 7199,
      "ĠBowmasters": 7200,
      "ĠDay": 7201,
      "ĠRash": 7202,
      "Ġburn": 7203,
      "Ġ26": 7204,
      "eption": 7205,
      "ĠPlaces": 7206,
      "ĠArtificers": 7207,
      "ĠUnblocked": 7208,
      "ĠMutating": 7209,
      "ĠJian": 7210,
      "ĠDwarfhold": 7211,
      "ĠVoice": 7212,
      "ĠChanneler": 7213,
      "ĠGoats": 7214,
      "Ġpairs": 7215,
      "ĠUrami": 7216,
      "ĠRevelation": 7217,
      "ĠIngot": 7218,
      "ĠDeception": 7219,
      "ĠSynapse": 7220,
      "ĠRashka": 7221,
      "ĠJiang": 7222,
      "Soldier": 7223,
      "bb": 7224,
      "canic": 7225,
      "friend": 7226,
      "mara": 7227,
      "zon": 7228,
      "ens": 7229,
      "teers": 7230,
      "ĠCobb": 7231,
      "ĠBris": 7232,
      "ĠSet": 7233,
      "ĠDig": 7234,
      "ĠRive": 7235,
      "ĠGive": 7236,
      "ision": 7237,
      "ĠUmara": 7238,
      "ĠHaze": 7239,
      "ayer": 7240,
      "ĠFlayer": 7241,
      "ĠNongreen": 7242,
      "Ġeigh": 7243,
      "Ġhapp": 7244,
      "Ġ29": 7245,
      "ĠVol": 7246,
      "Ġretains": 7247,
      "ĠRest": 7248,
      "ĠRelic": 7249,
      "lockwise": 7250,
      "Ġuses": 7251,
      "ĠUnspe": 7252,
      "ĠBefriend": 7253,
      "Ġbattles": 7254,
      "ĠJast": 7255,
      "akable": 7256,
      "Ġeveryone": 7257,
      "unkyard": 7258,
      "Ġ200": 7259,
      "Ġunlocked": 7260,
      "ĠSenses": 7261,
      "Ġjunkyard": 7262,
      "Ġdecides": 7263,
      "Ġdecision": 7264,
      "ĠDevastating": 7265,
      "ĠCobbled": 7266,
      "ĠBrisela": 7267,
      "ĠRiveteers": 7268,
      "ĠHazezon": 7269,
      "Ġeighth": 7270,
      "Ġhappens": 7271,
      "ĠVolcanic": 7272,
      "ĠRelics": 7273,
      "ĠUnspeakable": 7274,
      "Ġdecisions": 7275,
      "rison": 7276,
      "vanic": 7277,
      "wyn": 7278,
      "ancer": 7279,
      "assemb": 7280,
      "eded": 7281,
      "ĠGal": 7282,
      "ĠLost": 7283,
      "ĠLancer": 7284,
      "ĠHaz": 7285,
      "Ġdetermin": 7286,
      "ĠReassemb": 7287,
      "oret": 7288,
      "ĠZhan": 7289,
      "ĠChanging": 7290,
      "ĠGarrison": 7291,
      "Ġheals": 7292,
      "ĠSyndicate": 7293,
      "ĠMarwyn": 7294,
      "ĠVirus": 7295,
      "ĠGeyser": 7296,
      "Ġdoors": 7297,
      "Ġcompletely": 7298,
      "Ġproceeded": 7299,
      "ĠGalvanic": 7300,
      "ĠHazoret": 7301,
      "Ġdetermined": 7302,
      "ĠReassembling": 7303,
      "ĠZhang": 7304,
      "Ogre": 7305,
      "Skeleton": 7306,
      "Th": 7307,
      "ae": 7308,
      "front": 7309,
      "pal": 7310,
      "turer": 7311,
      "Ġclockwise": 7312,
      "eror": 7313,
      "ĠGis": 7314,
      "ĠGae": 7315,
      "charge": 7316,
      "urturer": 7317,
      "Ġwill": 7318,
      "ĠNurturer": 7319,
      "ĠThrone": 7320,
      "iding": 7321,
      "ĠOpal": 7322,
      "Ġnonblock": 7323,
      "Ġvice": 7324,
      "Ġdrawing": 7325,
      "ĠShamans": 7326,
      "ĠDemonic": 7327,
      "ĠMonks": 7328,
      "ĠBears": 7329,
      "ĠPlotting": 7330,
      "ĠTraps": 7331,
      "ĠTransloc": 7332,
      "ĠStormfront": 7333,
      "ĠEmperor": 7334,
      "Ġchanges": 7335,
      "ĠFei": 7336,
      "ĠDischarge": 7337,
      "ĠBeetle": 7338,
      "Ġdeciding": 7339,
      "ĠArcanis": 7340,
      "Ġkicks": 7341,
      "Ġsupertype": 7342,
      "Ġassembles": 7343,
      "This": 7344,
      "ĠGisela": 7345,
      "ĠGaea": 7346,
      "Ġnonblocking": 7347,
      "ĠTranslocation": 7348,
      "Giant": 7349,
      "Mount": 7350,
      "nine": 7351,
      "ĠFound": 7352,
      "Ġdispl": 7353,
      "Ġrecent": 7354,
      "Ġreorder": 7355,
      "Ġaround": 7356,
      "Ġ31": 7357,
      "Ġvers": 7358,
      "Ġexchanged": 7359,
      "Ġattaches": 7360,
      "ĠAlrun": 7361,
      "ĠRebels": 7362,
      "ĠMultiple": 7363,
      "ĠDoctors": 7364,
      "Ġresolve": 7365,
      "ĠThrulls": 7366,
      "ĠRadiant": 7367,
      "ĠRooms": 7368,
      "Ġninety": 7369,
      "ĠChittering": 7370,
      "ĠFoundry": 7371,
      "Ġdisplays": 7372,
      "Ġversa": 7373,
      "ĠAlrund": 7374,
      "cate": 7375,
      "iral": 7376,
      "miral": 7377,
      "ocate": 7378,
      "piph": 7379,
      "Ġil": 7380,
      "any": 7381,
      "ties": 7382,
      "ĠSele": 7383,
      "ĠAid": 7384,
      "ĠEpiph": 7385,
      "Ġ111": 7386,
      "ĠFier": 7387,
      "ĠForce": 7388,
      "ĠHost": 7389,
      "ments": 7390,
      "ĠKelp": 7391,
      "quities": 7392,
      "ĠClaim": 7393,
      "ĠMonocolored": 7394,
      "ĠAdmiral": 7395,
      "ĠMinor": 7396,
      "ĠSwan": 7397,
      "Ġsurviv": 7398,
      "Ġrolling": 7399,
      "Ġexplored": 7400,
      "ĠBattlements": 7401,
      "Ġchanged": 7402,
      "legal": 7403,
      "ĠAdvocate": 7404,
      "ĠEveryone": 7405,
      "ĠAntiquities": 7406,
      "ĠContraptions": 7407,
      "Ġillegal": 7408,
      "ĠSelect": 7409,
      "ĠEpiphany": 7410,
      "ĠFierce": 7411,
      "ĠClaimed": 7412,
      "Ġsurvived": 7413,
      "Werew": 7414,
      "brew": 7415,
      "cke": 7416,
      "tt": 7417,
      "ston": 7418,
      "Ġtable": 7419,
      "ĠBog": 7420,
      "ĠWitch": 7421,
      "ĠHome": 7422,
      "Ġline": 7423,
      "ĠWarning": 7424,
      "ĠBecke": 7425,
      "lands": 7426,
      "ĠArchery": 7427,
      "ĠIncarn": 7428,
      "ĠPowerston": 7429,
      "Ġradiation": 7430,
      "ĠBroken": 7431,
      "ĠGeology": 7432,
      "ĠRosie": 7433,
      "Werewolf": 7434,
      "ĠBogbrew": 7435,
      "ĠHomelands": 7436,
      "ĠBeckett": 7437,
      "ĠIncarnate": 7438,
      "ĠPowerstones": 7439,
      "Dev": 7440,
      "Gha": 7441,
      "bri": 7442,
      "iast": 7443,
      "rass": 7444,
      "xes": 7445,
      "Ġtie": 7446,
      "ĠBrass": 7447,
      "erter": 7448,
      "ĠSho": 7449,
      "ĠGix": 7450,
      "itu": 7451,
      "Ġfar": 7452,
      "Ġfair": 7453,
      "ĠVitu": 7454,
      "usiast": 7455,
      "ĠDeserter": 7456,
      "Ġboxes": 7457,
      "Ġprevents": 7458,
      "Ġsplic": 7459,
      "ĠCelebri": 7460,
      "Ġzero": 7461,
      "ĠEnthusiast": 7462,
      "ĠGraf": 7463,
      "Ġrecently": 7464,
      "Devil": 7465,
      "Ghazi": 7466,
      "ĠShot": 7467,
      "Ġspliced": 7468,
      "ĠCelebrity": 7469,
      "Pi": 7470,
      "aking": 7471,
      "lÃ": 7472,
      "sters": 7473,
      "ºk": 7474,
      "Ġtaking": 7475,
      "ĠTome": 7476,
      "Ġfading": 7477,
      "Ġstakes": 7478,
      "ĠHamsters": 7479,
      "Spider": 7480,
      "ĠUglÃ": 7481,
      "Ġsubtype": 7482,
      "ĠFencer": 7483,
      "Pirate": 7484,
      "ĠUglÃºk": 7485,
      "Bol": 7486,
      "Mer": 7487,
      "iev": 7488,
      "pie": 7489,
      "redd": 7490,
      "roken": 7491,
      "Ġbroken": 7492,
      "Ġfought": 7493,
      "Ġlab": 7494,
      "Ġnorm": 7495,
      "ĠThiev": 7496,
      "ĠShredd": 7497,
      "Ġdevoid": 7498,
      "Ġgoes": 7499,
      "ania": 7500,
      "ĠMagpie": 7501,
      "Ġmulligans": 7502,
      "ĠTitania": 7503,
      "Bolas": 7504,
      "Merfolk": 7505,
      "Ġlabel": 7506,
      "Ġnormally": 7507,
      "ĠThieving": 7508,
      "ĠShredder": 7509,
      "clockwise": 7510,
      "mall": 7511,
      "ĠWrith": 7512,
      "ĠTown": 7513,
      "Ġ18": 7514,
      "Ġsmall": 7515,
      "Ġended": 7516,
      "Ġcounterclockwise": 7517,
      "Ġways": 7518,
      "Ġoriginal": 7519,
      "ĠWrithing": 7520,
      "ĠTownship": 7521,
      "Ġsmaller": 7522
    },
    "merges": [
      [
        "Ġ",
        ","
      ],
      [
        "Ġ",
        "<"
      ],
      [
        "e",
        "n"
      ],
      [
        "r",
        "e"
      ],
      [
        "Ġ",
        "{"
      ],
      [
        "Ġ",
        "C"
      ],
      [
        "t",
        "e"
      ],
      [
        "a",
        "t"
      ],
      [
        "en",
        "d"
      ],
      [
        "o",
        "f"
      ],
      [
        "ĠC",
        "o"
      ],
      [
        "u",
        "re"
      ],
      [
        "re",
        "at"
      ],
      [
        "reat",
        "ure"
      ],
      [
        "x",
        "t"
      ],
      [
        "te",
        "xt"
      ],
      [
        "|",
        ">"
      ],
      [
        "end",
        "of"
      ],
      [
        "endof",
        "text"
      ],
      [
        "<",
        "|"
      ],
      [
        "č",
        "Ċ"
      ],
      [
        "M",
        "E"
      ],
      [
        "N",
        "A"
      ],
      [
        "a",
        "n"
      ],
      [
        "a",
        "m"
      ],
      [
        "o",
        "r"
      ],
      [
        "s",
        "t"
      ],
      [
        "Ġ",
        "c"
      ],
      [
        "Ġ",
        "t"
      ],
      [
        "ĠC",
        "reature"
      ],
      [
        "t",
        "i"
      ],
      [
        "a",
        "r"
      ],
      [
        "Ġ",
        "I"
      ],
      [
        "am",
        "e"
      ],
      [
        "n",
        "ame"
      ],
      [
        "Ġ",
        "B"
      ],
      [
        "e",
        "r"
      ],
      [
        "o",
        "u"
      ],
      [
        "i",
        "n"
      ],
      [
        "t",
        "y"
      ],
      [
        "l",
        "or"
      ],
      [
        "ĠCo",
        "st"
      ],
      [
        "d",
        "en"
      ],
      [
        "ĠCo",
        "lor"
      ],
      [
        "ti",
        "ty"
      ],
      [
        "den",
        "tity"
      ],
      [
        "ĠI",
        "dentity"
      ],
      [
        "E",
        "ME"
      ],
      [
        "H",
        "EME"
      ],
      [
        "T",
        "HEME"
      ],
      [
        "THEME",
        "S"
      ],
      [
        "a",
        "s"
      ],
      [
        "a",
        "c"
      ],
      [
        "A",
        "R"
      ],
      [
        "AR",
        "D"
      ],
      [
        "C",
        "ARD"
      ],
      [
        "NA",
        "ME"
      ],
      [
        "A",
        "NA"
      ],
      [
        "C",
        "O"
      ],
      [
        "M",
        "ANA"
      ],
      [
        "S",
        "T"
      ],
      [
        "CO",
        "ST"
      ],
      [
        "N",
        "E"
      ],
      [
        "o",
        "n"
      ],
      [
        "T",
        "Y"
      ],
      [
        "I",
        "NE"
      ],
      [
        "L",
        "INE"
      ],
      [
        "P",
        "E"
      ],
      [
        "TY",
        "PE"
      ],
      [
        "Ġ",
        "W"
      ],
      [
        "Ġt",
        "h"
      ],
      [
        "e",
        "d"
      ],
      [
        "Ġ",
        "."
      ],
      [
        "Ġ",
        "S"
      ],
      [
        "L",
        "E"
      ],
      [
        "A",
        "C"
      ],
      [
        "E",
        "X"
      ],
      [
        "O",
        "R"
      ],
      [
        "T",
        "EX"
      ],
      [
        "AC",
        "LE"
      ],
      [
        "OR",
        "ACLE"
      ],
      [
        "TEX",
        "T"
      ],
      [
        "Ġ",
        "A"
      ],
      [
        "Ġ",
        "y"
      ],
      [
        "Ġy",
        "ou"
      ],
      [
        "ar",
        "d"
      ],
      [
        "Ġ",
        "â"
      ],
      [
        "Ġ",
        "D"
      ],
      [
        "Ģ",
        "Ķ"
      ],
      [
        "Ġâ",
        "ĢĶ"
      ],
      [
        "ĠB",
        "as"
      ],
      [
        "ĠBas",
        "ed"
      ],
      [
        "g",
        "e"
      ],
      [
        "Ġ",
        "T"
      ],
      [
        "Ġ",
        "a"
      ],
      [
        "Ġ",
        "E"
      ],
      [
        "Ġ",
        "R"
      ],
      [
        "in",
        "g"
      ],
      [
        "Ġ",
        "\\"
      ],
      [
        "Ġc",
        "reature"
      ],
      [
        "an",
        "t"
      ],
      [
        "te",
        "r"
      ],
      [
        "Ġ",
        "G"
      ],
      [
        "l",
        "e"
      ],
      [
        "i",
        "t"
      ],
      [
        "Ġ",
        "L"
      ],
      [
        "en",
        "t"
      ],
      [
        "Ġ",
        "1"
      ],
      [
        "i",
        "s"
      ],
      [
        "r",
        "o"
      ],
      [
        "Ġ",
        "U"
      ],
      [
        "i",
        "f"
      ],
      [
        "r",
        "a"
      ],
      [
        "Ġ",
        "F"
      ],
      [
        "e",
        "g"
      ],
      [
        "Ġ",
        "d"
      ],
      [
        "an",
        "d"
      ],
      [
        "Ġ",
        "p"
      ],
      [
        "Ġth",
        "e"
      ],
      [
        "a",
        "l"
      ],
      [
        "Ġ",
        "H"
      ],
      [
        "c",
        "h"
      ],
      [
        "m",
        "an"
      ],
      [
        "o",
        "k"
      ],
      [
        "ter",
        "s"
      ],
      [
        "ar",
        "y"
      ],
      [
        "f",
        "ac"
      ],
      [
        "Ġ",
        "b"
      ],
      [
        "a",
        "y"
      ],
      [
        "i",
        "c"
      ],
      [
        "h",
        "en"
      ],
      [
        "ti",
        "fac"
      ],
      [
        "tifac",
        "t"
      ],
      [
        "ok",
        "en"
      ],
      [
        "m",
        "ent"
      ],
      [
        "Ġ",
        "of"
      ],
      [
        "ĠW",
        "hen"
      ],
      [
        "u",
        "n"
      ],
      [
        "ge",
        "t"
      ],
      [
        "ĠA",
        "r"
      ],
      [
        "Ġc",
        "ard"
      ],
      [
        "Ġ",
        "s"
      ],
      [
        "l",
        "l"
      ],
      [
        "Ġ",
        "f"
      ],
      [
        "e",
        "s"
      ],
      [
        "ĠE",
        "n"
      ],
      [
        "Ġt",
        "o"
      ],
      [
        "end",
        "ary"
      ],
      [
        "ĠAr",
        "tifact"
      ],
      [
        "oken",
        "s"
      ],
      [
        "Ġ",
        "it"
      ],
      [
        "ĠL",
        "eg"
      ],
      [
        "ĠLeg",
        "endary"
      ],
      [
        "u",
        "r"
      ],
      [
        "ĠF",
        "l"
      ],
      [
        "ch",
        "ant"
      ],
      [
        "Ġ",
        "l"
      ],
      [
        "ĠT",
        "okens"
      ],
      [
        "u",
        "man"
      ],
      [
        "Ġyou",
        "r"
      ],
      [
        "ĠH",
        "uman"
      ],
      [
        "Ġ",
        "w"
      ],
      [
        "Ġ",
        "N"
      ],
      [
        "ĠEn",
        "chant"
      ],
      [
        "Ġ",
        "P"
      ],
      [
        "Ġ",
        "on"
      ],
      [
        "a",
        "ge"
      ],
      [
        "ĠI",
        "n"
      ],
      [
        "Ġ",
        "m"
      ],
      [
        "am",
        "age"
      ],
      [
        "y",
        "ing"
      ],
      [
        "Ġ",
        "("
      ],
      [
        "t",
        "ro"
      ],
      [
        "v",
        "e"
      ],
      [
        "ar",
        "get"
      ],
      [
        "ĠEnchant",
        "ment"
      ],
      [
        "Ġ",
        "e"
      ],
      [
        "Ġc",
        "on"
      ],
      [
        "Ġcon",
        "tro"
      ],
      [
        "Ġ",
        ":"
      ],
      [
        "ĠFl",
        "ying"
      ],
      [
        "ac",
        "k"
      ],
      [
        "Ġ",
        "an"
      ],
      [
        "Ġ",
        "en"
      ],
      [
        "er",
        "y"
      ],
      [
        "or",
        "c"
      ],
      [
        "Ġth",
        "is"
      ],
      [
        "orc",
        "ery"
      ],
      [
        "e",
        "v"
      ],
      [
        "p",
        "e"
      ],
      [
        "Ġcontro",
        "l"
      ],
      [
        "st",
        "ant"
      ],
      [
        "u",
        "t"
      ],
      [
        "ic",
        "e"
      ],
      [
        "m",
        "b"
      ],
      [
        "ur",
        "n"
      ],
      [
        "r",
        "if"
      ],
      [
        "a",
        "st"
      ],
      [
        "Ġ",
        "M"
      ],
      [
        "ac",
        "rif"
      ],
      [
        "Ġ",
        "h"
      ],
      [
        "Ġ",
        "or"
      ],
      [
        "i",
        "r"
      ],
      [
        "ĠS",
        "orcery"
      ],
      [
        "ĠIn",
        "stant"
      ],
      [
        "k",
        "e"
      ],
      [
        "Ġt",
        "arget"
      ],
      [
        "l",
        "d"
      ],
      [
        "acrif",
        "ice"
      ],
      [
        "Ġ",
        "g"
      ],
      [
        "ĠD",
        "ra"
      ],
      [
        "ev",
        "er"
      ],
      [
        "a",
        "in"
      ],
      [
        "ĠWhen",
        "ever"
      ],
      [
        "Ġen",
        "ters"
      ],
      [
        "Ġc",
        "o"
      ],
      [
        "pe",
        "ll"
      ],
      [
        "t",
        "ack"
      ],
      [
        "ac",
        "h"
      ],
      [
        "ĠCo",
        "un"
      ],
      [
        "it",
        "h"
      ],
      [
        "ou",
        "n"
      ],
      [
        "Ġ",
        "and"
      ],
      [
        "Ġm",
        "ay"
      ],
      [
        "ĠA",
        "t"
      ],
      [
        "r",
        "i"
      ],
      [
        "ĠCoun",
        "ters"
      ],
      [
        "a",
        "te"
      ],
      [
        "ĠS",
        "acrifice"
      ],
      [
        "Ġw",
        "ith"
      ],
      [
        "ĠD",
        "amage"
      ],
      [
        "Ġc",
        "ast"
      ],
      [
        "Ġ",
        "un"
      ],
      [
        "p",
        "p"
      ],
      [
        "Ġ",
        "in"
      ],
      [
        "Ġs",
        "pell"
      ],
      [
        "Ġt",
        "urn"
      ],
      [
        "Ġp",
        "l"
      ],
      [
        "Ġ",
        "at"
      ],
      [
        "Ġ",
        "o"
      ],
      [
        "Ġd",
        "e"
      ],
      [
        "Ġc",
        "oun"
      ],
      [
        "am",
        "p"
      ],
      [
        "x",
        "i"
      ],
      [
        "Ġ",
        "n"
      ],
      [
        "ĠDra",
        "w"
      ],
      [
        "l",
        "o"
      ],
      [
        "i",
        "g"
      ],
      [
        "Ġ",
        "2"
      ],
      [
        "Ġth",
        "at"
      ],
      [
        "i",
        "e"
      ],
      [
        "o",
        "s"
      ],
      [
        "ro",
        "m"
      ],
      [
        "Ġf",
        "rom"
      ],
      [
        "e",
        "p"
      ],
      [
        "q",
        "u"
      ],
      [
        "i",
        "l"
      ],
      [
        "Ġpl",
        "ay"
      ],
      [
        "Ġ",
        "Y"
      ],
      [
        "ĠC",
        "ard"
      ],
      [
        "Ġ",
        "V"
      ],
      [
        "ĠY",
        "ou"
      ],
      [
        "Ġ",
        "re"
      ],
      [
        "Ġplay",
        "er"
      ],
      [
        "if",
        "e"
      ],
      [
        "Ġp",
        "ut"
      ],
      [
        "Ġ",
        ")"
      ],
      [
        "ĠT",
        "h"
      ],
      [
        "ĠR",
        "e"
      ],
      [
        "Ġ",
        "end"
      ],
      [
        "Ġde",
        "al"
      ],
      [
        "c",
        "k"
      ],
      [
        "ĠD",
        "e"
      ],
      [
        "Ġcard",
        "s"
      ],
      [
        "ke",
        "ep"
      ],
      [
        "p",
        "keep"
      ],
      [
        "tack",
        "ing"
      ],
      [
        "i",
        "z"
      ],
      [
        "Ġe",
        "ach"
      ],
      [
        "Ġd",
        "amage"
      ],
      [
        "ĠI",
        "f"
      ],
      [
        "Ġ",
        "get"
      ],
      [
        "mb",
        "at"
      ],
      [
        "ĠW",
        "ar"
      ],
      [
        "ti",
        "l"
      ],
      [
        "t",
        "h"
      ],
      [
        "'",
        "s"
      ],
      [
        "Ġf",
        "or"
      ],
      [
        "iz",
        "ard"
      ],
      [
        "k",
        "er"
      ],
      [
        "lo",
        "ck"
      ],
      [
        "Ġb",
        "e"
      ],
      [
        "Ġ",
        "as"
      ],
      [
        "u",
        "ra"
      ],
      [
        "u",
        "e"
      ],
      [
        "amp",
        "le"
      ],
      [
        "r",
        "ample"
      ],
      [
        "h",
        "t"
      ],
      [
        "b",
        "r"
      ],
      [
        "b",
        "le"
      ],
      [
        "'",
        "t"
      ],
      [
        "Ġ",
        "K"
      ],
      [
        "h",
        "o"
      ],
      [
        "Ġl",
        "i"
      ],
      [
        "ĠAt",
        "tacking"
      ],
      [
        "Ġli",
        "br"
      ],
      [
        "Ġcreature",
        "s"
      ],
      [
        "ĠA",
        "ura"
      ],
      [
        "Ġlibr",
        "ary"
      ],
      [
        "ri",
        "or"
      ],
      [
        "ĠWar",
        "rior"
      ],
      [
        "Ġ",
        "u"
      ],
      [
        "Ġun",
        "til"
      ],
      [
        "ĠW",
        "izard"
      ],
      [
        "ĠS",
        "p"
      ],
      [
        "is",
        "c"
      ],
      [
        "as",
        "te"
      ],
      [
        "qu",
        "i"
      ],
      [
        "t",
        "o"
      ],
      [
        "o",
        "w"
      ],
      [
        "Ġcoun",
        "ter"
      ],
      [
        "re",
        "ate"
      ],
      [
        "isc",
        "ard"
      ],
      [
        "os",
        "e"
      ],
      [
        "xi",
        "le"
      ],
      [
        "Ġc",
        "an"
      ],
      [
        "in",
        "n"
      ],
      [
        "th",
        "er"
      ],
      [
        "i",
        "es"
      ],
      [
        "ĠL",
        "and"
      ],
      [
        "c",
        "e"
      ],
      [
        "on",
        "ent"
      ],
      [
        "pp",
        "onent"
      ],
      [
        "Ġo",
        "pponent"
      ],
      [
        "Ġg",
        "ain"
      ],
      [
        "a",
        "p"
      ],
      [
        "l",
        "in"
      ],
      [
        "ĠT",
        "rample"
      ],
      [
        "d",
        "d"
      ],
      [
        "i",
        "d"
      ],
      [
        "ĠE",
        "qui"
      ],
      [
        "Ġdeal",
        "s"
      ],
      [
        "Ġb",
        "eg"
      ],
      [
        "Ġon",
        "e"
      ],
      [
        "inn",
        "ing"
      ],
      [
        "Ġbeg",
        "inning"
      ],
      [
        "Ġ",
        "man"
      ],
      [
        "r",
        "u"
      ],
      [
        "o",
        "ld"
      ],
      [
        "c",
        "ti"
      ],
      [
        "s",
        "s"
      ],
      [
        "Ġ",
        "is"
      ],
      [
        "i",
        "er"
      ],
      [
        "Ġget",
        "s"
      ],
      [
        "ra",
        "ve"
      ],
      [
        "Ġat",
        "tack"
      ],
      [
        "old",
        "ier"
      ],
      [
        "ĠS",
        "oldier"
      ],
      [
        "Ġh",
        "and"
      ],
      [
        "y",
        "ard"
      ],
      [
        "Ġg",
        "rave"
      ],
      [
        "Ġgrave",
        "yard"
      ],
      [
        "o",
        "re"
      ],
      [
        "a",
        "d"
      ],
      [
        "Ġit",
        "s"
      ],
      [
        "Ġ",
        "ar"
      ],
      [
        "Ġ",
        "X"
      ],
      [
        "w",
        "al"
      ],
      [
        "i",
        "m"
      ],
      [
        "Ġar",
        "tifact"
      ],
      [
        "ĠS",
        "h"
      ],
      [
        "Ġt",
        "w"
      ],
      [
        "o",
        "g"
      ],
      [
        "Ġ",
        "3"
      ],
      [
        "as",
        "h"
      ],
      [
        "Ġ",
        "if"
      ],
      [
        "E",
        "R"
      ],
      [
        "O",
        "W"
      ],
      [
        "P",
        "OW"
      ],
      [
        "POW",
        "ER"
      ],
      [
        "Ġman",
        "a"
      ],
      [
        "pp",
        "ed"
      ],
      [
        "Ġtw",
        "o"
      ],
      [
        "ĠTh",
        "is"
      ],
      [
        "Ġto",
        "p"
      ],
      [
        "ĠH",
        "aste"
      ],
      [
        "ĠEqui",
        "p"
      ],
      [
        "Ġb",
        "lock"
      ],
      [
        "Ġl",
        "ife"
      ],
      [
        "ĠG",
        "o"
      ],
      [
        "Ġ",
        "O"
      ],
      [
        "ĠL",
        "if"
      ],
      [
        "eg",
        "ain"
      ],
      [
        "ĠLif",
        "egain"
      ],
      [
        "Ġan",
        "y"
      ],
      [
        "ĠC",
        "l"
      ],
      [
        "Ġco",
        "st"
      ],
      [
        "an",
        "ce"
      ],
      [
        "o",
        "m"
      ],
      [
        "ri",
        "ke"
      ],
      [
        "ĠU",
        "pkeep"
      ],
      [
        "ho",
        "ose"
      ],
      [
        "l",
        "f"
      ],
      [
        "ig",
        "il"
      ],
      [
        "igil",
        "ance"
      ],
      [
        "Ġ",
        "Z"
      ],
      [
        "le",
        "ss"
      ],
      [
        "ĠU",
        "n"
      ],
      [
        "re",
        "e"
      ],
      [
        "i",
        "ti"
      ],
      [
        "o",
        "mb"
      ],
      [
        "ĠZ",
        "omb"
      ],
      [
        "ĠD",
        "iscard"
      ],
      [
        "ĠEquip",
        "ment"
      ],
      [
        "Ġp",
        "ay"
      ],
      [
        "ig",
        "ht"
      ],
      [
        "an",
        "es"
      ],
      [
        "anes",
        "wal"
      ],
      [
        "ir",
        "st"
      ],
      [
        "t",
        "le"
      ],
      [
        "Ġt",
        "oken"
      ],
      [
        "aneswal",
        "ker"
      ],
      [
        "ir",
        "it"
      ],
      [
        "ĠZomb",
        "ie"
      ],
      [
        "Ġl",
        "and"
      ],
      [
        "ĠSp",
        "irit"
      ],
      [
        "ĠP",
        "l"
      ],
      [
        "c",
        "t"
      ],
      [
        "ie",
        "ld"
      ],
      [
        "ĠE",
        "le"
      ],
      [
        "i",
        "on"
      ],
      [
        "Ġp",
        "er"
      ],
      [
        "Ġcoun",
        "ters"
      ],
      [
        "at",
        "tle"
      ],
      [
        "ĠB",
        "e"
      ],
      [
        "Ġb",
        "attle"
      ],
      [
        "ĠB",
        "G"
      ],
      [
        "ĠFl",
        "ash"
      ],
      [
        "Ġco",
        "mbat"
      ],
      [
        "f",
        "ield"
      ],
      [
        "Ġbattle",
        "field"
      ],
      [
        "u",
        "s"
      ],
      [
        "Ġc",
        "reate"
      ],
      [
        "ac",
        "e"
      ],
      [
        "Ġe",
        "xile"
      ],
      [
        "ĠCo",
        "mbat"
      ],
      [
        "man",
        "ent"
      ],
      [
        "t",
        "urn"
      ],
      [
        "Ġh",
        "as"
      ],
      [
        "Ġper",
        "manent"
      ],
      [
        "ĠE",
        "lf"
      ],
      [
        "on",
        "g"
      ],
      [
        "ĠV",
        "igilance"
      ],
      [
        "ĠS",
        "t"
      ],
      [
        "ment",
        "al"
      ],
      [
        "ĠEle",
        "mental"
      ],
      [
        "ĠT",
        "arget"
      ],
      [
        "Ġattack",
        "s"
      ],
      [
        "ĠS",
        "c"
      ],
      [
        "ĠB",
        "R"
      ],
      [
        "ĠD",
        "ies"
      ],
      [
        "ĠR",
        "og"
      ],
      [
        "ĠP",
        "h"
      ],
      [
        "ĠRog",
        "ue"
      ],
      [
        "Ġin",
        "to"
      ],
      [
        "st",
        "ru"
      ],
      [
        "Ġ",
        "-"
      ],
      [
        "o",
        "l"
      ],
      [
        "er",
        "ic"
      ],
      [
        "ĠCl",
        "eric"
      ],
      [
        "ĠCo",
        "n"
      ],
      [
        "y",
        "re"
      ],
      [
        "ĠPh",
        "yre"
      ],
      [
        "xi",
        "an"
      ],
      [
        "ĠPhyre",
        "xian"
      ],
      [
        "Ġu",
        "pkeep"
      ],
      [
        "Ġth",
        "en"
      ],
      [
        "Ġn",
        "on"
      ],
      [
        "Ġm",
        "ore"
      ],
      [
        "ve",
        "al"
      ],
      [
        "a",
        "pped"
      ],
      [
        "u",
        "mb"
      ],
      [
        "umb",
        "er"
      ],
      [
        "ĠP",
        "ut"
      ],
      [
        "Ġn",
        "umber"
      ],
      [
        "ĠB",
        "U"
      ],
      [
        "te",
        "d"
      ],
      [
        "Ġw",
        "h"
      ],
      [
        "Ġu",
        "p"
      ],
      [
        "ĠG",
        "R"
      ],
      [
        "i",
        "re"
      ],
      [
        "ĠA",
        "dd"
      ],
      [
        "Ġd",
        "o"
      ],
      [
        "ĠL",
        "ife"
      ],
      [
        "e",
        "ar"
      ],
      [
        "Ġgain",
        "s"
      ],
      [
        "ĠA",
        "s"
      ],
      [
        "Ġ",
        "0"
      ],
      [
        "G",
        "H"
      ],
      [
        "O",
        "U"
      ],
      [
        "S",
        "S"
      ],
      [
        "T",
        "OU"
      ],
      [
        "NE",
        "SS"
      ],
      [
        "GH",
        "NESS"
      ],
      [
        "TOU",
        "GHNESS"
      ],
      [
        "en",
        "ace"
      ],
      [
        "ĠPl",
        "aneswalker"
      ],
      [
        "ĠI",
        "t"
      ],
      [
        "Ġd",
        "ra"
      ],
      [
        "ĠBe",
        "ast"
      ],
      [
        "ĠSt",
        "rike"
      ],
      [
        "l",
        "ing"
      ],
      [
        "lin",
        "k"
      ],
      [
        "b",
        "lin"
      ],
      [
        "ĠGo",
        "blin"
      ],
      [
        "ow",
        "er"
      ],
      [
        "Ġ",
        "v"
      ],
      [
        "Ġ",
        "4"
      ],
      [
        "c",
        "om"
      ],
      [
        "ĠG",
        "U"
      ],
      [
        "a",
        "ve"
      ],
      [
        "p",
        "y"
      ],
      [
        "o",
        "ther"
      ],
      [
        "g",
        "on"
      ],
      [
        "ou",
        "t"
      ],
      [
        "n",
        "ight"
      ],
      [
        "ĠK",
        "night"
      ],
      [
        "ĠF",
        "irst"
      ],
      [
        "amp",
        "ire"
      ],
      [
        "l",
        "y"
      ],
      [
        "ĠV",
        "ampire"
      ],
      [
        "Ġdra",
        "w"
      ],
      [
        "Ġan",
        "other"
      ],
      [
        "i",
        "ll"
      ],
      [
        "Ġre",
        "veal"
      ],
      [
        "im",
        "e"
      ],
      [
        "ĠA",
        "n"
      ],
      [
        "o",
        "d"
      ],
      [
        "Ġblock",
        "ed"
      ],
      [
        "am",
        "an"
      ],
      [
        "ĠSh",
        "aman"
      ],
      [
        "ĠDra",
        "gon"
      ],
      [
        "Ġbe",
        "com"
      ],
      [
        "ou",
        "ch"
      ],
      [
        "ĠT",
        "ut"
      ],
      [
        "ĠTut",
        "or"
      ],
      [
        "s",
        "e"
      ],
      [
        "Ġp",
        "ower"
      ],
      [
        "Ġthe",
        "ir"
      ],
      [
        "at",
        "ht"
      ],
      [
        "atht",
        "ouch"
      ],
      [
        "Ġco",
        "lor"
      ],
      [
        "ĠM",
        "enace"
      ],
      [
        "f",
        "ol"
      ],
      [
        "fol",
        "k"
      ],
      [
        "ĠR",
        "U"
      ],
      [
        "Ġf",
        "l"
      ],
      [
        "Ġa",
        "dd"
      ],
      [
        "ch",
        "an"
      ],
      [
        "st",
        "ro"
      ],
      [
        "es",
        "s"
      ],
      [
        "Ġh",
        "ave"
      ],
      [
        "ir",
        "d"
      ],
      [
        "ĠH",
        "or"
      ],
      [
        "Ġ",
        "st"
      ],
      [
        "b",
        "il"
      ],
      [
        "ĠP",
        "ro"
      ],
      [
        "Ġt",
        "apped"
      ],
      [
        "at",
        "ion"
      ],
      [
        "iti",
        "on"
      ],
      [
        "ĠM",
        "er"
      ],
      [
        "r",
        "y"
      ],
      [
        "ĠU",
        "W"
      ],
      [
        "ĠE",
        "xile"
      ],
      [
        "Ġth",
        "ree"
      ],
      [
        "Ġbecom",
        "es"
      ],
      [
        "f",
        "end"
      ],
      [
        "i",
        "ve"
      ],
      [
        "ic",
        "ker"
      ],
      [
        "p",
        "h"
      ],
      [
        "ĠB",
        "ird"
      ],
      [
        "Ġ",
        "less"
      ],
      [
        "chan",
        "ted"
      ],
      [
        "Ġo",
        "ther"
      ],
      [
        "Ġl",
        "ong"
      ],
      [
        "d",
        "e"
      ],
      [
        "Ġc",
        "hoose"
      ],
      [
        "a",
        "ur"
      ],
      [
        "stro",
        "y"
      ],
      [
        "ĠLife",
        "link"
      ],
      [
        "Ġadd",
        "ition"
      ],
      [
        "Ġa",
        "ll"
      ],
      [
        "er",
        "s"
      ],
      [
        "ĠC",
        "hoose"
      ],
      [
        "o",
        "ok"
      ],
      [
        "ĠC",
        "reate"
      ],
      [
        "w",
        "n"
      ],
      [
        "o",
        "t"
      ],
      [
        "Ġb",
        "l"
      ],
      [
        "cti",
        "ble"
      ],
      [
        "stru",
        "ctible"
      ],
      [
        "de",
        "structible"
      ],
      [
        "te",
        "cti"
      ],
      [
        "te",
        "p"
      ],
      [
        "Ġs",
        "tep"
      ],
      [
        "ĠG",
        "W"
      ],
      [
        "i",
        "ty"
      ],
      [
        "Ġb",
        "y"
      ],
      [
        "ĠR",
        "W"
      ],
      [
        "x",
        "p"
      ],
      [
        "Ġa",
        "bil"
      ],
      [
        "ĠDe",
        "athtouch"
      ],
      [
        "Ġn",
        "e"
      ],
      [
        "qu",
        "al"
      ],
      [
        "Ġs",
        "acrifice"
      ],
      [
        "Ġe",
        "qual"
      ],
      [
        "Ġd",
        "ies"
      ],
      [
        "Ġun",
        "t"
      ],
      [
        "ou",
        "ld"
      ],
      [
        "ĠB",
        "W"
      ],
      [
        "e",
        "re"
      ],
      [
        "r",
        "or"
      ],
      [
        "Ġon",
        "ly"
      ],
      [
        "ĠRe",
        "ach"
      ],
      [
        "ĠHor",
        "ror"
      ],
      [
        "Ġcontrol",
        "s"
      ],
      [
        "y",
        "c"
      ],
      [
        "f",
        "f"
      ],
      [
        "ear",
        "ch"
      ],
      [
        "Ġt",
        "ime"
      ],
      [
        "Ġo",
        "wn"
      ],
      [
        "l",
        "and"
      ],
      [
        "ĠE",
        "ach"
      ],
      [
        "u",
        "l"
      ],
      [
        "Ġd",
        "iscard"
      ],
      [
        "ĠRe",
        "turn"
      ],
      [
        "Ġ",
        "am"
      ],
      [
        "Ġs",
        "orcery"
      ],
      [
        "Ġ",
        "fac"
      ],
      [
        "Ġg",
        "re"
      ],
      [
        "ĠC",
        "at"
      ],
      [
        "Ġfac",
        "e"
      ],
      [
        "ĠE",
        "ld"
      ],
      [
        "v",
        "ate"
      ],
      [
        "Ġfl",
        "ying"
      ],
      [
        "Ġre",
        "turn"
      ],
      [
        "Ġne",
        "xt"
      ],
      [
        "ou",
        "r"
      ],
      [
        "Ġaddition",
        "al"
      ],
      [
        "ĠD",
        "ru"
      ],
      [
        "ĠDru",
        "id"
      ],
      [
        "a",
        "ble"
      ],
      [
        "Ġ<",
        "|"
      ],
      [
        "ge",
        "l"
      ],
      [
        "ĠMer",
        "folk"
      ],
      [
        "im",
        "ation"
      ],
      [
        "an",
        "imation"
      ],
      [
        "ĠRe",
        "animation"
      ],
      [
        "ĠAn",
        "gel"
      ],
      [
        "ĠK",
        "icker"
      ],
      [
        "ĠS",
        "n"
      ],
      [
        "Ġwh",
        "i"
      ],
      [
        "Ġw",
        "ould"
      ],
      [
        "d",
        "er"
      ],
      [
        "Ġa",
        "re"
      ],
      [
        "Ġv",
        "al"
      ],
      [
        "al",
        "l"
      ],
      [
        "Ġh",
        "aste"
      ],
      [
        "ĠD",
        "ev"
      ],
      [
        "Ġth",
        "an"
      ],
      [
        "ĠIn",
        "destructible"
      ],
      [
        "Ġval",
        "ue"
      ],
      [
        "re",
        "as"
      ],
      [
        "Ġ",
        "le"
      ],
      [
        "yc",
        "ling"
      ],
      [
        "reas",
        "ure"
      ],
      [
        "ĠT",
        "reasure"
      ],
      [
        "ĠF",
        "o"
      ],
      [
        "fend",
        "er"
      ],
      [
        "Ġon",
        "to"
      ],
      [
        "ĠTh",
        "e"
      ],
      [
        "ti",
        "f"
      ],
      [
        "Ġst",
        "rike"
      ],
      [
        "Ġs",
        "h"
      ],
      [
        "ĠS",
        "pell"
      ],
      [
        "m",
        "on"
      ],
      [
        "Ġthe",
        "m"
      ],
      [
        "tif",
        "ic"
      ],
      [
        "er",
        "ate"
      ],
      [
        "b",
        "lock"
      ],
      [
        "ĠAr",
        "tific"
      ],
      [
        "ĠArtific",
        "er"
      ],
      [
        "z",
        "i"
      ],
      [
        "ra",
        "zi"
      ],
      [
        "ĠEld",
        "razi"
      ],
      [
        "Ġin",
        "stant"
      ],
      [
        "Ġco",
        "py"
      ],
      [
        "or",
        "ph"
      ],
      [
        "Ġe",
        "x"
      ],
      [
        "i",
        "v"
      ],
      [
        "ĠDe",
        "mon"
      ],
      [
        "m",
        "o"
      ],
      [
        "Ġdeal",
        "t"
      ],
      [
        "ou",
        "g"
      ],
      [
        "n",
        "ess"
      ],
      [
        "ĠM",
        "ill"
      ],
      [
        "ĠSpell",
        "s"
      ],
      [
        "u",
        "m"
      ],
      [
        "tecti",
        "on"
      ],
      [
        "ĠSc",
        "ry"
      ],
      [
        "ĠDe",
        "fender"
      ],
      [
        "oug",
        "h"
      ],
      [
        "as",
        "s"
      ],
      [
        "ĠC",
        "ycling"
      ],
      [
        "ĠIn",
        "se"
      ],
      [
        "ĠInse",
        "ct"
      ],
      [
        "Ġen",
        "chant"
      ],
      [
        "e",
        "xp"
      ],
      [
        "ro",
        "of"
      ],
      [
        "exp",
        "roof"
      ],
      [
        "Ġwh",
        "ere"
      ],
      [
        "ĠC",
        "h"
      ],
      [
        "ĠUn",
        "block"
      ],
      [
        "b",
        "ack"
      ],
      [
        "ĠUnblock",
        "able"
      ],
      [
        "Ġunt",
        "ap"
      ],
      [
        "at",
        "ive"
      ],
      [
        "ĠSc",
        "out"
      ],
      [
        "m",
        "p"
      ],
      [
        "Ġt",
        "y"
      ],
      [
        "ĠFo",
        "od"
      ],
      [
        "ur",
        "ing"
      ],
      [
        "Ġam",
        "ong"
      ],
      [
        "ĠP",
        "ay"
      ],
      [
        "ow",
        "n"
      ],
      [
        "ĠEn",
        "chanted"
      ],
      [
        "Ġbl",
        "ack"
      ],
      [
        "ou",
        "ble"
      ],
      [
        "Ġ",
        "5"
      ],
      [
        "a",
        "re"
      ],
      [
        "Ġnon",
        "land"
      ],
      [
        "Ġf",
        "irst"
      ],
      [
        "Ġown",
        "er"
      ],
      [
        "os",
        "es"
      ],
      [
        "ĠP",
        "i"
      ],
      [
        "Ġspell",
        "s"
      ],
      [
        "i",
        "ant"
      ],
      [
        "mo",
        "ve"
      ],
      [
        "ĠDe",
        "stroy"
      ],
      [
        "Ġpl",
        "aneswalker"
      ],
      [
        "Ġun",
        "less"
      ],
      [
        "Ġwhi",
        "te"
      ],
      [
        "stru",
        "ct"
      ],
      [
        "ĠCon",
        "struct"
      ],
      [
        "Ġcontro",
        "ll"
      ],
      [
        "re",
        "d"
      ],
      [
        "Ġex",
        "c"
      ],
      [
        "in",
        "os"
      ],
      [
        "inos",
        "aur"
      ],
      [
        "Ġenchant",
        "ment"
      ],
      [
        "ĠD",
        "inosaur"
      ],
      [
        "iti",
        "es"
      ],
      [
        "ĠCo",
        "py"
      ],
      [
        "Ġcost",
        "s"
      ],
      [
        "on",
        "e"
      ],
      [
        "ĠG",
        "iant"
      ],
      [
        "oun",
        "t"
      ],
      [
        "Ġf",
        "our"
      ],
      [
        "Ġgre",
        "en"
      ],
      [
        "Ġabil",
        "ity"
      ],
      [
        "ra",
        "te"
      ],
      [
        "ĠG",
        "ain"
      ],
      [
        "Ġw",
        "as"
      ],
      [
        "ĠA",
        "cti"
      ],
[...]
