{
  "version": "1.0",
  "truncation": {
    "direction": "Right",
    "max_length": 256,
    "strategy": "LongestFirst",
    "stride": 0
  },
  "padding": {
    "strategy": {
      "Fixed": 256
    },
    "direction": "Right",
    "pad_to_multiple_of": null,
    "pad_id": 1,
    "pad_type_id": 0,
    "pad_token": "<|pad|>"
  },
  "added_tokens": [
    {
      "id": 0,
      "content": "<|endoftext|>",
      "single_word": false,
      "lstrip": false,
      "rstrip": false,
      "normalized": false,
      "special": true
    },
    {
      "id": 1,
      "content": "<|pad|>",
      "single_word": false,
      "lstrip": false,
      "rstrip": false,
      "normalized": false,
      "special": true
    }
  ],
  "normalizer": {
    "type": "Sequence",
    "normalizers": [
      {
        "type": "NFKC"
      }
    ]
  },
  "pre_tokenizer": {
    "type": "ByteLevel",
    "add_prefix_space": false,
    "trim_offsets": true,
    "use_regex": true
  },
  "post_processor": {
    "type": "ByteLevel",
    "add_prefix_space": true,
    "trim_offsets": false,
    "use_regex": true
  },
  "decoder": {
    "type": "ByteLevel",
    "add_prefix_space": true,
    "trim_offsets": true,
    "use_regex": true
  },
  "model": {
    "type": "BPE",
    "dropout": null,
    "unk_token": null,
    "continuing_subword_prefix": null,
    "end_of_word_suffix": null,
    "fuse_unk": false,
    "byte_fallback": false,
    "ignore_merges": false,
    "vocab": {
      "<|endoftext|>": 0,
      "<|pad|>": 1,
      "'": 2,
      "(": 3,
      ")": 4,
      ",": 5,
      "-": 6,
      ".": 7,
      "/": 8,
      "0": 9,
      "1": 10,
      "2": 11,
      "3": 12,
      "4": 13,
      "5": 14,
      "6": 15,
      "7": 16,
      "8": 17,
      "9": 18,
      ":": 19,
      "<": 20,
      ">": 21,
      "A": 22,
      "B": 23,
      "C": 24,
      "D": 25,
      "E": 26,
      "F": 27,
      "G": 28,
      "H": 29,
      "I": 30,
      "J": 31,
      "K": 32,
      "L": 33,
      "M": 34,
      "N": 35,
      "O": 36,
      "P": 37,
      "Q": 38,
      "R": 39,
      "S": 40,
      "T": 41,
      "U": 42,
      "V": 43,
      "W": 44,
      "X": 45,
      "Y": 46,
      "Z": 47,
      "\\": 48,
      "_": 49,
      "a": 50,
      "b": 51,
      "c": 52,
      "d": 53,
      "e": 54,
      "f": 55,
      "g": 56,
      "h": 57,
      "i": 58,
      "j": 59,
      "k": 60,
      "l": 61,
      "m": 62,
      "n": 63,
      "o": 64,
      "p": 65,
      "q": 66,
      "r": 67,
      "s": 68,
      "t": 69,
      "u": 70,
      "v": 71,
      "w": 72,
      "x": 73,
      "y": 74,
      "z": 75,
      "{": 76,
      "|": 77,
      "}": 78,
      "º": 79,
      "Ã": 80,
      "â": 81,
      "Ċ": 82,
      "Ġ": 83,
      "Ģ": 84,
      "Ī": 85,
      "Ĵ": 86,
      "Ķ": 87,
      "Ġ<": 88,
      "Ġ,": 89,
      "en": 90,
      "re": 91,
      "Ġ{": 92,
      "te": 93,
      "ĠC": 94,
      "of": 95,
      "end": 96,
      "at": 97,
      "Ġt": 98,
      "Ġc": 99,
      "xt": 100,
      "text": 101,
      "|>": 102,
      "oftext": 103,
      "endoftext": 104,
      "an": 105,
      "ure": 106,
      "reat": 107,
      "reature": 108,
      "am": 109,
      "ar": 110,
      "ĠCo": 111,
      "Ġ.": 112,
      "or": 113,
      "it": 114,
      "st": 115,
      "<|": 116,
      "ME": 117,
      "NA": 118,
      "ou": 119,
      "er": 120,
      "ame": 121,
      "name": 122,
      "ent": 123,
      "ĠCreature": 124,
      "NE": 125,
      "in": 126,
      "Ġth": 127,
      "ĠI": 128,
      "on": 129,
      "ac": 130,
      "Ġa": 131,
      "Ġy": 132,
      "Ġyou": 133,
      "ĠB": 134,
      "ard": 135,
      "lor": 136,
      "if": 137,
      "ge": 138,
      "ity": 139,
      "TY": 140,
      "ĠCost": 141,
      "ĠColor": 142,
      "dent": 143,
      "LE": 144,
      "dentity": 145,
      "ĠIdentity": 146,
      "AR": 147,
      "ARD": 148,
      "AC": 149,
      "ANA": 150,
      "CO": 151,
      "CARD": 152,
      "EX": 153,
      "EME": 154,
      "HEME": 155,
      "INE": 156,
      "LINE": 157,
      "MANA": 158,
      "OR": 159,
      "PE": 160,
      "ST": 161,
      "TEX": 162,
      "THEME": 163,
      "Ġ<|": 164,
      "NAME": 165,
      "TYPE": 166,
      "ACLE": 167,
      "COST": 168,
      "ORACLE": 169,
      "TEXT": 170,
      "THEMES": 171,
      "ĠW": 172,
      "Ġcreature": 173,
      "as": 174,
      "Ġ1": 175,
      "ed": 176,
      "ĠS": 177,
      "ĠA": 178,
      "ro": 179,
      "Ġd": 180,
      "Ġ\\": 181,
      "Ġp": 182,
      "Ġâ": 183,
      "ĢĶ": 184,
      "ĠâĢĶ": 185,
      "le": 186,
      "is": 187,
      "and": 188,
      "Ġthe": 189,
      "ĠD": 190,
      "ĠE": 191,
      "ing": 192,
      "Ġto": 193,
      "ter": 194,
      "Ġb": 195,
      "ĠT": 196,
      "ur": 197,
      "get": 198,
      "ant": 199,
      "Ġof": 200,
      "ĠBas": 201,
      "ay": 202,
      "Ġcard": 203,
      "ĠBased": 204,
      "al": 205,
      "ĠR": 206,
      "Ġf": 207,
      "Ġs": 208,
      "Ġit": 209,
      "ER": 210,
      "GH": 211,
      "OU": 212,
      "OW": 213,
      "POW": 214,
      "SS": 215,
      "TOU": 216,
      "NESS": 217,
      "GHNESS": 218,
      "POWER": 219,
      "TOUGHNESS": 220,
      "Ġm": 221,
      "ĠG": 222,
      "Ġl": 223,
      "ra": 224,
      "Ġ2": 225,
      "ch": 226,
      "ont": 227,
      "un": 228,
      "rol": 229,
      "hen": 230,
      "Ġw": 231,
      "ic": 232,
      "Ġyour": 233,
      "arget": 234,
      "ĠF": 235,
      "Ġcont": 236,
      "Ġcontrol": 237,
      "ters": 238,
      "act": 239,
      "ĠU": 240,
      "ĠWhen": 241,
      "urn": 242,
      "el": 243,
      "tif": 244,
      "ĠL": 245,
      "es": 246,
      "Ġon": 247,
      "il": 248,
      "Ġe": 249,
      "tifact": 250,
      "Ġ:": 251,
      "ment": 252,
      "ly": 253,
      "ĠH": 254,
      "eg": 255,
      "Ġg": 256,
      "Ġtarget": 257,
      "ve": 258,
      "Ġh": 259,
      "man": 260,
      "Ġan": 261,
      "ary": 262,
      "Ġthis": 263,
      "ken": 264,
      "Ġor": 265,
      "age": 266,
      "ĠEn": 267,
      "amage": 268,
      "ĠAr": 269,
      "Ġturn": 270,
      "Ġ3": 271,
      "chant": 272,
      "Ġco": 273,
      "Ġ(": 274,
      "Ġ)": 275,
      "Ġen": 276,
      "Ġun": 277,
      "Ġand": 278,
      "ut": 279,
      "ĠIn": 280,
      "ĠEnchant": 281,
      "lying": 282,
      "ĠArtifact": 283,
      "ach": 284,
      "ack": 285,
      "ith": 286,
      "oun": 287,
      "Ġin": 288,
      "ery": 289,
      "ast": 290,
      "orc": 291,
      "orcery": 292,
      "Ġde": 293,
      "uman": 294,
      "ĠP": 295,
      "ice": 296,
      "ĠHuman": 297,
      "att": 298,
      "ain": 299,
      "ev": 300,
      "Ġpl": 301,
      "Ġwith": 302,
      "mb": 303,
      "stant": 304,
      "Ġthat": 305,
      "rif": 306,
      "Ġo": 307,
      "ĠN": 308,
      "ir": 309,
      "acrif": 310,
      "ell": 311,
      "ĠEnchantment": 312,
      "pell": 313,
      "Ġunt": 314,
      "ate": 315,
      "Ġcoun": 316,
      "Ġn": 317,
      "pp": 318,
      "kens": 319,
      "ĠInstant": 320,
      "Ġmay": 321,
      "ĠFlying": 322,
      "Ġenters": 323,
      "acrifice": 324,
      "raw": 325,
      "ever": 326,
      "Ġend": 327,
      "ĠWhenever": 328,
      "endary": 329,
      "Ġplay": 330,
      "ĠTo": 331,
      "Ġspell": 332,
      "ke": 333,
      "ĠSorcery": 334,
      "rom": 335,
      "Ġfrom": 336,
      "Ġcast": 337,
      "ĠLeg": 338,
      "ĠLegendary": 339,
      "Ġ4": 340,
      "ĠTokens": 341,
      "Ġplayer": 342,
      "Ġdamage": 343,
      "Ġre": 344,
      "'s": 345,
      "os": 346,
      "Ġdeal": 347,
      "Ġget": 348,
      "Ġeach": 349,
      "ĠM": 350,
      "Ġuntil": 351,
      "ĠSacrifice": 352,
      "Ġput": 353,
      "ri": 354,
      "lo": 355,
      "Ġcards": 356,
      "qu": 357,
      "Ġbe": 358,
      "Ġfor": 359,
      "ct": 360,
      "Ġas": 361,
      "ib": 362,
      "ĠAt": 363,
      "xi": 364,
      "'t": 365,
      "ld": 366,
      "ĠY": 367,
      "th": 368,
      "Ġits": 369,
      "Ġcreatures": 370,
      "ĠYou": 371,
      "Ġgain": 372,
      "Ġhand": 373,
      "ĠDraw": 374,
      "rave": 375,
      "yard": 376,
      "Ġgrave": 377,
      "Ġgraveyard": 378,
      "Ġatt": 379,
      "ck": 380,
      "ĠTh": 381,
      "Ġcounter": 382,
      "lock": 383,
      "amp": 384,
      "Ġman": 385,
      "ig": 386,
      "ĠIf": 387,
      "ĠCoun": 388,
      "Ġcan": 389,
      "ife": 390,
      "Ġdeals": 391,
      "Ġgets": 392,
      "ĠDamage": 393,
      "ibr": 394,
      "Ġlibr": 395,
      "ion": 396,
      "ther": 397,
      "Ġlibrary": 398,
      "Ġattack": 399,
      "ap": 400,
      "onent": 401,
      "ep": 402,
      "pponent": 403,
      "Ġopponent": 404,
      "dd": 405,
      "Ġmana": 406,
      "ĠCounters": 407,
      "up": 408,
      "Ġar": 409,
      "Ġis": 410,
      "Ġlife": 411,
      "ow": 412,
      "Ġartifact": 413,
      "om": 414,
      "ose": 415,
      "ies": 416,
      "ĠRe": 417,
      "reate": 418,
      "ho": 419,
      "Ġany": 420,
      "ss": 421,
      "Ġhas": 422,
      "xile": 423,
      "Ġup": 424,
      "ue": 425,
      "Ġblock": 426,
      "isc": 427,
      "ĠDe": 428,
      "eld": 429,
      "mbat": 430,
      "iscard": 431,
      "ield": 432,
      "ĠX": 433,
      "attle": 434,
      "Ġcost": 435,
      "Ġbattle": 436,
      "field": 437,
      "Ġbattlefield": 438,
      "Ġtw": 439,
      "qui": 440,
      "Ġif": 441,
      "ĠV": 442,
      "ore": 443,
      "ura": 444,
      "iz": 445,
      "Ġone": 446,
      "Ġland": 447,
      "Ġ5": 448,
      "Ġ0": 449,
      "Ġtwo": 450,
      "less": 451,
      "keep": 452,
      "pped": 453,
      "inn": 454,
      "ĠCard": 455,
      "ĠWar": 456,
      "Ġtoken": 457,
      "ce": 458,
      "ĠAura": 459,
      "Ġper": 460,
      "ĠEqui": 461,
      "ample": 462,
      "Ġbeg": 463,
      "ker": 464,
      "rample": 465,
      "inning": 466,
      "Ġbeginning": 467,
      "ll": 468,
      "ad": 469,
      "ĠSp": 470,
      "ht": 471,
      "izard": 472,
      "Ġint": 473,
      "manent": 474,
      "Ġpermanent": 475,
      "Ġpay": 476,
      "Ġinto": 477,
      "rior": 478,
      "ĠWarrior": 479,
      "turn": 480,
      "ĠK": 481,
      "ĠAtt": 482,
      "ĠLand": 483,
      "Ġcounters": 484,
      "ĠThis": 485,
      "Ġ-": 486,
      "ler": 487,
      "Ġthen": 488,
      "id": 489,
      "ĠTarget": 490,
      "old": 491,
      "ĠWizard": 492,
      "ong": 493,
      "iv": 494,
      "ĠEquip": 495,
      "ie": 496,
      "ĠLif": 497,
      "ier": 498,
      "oldier": 499,
      "ĠSoldier": 500,
      "Ġtop": 501,
      "ted": 502,
      "ĠAdd": 503,
      "umb": 504,
      "umber": 505,
      "ace": 506,
      "hoose": 507,
      "Ġnumber": 508,
      "Ġdraw": 509,
      "Ġwh": 510,
      "Ġcombat": 511,
      "apped": 512,
      "ru": 513,
      "im": 514,
      "Ġexile": 515,
      "acking": 516,
      "Ġcreate": 517,
      "ĠAttacking": 518,
      "stro": 519,
      "Ġgains": 520,
      "wal": 521,
      "Ġtheir": 522,
      "Ġdo": 523,
      "ower": 524,
      "rike": 525,
      "stroy": 526,
      "ree": 527,
      "Ġv": 528,
      "Ġmore": 529,
      "ĠTrample": 530,
      "Ġab": 531,
      "ash": 532,
      "ĠIt": 533,
      "Ġpower": 534,
      "ance": 535,
      "Ġonly": 536,
      "irst": 537,
      "Ġcolor": 538,
      "wn": 539,
      "ĠSh": 540,
      "ĠO": 541,
      "ĠGo": 542,
      "ave": 543,
      "chan": 544,
      "lash": 545,
      "igil": 546,
      "igilance": 547,
      "ĠUn": 548,
      "lf": 549,
      "og": 550,
      "Ġown": 551,
      "Ġattacks": 552,
      "ĠDiscard": 553,
      "ĠZ": 554,
      "ĠPut": 555,
      "omb": 556,
      "ĠZomb": 557,
      "irit": 558,
      "chanted": 559,
      "Ġat": 560,
      "ĠSpirit": 561,
      "Ġall": 562,
      "com": 563,
      "ight": 564,
      "Ġex": 565,
      "Ġflying": 566,
      "Ġne": 567,
      "Ġblocked": 568,
      "Ġnon": 569,
      "ĠZombie": 570,
      "Ġhave": 571,
      "ot": 572,
      "veal": 573,
      "Ġupkeep": 574,
      "ff": 575,
      "Ġother": 576,
      "Ġbecom": 577,
      "anes": 578,
      "tep": 579,
      "Ġstep": 580,
      "aneswal": 581,
      "Ġtapped": 582,
      "aneswalker": 583,
      "other": 584,
      "Ġst": 585,
      "ĠEle": 586,
      "Ġsorcery": 587,
      "ear": 588,
      "us": 589,
      "egain": 590,
      "ĠLifegain": 591,
      "Ġabil": 592,
      "Ġsh": 593,
      "Ġanother": 594,
      "ĠEquipment": 595,
      "ivate": 596,
      "qual": 597,
      "Ġequal": 598,
      "ĠDra": 599,
      "onto": 600,
      "Ġcontrols": 601,
      "ĠElf": 602,
      "ble": 603,
      "Ġless": 604,
      "ĠUp": 605,
      "aste": 606,
      "ĠHaste": 607,
      "Ġowner": 608,
      "out": 609,
      "ol": 610,
      "Ġbl": 611,
      "Ġby": 612,
      "Ġreveal": 613,
      "ĠFlash": 614,
      "Ġbecomes": 615,
      "Ġnext": 616,
      "mental": 617,
      "Ġ6": 618,
      "Ġadd": 619,
      "Ġdiscard": 620,
      "ĠElemental": 621,
      "Ġthree": 622,
      "ess": 623,
      "ĠBe": 624,
      "oo": 625,
      "py": 626,
      "der": 627,
      "ould": 628,
      "stru": 629,
      "struct": 630,
      "ere": 631,
      "bl": 632,
      "Ġreturn": 633,
      "ĠSc": 634,
      "pe": 635,
      "ĠCler": 636,
      "ĠCleric": 637,
      "Ġlong": 638,
      "Ġgre": 639,
      "ĠVigilance": 640,
      "ĠSt": 641,
      "fend": 642,
      "ĠExile": 643,
      "Ġsacrifice": 644,
      "ĠUpkeep": 645,
      "ition": 646,
      "ime": 647,
      "ĠAs": 648,
      "Ġam": 649,
      "Ġuntap": 650,
      "ĠGobl": 651,
      "ĠGoblin": 652,
      "ill": 653,
      "Ġdies": 654,
      "ĠPh": 655,
      "Ġaddition": 656,
      "ĠRog": 657,
      "Ġval": 658,
      "Ġchoose": 659,
      "ĠPl": 660,
      "land": 661,
      "Ġonto": 662,
      "ĠCreate": 663,
      "ĠRogue": 664,
      "Ġvalue": 665,
      "uff": 666,
      "yre": 667,
      "ĠReturn": 668,
      "uffle": 669,
      "yrexi": 670,
      "ĠPhyrexi": 671,
      "ĠCon": 672,
      "ĠPhyrexian": 673,
      "ire": 674,
      "Ġwould": 675,
      "ĠBeast": 676,
      "Ġwhi": 677,
      "Ġshuffle": 678,
      "ĠDestroy": 679,
      "ĠBG": 680,
      "oug": 681,
      "ink": 682,
      "ough": 683,
      "elink": 684,
      "night": 685,
      "Ġhaste": 686,
      "ĠKnight": 687,
      "Ġdealt": 688,
      "Ġty": 689,
      "ĠBR": 690,
      "Ġthem": 691,
      "Ġcontroller": 692,
      "ste": 693,
      "Ġtime": 694,
      "ĠDies": 695,
      "ling": 696,
      "ĠAn": 697,
      "Ġenchant": 698,
      "Ġare": 699,
      "Ġstrike": 700,
      "se": 701,
      "gon": 702,
      "earch": 703,
      "ĠAct": 704,
      "ĠCombat": 705,
      "ĠActivate": 706,
      "ive": 707,
      "ĠEnchanted": 708,
      "ĠEach": 709,
      "fol": 710,
      "folk": 711,
      "Ġcopy": 712,
      "our": 713,
      "Ġplaneswalker": 714,
      "mo": 715,
      "oses": 716,
      "Ġle": 717,
      "stead": 718,
      "ampire": 719,
      "aman": 720,
      "ĠFirst": 721,
      "ĠShaman": 722,
      "Ġinstead": 723,
      "ĠVampire": 724,
      "ouch": 725,
      "uring": 726,
      "Ġwhere": 727,
      "enace": 728,
      "ĠGR": 729,
      "Ġface": 730,
      "ĠDragon": 731,
      "ird": 732,
      "atht": 733,
      "athtouch": 734,
      "ĠChoose": 735,
      "Ġenchantment": 736,
      "Ġthan": 737,
      "ry": 738,
      "Ġwhite": 739,
      "tect": 740,
      "Ġamong": 741,
      "ness": 742,
      "ĠMer": 743,
      "aur": 744,
      "de": 745,
      "ĠBU": 746,
      "ĠStrike": 747,
      "Ġway": 748,
      "Ġblack": 749,
      "yc": 750,
      "Ġfirst": 751,
      "Ġunless": 752,
      "Ġspells": 753,
      "Ġr": 754,
      "ĠBird": 755,
      "ĠThe": 756,
      "Ġadditional": 757,
      "erate": 758,
      "Ġattacking": 759,
      "Ġtokens": 760,
      "ook": 761,
      "ĠUnt": 762,
      "Ġloses": 763,
      "Ġdestroy": 764,
      "ers": 765,
      "ible": 766,
      "ities": 767,
      "ph": 768,
      "Ġgreen": 769,
      "structible": 770,
      "destructible": 771,
      "Ġch": 772,
      "ĠHor": 773,
      "Ġability": 774,
      "move": 775,
      "Ġthey": 776,
      "Ġduring": 777,
      "ĠGU": 778,
      "fender": 779,
      "Ġnonland": 780,
      "Ġinstant": 781,
      "icker": 782,
      "Ġcho": 783,
      "ation": 784,
      "ĠTut": 785,
      "ĠTutor": 786,
      "Ġname": 787,
      "Ġwithout": 788,
      "Ġwas": 789,
      "Ġtrample": 790,
      "Ġexc": 791,
      "ul": 792,
      "Ġunder": 793,
      "rotect": 794,
      "ycling": 795,
      "tom": 796,
      "Ġbot": 797,
      "Ġbottom": 798,
      "ĠRU": 799,
      "Ġabilities": 800,
      "rotection": 801,
      "ĠUW": 802,
      "ĠReach": 803,
      "ĠThen": 804,
      "Ġtough": 805,
      "Ġtoughness": 806,
      "ĠMenace": 807,
      "ĠCat": 808,
      "Ġenchanted": 809,
      "Ġbas": 810,
      "ĠMerfolk": 811,
      "Ġred": 812,
      "ĠLifelink": 813,
      "all": 814,
      "red": 815,
      "Ġdon": 816,
      "ĠGW": 817,
      "Ġcosts": 818,
      "enerate": 819,
      "ĠDru": 820,
      "ĠDruid": 821,
      "ror": 822,
      "ĠDeathtouch": 823,
      "ĠHorror": 824,
      "ĠCycling": 825,
      "Ġtap": 826,
      "gel": 827,
      "own": 828,
      "ĠDefender": 829,
      "back": 830,
      "ĠRW": 831,
      "ĠAngel": 832,
      "ept": 833,
      "Ġchoice": 834,
      "ĠCreatures": 835,
      "Ġthose": 836,
      "Ġexcept": 837,
      "xp": 838,
      "ĠSn": 839,
      "acrific": 840,
      "Ġsacrific": 841,
      "Ġrest": 842,
      "reas": 843,
      "ount": 844,
      "Ġfour": 845,
      "Ġ7": 846,
      "reasure": 847,
      "ĠEld": 848,
      "ĠTreasure": 849,
      "Ġexil": 850,
      "ouble": 851,
      "ĠPlaneswalker": 852,
      "Ġexiled": 853,
      "ĠTap": 854,
      "Ġno": 855,
      "Ġpermanents": 856,
      "ĠBW": 857,
      "Ġtype": 858,
      "Ġlands": 859,
      "able": 860,
      "Ġpaying": 861,
      "orph": 862,
      "rev": 863,
      "ĠInse": 864,
      "ĠInsect": 865,
      "Ġorder": 866,
      "ater": 867,
      "TK": 868,
      "art": 869,
      "ĠSearch": 870,
      "Ġact": 871,
      "ĠScry": 872,
      "mon": 873,
      "mp": 874,
      "ĠDev": 875,
      "iant": 876,
      "Ġopponents": 877,
      "andom": 878,
      "Ġrandom": 879,
      "av": 880,
      "zi": 881,
      "are": 882,
      "razi": 883,
      "Ġvigilance": 884,
      "ĠEldrazi": 885,
      "block": 886,
      "exp": 887,
      "roof": 888,
      "exproof": 889,
      "inos": 890,
      "inosaur": 891,
      "ĠReg": 892,
      "ĠDinosaur": 893,
      "Ġdoes": 894,
      "tific": 895,
      "ĠOther": 896,
      "revent": 897,
      "ĠArtific": 898,
      "ĠArtificer": 899,
      "ĠGiant": 900,
      "ĠPay": 901,
      "Ġactivate": 902,
      "ĠRegenerate": 903,
      "Ġlose": 904,
      "Ġdiscards": 905,
      "ĠAl": 906,
      "lem": 907,
      "imation": 908,
      "ĠConstruct": 909,
      "animation": 910,
      "ĠReanimation": 911,
      "ĠProtection": 912,
      "ĠFore": 913,
      "ĠDemon": 914,
      "Ġblue": 915,
      "pes": 916,
      "Ġmill": 917,
      "ĠEquipped": 918,
      "ĠKicker": 919,
      "Ġtypes": 920,
      "ĠScout": 921,
      "ĠIndestructible": 922,
      "ĠCh": 923,
      "fending": 924,
      "ĠUntil": 925,
      "Ġdown": 926,
      "Ġdefending": 927,
      "ass": 928,
      "one": 929,
      "Ġattach": 930,
      "ĪĴ": 931,
      "ĠâĪĴ": 932,
      "ĠLook": 933,
      "Ġgreater": 934,
      "ood": 935,
      "ĠMill": 936,
      "ĠSpell": 937,
      "ĠFood": 938,
      "osen": 939,
      "Ġchosen": 940,
      "Ġtargets": 941,
      "Ġcolorless": 942,
      "Ġbasic": 943,
      "Ġsearch": 944,
      "ĠUnblock": 945,
      "Ġk": 946,
      "ĠUnblockable": 947,
      "um": 948,
      "Ġal": 949,
      ">'": 950,
      "Ġdoesn": 951,
      "ect": 952,
      "od": 953,
      "Ġuntapped": 954,
      "tal": 955,
      "ains": 956,
      "rate": 957,
      "ĠTurn": 958,
      "ĠSpells": 959,
      "ĠBo": 960,
      "ĠSl": 961,
      "Ġcom": 962,
      "ĠAss": 963,
      "Ġremove": 964,
      "walk": 965,
      "ĠPi": 966,
      "ĠCounterspell": 967,
      "ake": 968,
      "ip": 969,
      "Ġnamed": 970,
      "ec": 971,
      "ĠPirate": 972,
      "Ġartifacts": 973,
      "Ġsp": 974,
      "ĠThey": 975,
      "ifelink": 976,
      "Ġlifelink": 977,
      "vo": 978,
      "arge": 979,
      "ĠGain": 980,
      "ĠMon": 981,
      "ative": 982,
      "ĠWall": 983,
      "rou": 984,
      "Ġthere": 985,
      "ĠGolem": 986,
      "ĠCounter": 987,
      "ĠRemove": 988,
      "ĠVe": 989,
      "ise": 990,
      "hic": 991,
      "ĠVehic": 992,
      "ĠVehicle": 993,
      "Ġable": 994,
      "Ġsacrifices": 995,
      "ĠRat": 996,
      "ĠFa": 997,
      "ĠUntap": 998,
      "ĠThat": 999,
      "ĠSliv": 1000,
      "ĠIs": 1001,
      "Ġpays": 1002,
      "erie": 1003,
      "hif": 1004,
      "ĠIsland": 1005,
      "Ġmany": 1006,
      "ĠFor": 1007,
      "Ġblocking": 1008,
      "ĠAd": 1009,
      "ĠCl": 1010,
      "Ġnonc": 1011,
      "mand": 1012,
      "ĠPrevent": 1013,
      "ĠFlashback": 1014,
      "Ġph": 1015,
      "Ġtotal": 1016,
      "ĠSw": 1017,
      "ĠMin": 1018,
      "ist": 1019,
      "ĠLizard": 1020,
      "ĠForest": 1021,
      "Ġphas": 1022,
      "Ġmu": 1023,
      "Ġindestructible": 1024,
      "ĠDouble": 1025,
      "Ġleg": 1026,
      "assin": 1027,
      "ĠAssassin": 1028,
      "ĠSnake": 1029,
      "ĠFaerie": 1030,
      "ick": 1031,
      "ĠMount": 1032,
      "Ġnoncreature": 1033,
      "Ġlook": 1034,
      "apes": 1035,
      "ĠSliver": 1036,
      "ison": 1037,
      "aid": 1038,
      "oison": 1039,
      "ĠCopy": 1040,
      "ĠOr": 1041,
      "aves": 1042,
      "ĠHexproof": 1043,
      "Ġleaves": 1044,
      "ĠSwamp": 1045,
      "ĠMorph": 1046,
      "ĠBGR": 1047,
      "Ġcommand": 1048,
      "ond": 1049,
      "Ġonce": 1050,
      "ound": 1051,
      "ath": 1052,
      "ĠShapes": 1053,
      "ĠShapeshif": 1054,
      "arf": 1055,
      "ĠWarlock": 1056,
      "ĠShapeshifter": 1057,
      "ĠOrc": 1058,
      "Ġblocks": 1059,
      "ane": 1060,
      "row": 1061,
      "Ġ8": 1062,
      "ĠDw": 1063,
      "olf": 1064,
      "ĠDrain": 1065,
      "Ġattached": 1066,
      "ĠArc": 1067,
      "voke": 1068,
      "ĠDwarf": 1069,
      "ontoken": 1070,
      "ĠArcane": 1071,
      "Ġequi": 1072,
      "hin": 1073,
      "Ġflash": 1074,
      "Ġfive": 1075,
      "res": 1076,
      "Ġthough": 1077,
      "icked": 1078,
      "AL": 1079,
      "LO": 1080,
      "YAL": 1081,
      "yr": 1082,
      "LOYAL": 1083,
      "LOYALTY": 1084,
      "Ġnontoken": 1085,
      "ĠCont": 1086,
      "Ġmuch": 1087,
      "Ġbo": 1088,
      "Ġsour": 1089,
      "oy": 1090,
      "ĠArch": 1091,
      "ĠControl": 1092,
      "ĠWard": 1093,
      "ĠAll": 1094,
      "Ġdeathtouch": 1095,
      "ult": 1096,
      "ĠClue": 1097,
      "op": 1098,
      "rew": 1099,
      "Ġlegendary": 1100,
      "gre": 1101,
      "Ġdraws": 1102,
      "ĠOgre": 1103,
      "oid": 1104,
      "ĠWolf": 1105,
      "ĠAlly": 1106,
      "Ġkicked": 1107,
      "gg": 1108,
      "ĠNo": 1109,
      "ft": 1110,
      "even": 1111,
      "inj": 1112,
      "Ġequipped": 1113,
      "Ġseven": 1114,
      "ĠMut": 1115,
      "ĠSnow": 1116,
      "erker": 1117,
      "Ġgame": 1118,
      "ĠDevoid": 1119,
      "ĠBers": 1120,
      "ĠBerserker": 1121,
      "urve": 1122,
      "ĠNinj": 1123,
      "Ġplayers": 1124,
      "ĠAttach": 1125,
      "ĠRo": 1126,
      "ner": 1127,
      "ĠDog": 1128,
      "ade": 1129,
      "Ġreveals": 1130,
      "artner": 1131,
      "Ġdouble": 1132,
      "urveil": 1133,
      "ual": 1134,
      "let": 1135,
      "so": 1136,
      "Ġalso": 1137,
      "gy": 1138,
      "ergy": 1139,
      "ind": 1140,
      "ĠNoble": 1141,
      "ĠLife": 1142,
      "ĠAdv": 1143,
      "ĠWur": 1144,
      "ffect": 1145,
      "ĠWurm": 1146,
      "Ġsource": 1147,
      "Ġsc": 1148,
      "ĠFree": 1149,
      "vest": 1150,
      "Ġamount": 1151,
      "ĠAv": 1152,
      "ĠTree": 1153,
      "igate": 1154,
      "Ġspent": 1155,
      "vestigate": 1156,
      "ĠTreefolk": 1157,
      "Ġmenace": 1158,
      "Ġboth": 1159,
      "ver": 1160,
      "Ġtri": 1161,
      "orm": 1162,
      "Ġsame": 1163,
      "fall": 1164,
      "pend": 1165,
      "ĠEx": 1166,
      "ĠLandfall": 1167,
      "Ġpaid": 1168,
      "Ġlast": 1169,
      "ĠFog": 1170,
      "ĠPlains": 1171,
      "atar": 1172,
      "ĠAvatar": 1173,
      "ĠJ": 1174,
      "ĠIll": 1175,
      "Ġhad": 1176,
      "Ġreach": 1177,
      "Ġisn": 1178,
      "ix": 1179,
      "ĠFl": 1180,
      "usion": 1181,
      "Ġbase": 1182,
      "ĠIllusion": 1183,
      "aus": 1184,
      "Ġcaus": 1185,
      "Ġprotection": 1186,
      "Ġeffect": 1187,
      "Ġcharge": 1188,
      "Ġscry": 1189,
      "Ġmills": 1190,
      "roud": 1191,
      "ipe": 1192,
      "wipe": 1193,
      "ardwipe": 1194,
      "ĠBoardwipe": 1195,
      "isor": 1196,
      "Ġnew": 1197,
      "otaur": 1198,
      "ĠMinotaur": 1199,
      "ĠArcher": 1200,
      "ĠAdvisor": 1201,
      "Ġ10": 1202,
      "ĠReb": 1203,
      "Ġrevealed": 1204,
      "tered": 1205,
      "ert": 1206,
      "adow": 1207,
      "cen": 1208,
      "ĠMercen": 1209,
      "ĠArm": 1210,
      "fore": 1211,
      "ĠNight": 1212,
      "ĠDrake": 1213,
      "ish": 1214,
      "Ġnot": 1215,
      "Ġbefore": 1216,
      "ile": 1217,
      "pet": 1218,
      "ĠCrew": 1219,
      "econd": 1220,
      "Ġcasts": 1221,
      "hold": 1222,
      "ĠAny": 1223,
      "ually": 1224,
      "petually": 1225,
      "ĠImp": 1226,
      "Ġwhen": 1227,
      "Ġperpetually": 1228,
      "ĠMonk": 1229,
      "uspend": 1230,
      "Ġsacrificed": 1231,
      "ĠSer": 1232,
      "ĠSke": 1233,
      "ĠSam": 1234,
      "ĠSpid": 1235,
      "Ġmon": 1236,
      "raft": 1237,
      "ĠPartner": 1238,
      "Ġplus": 1239,
      "leton": 1240,
      "ied": 1241,
      "ĠReveal": 1242,
      "ĠMercenary": 1243,
      "ĠSpider": 1244,
      "roll": 1245,
      "urai": 1246,
      "ĠChan": 1247,
      "ĠSkeleton": 1248,
      "ĠSamurai": 1249,
      "ĠDel": 1250,
      "ĠPlant": 1251,
      "ather": 1252,
      "ĠBack": 1253,
      "Ġreg": 1254,
      "ĠYour": 1255,
      "ine": 1256,
      "ĠArmy": 1257,
      "ĠDes": 1258,
      "ĠThres": 1259,
      "Ġphase": 1260,
      "Ġflashback": 1261,
      "ĠMutant": 1262,
      "Ġstill": 1263,
      "Ġactivated": 1264,
      "ĠMountain": 1265,
      "ĠThreshold": 1266,
      "ty": 1267,
      "ĠCit": 1268,
      "Ġputs": 1269,
      "izen": 1270,
      "ĠCitizen": 1271,
      "Ġpoison": 1272,
      "Ġhexproof": 1273,
      "ĠLandwalk": 1274,
      "mare": 1275,
      "alf": 1276,
      "ĠNightmare": 1277,
      "fer": 1278,
      "Ġout": 1279,
      "Ġcon": 1280,
      "Ġsecond": 1281,
      "earth": 1282,
      "Ġenter": 1283,
      "ither": 1284,
      "ĠKor": 1285,
      "anding": 1286,
      "tern": 1287,
      "Ġres": 1288,
      "ĠDetect": 1289,
      "adness": 1290,
      "ĠUnearth": 1291,
      "ights": 1292,
      "Ġrather": 1293,
      "ĠDetective": 1294,
      "iferate": 1295,
      "roliferate": 1296,
      "Ġage": 1297,
      "Ġfl": 1298,
      "Ġbecome": 1299,
      "ĠBRU": 1300,
      "lood": 1301,
      "ĠSqu": 1302,
      "ĠSphin": 1303,
      "ĠConvoke": 1304,
      "ĠSphinx": 1305,
      "'ve": 1306,
      "tell": 1307,
      "otion": 1308,
      "ĠGRW": 1309,
      "ee": 1310,
      "ved": 1311,
      "Ġrem": 1312,
      "ulative": 1313,
      "umulative": 1314,
      "ĠCast": 1315,
      "Ġwhile": 1316,
      "Ġtrigg": 1317,
      "wise": 1318,
      "ĠCent": 1319,
      "lored": 1320,
      "ĠSap": 1321,
      "roling": 1322,
      "ĠFro": 1323,
      "ĠCentaur": 1324,
      "ĠSaproling": 1325,
      "fin": 1326,
      "ĠSurveil": 1327,
      "Ġregenerate": 1328,
      "Ġcould": 1329,
      "ĠOtherwise": 1330,
      "ves": 1331,
      "ĠCumulative": 1332,
      "Ġcommander": 1333,
      "Ġshare": 1334,
      "ĠFrog": 1335,
      "kin": 1336,
      "ost": 1337,
      "ithkin": 1338,
      "Ġattacked": 1339,
      "ĠKithkin": 1340,
      "ĠRebel": 1341,
      "Ġform": 1342,
      "olored": 1343,
      "ub": 1344,
      "iri": 1345,
      "'re": 1346,
      "gr": 1347,
      "rone": 1348,
      "ero": 1349,
      "ung": 1350,
      "phant": 1351,
      "Ġregenerated": 1352,
      "UW": 1353,
      "ze": 1354,
      "iffer": 1355,
      "ĠSuspend": 1356,
      "Ġmorph": 1357,
      "ĠHy": 1358,
      "ag": 1359,
      "fter": 1360,
      "ts": 1361,
      "Ġdiffer": 1362,
      "Ġremo": 1363,
      "ĠElephant": 1364,
      "oyal": 1365,
      "ungus": 1366,
      "sh": 1367,
      "ĠNinja": 1368,
      "rel": 1369,
      "ĠDuring": 1370,
      "Ġev": 1371,
      "irrel": 1372,
      "ĠSquirrel": 1373,
      "cho": 1374,
      "Ġgraveyards": 1375,
      "ĠBUW": 1376,
      "ence": 1377,
      "ĠDesert": 1378,
      "Ġremoved": 1379,
      "here": 1380,
      "ran": 1381,
      "ĠBlood": 1382,
      "Ġprevent": 1383,
      "ide": 1384,
      "ĠDeliri": 1385,
      "ĠDelirium": 1386,
      "est": 1387,
      "ĠDom": 1388,
      "icolored": 1389,
      "ĠFungus": 1390,
      "ĠGUW": 1391,
      "ulticolored": 1392,
      "dra": 1393,
      "fect": 1394,
      "ĠDevil": 1395,
      "Ġcauses": 1396,
      "ĠBackgr": 1397,
      "ĠBackground": 1398,
      "now": 1399,
      "icate": 1400,
      "ĠInvestigate": 1401,
      "Ġwin": 1402,
      "ĠOo": 1403,
      "ĠAltern": 1404,
      "oyalty": 1405,
      "ĠAlternative": 1406,
      "Ġdiv": 1407,
      "oon": 1408,
      "ĠDrone": 1409,
      "Ġcolors": 1410,
      "ĠShroud": 1411,
      "Ġshuffles": 1412,
      "Ġtriggers": 1413,
      "xic": 1414,
      "ĠFace": 1415,
      "ĠBGRUW": 1416,
      "ĠOoze": 1417,
      "arch": 1418,
      "roc": 1419,
      "Ġturned": 1420,
      "Ġdefender": 1421,
      "ĠProw": 1422,
      "ĠHorse": 1423,
      "ĠHydra": 1424,
      "gu": 1425,
      "edal": 1426,
      "ĠDo": 1427,
      "ĠEl": 1428,
      "Ġsix": 1429,
      "Ġward": 1430,
      "ĠFear": 1431,
      "ĠInc": 1432,
      "ĠVedal": 1433,
      "ĠDomain": 1434,
      "ĠVedalken": 1435,
      "ite": 1436,
      "ĠTime": 1437,
      "Ġsnow": 1438,
      "Ġwho": 1439,
      "Ġcountered": 1440,
      "ize": 1441,
      "ĠIts": 1442,
      "jinn": 1443,
      "led": 1444,
      "ĠDjinn": 1445,
      "Ġleast": 1446,
      "ract": 1447,
      "arg": 1448,
      "oul": 1449,
      "jure": 1450,
      "pent": 1451,
      "stow": 1452,
      "alted": 1453,
      "ĠTurned": 1454,
      "ĠCas": 1455,
      "isgu": 1456,
      "Ġdifferent": 1457,
      "isguise": 1458,
      "ger": 1459,
      "rans": 1460,
      "ĠEnergy": 1461,
      "where": 1462,
      "geon": 1463,
      "ungeon": 1464,
      "ĠPoison": 1465,
      "ifest": 1466,
      "ĠShadow": 1467,
      "Ġflip": 1468,
      "craft": 1469,
      "tes": 1470,
      "ĠBear": 1471,
      "ĠMe": 1472,
      "ĠMyr": 1473,
      "Ġexiles": 1474,
      "Ġcreates": 1475,
      "ĠChange": 1476,
      "Ġdie": 1477,
      "Ġwere": 1478,
      "ĠProliferate": 1479,
      "Ġanywhere": 1480,
      "ĠSpend": 1481,
      "Ġexp": 1482,
      "Ġexcess": 1483,
      "form": 1484,
      "ĠWh": 1485,
      "ĠActivated": 1486,
      "Ġchooses": 1487,
      "ship": 1488,
      "la": 1489,
      "Ġowners": 1490,
      "ĠProwess": 1491,
      "cend": 1492,
      "ĠPlay": 1493,
      "arty": 1494,
      "indred": 1495,
      "Ġenergy": 1496,
      "ĠInfect": 1497,
      "ĠMan": 1498,
      "ĠThop": 1499,
      "ĠExalted": 1500,
      "Ġdid": 1501,
      "Ġdec": 1502,
      "Ġdestroyed": 1503,
      "Ġeffects": 1504,
      "Ġremains": 1505,
      "Ġdidn": 1506,
      "cade": 1507,
      "Ġ9": 1508,
      "ator": 1509,
      "Ġcop": 1510,
      "ĠMadness": 1511,
      "Ġtwice": 1512,
      "ĠThopter": 1513,
      "ĠGrif": 1514,
      "ĠKindred": 1515,
      "ĠBoar": 1516,
      "Ġresol": 1517,
      "ĠGriffin": 1518,
      "ĠCur": 1519,
      "Ġbanding": 1520,
      "rage": 1521,
      "king": 1522,
      "su": 1523,
      "inity": 1524,
      "ĠAff": 1525,
      "ĠEnrage": 1526,
      "ian": 1527,
      "ox": 1528,
      "read": 1529,
      "Ġafter": 1530,
      "ĠSoul": 1531,
      "ĠRhin": 1532,
      "ĠHero": 1533,
      "Ġcasting": 1534,
      "ired": 1535,
      "ĠSerpent": 1536,
      "ĠRhino": 1537,
      "Ġoil": 1538,
      "Ġbeing": 1539,
      "Ġvo": 1540,
      "ĠForetell": 1541,
      "Ġcopies": 1542,
      "licate": 1543,
      "votion": 1544,
      "ĠBat": 1545,
      "ĠTroll": 1546,
      "Ġeither": 1547,
      "Ġdevotion": 1548,
      "Ġkind": 1549,
      "cap": 1550,
      "Ġte": 1551,
      "Ġtim": 1552,
      "anking": 1553,
      "ĠTe": 1554,
      "ĠGate": 1555,
      "ĠLev": 1556,
      "ĠPlo": 1557,
      "ĠSpl": 1558,
      "ĠRoll": 1559,
      "ĠPlayers": 1560,
      "Ġtimes": 1561,
      "ĠPlot": 1562,
      "orn": 1563,
      "strou": 1564,
      "Ġfore": 1565,
      "elp": 1566,
      "utsu": 1567,
      "ĠGod": 1568,
      "ĠCharge": 1569,
      "Ġmonstrou": 1570,
      "Ġmonstrous": 1571,
      "rab": 1572,
      "ĠFish": 1573,
      "Ġhelp": 1574,
      "ĠRUW": 1575,
      "Ġalone": 1576,
      "istor": 1577,
      "cape": 1578,
      "hap": 1579,
      "sp": 1580,
      "enown": 1581,
      "Ġdied": 1582,
      "ĠDry": 1583,
      "Ġgreate": 1584,
      "ĠAttract": 1585,
      "ĠSpellshap": 1586,
      "ĠDryad": 1587,
      "Ġgreatest": 1588,
      "ĠAttraction": 1589,
      "ĠSpellshaper": 1590,
      "her": 1591,
      "mer": 1592,
      "ĠExp": 1593,
      "ĠRing": 1594,
      "Ġhistor": 1595,
      "Ġphases": 1596,
      "Ġhistoric": 1597,
      "sity": 1598,
      "ĠCrab": 1599,
      "ous": 1600,
      "ĠRan": 1601,
      "Ġenchantments": 1602,
      "ĠIncub": 1603,
      "Ġmut": 1604,
      "ĠHalf": 1605,
      "ctop": 1606,
      "ided": 1607,
      "ĠOctop": 1608,
      "Ġdiscarded": 1609,
      "ĠNinjutsu": 1610,
      "Ġmutate": 1611,
      "ĠHalfling": 1612,
      "ĠOctopus": 1613,
      "ute": 1614,
      "arting": 1615,
      "Ġconjure": 1616,
      "ĠRanger": 1617,
      "coun": 1618,
      "acle": 1619,
      "ĠEcho": 1620,
      "terable": 1621,
      "Ġhig": 1622,
      "Ġhands": 1623,
      "change": 1624,
      "ĠUncoun": 1625,
      "Ġsteps": 1626,
      "ĠUncounterable": 1627,
      "ĠFights": 1628,
      "manship": 1629,
      "ctor": 1630,
      "ĠChangeling": 1631,
      "Ġten": 1632,
      "ĠAb": 1633,
      "Ġinvestigate": 1634,
      "ĠToxic": 1635,
      "Ġplaneswalkers": 1636,
      "ĠDoctor": 1637,
      "ort": 1638,
      "Ġcontrolled": 1639,
      "ĠMinion": 1640,
      "Ġloyalty": 1641,
      "ĠKav": 1642,
      "Ġcommanders": 1643,
      "ĠCurse": 1644,
      "ĠKavu": 1645,
      "amorph": 1646,
      "ĠDisguise": 1647,
      "Ġlost": 1648,
      "ilities": 1649,
      "egamorph": 1650,
      "ickers": 1651,
      "ĠCascade": 1652,
      "ĠAbilities": 1653,
      "ster": 1654,
      "int": 1655,
      "ĠBl": 1656,
      "Ġshadow": 1657,
      "mpts": 1658,
      "Ġexplo": 1659,
      "Ġroll": 1660,
      "Ġcyc": 1661,
      "aries": 1662,
      "ord": 1663,
      "ĠSat": 1664,
      "ĠTrans": 1665,
      "Ġemb": 1666,
      "Ġleave": 1667,
      "Ġresolves": 1668,
      "ĠHeroic": 1669,
      "ĠExplo": 1670,
      "bar": 1671,
      "crow": 1672,
      "Ġmain": 1673,
      "ĠHell": 1674,
      "Ġnonbl": 1675,
      "ĠScare": 1676,
      "ĠScarecrow": 1677,
      "wine": 1678,
      "Ġpile": 1679,
      "lect": 1680,
      "Ġsurveil": 1681,
      "ĠBestow": 1682,
      "ĠStickers": 1683,
      "ĠFlip": 1684,
      "ĠAffinity": 1685,
      "ces": 1686,
      "ĠBar": 1687,
      "ift": 1688,
      "Ġlater": 1689,
      "ĠFox": 1690,
      "Ġhalf": 1691,
      "Ġenough": 1692,
      "Ġmonarch": 1693,
      "ĠSatyr": 1694,
      "ĠSur": 1695,
      "ular": 1696,
      "Ġspend": 1697,
      "barian": 1698,
      "ĠBarbarian": 1699,
      "et": 1700,
      "Ġfights": 1701,
      "ĠGarg": 1702,
      "Ġshroud": 1703,
      "oyle": 1704,
      "Ġwhenever": 1705,
      "Ġcycle": 1706,
      "Ġemblem": 1707,
      "Ġnonblack": 1708,
      "ĠGargoyle": 1709,
      "Ġback": 1710,
      "ĠRa": 1711,
      "ĠRaid": 1712,
      "ĠGn": 1713,
      "Ġentered": 1714,
      "ign": 1715,
      "Ġcause": 1716,
      "bas": 1717,
      "eas": 1718,
      "artifact": 1719,
      "ĠBu": 1720,
      "room": 1721,
      "ĠPho": 1722,
      "imid": 1723,
      "ĠBGU": 1724,
      "ĠBRW": 1725,
      "ĠGRU": 1726,
      "Ġround": 1727,
      "ĠElder": 1728,
      "eek": 1729,
      "basic": 1730,
      "Ġroom": 1731,
      "ĠAm": 1732,
      "rod": 1733,
      "ĠEs": 1734,
      "ĠMulticolored": 1735,
      "ush": 1736,
      "ĠBuy": 1737,
      "imidate": 1738,
      "bb": 1739,
      "ien": 1740,
      "ting": 1741,
      "enix": 1742,
      "ĠAur": 1743,
      "Ġcoin": 1744,
      "ĠSpec": 1745,
      "Ġshares": 1746,
      "ĠPhoenix": 1747,
      "ĠBuyback": 1748,
      "ĠAuras": 1749,
      "10": 1750,
      "Ġdungeon": 1751,
      "Ġparty": 1752,
      "Ġsay": 1753,
      "thing": 1754,
      "llation": 1755,
      "ĠGoad": 1756,
      "Ġstun": 1757,
      "ĠConste": 1758,
      "Ġalread": 1759,
      "ĠServo": 1760,
      "ĠAmass": 1761,
      "ĠConstellation": 1762,
      "Ġalready": 1763,
      "nel": 1764,
      "Ġpa": 1765,
      "Ġrep": 1766,
      "ĠThose": 1767,
      "ome": 1768,
      "ido": 1769,
      "ĠStorm": 1770,
      "ĠElk": 1771,
      "Ġrounded": 1772,
      "ushido": 1773,
      "bbit": 1774,
      "xtra": 1775,
      "ĠHom": 1776,
      "ĠPower": 1777,
      "ĠPeas": 1778,
      "rim": 1779,
      "idence": 1780,
      "strosity": 1781,
      "aven": 1782,
      "ĠMonstrosity": 1783,
      "ĠChannel": 1784,
      "ĠRabbit": 1785,
      "ĠPeasant": 1786,
      "tle": 1787,
      "ĠBard": 1788,
      "ĠBushido": 1789,
      "ĠTapped": 1790,
      "Ġnonartifact": 1791,
      "ĠJu": 1792,
      "Ġevery": 1793,
      "Ġdivided": 1794,
      "ĠGnome": 1795,
      "ak": 1796,
      "enture": 1797,
      "ĠApe": 1798,
      "ĠEv": 1799,
      "ĠTur": 1800,
      "Ġgive": 1801,
      "comes": 1802,
      "Ġnonbasic": 1803,
      "ĠBecomes": 1804,
      "ĠManifest": 1805,
      "ĠTurtle": 1806,
      "awn": 1807,
      "Ġsize": 1808,
      "ĠRec": 1809,
      "ĠShade": 1810,
      "ĠZombies": 1811,
      "ĠMetal": 1812,
      "aut": 1813,
      "rint": 1814,
      "ark": 1815,
      "ĠBanding": 1816,
      "ands": 1817,
      "Ġcomp": 1818,
      "ĠMir": 1819,
      "ĠBGW": 1820,
      "rocess": 1821,
      "ĠMetalcraft": 1822,
      "he": 1823,
      "llect": 1824,
      "sign": 1825,
      "wer": 1826,
      "anid": 1827,
      "ĠTyr": 1828,
      "Ġmod": 1829,
      "load": 1830,
      "Ġassign": 1831,
      "ĠSpawn": 1832,
      "verload": 1833,
      "ĠExchange": 1834,
      "Ġresult": 1835,
      "ĠTyranid": 1836,
      "dy": 1837,
      "ĠCroc": 1838,
      "stone": 1839,
      "entor": 1840,
      "ĠTra": 1841,
      "Ġfe": 1842,
      "Ġmadness": 1843,
      "Ġmulticolored": 1844,
      "Ġinc": 1845,
      "ĠPro": 1846,
      "ĠToken": 1847,
      "uest": 1848,
      "odile": 1849,
      "rime": 1850,
      "ĠCrocodile": 1851,
      "ob": 1852,
      "ĠWither": 1853,
      "lessing": 1854,
      "ĠKra": 1855,
      "ĠMutate": 1856,
      "Ġvotes": 1857,
      "br": 1858,
      "ps": 1859,
      "ĠSag": 1860,
      "Ġdup": 1861,
      "ĠMor": 1862,
      "ĠDevotion": 1863,
      "ĠImprint": 1864,
      "Ġhigh": 1865,
      "Ġduplicate": 1866,
      "over": 1867,
      "ĠCyc": 1868,
      "iti": 1869,
      "ĠArtifacts": 1870,
      "lops": 1871,
      "ĠThru": 1872,
      "apt": 1873,
      "ulus": 1874,
      "ĠPowerstone": 1875,
      "ĠCyclops": 1876,
      "ĠThrull": 1877,
      "bid": 1878,
      "cycling": 1879,
      "gain": 1880,
      "itz": 1881,
      "Ġagain": 1882,
      "ĠDice": 1883,
      "Ġblessing": 1884,
      "alize": 1885,
      "ĠGre": 1886,
      "ĠMentor": 1887,
      "law": 1888,
      "Ġforetell": 1889,
      "ĠIncubator": 1890,
      "ĠEscape": 1891,
      "ĠKraken": 1892,
      "ĠMorbid": 1893,
      "culus": 1894,
      "ning": 1895,
      "ange": 1896,
      "unculus": 1897,
      "Ġeight": 1898,
      "Ġunblock": 1899,
      "ĠPer": 1900,
      "Ġanything": 1901,
      "ĠScion": 1902,
      "ĠAscend": 1903,
      "Ġchange": 1904,
      "ĠFlicker": 1905,
      "ĠRebound": 1906,
      "ĠHomunculus": 1907,
      "Ġmodif": 1908,
      "Ġunblocked": 1909,
      "Human": 1910,
      "bot": 1911,
      "ron": 1912,
      "Ġcity": 1913,
      "ĠCoin": 1914,
      "ouse": 1915,
      "ince": 1916,
      "ĠEvoke": 1917,
      "Ġmo": 1918,
      "Ġ20": 1919,
      "Ġturns": 1920,
      "ĠInt": 1921,
      "ĠMegamorph": 1922,
      "ĠAlien": 1923,
      "ĠRobot": 1924,
      "ĠFlanking": 1925,
      "ĠLevel": 1926,
      "ĠWor": 1927,
      "Ġsince": 1928,
      "ĠLord": 1929,
      "Ġgo": 1930,
      "ĠMouse": 1931,
      "ĠShr": 1932,
      "ĠIslands": 1933,
      "ĠAdapt": 1934,
      "ĠClone": 1935,
      "dying": 1936,
      "itiative": 1937,
      "tter": 1938,
      "twine": 1939,
      "Ġes": 1940,
      "arn": 1941,
      "orgon": 1942,
      "ĠWe": 1943,
      "Ġprev": 1944,
      "Ġmost": 1945,
      "icorn": 1946,
      "ĠEntwine": 1947,
      "ĠNom": 1948,
      "ĠMy": 1949,
      "ĠMage": 1950,
      "Ġattackers": 1951,
      "ĠUnicorn": 1952,
      "Ġsticker": 1953,
      "Ġstarting": 1954,
      "Ġlesser": 1955,
      "ĠRather": 1956,
      "Ġteam": 1957,
      "ĠSpecter": 1958,
      "ĠIntimidate": 1959,
      "Ġgoad": 1960,
      "ĠNomad": 1961,
      "Ġqu": 1962,
      "anion": 1963,
      "ĠCom": 1964,
      "era": 1965,
      "inal": 1966,
      "acc": 1967,
      "rov": 1968,
      "Ġseek": 1969,
      "Ġbeen": 1970,
      "Ġreturns": 1971,
      "Ġrenown": 1972,
      "ĠWhile": 1973,
      "rup": 1974,
      "Ġcame": 1975,
      "star": 1976,
      "Ġproliferate": 1977,
      "Ġextra": 1978,
      "ĠNec": 1979,
      "ĠMod": 1980,
      "Ġaren": 1981,
      "ĠKob": 1982,
      "ĠOtter": 1983,
      "Ġshield": 1984,
      "ĠSplice": 1985,
      "Ġexplores": 1986,
      "ĠMagecraft": 1987,
      "ĠNecron": 1988,
      "ĠKobold": 1989,
      "fig": 1990,
      "ward": 1991,
      "ented": 1992,
      "ĠCor": 1993,
      "onfig": 1994,
      "ĠAstar": 1995,
      "ĠRacc": 1996,
      "ĠGorgon": 1997,
      "ilot": 1998,
      "Ġecho": 1999,
      "ĠPilot": 2000,
      "attach": 2001,
      "Ġmanifest": 2002,
      "ĠOut": 2003,
      "uspe": 2004,
      "olt": 2005,
      "Ġredu": 2006,
      "Ġremain": 2007,
      "ĠReconfig": 2008,
      "Ġprevented": 2009,
      "Ġquest": 2010,
      "Ġrenowned": 2011,
      "ĠAstartes": 2012,
      "ĠRaccoon": 2013,
      "ĠReconfigure": 2014,
      "core": 2015,
      "down": 2016,
      "gge": 2017,
      "ven": 2018,
      "Ġz": 2019,
      "Ġtied": 2020,
      "unning": 2021,
      "ĠPers": 2022,
      "riad": 2023,
      "Ġgained": 2024,
      "Ġlegend": 2025,
      "ĠHorsemanship": 2026,
      "rovise": 2027,
      "ggered": 2028,
      "ĠPersist": 2029,
      "aun": 2030,
      "axi": 2031,
      "bute": 2032,
      "ik": 2033,
      "mum": 2034,
      "shif": 2035,
      "anish": 2036,
      "orage": 2037,
      "Ġdraft": 2038,
      "Ġpartner": 2039,
      "Ġmaxi": 2040,
      "egas": 2041,
      "ĠPegas": 2042,
      "ĠOff": 2043,
      "ĠUndying": 2044,
      "Ġmust": 2045,
      "ĠRole": 2046,
      "Ġtriggered": 2047,
      "Ġlasts": 2048,
      "lared": 2049,
      "Ġdeclared": 2050,
      "merge": 2051,
      "ĠWorld": 2052,
      "Ġzone": 2053,
      "shift": 2054,
      "Ġmaximum": 2055,
      "tr": 2056,
      "ĠSk": 2057,
      "Ġprod": 2058,
      "ingle": 2059,
      "Ġsingle": 2060,
      "ĠLoyalty": 2061,
      "Ġhe": 2062,
      "Ġinde": 2063,
      "ĠOil": 2064,
      "ĠAnother": 2065,
      "ulate": 2066,
      "opulate": 2067,
      "ĠBackup": 2068,
      "finite": 2069,
      "Ġevidence": 2070,
      "ĠSplit": 2071,
      "Ġfewer": 2072,
      "Ġhighest": 2073,
      "ĠModular": 2074,
      "ĠCorrup": 2075,
      "anishing": 2076,
      "ĠPegasus": 2077,
      "Ġprodu": 2078,
      "Ġindefinite": 2079,
      "Ġindefinitely": 2080,
      "ale": 2081,
      "add": 2082,
      "bond": 2083,
      "ues": 2084,
      "viv": 2085,
      "reer": 2086,
      "ĠDungeon": 2087,
      "Ġband": 2088,
      "Ġsuspend": 2089,
      "ĠGl": 2090,
      "ĠLess": 2091,
      "Ġdeck": 2092,
      "ĠNon": 2093,
      "Ġputting": 2094,
      "iscover": 2095,
      "ĠOn": 2096,
      "ĠGoat": 2097,
      "olster": 2098,
      "Ġmilled": 2099,
      "ĠImprovise": 2100,
      "argain": 2101,
      "ĠSoulshift": 2102,
      "ĠExploit": 2103,
      "Ġpaired": 2104,
      "ĠShrine": 2105,
      "reerunning": 2106,
      "ĠLesson": 2107,
      "pen": 2108,
      "Ġtarge": 2109,
      "ĠSir": 2110,
      "ĠRi": 2111,
      "actly": 2112,
      "ĠMoon": 2113,
      "ief": 2114,
      "Ġexactly": 2115,
      "ĠTransm": 2116,
      "ĠSurviv": 2117,
      "ĠCorrupted": 2118,
      "ĠGlim": 2119,
      "Ġtargeted": 2120,
      "ĠSiren": 2121,
      "iath": 2122,
      "ring": 2123,
      "Ġcrime": 2124,
      "ĠEf": 2125,
      "ĠRev": 2126,
      "ĠRenown": 2127,
      "Ġgrou": 2128,
      "ackal": 2129,
      "xist": 2130,
      "Ġattacker": 2131,
      "ĠDevour": 2132,
      "letion": 2133,
      "ĠJackal": 2134,
      "ĠDelve": 2135,
      "Ġflanking": 2136,
      "ĠSoulbond": 2137,
      "Ġtempts": 2138,
      "ĠLeviath": 2139,
      "ĠSagas": 2140,
      "inality": 2141,
      "ĠMoonfolk": 2142,
      "ĠTransmute": 2143,
      "ĠGlimmer": 2144,
      "Ġgroup": 2145,
      "ĠLeviathan": 2146,
      "cil": 2147,
      "hil": 2148,
      "iance": 2149,
      "ĠClash": 2150,
      "Ġclash": 2151,
      "Ġad": 2152,
      "ĠBands": 2153,
      "Ġprocess": 2154,
      "ĠEmp": 2155,
      "ĠBasic": 2156,
      "ĠRad": 2157,
      "Ġfade": 2158,
      "Ġexist": 2159,
      "ĠVanishing": 2160,
      "reet": 2161,
      "ĠOverload": 2162,
      "ĠMonarch": 2163,
      "ĠEfreet": 2164,
      "book": 2165,
      "mit": 2166,
      "naut": 2167,
      "ernaut": 2168,
      "ĠGift": 2169,
      "ĠLee": 2170,
      "ĠEncore": 2171,
      "ĠInsp": 2172,
      "ĠPar": 2173,
      "Ġbestow": 2174,
      "ĠLands": 2175,
      "olve": 2176,
      "ĠChim": 2177,
      "ĠMountains": 2178,
      "ggernaut": 2179,
      "ĠElves": 2180,
      "ĠJuggernaut": 2181,
      "Ġlegendaries": 2182,
      "trace": 2183,
      "ĠLeech": 2184,
      "bent": 2185,
      "ious": 2186,
      "side": 2187,
      "wa": 2188,
      "yond": 2189,
      "ĠCave": 2190,
      "ĠCoven": 2191,
      "orp": 2192,
      "orse": 2193,
      "ĠAfter": 2194,
      "Ġtoxic": 2195,
      "ĠTief": 2196,
      "urst": 2197,
      "ayed": 2198,
      "Ġhorse": 2199,
      "Ġunattach": 2200,
      "ĠParty": 2201,
      "ĠMult": 2202,
      "ĠSpree": 2203,
      "ĠOx": 2204,
      "Ġcomes": 2205,
      "ĠArchon": 2206,
      "Ġoutside": 2207,
      "ĠTempts": 2208,
      "ĠHellion": 2209,
      "ĠHellbent": 2210,
      "avenge": 2211,
      "Ġadv": 2212,
      "ĠChimera": 2213,
      "ĠTiefling": 2214,
      "Ġhorsemanship": 2215,
      "20": 2216,
      "ether": 2217,
      "lin": 2218,
      "mlin": 2219,
      "ype": 2220,
      "eren": 2221,
      "ination": 2222,
      "ĠDash": 2223,
      "Ġweren": 2224,
      "icore": 2225,
      "Ġopen": 2226,
      "Ġbeyond": 2227,
      "apon": 2228,
      "Ġdiscarding": 2229,
      "Ġdivide": 2230,
      "ĠMana": 2231,
      "ĠGremlin": 2232,
      "ced": 2233,
      "tot": 2234,
      "Ġtake": 2235,
      "erm": 2236,
      "Ġday": 2237,
      "alm": 2238,
      "Ġfear": 2239,
      "Ġsk": 2240,
      "ĠGuest": 2241,
      "ĠGerm": 2242,
      "Ġwon": 2243,
      "ĠLiv": 2244,
      "Ġgift": 2245,
      "Ġspellbook": 2246,
      "ribute": 2247,
      "ĠShuffle": 2248,
      "ĠStarting": 2249,
      "ĠSlivers": 2250,
      "Ġassigns": 2251,
      "ĠProtot": 2252,
      "Ġescape": 2253,
      "ĠMyriad": 2254,
      "ikicker": 2255,
      "ĠMultikicker": 2256,
      "ĠLiving": 2257,
      "ĠPrototype": 2258,
      "upp": 2259,
      "yee": 2260,
      "Ġtrans": 2261,
      "ĠWol": 2262,
      "aster": 2263,
      "Ġprom": 2264,
      "Ġtoward": 2265,
      "unb": 2266,
      "Ġcomb": 2267,
      "Ġcounts": 2268,
      "Ġnight": 2269,
      "loyee": 2270,
      "ĠRetrace": 2271,
      "Ġinten": 2272,
      "Ġventure": 2273,
      "Ġamass": 2274,
      "Ġactiv": 2275,
      "ĠForests": 2276,
      "ĠSwampwalk": 2277,
      "ĠDescend": 2278,
      "ternalize": 2279,
      "ĠTransform": 2280,
      "ĠExplore": 2281,
      "ĠEvolve": 2282,
      "Ġcompanion": 2283,
      "ĠEmployee": 2284,
      "Ġadvance": 2285,
      "Ġtransform": 2286,
      "Ġcombination": 2287,
      "EL": 2288,
      "VEL": 2289,
      "Wor": 2290,
      "cious": 2291,
      "emb": 2292,
      "ihil": 2293,
      "mph": 2294,
      "nihil": 2295,
      "ymph": 2296,
      "ĠLE": 2297,
      "Ġthird": 2298,
      "Ġ13": 2299,
      "ĠSunb": 2300,
      "Ġdisguise": 2301,
      "Ġsoon": 2302,
      "ĠFero": 2303,
      "low": 2304,
      "thirst": 2305,
      "Ġreturned": 2306,
      "ĠScavenge": 2307,
      "ĠStun": 2308,
      "Ġleft": 2309,
      "ĠAssemb": 2310,
      "ĠOrcs": 2311,
      "oyf": 2312,
      "ualty": 2313,
      "ĠMiracle": 2314,
      "ĠRevolt": 2315,
      "ĠInspired": 2316,
      "Worker": 2317,
      "ĠLEVEL": 2318,
      "ĠFerocious": 2319,
      "ĠAssembly": 2320,
      "Ġtext": 2321,
      "ĠClo": 2322,
      "erse": 2323,
      "ents": 2324,
      "ĠEternalize": 2325,
      "urg": 2326,
      "ĠEnter": 2327,
      "ĠNymph": 2328,
      "ading": 2329,
      "oting": 2330,
      "Ġstorage": 2331,
      "ollow": 2332,
      "ĠDragons": 2333,
      "Ġwasn": 2334,
      "ĠMounts": 2335,
      "Ġoutlaw": 2336,
      "ĠBloodthirst": 2337,
      "former": 2338,
      "ĠIncubate": 2339,
      "ĠBlitz": 2340,
      "ĠPerformer": 2341,
      "arnation": 2342,
      "ĠSunburst": 2343,
      "born": 2344,
      "ience": 2345,
      "amant": 2346,
      "ĠCollect": 2347,
      "ĠBatt": 2348,
      "ĠWra": 2349,
      "ĠWill": 2350,
      "ĠEmb": 2351,
      "Ġbut": 2352,
      "alion": 2353,
      "ĠRep": 2354,
      "unk": 2355,
      "ĠAddition": 2356,
      "ĠShark": 2357,
      "Ġstack": 2358,
      "Ġcontrollers": 2359,
      "ĠBoast": 2360,
      "Ġspore": 2361,
      "ĠIslandwalk": 2362,
      "ĠAdamant": 2363,
      "Ġphased": 2364,
      "Ġsources": 2365,
      "ĠExert": 2366,
      "ĠCasualty": 2367,
      "upport": 2368,
      "nihilator": 2369,
      "ĠBattalion": 2370,
      "ĠWraith": 2371,
      "ĠEmbalm": 2372,
      "ĠAdditional": 2373,
      "ele": 2374,
      "hurg": 2375,
      "ient": 2376,
      "ombat": 2377,
      "pletion": 2378,
      "ymb": 2379,
      "ating": 2380,
      "ĠComp": 2381,
      "erience": 2382,
      "isit": 2383,
      "ĠDiscover": 2384,
      "ĠFading": 2385,
      "ĠLhurg": 2386,
      "Ġdepletion": 2387,
      "Ġadds": 2388,
      "ulk": 2389,
      "ĠFabr": 2390,
      "resents": 2391,
      "ĠIncarnation": 2392,
      "Ġvote": 2393,
      "Ġrepresents": 2394,
      "ĠCommand": 2395,
      "ĠRiot": 2396,
      "ĠSurvivor": 2397,
      "Ġskip": 2398,
      "ĠLhurgoyf": 2399,
      "oc": 2400,
      "sist": 2401,
      "ĠBolster": 2402,
      "ĠAether": 2403,
      "andra": 2404,
      "ĠEerie": 2405,
      "alker": 2406,
      "Ġso": 2407,
      "Ġsymb": 2408,
      "ict": 2409,
      "ication": 2410,
      "ĠYet": 2411,
      "ĠChandra": 2412,
      "ĠAssist": 2413,
      "Ġconn": 2414,
      "ĠWhale": 2415,
      "Ġdecl": 2416,
      "spring": 2417,
      "Ġmode": 2418,
      "ĠOffspring": 2419,
      "waken": 2420,
      "astery": 2421,
      "ĠFabricate": 2422,
      "ĠAetherborn": 2423,
      "Ġsymbol": 2424,
      "ĠYeti": 2425,
      "eep": 2426,
      "lu": 2427,
      "last": 2428,
      "ĠQ": 2429,
      "ret": 2430,
      "Ġcrew": 2431,
      "ĠBargain": 2432,
      "ĠWere": 2433,
      "ĠEmerge": 2434,
      "Ġfollow": 2435,
      "Ġsuspe": 2436,
      "Ġinitiative": 2437,
      "ĠPopulate": 2438,
      "ĠHumans": 2439,
      "Ġrepe": 2440,
      "ampage": 2441,
      "ĠConjure": 2442,
      "Ġnames": 2443,
      "Ġhigher": 2444,
      "head": 2445,
      "ĠWeird": 2446,
      "Ġheal": 2447,
      "Ġdeclare": 2448,
      "ĠWerew": 2449,
      "Ġrepeat": 2450,
      "cted": 2451,
      "lict": 2452,
      "vel": 2453,
      "xtort": 2454,
      "strike": 2455,
      "start": 2456,
      "Ġ12": 2457,
      "Ġdes": 2458,
      "Ġmin": 2459,
      "Ġmegamorph": 2460,
      "ilis": 2461,
      "Ġcollect": 2462,
      "Ġover": 2463,
      "ĠMo": 2464,
      "uphe": 2465,
      "ĠVoting": 2466,
      "ives": 2467,
      "Ġcreated": 2468,
      "ĠOuphe": 2469,
      "ĠScorp": 2470,
      "Ġkicker": 2471,
      "ĠSwamps": 2472,
      "ĠJunk": 2473,
      "Ġregular": 2474,
      "Ġpiles": 2475,
      "ĠTrap": 2476,
      "Ġmodification": 2477,
      "Ġgoaded": 2478,
      "Ġtransforms": 2479,
      "ĠScorpion": 2480,
      "Ġmodifications": 2481,
      "iph": 2482,
      "way": 2483,
      "Ġtreate": 2484,
      "ĠAwaken": 2485,
      "Ġprow": 2486,
      "ĠRal": 2487,
      "Ġfight": 2488,
      "ĠFreerunning": 2489,
      "elly": 2490,
      "ĠMant": 2491,
      "ĠCouncil": 2492,
      "Ġdrawn": 2493,
      "ĠShield": 2494,
      "Ġexert": 2495,
      "ĠStri": 2496,
      "ĠGoblins": 2497,
      "istribute": 2498,
      "rowth": 2499,
      "ĠJelly": 2500,
      "Ġtrigger": 2501,
      "Ġwins": 2502,
      "Ġmodified": 2503,
      "Ġactivating": 2504,
      "ĠCommander": 2505,
      "Ġminus": 2506,
      "Ġtreated": 2507,
      "cod": 2508,
      "pa": 2509,
      "Ġent": 2510,
      "ĠCiph": 2511,
      "Ġtr": 2512,
      "amand": 2513,
      "itch": 2514,
      "ining": 2515,
      "ĠSal": 2516,
      "Ġdread": 2517,
      "leave": 2518,
      "ĠExtort": 2519,
      "ĠUmb": 2520,
      "Ġencod": 2521,
      "Ġinst": 2522,
      "ĠAtog": 2523,
      "ĠOf": 2524,
      "Ġspl": 2525,
      "ĠRoom": 2526,
      "Ġconsist": 2527,
      "Ġmutates": 2528,
      "rodin": 2529,
      "ĠJump": 2530,
      "ĠMirrodin": 2531,
      "Ġinclu": 2532,
      "ĠOutlast": 2533,
      "ĠSkulk": 2534,
      "ĠManticore": 2535,
      "ĠStrive": 2536,
      "Ġentwine": 2537,
      "ĠCipher": 2538,
      "amander": 2539,
      "ĠSalamander": 2540,
      "ĠUmbra": 2541,
      "Ġencoded": 2542,
      "Ġconsists": 2543,
      "fish": 2544,
      "list": 2545,
      "Ġcas": 2546,
      "its": 2547,
      "ĠWorm": 2548,
      "asing": 2549,
      "Ġdrew": 2550,
      "leg": 2551,
      "aliant": 2552,
      "Ġfinality": 2553,
      "Ġblockers": 2554,
      "ĠValiant": 2555,
      "Ġpowers": 2556,
      "ĠPhasing": 2557,
      "Ġwhich": 2558,
      "Ġchose": 2559,
      "ecret": 2560,
      "ĠTraining": 2561,
      "Ġclashing": 2562,
      "Ġconnives": 2563,
      "ĠJellyfish": 2564,
      "Ġsplice": 2565,
      "han": 2566,
      "ipp": 2567,
      "nive": 2568,
      "sided": 2569,
      "Ġra": 2570,
      "ĠCele": 2571,
      "arate": 2572,
      "ĠSupport": 2573,
      "Ġdice": 2574,
      "Ġsadd": 2575,
      "ĠFract": 2576,
      "Ġevoke": 2577,
      "ĠHipp": 2578,
      "ĠEnlist": 2579,
      "Ġunlock": 2580,
      "ĠInitiative": 2581,
      "key": 2582,
      "ĠMap": 2583,
      "Ġlibraries": 2584,
      "eparate": 2585,
      "ĠScient": 2586,
      "ĠConnive": 2587,
      "Ġdone": 2588,
      "ĠPirates": 2589,
      "ĠMonster": 2590,
      "ĠMonkey": 2591,
      "Ġnoncombat": 2592,
      "ĠAssassins": 2593,
      "Ġboon": 2594,
      "ĠAlliance": 2595,
      "verine": 2596,
      "Ġdecayed": 2597,
      "Ġforest": 2598,
      "ĠSurge": 2599,
      "Ġpair": 2600,
      "Ġcomple": 2601,
      "Ġincub": 2602,
      "Ġsuspended": 2603,
      "ĠWolverine": 2604,
      "Ġintensity": 2605,
      "ĠClown": 2606,
      "ĠQuest": 2607,
      "ĠWerewolf": 2608,
      "Ġtrue": 2609,
      "Ġinclud": 2610,
      "legendary": 2611,
      "Ġrad": 2612,
      "Ġsaddled": 2613,
      "ĠFractal": 2614,
      "ĠScientist": 2615,
      "away": 2616,
      "bble": 2617,
      "sa": 2618,
      "ye": 2619,
      "Ġ'": 2620,
      "stalker": 2621,
      "erted": 2622,
      "ĠHar": 2623,
      "ĠHide": 2624,
      "Ġinfect": 2625,
      "oss": 2626,
      "Ġexpend": 2627,
      "Ġexerted": 2628,
      "Ġblitz": 2629,
      "ĠAnnihilator": 2630,
      "Ġsacrificing": 2631,
      "ĠBobble": 2632,
      "Ġcommit": 2633,
      "Ġequip": 2634,
      "Ġdifference": 2635,
      "ĠWhite": 2636,
      "ĠAfflict": 2637,
      "Ġreplicate": 2638,
      "Ġreduced": 2639,
      "Ġfollowing": 2640,
      "Ġcascade": 2641,
      "Ġforestwalk": 2642,
      "ĠBobblehead": 2643,
      "tain": 2644,
      "ani": 2645,
      "ĠBattle": 2646,
      "ify": 2647,
      "ĠSecond": 2648,
      "ĠRampage": 2649,
      "Ġsur": 2650,
      "Ġseparate": 2651,
      "ĠGraft": 2652,
      "icid": 2653,
      "ĠLicid": 2654,
      "Ġunpa": 2655,
      "ĠProcess": 2656,
      "riend": 2657,
      "ampion": 2658,
      "Ġbegin": 2659,
      "Ġverse": 2660,
      "redge": 2661,
      "ĠVehicles": 2662,
      "Ġeven": 2663,
      "Ġexperience": 2664,
      "Ġexploits": 2665,
      "ĠEvidence": 2666,
      "bration": 2667,
      "Ġmove": 2668,
      "ĠCelebration": 2669,
      "Ġincubate": 2670,
      "ĠHideaway": 2671,
      "Ġunpaired": 2672,
      "ĠProcessor": 2673,
      "air": 2674,
      "cast": 2675,
      "mor": 2676,
      "we": 2677,
      "ĠSeek": 2678,
      "ĠSadd": 2679,
      "leash": 2680,
      "ĠDredge": 2681,
      "ĠTake": 2682,
      "Ġword": 2683,
      "ĠHag": 2684,
      "Ġhour": 2685,
      "Ġoverload": 2686,
      "ĠMite": 2687,
      "ĠVisit": 2688,
      "ĠSphere": 2689,
      "ĠTargeting": 2690,
      "rush": 2691,
      "ĠSpirits": 2692,
      "Ġexchange": 2693,
      "Ġnonlegendary": 2694,
      "Ġuntaps": 2695,
      "ĠVampires": 2696,
      "ĠForecast": 2697,
      "ĠChampion": 2698,
      "ĠJace": 2699,
      "ĠNightstalker": 2700,
      "ĠOutlaw": 2701,
      "Ġproduce": 2702,
      "ĠOnce": 2703,
      "Ġoutlaws": 2704,
      "Ġsuspected": 2705,
      "ĠSaddle": 2706,
      "12": 2707,
      "eapon": 2708,
      "hi": 2709,
      "hort": 2710,
      "ike": 2711,
      "jani": 2712,
      "time": 2713,
      "Ġri": 2714,
      "endum": 2715,
      "ĠCohort": 2716,
      "inship": 2717,
      "ĠSorc": 2718,
      "ĠSuspe": 2719,
      "ĠAjani": 2720,
      "lee": 2721,
      "ĠBasilis": 2722,
      "Ġsw": 2723,
      "ĠPra": 2724,
      "ĠPest": 2725,
      "Ġhasn": 2726,
      "ĠSpore": 2727,
      "ĠSpect": 2728,
      "Ġintimidate": 2729,
      "ĠKinship": 2730,
      "ĠAddendum": 2731,
      "ĠUnleash": 2732,
      "Ġlevel": 2733,
      "ĠSquad": 2734,
      "ĠMet": 2735,
      "spire": 2736,
      "Ġopening": 2737,
      "ĠRally": 2738,
      "Ġcompleted": 2739,
      "ĠSuspect": 2740,
      "ĠBasilisk": 2741,
      "ĠSpectacle": 2742,
      "Wall": 2743,
      "ail": 2744,
      "ialize": 2745,
      "rz": 2746,
      "ug": 2747,
      "ream": 2748,
      "ĠBad": 2749,
      "Ġ19": 2750,
      "Ġdash": 2751,
      "ised": 2752,
      "ĠEgg": 2753,
      "Ġweapon": 2754,
      "ĠUrz": 2755,
      "elf": 2756,
      "Ġgu": 2757,
      "orce": 2758,
      "ĠMore": 2759,
      "Ġbet": 2760,
      "ĠWarriors": 2761,
      "erer": 2762,
      "ĠRogues": 2763,
      "Ġvalues": 2764,
      "ĠConspire": 2765,
      "Ġtaps": 2766,
      "Ġnoted": 2767,
      "ĠWalls": 2768,
      "ĠForm": 2769,
      "ĠMountainwalk": 2770,
      "ĠMelee": 2771,
      "Ġresolved": 2772,
      "ĠTemp": 2773,
      "ĠBlack": 2774,
      "etor": 2775,
      "ĠSpecialize": 2776,
      "ĠGreen": 2777,
      "ĠWeapon": 2778,
      "Ġpromised": 2779,
      "ĠPraetor": 2780,
      "ĠUrza": 2781,
      "11": 2782,
      "be": 2783,
      "force": 2784,
      "life": 2785,
      "spent": 2786,
      "yn": 2787,
      "Ġel": 2788,
      "Ġkeep": 2789,
      "enant": 2790,
      "telo": 2791,
      "ĠCleave": 2792,
      "ances": 2793,
      "inforce": 2794,
      "ask": 2795,
      "ĠSqui": 2796,
      "issa": 2797,
      "ĠExtra": 2798,
      "ĠEye": 2799,
      "Ġbands": 2800,
      "Ġfreerunning": 2801,
      "Ġsick": 2802,
      "Ġsoul": 2803,
      "Ġmir": 2804,
      "ĠFinality": 2805,
      "ĠLie": 2806,
      "Ġemerge": 2807,
      "Ġunspent": 2808,
      "utenant": 2809,
      "ĠNissa": 2810,
      "irin": 2811,
      "ĠMong": 2812,
      "ĠYan": 2813,
      "Ġisland": 2814,
      "ĠReinforce": 2815,
      "ĠDec": 2816,
      "Ġlandcycling": 2817,
      "adox": 2818,
      "ĠSpike": 2819,
      "ĠKirin": 2820,
      "ĠWizards": 2821,
      "Ġowns": 2822,
      "ĠDraft": 2823,
      "ĠAntelo": 2824,
      "ounty": 2825,
      "arer": 2826,
      "ĠFoods": 2827,
      "ummon": 2828,
      "ĠSlug": 2829,
      "ĠRats": 2830,
      "ĠSwitch": 2831,
      "ĠForestwalk": 2832,
      "ĠPermanent": 2833,
      "ĠRadiance": 2834,
      "ĠParadox": 2835,
      "Ġunattached": 2836,
      "Ġpromise": 2837,
      "Ġskips": 2838,
      "Ġdescend": 2839,
      "Ġinstances": 2840,
      "ĠHarpy": 2841,
      "ween": 2842,
      "ĠSorcerer": 2843,
      "ĠBadger": 2844,
      "Ġbetween": 2845,
      "bearer": 2846,
      "Ġelse": 2847,
      "Ġkeeps": 2848,
      "ĠSquid": 2849,
      "Ġsickness": 2850,
      "Ġmiracle": 2851,
      "ĠLieutenant": 2852,
      "ĠAntelope": 2853,
      "aos": 2854,
      "cal": 2855,
      "ma": 2856,
      "mate": 2857,
      "ĠCrime": 2858,
      "enty": 2859,
      "Ġaff": 2860,
      "Ġpopulate": 2861,
      "Ġbid": 2862,
      "ĠRed": 2863,
      "Ġsecret": 2864,
      "ĠLil": 2865,
      "ĠInk": 2866,
      "ĠToy": 2867,
      "Ġtwenty": 2868,
      "Ġlandwalk": 2869,
      "ĠSoldiers": 2870,
      "Ġwhose": 2871,
      "ĠConver": 2872,
      "Ġcommon": 2873,
      "ĠAdventure": 2874,
      "ĠMercenaries": 2875,
      "iana": 2876,
      "ĠProvoke": 2877,
      "ĠSaga": 2878,
      "ĠCommit": 2879,
      "ĠReplicate": 2880,
      "ĠMove": 2881,
      "Ġguess": 2882,
      "Ġislandwalk": 2883,
      "ĠPermanents": 2884,
      "Ġdescended": 2885,
      "Ġsecretly": 2886,
      "ĠLiliana": 2887,
      "ĠConverge": 2888,
      "ght": 2889,
      "lac": 2890,
      "min": 2891,
      "zra": 2892,
      "ĠCame": 2893,
      "stic": 2894,
      "Ġ11": 2895,
      "Ġ15": 2896,
      "ĠAzra": 2897,
      "ley": 2898,
      "leate": 2899,
      "ĠDaut": 2900,
      "Ġbr": 2901,
      "Ġbargain": 2902,
      "ĠTw": 2903,
      "alak": 2904,
      "Ġful": 2905,
      "Ġsummon": 2906,
      "Ġmastery": 2907,
      "ĠHaun": 2908,
      "Ġhaun": 2909,
      "Ġnine": 2910,
      "ĠMastery": 2911,
      "Ġforage": 2912,
      "Ġitself": 2913,
      "ĠThalak": 2914,
      "ĠDetain": 2915,
      "idable": 2916,
      "ĠSheep": 2917,
      "athran": 2918,
      "ĠWarlocks": 2919,
      "ĠArmor": 2920,
      "ĠCurs": 2921,
      "ĠEscal": 2922,
      "ĠParley": 2923,
      "ĠCompanion": 2924,
      "ĠCompleate": 2925,
      "Ġincludes": 2926,
      "Ġsurge": 2927,
      "ĠMetathran": 2928,
      "ĠFormidable": 2929,
      "ĠTempting": 2930,
      "ĠDecayed": 2931,
      "ĠInkling": 2932,
      "ĠDauthi": 2933,
      "Ġbargained": 2934,
      "Ġfully": 2935,
      "Ġsummoning": 2936,
      "ĠHaunt": 2937,
      "ĠThalakos": 2938,
      "ĠEscalate": 2939,
      "ĠCompleated": 2940,
      "Aura": 2941,
      "daun": 2942,
      "eat": 2943,
      "Ġru": 2944,
      "ĠCart": 2945,
      "Ġcle": 2946,
      "anup": 2947,
      "ĠWicked": 2948,
      "ĠSyn": 2949,
      "Ġpo": 2950,
      "ĠDistribute": 2951,
      "Ġbolster": 2952,
      "Ġoffer": 2953,
      "ĠGide": 2954,
      "Ġloss": 2955,
      "ĠFate": 2956,
      "attacking": 2957,
      "Ġplaneswal": 2958,
      "Ġcouncil": 2959,
      "throne": 2960,
      "Ġarmor": 2961,
      "ĠDem": 2962,
      "ĠViv": 2963,
      "ĠUnder": 2964,
      "Ġexample": 2965,
      "Ġnonattacking": 2966,
      "Ġlonger": 2967,
      "ouche": 2968,
      "Ġsearches": 2969,
      "Ġentering": 2970,
      "ague": 2971,
      "Ġdivinity": 2972,
      "ĠProwl": 2973,
      "akes": 2974,
      "ĠMystic": 2975,
      "Ġreduces": 2976,
      "ĠOffer": 2977,
      "Ġproduced": 2978,
      "ĠAfterlife": 2979,
      "Ġprowess": 2980,
      "ĠCamel": 2981,
      "daunted": 2982,
      "ĠCartouche": 2983,
      "Ġcleanup": 2984,
      "ĠGideon": 2985,
      "Ġplaneswalk": 2986,
      "ĠVivien": 2987,
      "ber": 2988,
      "capes": 2989,
      "growth": 2990,
      "ia": 2991,
      "ilem": 2992,
      "lify": 2993,
      "na": 2994,
      "ren": 2995,
      "Ġice": 2996,
      "ena": 2997,
      "teen": 2998,
      "ĠCar": 2999,
      "Ġtide": 3000,
      "Ġclo": 3001,
      "Ġcry": 3002,
      "ari": 3003,
      "ĠCoward": 3004,
      "orus": 3005,
      "ĠAge": 3006,
      "ĠAmp": 3007,
      "Ġdiscover": 3008,
      "Ġdistribute": 3009,
      "ĠDale": 3010,
      "ĠTreat": 3011,
      "ays": 3012,
      "ĠRaven": 3013,
      "Ġfriend": 3014,
      "ĠGar": 3015,
      "Ġlore": 3016,
      "ĠLair": 3017,
      "riff": 3018,
      "pple": 3019,
      "ĠUndaunted": 3020,
      "ogriff": 3021,
      "use": 3022,
      "ĠStorage": 3023,
      "ĠKnights": 3024,
      "ĠTreasures": 3025,
      "Ġnote": 3026,
      "Ġki": 3027,
      "ĠSlith": 3028,
      "ĠAllies": 3029,
      "feri": 3030,
      "ĠHyena": 3031,
      "ĠTeferi": 3032,
      "ĠBlue": 3033,
      "ĠRecover": 3034,
      "Ġescapes": 3035,
      "ĠKobolds": 3036,
      "ocus": 3037,
      "Ġprowl": 3038,
      "ĠHippogriff": 3039,
      "Ġright": 3040,
      "Ġswamp": 3041,
      "ĠCursed": 3042,
      "ĠUndergrowth": 3043,
      "ilemma": 3044,
      "Ġcloak": 3045,
      "ĠAmplify": 3046,
      "ĠDalek": 3047,
      "ĠRavenous": 3048,
      "13": 3049,
      "ful": 3050,
      "ju": 3051,
      "spe": 3052,
      "uck": 3053,
      "yo": 3054,
      "reen": 3055,
      "ĠBring": 3056,
      "ĠSark": 3057,
      "ĠSolt": 3058,
      "Ġbounty": 3059,
      "Ġflood": 3060,
      "rak": 3061,
      "ĠLear": 3062,
      "ĠLocus": 3063,
      "ĠHam": 3064,
      "Ġhaven": 3065,
      "asticore": 3066,
      "ĠPack": 3067,
      "Ġodd": 3068,
      "ĠMasticore": 3069,
      "igod": 3070,
      "ĠDethrone": 3071,
      "ides": 3072,
      "ongreen": 3073,
      "ruk": 3074,
      "ĠZub": 3075,
      "Ġstays": 3076,
      "ĠBehold": 3077,
      "Ġsearched": 3078,
      "ĠGates": 3079,
      "Ġreplac": 3080,
      "Ġteammate": 3081,
      "Ġreduce": 3082,
      "ĠSkip": 3083,
      "ĠOnly": 3084,
      "ĠRipple": 3085,
      "ĠSurvival": 3086,
      "ĠWolves": 3087,
      "Ġintens": 3088,
      "ĠRepeat": 3089,
      "Ġsymbols": 3090,
      "ĠSynth": 3091,
      "ĠDemigod": 3092,
      "ĠGarruk": 3093,
      "Ġswampwalk": 3094,
      "ĠSarkhan": 3095,
      "ĠSoltari": 3096,
      "ĠLearn": 3097,
      "ĠZubera": 3098,
      "ĠBeholder": 3099,
      "Ġreplacing": 3100,
      "Sp": 3101,
      "ah": 3102,
      "idd": 3103,
      "uous": 3104,
      "yriad": 3105,
      "zz": 3106,
      "Ġcycling": 3107,
      "arid": 3108,
      "strate": 3109,
      "Ġapp": 3110,
      "ĠSlo": 3111,
      "ĠDep": 3112,
      "Ġbidd": 3113,
      "ĠTr": 3114,
      "Ġfate": 3115,
      "Ġsl": 3116,
      "Ġspe": 3117,
      "Ġmyriad": 3118,
      "raf": 3119,
      "une": 3120,
      "ics": 3121,
      "Ġyours": 3122,
      "ĠFe": 3123,
      "actics": 3124,
      "Ġhim": 3125,
      "Ġplot": 3126,
      "Ġwither": 3127,
      "Ġnongreen": 3128,
      "Ġplays": 3129,
      "roma": 3130,
      "oster": 3131,
      "ĠMeld": 3132,
      "ctacle": 3133,
      "ĠVerse": 3134,
      "ĠKi": 3135,
      "ĠKher": 3136,
      "ĠKeep": 3137,
      "ĠKhan": 3138,
      "Ġvow": 3139,
      "Ġexalted": 3140,
      "eret": 3141,
      "ĠGRUW": 3142,
      "Ġchaos": 3143,
      "ĠChorus": 3144,
      "ĠChroma": 3145,
      "ĠForage": 3146,
      "Ġconvoke": 3147,
      "ĠBloodrush": 3148,
      "ĠElspe": 3149,
      "ĠTezz": 3150,
      "ĠHomarid": 3151,
      "Ġproduces": 3152,
      "ĠOne": 3153,
      "ocolored": 3154,
      "Ġcrews": 3155,
      "ĠMole": 3156,
      "ĠHippo": 3157,
      "Ġwords": 3158,
      "ĠMonger": 3159,
      "ĠYanling": 3160,
      "ĠTwo": 3161,
      "Ġrule": 3162,
      "ĠCarri": 3163,
      "ĠBringer": 3164,
      "Ġapply": 3165,
      "ĠSloth": 3166,
      "ĠDepletion": 3167,
      "Ġspectacle": 3168,
      "ĠKhans": 3169,
      "ĠElspeth": 3170,
      "ĠTezzeret": 3171,
      "cent": 3172,
      "emon": 3173,
      "li": 3174,
      "pt": 3175,
      "rask": 3176,
      "var": 3177,
      "yber": 3178,
      "Ġim": 3179,
      "Ġign": 3180,
      "ĠCry": 3181,
      "ĠCyber": 3182,
      "arm": 3183,
      "orin": 3184,
      "ines": 3185,
      "Ġthir": 3186,
      "ĠColorless": 3187,
      "ĠSorin": 3188,
      "Ġdraf": 3189,
      "Ġpage": 3190,
      "Ġpack": 3191,
      "isp": 3192,
      "ĠEffect": 3193,
      "ĠTribute": 3194,
      "Ġsqu": 3195,
      "Ġlow": 3196,
      "ĠFade": 3197,
      "ĠLore": 3198,
      "ĠHe": 3199,
      "Ġgrowth": 3200,
      "Ġannihilator": 3201,
      "Ġplayed": 3202,
      "ĠMag": 3203,
      "ĠVol": 3204,
      "ĠVenture": 3205,
      "ĠVrask": 3206,
      "ĠUnattach": 3207,
      "Ġneither": 3208,
      "olas": 3209,
      "ĠClerics": 3210,
      "ĠStarf": 3211,
      "ĠBirds": 3212,
      "Ġfourth": 3213,
      "ĠPlaneswalkers": 3214,
      "ĠMine": 3215,
      "Ġbooster": 3216,
      "Ġtribute": 3217,
      "ĠPlainscycling": 3218,
      "Ġmonocolored": 3219,
      "Ġcouldn": 3220,
      "ĠSquirrels": 3221,
      "Ġdivides": 3222,
      "ĠAttractions": 3223,
      "ĠExperience": 3224,
      "Ġeverything": 3225,
      "Ġcrewed": 3226,
      "ĠFateful": 3227,
      "ĠHamster": 3228,
      "Spirit": 3229,
      "Ġignore": 3230,
      "ĠCyberman": 3231,
      "Ġdrafted": 3232,
      "ĠEffects": 3233,
      "Ġlowest": 3234,
      "ĠVraska": 3235,
      "ĠStarfish": 3236,
      "Dra": 3237,
      "Demon": 3238,
      "ait": 3239,
      "creature": 3240,
      "ets": 3241,
      "flect": 3242,
      "gle": 3243,
      "gol": 3244,
      "hite": 3245,
      "net": 3246,
      "uro": 3247,
      "white": 3248,
      "atch": 3249,
      "Ġtakes": 3250,
      "Ġcleave": 3251,
      "angol": 3252,
      "aces": 3253,
      "ĠBolas": 3254,
      "gest": 3255,
      "ĠWith": 3256,
      "ĠSecret": 3257,
      "Ġdel": 3258,
      "Ġdream": 3259,
      "ĠEmin": 3260,
      "aya": 3261,
      "ĠRow": 3262,
      "ĠRag": 3263,
      "ĠRoyal": 3264,
      "ĠRune": 3265,
      "Ġsupport": 3266,
      "Ġmount": 3267,
      "ĠGith": 3268,
      "Ġwor": 3269,
      "ĠFriend": 3270,
      "ĠIngest": 3271,
      "ackets": 3272,
      "ĠPangol": 3273,
      "ainwalk": 3274,
      "Ġplague": 3275,
      "ĠNog": 3276,
      "ĠNix": 3277,
      "ĠNah": 3278,
      "Ġnor": 3279,
      "Ġart": 3280,
      "ĠReflect": 3281,
      "Ġdoom": 3282,
      "Ġlearn": 3283,
      "ĠDemons": 3284,
      "ĠDemonstrate": 3285,
      "ĠFlag": 3286,
      "Ġforever": 3287,
      "ĠSurrak": 3288,
      "Ġfeather": 3289,
      "ĠShrines": 3290,
      "ĠNoncreature": 3291,
      "wagg": 3292,
      "Ġactivation": 3293,
      "Ġsuspect": 3294,
      "Ġdescent": 3295,
      "Ġinstance": 3296,
      "Ġincluding": 3297,
      "rushwagg": 3298,
      "Ġguessed": 3299,
      "Ġbrackets": 3300,
      "Ġvowel": 3301,
      "ĠCarrier": 3302,
      "Ġthirteen": 3303,
      "Ġsquare": 3304,
      "ĠVolver": 3305,
      "Dragon": 3306,
      "ĠEminence": 3307,
      "ĠRowan": 3308,
      "Ġmountainwalk": 3309,
      "ĠPangolin": 3310,
      "ĠNoggle": 3311,
      "ĠNixilis": 3312,
      "ĠNahiri": 3313,
      "ĠReflection": 3314,
      "ĠFlagbearer": 3315,
      "ĠSurrakar": 3316,
      "fen": 3317,
      "ked": 3318,
      "lle": 3319,
      "ne": 3320,
      "pic": 3321,
      "rand": 3322,
      "sy": 3323,
      "tion": 3324,
      "ust": 3325,
      "ull": 3326,
      "udy": 3327,
      "yvar": 3328,
      "Ġqual": 3329,
      "atur": 3330,
      "Ġcumulative": 3331,
      "ĠIm": 3332,
      "ĠBrushwagg": 3333,
      "ĠWind": 3334,
      "asp": 3335,
      "ĠAuro": 3336,
      "ĠDiv": 3337,
      "ĠTyvar": 3338,
      "Ġfungus": 3339,
      "Ġfull": 3340,
      "Ġmele": 3341,
      "chs": 3342,
      "unt": 3343,
      "ĠLe": 3344,
      "ĠHunt": 3345,
      "Ġhow": 3346,
      "ĠEnd": 3347,
      "Ġcolored": 3348,
      "Ġcolle": 3349,
      "Ġencore": 3350,
      "oung": 3351,
      "ĠPri": 3352,
      "ĠNumber": 3353,
      "irc": 3354,
      "ĠYoung": 3355,
      "ĠDeath": 3356,
      "ĠVec": 3357,
      "Ġwhether": 3358,
      "uster": 3359,
      "olves": 3360,
      "ĠPhyrexians": 3361,
      "Ġrampage": 3362,
      "ulpt": 3363,
      "ĠSnail": 3364,
      "ĠDinosaurs": 3365,
      "Ġcome": 3366,
      "Ġlooks": 3367,
      "ĠOrgg": 3368,
      "ĠDomri": 3369,
      "Ġcoins": 3370,
      "Ġchangeling": 3371,
      "ĠNonbasic": 3372,
      "ĠCloak": 3373,
      "Ġwhichever": 3374,
      "ĠBobbleheads": 3375,
      "Ġseparates": 3376,
      "Ġseparately": 3377,
      "Ġhaunts": 3378,
      "Ġhaunting": 3379,
      "Ġpoint": 3380,
      "Ġintensify": 3381,
      "Ġbidding": 3382,
      "Ġslime": 3383,
      "Ġvowels": 3384,
      "fense": 3385,
      "Ġquality": 3386,
      "ĠAurochs": 3387,
      "Ġmelee": 3388,
      "Ġcollected": 3389,
      "ĠVecna": 3390,
      "az": 3391,
      "cy": 3392,
      "cer": 3393,
      "ha": 3394,
      "identity": 3395,
      "ited": 3396,
      "oe": 3397,
      "ok": 3398,
      "oose": 3399,
      "oll": 3400,
      "rong": 3401,
      "sion": 3402,
      "ving": 3403,
      "Ġju": 3404,
      "Ġidentity": 3405,
      "Ġtra": 3406,
      "ured": 3407,
      "reath": 3408,
      "ara": 3409,
      "eries": 3410,
      "ĠBreath": 3411,
      "ĠWalker": 3412,
      "ĠSand": 3413,
      "Ġdire": 3414,
      "Ġdist": 3415,
      "Ġdilemma": 3416,
      "ĠDilemma": 3417,
      "Ġbook": 3418,
      "Ġblood": 3419,
      "urb": 3420,
      "aly": 3421,
      "ĠRig": 3422,
      "ĠRound": 3423,
      "Ġfaces": 3424,
      "Ġfoe": 3425,
      "Ġsle": 3426,
      "Ġsect": 3427,
      "Ġmat": 3428,
      "ĠGe": 3429,
      "ĠGrave": 3430,
      "ĠGrand": 3431,
      "Ġluck": 3432,
      "ĠFight": 3433,
      "ĠFire": 3434,
      "ĠFath": 3435,
      "Ġcontin": 3436,
      "elve": 3437,
      "eloc": 3438,
      "ĠLl": 3439,
      "ĠLam": 3440,
      "ĠLight": 3441,
      "ild": 3442,
      "ilus": 3443,
      "ilob": 3444,
      "Ġegg": 3445,
      "Ġundying": 3446,
      "Ġdevo": 3447,
      "Ġdetain": 3448,
      "ainous": 3449,
      "Ġplains": 3450,
      "ĠNep": 3451,
      "ĠNontoken": 3452,
      "ĠNaut": 3453,
      "ĠTower": 3454,
      "Ġrese": 3455,
      "ĠMar": 3456,
      "rib": 3457,
      "rix": 3458,
      "ction": 3459,
      "omless": 3460,
      "Ġtwelve": 3461,
      "ĠVo": 3462,
      "ĠVir": 3463,
      "Ġnumbers": 3464,
      "imult": 3465,
      "Ġdoor": 3466,
      "Ġvill": 3467,
      "Ġvisit": 3468,
      "ĠShard": 3469,
      "ĠOk": 3470,
      "Ġnonwhite": 3471,
      "Ġstash": 3472,
      "Ġstart": 3473,
      "eart": 3474,
      "ĠSculpt": 3475,
      "ought": 3476,
      "seal": 3477,
      "ĠCats": 3478,
      "Ġactivates": 3479,
      "iple": 3480,
      "ected": 3481,
      "voked": 3482,
      "ĠIslandcycling": 3483,
      "Ġtotals": 3484,
      "aneous": 3485,
      "ĠNote": 3486,
      "ĠFlame": 3487,
      "ĠSkeletons": 3488,
      "ĠMountaincycling": 3489,
      "Ġconvoked": 3490,
      "ĠSaprolings": 3491,
      "Ġcopied": 3492,
      "Ġvoted": 3493,
      "Ġcycles": 3494,
      "ĠGnoll": 3495,
      "Ġduplicates": 3496,
      "ĠWorker": 3497,
      "ĠNonartifact": 3498,
      "ĠRevel": 3499,
      "hilim": 3500,
      "Ġfollowed": 3501,
      "Ġcommitted": 3502,
      "mory": 3503,
      "Ġswitch": 3504,
      "ĠMongoose": 3505,
      "Ġaffected": 3506,
      "Ġbrick": 3507,
      "Ġfriends": 3508,
      "ĠTrilob": 3509,
      "ĠFeather": 3510,
      "ĠMelds": 3511,
      "Ġdelay": 3512,
      "sych": 3513,
      "Ġdisturb": 3514,
      "Ġsector": 3515,
      "ĠFathomless": 3516,
      "elocity": 3517,
      "ĠLightning": 3518,
      "ĠNephilim": 3519,
      "ĠNautilus": 3520,
      "Ġreselect": 3521,
      "imultaneous": 3522,
      "Ġvillainous": 3523,
      "ĠTrilobite": 3524,
      "imultaneously": 3525,
      "14": 3526,
      "Elf": 3527,
      "Lair": 3528,
      "Zomb": 3529,
      "au": 3530,
      "ael": 3531,
      "aze": 3532,
      "combat": 3533,
      "eur": 3534,
      "gl": 3535,
      "iqu": 3536,
      "ka": 3537,
      "ks": 3538,
      "nought": 3539,
      "ove": 3540,
      "oth": 3541,
      "ope": 3542,
      "per": 3543,
      "pies": 3544,
      "uat": 3545,
      "vent": 3546,
      "vive": 3547,
      "ysa": 3548,
      "Ġing": 3549,
      "Ġus": 3550,
      "ene": 3551,
      "rey": 3552,
      "tex": 3553,
      "ĠCirc": 3554,
      "ending": 3555,
      "Ġtactics": 3556,
      "Ġcor": 3557,
      "Ġcorp": 3558,
      "anar": 3559,
      "anow": 3560,
      "arse": 3561,
      "ĠCoyo": 3562,
      "ĠCopies": 3563,
      "ortex": 3564,
      "oud": 3565,
      "entin": 3566,
      "entacle": 3567,
      "ĠIce": 3568,
      "ĠBal": 3569,
      "ĠBounty": 3570,
      "ĠWal": 3571,
      "Ġ14": 3572,
      "ĠSa": 3573,
      "ĠSentin": 3574,
      "Ġpost": 3575,
      "les": 3576,
      "ĠDis": 3577,
      "ĠDread": 3578,
      "ĠDark": 3579,
      "tering": 3580,
      "tervent": 3581,
      "ĠTim": 3582,
      "ĠTactics": 3583,
      "ĠTentacle": 3584,
      "Ġoff": 3585,
      "aldra": 3586,
      "ĠRasp": 3587,
      "Ġfuse": 3588,
      "Ġsub": 3589,
      "Ġmire": 3590,
      "Ġmult": 3591,
      "Ġmag": 3592,
      "ĠGu": 3593,
      "ĠGold": 3594,
      "ices": 3595,
      "icke": 3596,
      "icator": 3597,
      "ĠFlood": 3598,
      "Ġcontains": 3599,
      "ĠHeart": 3600,
      "ĠHuat": 3601,
      "Ġorig": 3602,
      "Ġunearth": 3603,
      "Ġunchange": 3604,
      "utin": 3605,
      "ĠInqu": 3606,
      "ĠPr": 3607,
      "ĠPrim": 3608,
      "Ġplanar": 3609,
      "ĠNe": 3610,
      "ĠNarse": 3611,
      "Ġcount": 3612,
      "Ġninj": 3613,
      "Ġends": 3614,
      "rie": 3615,
      "ĠThree": 3616,
      "ĠCards": 3617,
      "ceiv": 3618,
      "ĠKe": 3619,
      "ĠKarn": 3620,
      "ĠKait": 3621,
      "ĠKaya": 3622,
      "ĠKaldra": 3623,
      "imate": 3624,
      "Ġvoid": 3625,
      "Ġvoting": 3626,
      "ĠOpen": 3627,
      "ĠZero": 3628,
      "ears": 3629,
      "Ġblaze": 3630,
      "ĠElementals": 3631,
      "ĠPlague": 3632,
      "ĠBeasts": 3633,
      "Ġchap": 3634,
      "Ġinstants": 3635,
      "Ġchoices": 3636,
      "avan": 3637,
      "avite": 3638,
      "ĠChaos": 3639,
      "ĠGolems": 3640,
      "ĠFaeries": 3641,
      "ĠClues": 3642,
      "ĠForestcycling": 3643,
      "ĠSwampcycling": 3644,
      "ĠDogs": 3645,
      "ĠImpending": 3646,
      "ĠServ": 3647,
      "ĠDeserts": 3648,
      "nowled": 3649,
      "ĠWhisp": 3650,
      "Ġkinds": 3651,
      "ĠTeysa": 3652,
      "ĠBlade": 3653,
      "Ġrolled": 3654,
      "Ġcycled": 3655,
      "ĠRak": 3656,
      "ĠEvery": 3657,
      "Ġresults": 3658,
      "ĠNonland": 3659,
      "ĠInspir": 3660,
      "Ġskulk": 3661,
      "Ġconnive": 3662,
      "ĠQu": 3663,
      "ĠWerewolves": 3664,
      "Ġsurvive": 3665,
      "Ġafflict": 3666,
      "Ġguesses": 3667,
      "Ġoffering": 3668,
      "ĠOffering": 3669,
      "Ġplotted": 3670,
      "Ġimp": 3671,
      "ĠMagic": 3672,
      "ĠRagavan": 3673,
      "Ġworks": 3674,
      "ĠFriends": 3675,
      "atural": 3676,
      "ĠDivinity": 3677,
      "Ġdirection": 3678,
      "ĠRigger": 3679,
      "ĠGrandeur": 3680,
      "ĠLlanow": 3681,
      "Ġdevoured": 3682,
      "Ġplainswalk": 3683,
      "ribery": 3684,
      "ĠVirt": 3685,
      "Zombie": 3686,
      "Ġcorpse": 3687,
      "ĠSentinel": 3688,
      "Ġpostcombat": 3689,
      "ĠDreadnought": 3690,
      "tervention": 3691,
      "ĠRasputin": 3692,
      "Ġmultiple": 3693,
      "Ġmagnet": 3694,
      "ĠHuatli": 3695,
      "Ġoriginal": 3696,
      "Ġunchanged": 3697,
      "ĠPrimarch": 3698,
      "ĠNarset": 3699,
      "Ġninjutsu": 3700,
      "ĠKaito": 3701,
      "nowledge": 3702,
      "ĠLlanowar": 3703,
      "Pl": 3704,
      "ax": 3705,
      "ball": 3706,
      "den": 3707,
      "dicator": 3708,
      "emory": 3709,
      "fly": 3710,
      "fire": 3711,
      "ial": 3712,
      "ius": 3713,
      "iation": 3714,
      "ja": 3715,
      "non": 3716,
      "ov": 3717,
      "oin": 3718,
      "ock": 3719,
      "oot": 3720,
      "print": 3721,
      "rin": 3722,
      "rice": 3723,
      "sc": 3724,
      "sis": 3725,
      "ses": 3726,
      "told": 3727,
      "vin": 3728,
      "west": 3729,
      "yes": 3730,
      "zation": 3731,
      "Ġj": 3732,
      "Ġuse": 3733,
      "ened": 3734,
      "ress": 3735,
      "rets": 3736,
      "teor": 3737,
      "ĠCro": 3738,
      "ĠCap": 3739,
      "ĠCaves": 3740,
      "ĠCrow": 3741,
      "ender": 3742,
      "attered": 3743,
      "ansion": 3744,
      "annon": 3745,
      "arth": 3746,
      "arves": 3747,
      "ĠCoil": 3748,
      "ora": 3749,
      "ory": 3750,
      "orate": 3751,
      "inish": 3752,
      "ĠBr": 3753,
      "ĠBro": 3754,
      "ĠBand": 3755,
      "ĠBlock": 3756,
      "ĠBow": 3757,
      "ĠBoo": 3758,
      "ĠBurst": 3759,
      "ifies": 3760,
      "ified": 3761,
      "ĠWeas": 3762,
      "ĠWren": 3763,
      "eding": 3764,
      "ĠSte": 3765,
      "ĠSil": 3766,
      "ĠAc": 3767,
      "Ġpe": 3768,
      "Ġpin": 3769,
      "Ġpain": 3770,
      "Ġprin": 3771,
      "ism": 3772,
      "ĠEpic": 3773,
      "ĠEarth": 3774,
      "Ġbribery": 3775,
      "urden": 3776,
      "ĠBasri": 3777,
      "ald": 3778,
      "ĠRay": 3779,
      "Ġfif": 3780,
      "Ġforc": 3781,
      "Ġfinish": 3782,
      "Ġsimultaneously": 3783,
      "Ġmeld": 3784,
      "Ġmone": 3785,
      "Ġmemory": 3786,
      "ĠGrowth": 3787,
      "Ġ25": 3788,
      "Ġwrong": 3789,
      "Ġwears": 3790,
      "ĠFes": 3791,
      "Ġcontain": 3792,
      "eli": 3793,
      "elin": 3794,
      "ĠLage": 3795,
      "ĠLuck": 3796,
      "ili": 3797,
      "illo": 3798,
      "ilib": 3799,
      "Ġeon": 3800,
      "Ġemp": 3801,
      "lyp": 3802,
      "lyph": 3803,
      "ĠHand": 3804,
      "ĠHad": 3805,
      "ĠHour": 3806,
      "ĠHollow": 3807,
      "egis": 3808,
      "Ġhav": 3809,
      "Ġensu": 3810,
      "Ġuniqu": 3811,
      "ĠIng": 3812,
      "Ġdeath": 3813,
      "Ġdefense": 3814,
      "ĠPo": 3815,
      "ĠPage": 3816,
      "ĠProtect": 3817,
      "ĠPsych": 3818,
      "Ġretrace": 3819,
      "Ġreceiv": 3820,
      "osing": 3821,
      "ĠMice": 3822,
      "ĠMow": 3823,
      "ĠMid": 3824,
      "ĠMox": 3825,
      "rite": 3826,
      "loon": 3827,
      "aph": 3828,
      "upa": 3829,
      "ĠVarm": 3830,
      "Ġpersist": 3831,
      "ada": 3832,
      "adillo": 3833,
      "ĠSpark": 3834,
      "ĠSpara": 3835,
      "ĠSprite": 3836,
      "ĠKing": 3837,
      "ivis": 3838,
      "Ġvanishing": 3839,
      "Ġvelocity": 3840,
      "ĠShattered": 3841,
      "Ġupkeeps": 3842,
      "Ġstorm": 3843,
      "Ġstickers": 3844,
      "Ġstudy": 3845,
      "Ġsticke": 3846,
      "ĠBetr": 3847,
      "ĠAshi": 3848,
      "yresis": 3849,
      "ires": 3850,
      "ĠBGUW": 3851,
      "ĠAngr": 3852,
      "demate": 3853,
      "ĠThem": 3854,
      "ĠTheir": 3855,
      "redient": 3856,
      "ĠSnakes": 3857,
      "ĠInsects": 3858,
      "aver": 3859,
      "Ġkindred": 3860,
      "Ġknowledge": 3861,
      "ĠPiles": 3862,
      "ecrets": 3863,
      "ĠFortif": 3864,
      "ĠAdju": 3865,
      "ĠCloud": 3866,
      "ĠSword": 3867,
      "rowhead": 3868,
      "ĠDwarves": 3869,
      "ggu": 3870,
      "ĠRock": 3871,
      "Ġscavenge": 3872,
      "Ġscream": 3873,
      "ĠAven": 3874,
      "pending": 3875,
      "ĠExc": 3876,
      "ĠJour": 3877,
      "ĠJoin": 3878,
      "ĠArmadillo": 3879,
      "ĠSeraph": 3880,
      "Ġpoisoned": 3881,
      "Ġflame": 3882,
      "grace": 3883,
      "ĠDevils": 3884,
      "ĠDovin": 3885,
      "Ġdifferently": 3886,
      "ĠMeteor": 3887,
      "Ġexpansion": 3888,
      "Ġresolving": 3889,
      "ĠBats": 3890,
      "Ġforetold": 3891,
      "Ġnonblue": 3892,
      "etch": 3893,
      "Ġbackup": 3894,
      "heeli": 3895,
      "ĠTravel": 3896,
      "Ġfewest": 3897,
      "Ġincreas": 3898,
      "Ġincorp": 3899,
      "Ġseeks": 3900,
      "ruption": 3901,
      "ĠModified": 3902,
      "ĠEmpires": 3903,
      "Ġamassed": 3904,
      "Ġtransformed": 3905,
      "ĠWraiths": 3906,
      "isitor": 3907,
      "pair": 3908,
      "Ġcomplete": 3909,
      "Ġinfection": 3910,
      "Ġbegins": 3911,
      "ails": 3912,
      "ĠYanggu": 3913,
      "Ġaffinity": 3914,
      "ĠCowards": 3915,
      "Ġintensifies": 3916,
      "uously": 3917,
      "Ġfateseal": 3918,
      "ĠKiora": 3919,
      "Ġimpending": 3920,
      "atchling": 3921,
      "ĠWindgrace": 3922,
      "ĠPridemate": 3923,
      "Ġjust": 3924,
      "Ġtravel": 3925,
      "alyzation": 3926,
      "Ġmatter": 3927,
      "Ġcontinuously": 3928,
      "ĠLamia": 3929,
      "ĠMarit": 3930,
      "ĠVoja": 3931,
      "ĠOko": 3932,
      "ĠSculpture": 3933,
      "ĠRevelers": 3934,
      "glass": 3935,
      "Ġusing": 3936,
      "Ġcorruption": 3937,
      "ĠCoyote": 3938,
      "ĠBalloon": 3939,
      "ĠSaheeli": 3940,
      "ĠInquisitor": 3941,
      "Ġchapter": 3942,
      "ĠServant": 3943,
      "ĠWhispers": 3944,
      "ĠRakish": 3945,
      "ĠInspiration": 3946,
      "Ġoriginally": 3947,
      "dicators": 3948,
      "overy": 3949,
      "orates": 3950,
      "ĠBlocking": 3951,
      "ĠWeasel": 3952,
      "ĠWrenn": 3953,
      "Ġprinted": 3954,
      "Ġforces": 3955,
      "Ġmoney": 3956,
      "ĠFestering": 3957,
      "ilibuster": 3958,
      "Ġempty": 3959,
      "Ġhaving": 3960,
      "Ġensues": 3961,
      "Ġunique": 3962,
      "ĠPsychic": 3963,
      "Ġreceived": 3964,
      "ĠMowu": 3965,
      "ĠVarmint": 3966,
      "Ġstickered": 3967,
      "ĠBetray": 3968,
      "ĠAshiok": 3969,
      "ĠAngrath": 3970,
      "ĠAdjudicators": 3971,
      "ĠMeteorite": 3972,
      "Ġincorporates": 3973,
      "15": 3974,
      "Equi": 3975,
      "Gorgon": 3976,
      "Vampire": 3977,
      "ab": 3978,
      "aw": 3979,
      "alor": 3980,
      "bound": 3981,
      "far": 3982,
      "flu": 3983,
      "gin": 3984,
      "gic": 3985,
      "hada": 3986,
      "ium": 3987,
      "iyo": 3988,
      "ihada": 3989,
      "lave": 3990,
      "me": 3991,
      "mn": 3992,
      "mas": 3993,
      "mash": 3994,
      "mfar": 3995,
      "nal": 3996,
      "oof": 3997,
      "ple": 3998,
      "pment": 3999,
      "pse": 4000,
      "rith": 4001,
      "snow": 4002,
      "tra": 4003,
      "tters": 4004,
      "uk": 4005,
      "uity": 4006,
      "vail": 4007,
      "yl": 4008,
      "ying": 4009,
      "ylac": 4010,
      "zes": 4011,
      "Ġac": 4012,
      "Ġite": 4013,
      "ener": 4014,
      "enchant": 4015,
      "enuity": 4016,
      "rerak": 4017,
      "ĠCiv": 4018,
      "ĠCrov": 4019,
      "ĠCau": 4020,
      "ĠCannon": 4021,
      "atrice": 4022,
      "Ġtask": 4023,
      "Ġtails": 4024,
      "anic": 4025,
      "anwe": 4026,
      "anaz": 4027,
      "amiyo": 4028,
      "aring": 4029,
      "aralyzation": 4030,
      "ĠCock": 4031,
      "ital": 4032,
      "str": 4033,
      "stal": 4034,
      "erous": 4035,
      "entavite": 4036,
      "iner": 4037,
      "aced": 4038,
      "Ġaffect": 4039,
      "Ġawaken": 4040,
      "Ġavail": 4041,
      "ĠBri": 4042,
      "ĠBod": 4043,
      "ĠBlessing": 4044,
      "ardian": 4045,
      "Ġ16": 4046,
      "ĠSle": 4047,
      "ĠSmash": 4048,
      "ĠAce": 4049,
      "ĠAim": 4050,
      "Ġdisc": 4051,
      "Ġdying": 4052,
      "Ġprotect": 4053,
      "Ġpart": 4054,
      "Ġpass": 4055,
      "Ġpupa": 4056,
      "Ġparalyzation": 4057,
      "isited": 4058,
      "andrix": 4059,
      "ĠDream": 4060,
      "ĠDisp": 4061,
      "ĠDihada": 4062,
      "tery": 4063,
      "termin": 4064,
      "Ġbene": 4065,
      "Ġburden": 4066,
      "ĠTri": 4067,
      "ĠTarm": 4068,
      "ĠTanaz": 4069,
      "ĠTamiyo": 4070,
      "ury": 4071,
      "aling": 4072,
      "ĠRever": 4073,
      "ĠRap": 4074,
      "ĠRub": 4075,
      "Ġfinal": 4076,
      "Ġfilibuster": 4077,
      "Ġsup": 4078,
      "Ġsee": 4079,
      "Ġmine": 4080,
      "Ġmentor": 4081,
      "ĠGorm": 4082,
      "rain": 4083,
      "chel": 4084,
      "Ġwage": 4085,
      "ĠFer": 4086,
      "ĠFast": 4087,
      "ĠFive": 4088,
      "ĠFind": 4089,
      "ĠUgin": 4090,
      "eldd": 4091,
      "Ġeye": 4092,
      "ĠHave": 4093,
      "ĠHanwe": 4094,
      "Ġgone": 4095,
      "Ġglyph": 4096,
      "Ġher": 4097,
      "Ġhope": 4098,
      "Ġ30": 4099,
      "uth": 4100,
      "uty": 4101,
      "ution": 4102,
      "ĠInd": 4103,
      "ĠInstead": 4104,
      "Ġintervention": 4105,
      "ĠPig": 4106,
      "ĠPoss": 4107,
      "ĠPentavite": 4108,
      "Ġore": 4109,
      "ĠNik": 4110,
      "ellow": 4111,
      "Ġnatural": 4112,
      "ĠTomb": 4113,
      "ĠLegion": 4114,
      "Ġrebound": 4115,
      "osis": 4116,
      "ĠMight": 4117,
      "ĠMus": 4118,
      "ĠMake": 4119,
      "ĠMish": 4120,
      "ĠMark": 4121,
      "ĠMask": 4122,
      "quin": 4123,
      "ldron": 4124,
      "thal": 4125,
      "ĠCount": 4126,
      "Ġarrowhead": 4127,
      "oma": 4128,
      "ĠRet": 4129,
      "ĠDefense": 4130,
      "ĠVoid": 4131,
      "ored": 4132,
      "Ġ50": 4133,
      "Ġbegun": 4134,
      "ads": 4135,
      "ĠSpik": 4136,
      "ĠKen": 4137,
      "ĠKoth": 4138,
      "idance": 4139,
      "ima": 4140,
      "imi": 4141,
      "Ġvortex": 4142,
      "Ġvisited": 4143,
      "ĠOper": 4144,
      "ĠOmn": 4145,
      "ogoyf": 4146,
      "command": 4147,
      "Ġnet": 4148,
      "Ġneed": 4149,
      "Ġneare": 4150,
      "Ġnonred": 4151,
      "Ġnonsnow": 4152,
      "Ġnonenchant": 4153,
      "Ġnoncommand": 4154,
      "Ġstands": 4155,
      "Ġshell": 4156,
      "olation": 4157,
      "ĠBefore": 4158,
      "ĠScaven": 4159,
      "ĠStash": 4160,
      "ĠStrate": 4161,
      "ĠStudy": 4162,
      "illed": 4163,
      "ĠPheldd": 4164,
      "ĠCone": 4165,
      "inkmo": 4166,
      "ĠAnd": 4167,
      "semb": 4168,
      "ĠHorses": 4169,
      "Ġchoosing": 4170,
      "allic": 4171,
      "alliation": 4172,
      "Ġexiling": 4173,
      "Ġnothing": 4174,
      "Ġactive": 4175,
      "mony": 4176,
      "avelin": 4177,
      "ĠChit": 4178,
      "ĠChains": 4179,
      "Ġkick": 4180,
      "ĠSlime": 4181,
      "Ġphyresis": 4182,
      "ĠSweep": 4183,
      "Ġphasing": 4184,
      "Ġlooked": 4185,
      "ĠArchli": 4186,
      "Ġtriple": 4187,
      "ĠPlainswalk": 4188,
      "ĠJa": 4189,
      "ĠJaya": 4190,
      "Ġscrying": 4191,
      "ĠMinotaurs": 4192,
      "Ġ100": 4193,
      "ĠSerf": 4194,
      "ĠSkemfar": 4195,
      "Ġoutlast": 4196,
      "ĠDetectives": 4197,
      "Ġregenerates": 4198,
      "ostor": 4199,
      "ube": 4200,
      "agrif": 4201,
      "shadow": 4202,
      "ĠOozes": 4203,
      "ĠDoom": 4204,
      "Ġflips": 4205,
      "tested": 4206,
      "Ġafterlife": 4207,
      "ĠTeyo": 4208,
      "Ġmutated": 4209,
      "Ġconjures": 4210,
      "Ġinvestigates": 4211,
      "ĠBlinkmo": 4212,
      "Ġexplore": 4213,
      "Ġexploit": 4214,
      "Ġexploited": 4215,
      "Ġrolls": 4216,
      "ĠSatchel": 4217,
      "Ġembalm": 4218,
      "akt": 4219,
      "Ġcomponent": 4220,
      "Ġmodes": 4221,
      "brand": 4222,
      "ĠScions": 4223,
      "ĠCorpse": 4224,
      "Ġmanifests": 4225,
      "Ġremaining": 4226,
      "Ġdrafts": 4227,
      "Ġheist": 4228,
      "Ġheads": 4229,
      "Ġbanded": 4230,
      "ĠNonbl": 4231,
      "ĠNonlegendary": 4232,
      "ĠRadha": 4233,
      "Ġadventure": 4234,
      "upply": 4235,
      "ĠCommanders": 4236,
      "Ġhealing": 4237,
      "Ġhourglass": 4238,
      "Ġriot": 4239,
      "ĠMetallic": 4240,
      "ĠTwin": 4241,
      "Ġrust": 4242,
      "Ġpool": 4243,
      "Ġpolyp": 4244,
      "rency": 4245,
      "Ġbidder": 4246,
      "Ġslumber": 4247,
      "Ġrules": 4248,
      "ĠHealing": 4249,
      "ĠRager": 4250,
      "Ġworth": 4251,
      "nequin": 4252,
      "Ġsleep": 4253,
      "Ġsleight": 4254,
      "ĠFirebrand": 4255,
      "Ġingredient": 4256,
      "ĠCircle": 4257,
      "ĠTiming": 4258,
      "ĠPrism": 4259,
      "ĠNew": 4260,
      "rieve": 4261,
      "ĠKeimi": 4262,
      "ĠQuandrix": 4263,
      "Ġimprovise": 4264,
      "ĠVirtuous": 4265,
      "Plant": 4266,
      "ressure": 4267,
      "ĠBrick": 4268,
      "ĠBandits": 4269,
      "Ġfifteen": 4270,
      "ĠProtector": 4271,
      "ĠMidnight": 4272,
      "ĠFortify": 4273,
      "ĠExcess": 4274,
      "ĠJournal": 4275,
      "Ġincreased": 4276,
      "Equipment": 4277,
      "fluence": 4278,
      "oofprint": 4279,
      "ylactery": 4280,
      "Ġacorn": 4281,
      "Ġitem": 4282,
      "ĠCivil": 4283,
      "ĠCrovax": 4284,
      "ĠCauldron": 4285,
      "ĠCockatrice": 4286,
      "itality": 4287,
      "Ġavailable": 4288,
      "ĠBody": 4289,
      "ĠAcererak": 4290,
      "Ġprotects": 4291,
      "Ġbeneath": 4292,
      "ĠTarmogoyf": 4293,
      "ĠTanazir": 4294,
      "Ġsupert": 4295,
      "Ġeyeball": 4296,
      "ĠHanweir": 4297,
      "ĠPigs": 4298,
      "ellowship": 4299,
      "ĠMishra": 4300,
      "ĠMasked": 4301,
      "Ġnearest": 4302,
      "Ġnonenchantment": 4303,
      "Ġnoncommander": 4304,
      "ĠPhelddagrif": 4305,
      "ĠArchlich": 4306,
      "ĠBlinkmoth": 4307,
      "00": 4308,
      "An": 4309,
      "CR": 4310,
      "Dinosaur": 4311,
      "Ele": 4312,
      "Eye": 4313,
      "Oo": 4314,
      "Ph": 4315,
      "Pit": 4316,
      "Pier": 4317,
      "Rief": 4318,
      "Sw": 4319,
      "When": 4320,
      "app": 4321,
      "aker": 4322,
      "aanes": 4323,
      "agon": 4324,
      "bt": 4325,
      "bon": 4326,
      "bing": 4327,
      "bos": 4328,
      "biti": 4329,
      "cle": 4330,
      "cel": 4331,
      "clave": 4332,
      "da": 4333,
      "do": 4334,
      "dom": 4335,
      "eble": 4336,
      "fl": 4337,
      "for": 4338,
      "faced": 4339,
      "game": 4340,
      "gth": 4341,
      "gers": 4342,
      "gist": 4343,
      "hy": 4344,
      "hor": 4345,
      "hield": 4346,
      "hall": 4347,
      "horn": 4348,
      "io": 4349,
      "itect": 4350,
      "ject": 4351,
      "kk": 4352,
      "ku": 4353,
      "kel": 4354,
      "lt": 4355,
      "light": 4356,
      "med": 4357,
      "mic": 4358,
      "met": 4359,
      "nn": 4360,
      "ny": 4361,
      "nus": 4362,
      "nik": 4363,
      "oil": 4364,
      "olo": 4365,
      "pl": 4366,
      "pit": 4367,
      "path": 4368,
      "ram": 4369,
      "rent": 4370,
      "rant": 4371,
      "ront": 4372,
      "rash": 4373,
      "ser": 4374,
      "ti": 4375,
      "tit": 4376,
      "tains": 4377,
      "tist": 4378,
      "tune": 4379,
      "tti": 4380,
      "uit": 4381,
      "uel": 4382,
      "va": 4383,
      "vath": 4384,
      "via": 4385,
      "wre": 4386,
      "wire": 4387,
      "witch": 4388,
      "yan": 4389,
      "yro": 4390,
      "ypes": 4391,
      "yster": 4392,
      "ybar": 4393,
      "zat": 4394,
      "Ġge": 4395,
      "Ġumb": 4396,
      "Ġacc": 4397,
      "enge": 4398,
      "ences": 4399,
      "enstalker": 4400,
      "enius": 4401,
      "enny": 4402,
      "tege": 4403,
      "tegr": 4404,
      "ĠCure": 4405,
      "ĠCell": 4406,
      "ĠClock": 4407,
      "ĠCapt": 4408,
      "ĠCarn": 4409,
      "ĠCunning": 4410,
      "ĠCust": 4411,
      "ĠCaz": 4412,
      "ĠCrash": 4413,
      "endant": 4414,
      "atic": 4415,
      "Ġtreasure": 4416,
      "Ġtort": 4417,
      "Ġcar": 4418,
      "Ġcro": 4419,
      "Ġcur": 4420,
      "Ġcla": 4421,
      "Ġcarn": 4422,
      "Ġcirc": 4423,
      "Ġcube": 4424,
      "ana": 4425,
      "urer": 4426,
      "ama": 4427,
      "amer": 4428,
      "amut": 4429,
      "amber": 4430,
      "amili": 4431,
      "ars": 4432,
      "arien": 4433,
      "armony": 4434,
      "ĠCold": 4435,
      "ĠCoru": 4436,
      "order": 4437,
      "orius": 4438,
      "itness": 4439,
      "strom": 4440,
      "storm": 4441,
      "stform": 4442,
      "stial": 4443,
      "oubt": 4444,
      "eron": 4445,
      "erub": 4446,
      "enth": 4447,
      "entle": 4448,
      "ins": 4449,
      "inion": 4450,
      "inker": 4451,
      "inator": 4452,
      "inia": 4453,
      "integr": 4454,
      "ĠIg": 4455,
      "ĠIcy": 4456,
      "ony": 4457,
      "onge": 4458,
      "onic": 4459,
      "onna": 4460,
      "acob": 4461,
      "Ġaim": 4462,
      "Ġaegis": 4463,
      "Ġyet": 4464,
      "ĠBel": 4465,
      "ĠBut": 4466,
      "ĠBould": 4467,
      "ĠBook": 4468,
      "ĠBall": 4469,
      "ĠBla": 4470,
      "ĠBolt": 4471,
      "ĠBret": 4472,
      "ĠBah": 4473,
      "ĠBio": 4474,
      "ifters": 4475,
      "ifes": 4476,
      "ged": 4477,
      "ĠWho": 4478,
      "ĠWaste": 4479,
      "ĠWould": 4480,
      "ĠWire": 4481,
      "ĠWood": 4482,
      "ĠWound": 4483,
      "ĠWombat": 4484,
      "ĠWatch": 4485,
      "ĠWasp": 4486,
      "ĠWild": 4487,
      "ĠWitness": 4488,
      "asma": 4489,
      "asmic": 4490,
      "Ġ17": 4491,
      "edient": 4492,
      "ĠSe": 4493,
      "ĠSling": 4494,
      "ĠSmo": 4495,
      "ĠSable": 4496,
      "ĠSav": 4497,
      "ĠSeven": 4498,
      "ĠSeparate": 4499,
      "ĠSummon": 4500,
      "ĠSimultaneously": 4501,
      "ĠSecrets": 4502,
      "ĠSyl": 4503,
      "ĠSzat": 4504,
      "ĠSonic": 4505,
      "ĠSifters": 4506,
      "ĠArab": 4507,
      "ĠAyes": 4508,
      "ĠAegis": 4509,
      "roce": 4510,
      "Ġdom": 4511,
      "Ġduty": 4512,
      "Ġpri": 4513,
      "Ġprime": 4514,
      "Ġpsych": 4515,
      "Ġprey": 4516,
      "Ġpalliation": 4517,
      "Ġpressure": 4518,
      "Ġproce": 4519,
      "lesh": 4520,
      "leven": 4521,
      "lepath": 4522,
      "ister": 4523,
      "iskel": 4524,
      "Ġtheft": 4525,
      "ĠDack": 4526,
      "ĠDown": 4527,
      "ĠDare": 4528,
      "ĠDyn": 4529,
      "ĠDuel": 4530,
      "ĠDarien": 4531,
      "ĠDoubt": 4532,
      "ĠDonna": 4533,
      "ĠEon": 4534,
      "ĠEther": 4535,
      "ĠEzi": 4536,
      "ĠEyes": 4537,
      "Ġtower": 4538,
      "terfly": 4539,
      "Ġbushido": 4540,
      "Ġbait": 4541,
      "Ġbrain": 4542,
      "ĠTit": 4543,
      "ĠTib": 4544,
      "ĠTong": 4545,
      "ĠTash": 4546,
      "ĠTry": 4547,
      "ĠTide": 4548,
      "ĠTail": 4549,
      "ĠTinker": 4550,
      "urist": 4551,
      "aywire": 4552,
      "alt": 4553,
      "aler": 4554,
      "alith": 4555,
      "alad": 4556,
      "alise": 4557,
      "ĠRu": 4558,
      "ĠRel": 4559,
      "ĠRage": 4560,
      "ĠRho": 4561,
      "ĠRust": 4562,
      "ĠRene": 4563,
      "ĠRyan": 4564,
      "Ġfame": 4565,
      "Ġfree": 4566,
      "Ġfetch": 4567,
      "Ġfury": 4568,
      "Ġfellowship": 4569,
      "Ġsil": 4570,
      "Ġske": 4571,
      "Ġsurve": 4572,
      "Ġsecrets": 4573,
      "Ġsupply": 4574,
      "Ġmid": 4575,
      "Ġmus": 4576,
      "Ġmake": 4577,
      "Ġmark": 4578,
      "Ġmuster": 4579,
      "ĠGuff": 4580,
      "ĠGamer": 4581,
      "ĠGentle": 4582,
      "Ġlock": 4583,
      "Ġloot": 4584,
      "rapt": 4585,
      "chre": 4586,
      "chtit": 4587,
      "und": 4588,
      "henra": 4589,
      "Ġwar": 4590,
      "Ġwish": 4591,
      "Ġwild": 4592,
      "ĠFly": 4593,
      "ĠFut": 4594,
      "ĠFry": 4595,
      "ĠFound": 4596,
      "ĠFren": 4597,
      "ĠFrey": 4598,
      "ĠFetch": 4599,
      "ĠFenstalker": 4600,
      "ĠFamili": 4601,
      "ĠFlesh": 4602,
      "terspit": 4603,
      "ĠUkk": 4604,
      "ĠUlt": 4605,
      "ĠLaur": 4606,
      "ĠLoyal": 4607,
      "ĠLock": 4608,
      "ĠLuk": 4609,
      "Ġeternalize": 4610,
      "Ġextort": 4611,
      "Ġepic": 4612,
      "Ġeleven": 4613,
      "ĠHeat": 4614,
      "ĠHope": 4615,
      "ĠHivis": 4616,
      "ĠHatchling": 4617,
      "ĠHakt": 4618,
      "ĠHaywire": 4619,
      "egative": 4620,
      "Ġgold": 4621,
      "Ġgener": 4622,
      "Ġhit": 4623,
      "Ġhom": 4624,
      "Ġhatchling": 4625,
      "Ġhoofprint": 4626,
      "Ġharmony": 4627,
      "ĠEnclave": 4628,
      "ĠArgu": 4629,
      "ĠArtist": 4630,
      "Ġunity": 4631,
      "ĠInf": 4632,
      "ĠInv": 4633,
      "ĠIniti": 4634,
      "ĠIntervention": 4635,
      "acher": 4636,
      "Ġinfluence": 4637,
      "astic": 4638,
      "Ġdemon": 4639,
      "Ġdethrone": 4640,
      "ĠPain": 4641,
      "ĠPir": 4642,
      "ĠPass": 4643,
      "ĠProud": 4644,
      "ĠPak": 4645,
      "ĠPyro": 4646,
      "ĠPalad": 4647,
      "Ġplace": 4648,
      "rification": 4649,
      "ĠNet": 4650,
      "ĠNurg": 4651,
      "ĠNatur": 4652,
      "ĠNatural": 4653,
      "ĠNCR": 4654,
      "ĠNegative": 4655,
      "irl": 4656,
      "Ġnow": 4657,
      "ĠTooth": 4658,
      "keleton": 4659,
      "Ġrev": 4660,
      "Ġreroll": 4661,
      "Ġretains": 4662,
      "ĠMu": 4663,
      "ĠMat": 4664,
      "ĠMate": 4665,
      "ĠMold": 4666,
      "ĠMart": 4667,
      "ĠMaster": 4668,
      "ĠMoss": 4669,
      "ĠMuse": 4670,
      "ĠMael": 4671,
      "ĠMender": 4672,
      "rion": 4673,
      "rial": 4674,
      "rider": 4675,
      "riven": 4676,
      "quences": 4677,
      "Ġfortune": 4678,
      "ctly": 4679,
      "Ġassemb": 4680,
      "ibou": 4681,
      "ĠThink": 4682,
      "ĠThous": 4683,
      "lockwise": 4684,
      "Ġmannequin": 4685,
      "Ġmanifes": 4686,
      "ions": 4687,
      "therho": 4688,
      "apts": 4689,
      "epter": 4690,
      "pponents": 4691,
      "Ġisolation": 4692,
      "omic": 4693,
      "ĠRead": 4694,
      "holy": 4695,
      "hostform": 4696,
      "ssing": 4697,
      "ĠDeal": 4698,
      "ĠDeep": 4699,
      "ĠDefending": 4700,
      "ĠXen": 4701,
      "ĠViz": 4702,
      "ĠVelocity": 4703,
      "ĠVortex": 4704,
      "Ġ000": 4705,
      "ĠWarp": 4706,
      "ĠWarform": 4707,
      "ader": 4708,
      "ĠSpace": 4709,
      "ĠSpear": 4710,
      "ĠSponge": 4711,
      "ĠKoma": 4712,
      "ĠKhor": 4713,
      "ĠKamber": 4714,
      "ĠKhenra": 4715,
      "ĠAttendant": 4716,
      "ider": 4717,
      "ivan": 4718,
      "ivore": 4719,
      "ieve": 4720,
      "umble": 4721,
      "rus": 4722,
      "imulus": 4723,
      "Ġvalor": 4724,
      "Ġvitality": 4725,
      "Ġabove": 4726,
      "ĠShip": 4727,
      "ĠShrie": 4728,
      "ĠOver": 4729,
      "ĠOmin": 4730,
      "ĠOtters": 4731,
      "ĠOyster": 4732,
      "ĠOchre": 4733,
      "ĠOpponents": 4734,
      "ĠUnlock": 4735,
      "ĠUnholy": 4736,
      "Ġowned": 4737,
      "Ġstren": 4738,
      "Ġstory": 4739,
      "Ġstored": 4740,
      "Ġshred": 4741,
      "outlaw": 4742,
      "Ġblight": 4743,
      "Ġadded": 4744,
      "ession": 4745,
      "ĠBeam": 4746,
      "ĠBeau": 4747,
      "ĠBeaver": 4748,
      "ĠBeeble": 4749,
      "ĠBewitch": 4750,
      "bling": 4751,
      "blade": 4752,
      "ĠScream": 4753,
      "ĠScriven": 4754,
      "ĠScepter": 4755,
      "ĠStal": 4756,
      "ĠStone": 4757,
      "ĠStrong": 4758,
      "ĠStars": 4759,
      "ĠStimulus": 4760,
      "Ġambiti": 4761,
      "ĠPhage": 4762,
      "yrexian": 4763,
      "ĠPhyrexia": 4764,
      "steel": 4765,
      "stealer": 4766,
      "ĠAnt": 4767,
      "ĠAnnihil": 4768,
      "ĠAnimate": 4769,
      "sequences": 4770,
      "Ġletter": 4771,
      "Ġlethal": 4772,
      "ĠMerry": 4773,
      "ĠUntapped": 4774,
      "Ġchorus": 4775,
      "ĠHornet": 4776,
      "ĠHorrors": 4777,
      "ĠAngels": 4778,
      "mpted": 4779,
      "ĠDevo": 4780,
      "ĠDevast": 4781,
      "zied": 4782,
      "ĠRegal": 4783,
      "ĠRegna": 4784,
      "tification": 4785,
      "ĠGiants": 4786,
      "ĠChak": 4787,
      "ĠChild": 4788,
      "ĠCherub": 4789,
      "Ġsearching": 4790,
      "umphant": 4791,
      "odes": 4792,
      "ĠSlaanes": 4793,
      "ecution": 4794,
      "Ġspite": 4795,
      "ĠVeil": 4796,
      "ĠFortification": 4797,
      "Ġphylactery": 4798,
      "ĠMind": 4799,
      "ĠMines": 4800,
      "ĠMinsc": 4801,
      "istic": 4802,
      "ĠLizards": 4803,
      "Ġlegal": 4804,
      "ĠOrb": 4805,
      "ĠOran": 4806,
      "ĠArcan": 4807,
      "ĠContrapt": 4808,
      "ĠArchitect": 4809,
      "ĠNinjas": 4810,
      "ĠWurms": 4811,
      "ĠExtermin": 4812,
      "ĠExecution": 4813,
      "ĠJenny": 4814,
      "ĠJacob": 4815,
      "ĠFlint": 4816,
      "ĠIllusions": 4817,
      "ĠNights": 4818,
      "petuous": 4819,
      "ĠImps": 4820,
      "ĠSamut": 4821,
      "ĠSpiders": 4822,
      "ĠDelay": 4823,
      "ĠDespair": 4824,
      "ĠCitizens": 4825,
      "Ġpoisonous": 4826,
      "Ġcontested": 4827,
      "Ġconsequences": 4828,
      "ĠBRUW": 4829,
      "ĠFrost": 4830,
      "ĠFrodo": 4831,
      "ĠFrogs": 4832,
      "ĠHyper": 4833,
      "agin": 4834,
      "agard": 4835,
      "Ġremoves": 4836,
      "Ġremoving": 4837,
      "Ġevolve": 4838,
      "Ġevolves": 4839,
      "ĠDesertwalk": 4840,
      "Ġwinch": 4841,
      "guard": 4842,
      "ĠElven": 4843,
      "ĠTimeless": 4844,
      "ĠCase": 4845,
      "ĠMemory": 4846,
      "ĠMechtit": 4847,
      "Ġexpedient": 4848,
      "ĠInfection": 4849,
      "ĠManalith": 4850,
      "ĠThopters": 4851,
      "ĠBoars": 4852,
      "ĠCurrent": 4853,
      "ĠSouls": 4854,
      "ĠSoulblade": 4855,
      "caped": 4856,
      "Ġtempted": 4857,
      "ĠTem": 4858,
      "ĠTelepath": 4859,
      "ĠTeacher": 4860,
      "Ġforeshadow": 4861,
      "ĠCrabs": 4862,
      "ĠRani": 4863,
      "ĠHalflings": 4864,
      "intorius": 4865,
      "ĠBlaring": 4866,
      "Ġembark": 4867,
      "etrification": 4868,
      "ĠPhobos": 4869,
      "ĠElderhall": 4870,
      "bbon": 4871,
      "Ġdungeons": 4872,
      "Ġreprieve": 4873,
      "ĠRabbits": 4874,
      "ĠEvie": 4875,
      "ĠMirran": 4876,
      "Ġmodular": 4877,
      "Ġassigned": 4878,
      "Ġfeeding": 4879,
      "Ġincarnation": 4880,
      "ĠProject": 4881,
      "ĠProtege": 4882,
      "ĠKrav": 4883,
      "ĠMoria": 4884,
      "ĠPerpetually": 4885,
      "Ġescaped": 4886,
      "ĠWeaver": 4887,
      "Ġprevious": 4888,
      "Ġquill": 4889,
      "ĠGorgons": 4890,
      "ĠOutrider": 4891,
      "ĠSky": 4892,
      "ĠSkunk": 4893,
      "ĠCorruption": 4894,
      "ĠNonwhite": 4895,
      "Ġadapts": 4896,
      "ĠParagon": 4897,
      "ĠParcel": 4898,
      "ĠOxen": 4899,
      "ĠTieflings": 4900,
      "ĠCloister": 4901,
      "ĠRepose": 4902,
      "unkyard": 4903,
      "ĠSurvivors": 4904,
      "Ġrepeats": 4905,
      "Ġdespair": 4906,
      "Ġcollection": 4907,
      "Ġtruth": 4908,
      "Ġinclude": 4909,
      "Ġcasualty": 4910,
      "ĠCelestial": 4911,
      "Ġincubation": 4912,
      "Ġevenly": 4913,
      "Ġribbon": 4914,
      "ĠSorcerous": 4915,
      "ĠSpores": 4916,
      "Ġguidance": 4917,
      "Ġsoulshift": 4918,
      "Ġsoulbond": 4919,
      "ĠYannik": 4920,
      "ĠRedhorn": 4921,
      "ĠAdventurer": 4922,
      "ĠReplicated": 4923,
      "ĠCurses": 4924,
      "ĠFateseal": 4925,
      "ĠDemili": 4926,
      "ĠCaribou": 4927,
      "Ġcrystal": 4928,
      "ĠDaleks": 4929,
      "ĠTriskel": 4930,
      "ĠFeed": 4931,
      "Ġdelve": 4932,
      "ney": 4933,
      "ĠImpetuous": 4934,
      "ĠImagin": 4935,
      "ĠLeader": 4936,
      "ĠPrimo": 4937,
      "Ġjump": 4938,
      "Ġmatrix": 4939,
      "ĠGeist": 4940,
      "ĠGeolo": 4941,
      "ĠGraveborn": 4942,
      "ĠGravestorm": 4943,
      "ĠFighting": 4944,
      "Ġcontinues": 4945,
      "ĠLammas": 4946,
      "ĠOkaun": 4947,
      "ĠSculptor": 4948,
      "ĠNotebook": 4949,
      "Ġingenuity": 4950,
      "ĠCircuit": 4951,
      "ĠWalking": 4952,
      "ĠWalrus": 4953,
      "ĠDisintegr": 4954,
      "ĠDarksteel": 4955,
      "ĠTimin": 4956,
      "Ġsubty": 4957,
      "Ġsubgame": 4958,
      "ĠGuardian": 4959,
      "ĠHeartfire": 4960,
      "ĠKeen": 4961,
      "ĠPlaguebearer": 4962,
      "ĠEverywhere": 4963,
      "ĠQuintorius": 4964,
      "Ġimpostor": 4965,
      "ĠVirtus": 4966,
      "Ġjavelin": 4967,
      "Ġjunkyard": 4968,
      "ĠCrossing": 4969,
      "ĠCapybar": 4970,
      "ĠBrotherho": 4971,
      "ĠSteel": 4972,
      "ĠSilvar": 4973,
      "ĠAcorn": 4974,
      "Ġpeace": 4975,
      "Ġpetal": 4976,
      "ĠPoint": 4977,
      "ivisible": 4978,
      "ĠAvenger": 4979,
      "ĠSculptures": 4980,
      "ĠBetrayer": 4981,
      "ĠBetrayal": 4982,
      "stral": 4983,
      "Ġawakening": 4984,
      "ĠBright": 4985,
      "ĠSleight": 4986,
      "Ġdiscovery": 4987,
      "Ġpassed": 4988,
      "ĠDispel": 4989,
      "ĠTriumphant": 4990,
      "ĠReverse": 4991,
      "ĠRapid": 4992,
      "ĠRubinia": 4993,
      "ĠFerret": 4994,
      "ĠIndivisible": 4995,
      "ĠPossum": 4996,
      "ĠNiko": 4997,
      "ĠMightstone": 4998,
      "ĠMuscle": 4999,
      "ĠSpikes": 5000,
      "ĠKenrith": 5001,
      "ĠOperative": 5002,
      "ĠOmnath": 5003,
      "ĠStrategist": 5004,
      "ĠChitterspit": 5005,
      "ĠJared": 5006,
      "ĠNonblack": 5007,
      "ĠNewt": 5008,
      "Ġitems": 5009,
      "Ġsupertypes": 5010,
      "Angel": 5011,
      "Elemental": 5012,
      "Ooze": 5013,
      "Phyrexian": 5014,
      "Piercer": 5015,
      "Swamp": 5016,
      "flame": 5017,
      "forged": 5018,
      "lightened": 5019,
      "wreck": 5020,
      "Ġgem": 5021,
      "Ġumbra": 5022,
      "Ġaccept": 5023,
      "ĠCaptain": 5024,
      "ĠCarnivore": 5025,
      "ĠCustodes": 5026,
      "ĠCazur": 5027,
      "Ġtorture": 5028,
      "Ġcarrion": 5029,
      "Ġcroak": 5030,
      "Ġcurrency": 5031,
      "Ġclaim": 5032,
      "Ġcarnage": 5033,
      "ĠCorusc": 5034,
      "ĠBelieve": 5035,
      "ĠButterfly": 5036,
      "ĠBoulder": 5037,
      "ĠBallistic": 5038,
      "ĠBlaze": 5039,
      "ĠBretagard": 5040,
      "ĠBahamut": 5041,
      "ĠWastes": 5042,
      "ĠWirefly": 5043,
      "ĠWounds": 5044,
      "ĠSlinger": 5045,
      "ĠSmoke": 5046,
      "ĠSavage": 5047,
      "ĠSylvia": 5048,
      "ĠArabian": 5049,
      "ĠAyesha": 5050,
      "Ġdominion": 5051,
      "Ġprize": 5052,
      "Ġpsychosis": 5053,
      "ĠDaretti": 5054,
      "ĠDynastic": 5055,
      "ĠEtherium": 5056,
      "ĠEzio": 5057,
      "ĠTibalt": 5058,
      "ĠTongue": 5059,
      "ĠTasha": 5060,
      "ĠTrynn": 5061,
      "ĠTinkering": 5062,
      "ĠRhoda": 5063,
      "ĠRenewer": 5064,
      "Ġsilver": 5065,
      "Ġskewer": 5066,
      "Ġsurveilled": 5067,
      "Ġmidway": 5068,
      "Ġmusic": 5069,
      "Ġmarked": 5070,
      "Ġlocked": 5071,
      "ĠFuturist": 5072,
      "ĠFrye": 5073,
      "ĠFrenzied": 5074,
      "ĠFreyalise": 5075,
      "ĠFamiliar": 5076,
      "ĠUkkima": 5077,
      "ĠLaurine": 5078,
      "ĠLukka": 5079,
      "ĠHaktos": 5080,
      "Ġgeneric": 5081,
      "Ġhomage": 5082,
      "ĠArguel": 5083,
      "ĠInitiate": 5084,
      "Ġdemonstrate": 5085,
      "ĠPako": 5086,
      "ĠPaladin": 5087,
      "ĠNurgle": 5088,
      "ĠNaturalize": 5089,
      "ĠToothy": 5090,
      "ĠMaelstrom": 5091,
      "ĠThousand": 5092,
      "Ġmanifested": 5093,
      "ĠVizier": 5094,
      "ĠKhorvath": 5095,
      "ĠShipwreck": 5096,
      "ĠShrieking": 5097,
      "ĠOminous": 5098,
      "Ġstrength": 5099,
      "ĠBewitching": 5100,
      "ĠScrivener": 5101,
      "ĠStoneforged": 5102,
      "ĠStronghold": 5103,
      "Ġambitious": 5104,
      "ĠAnnihilation": 5105,
      "ĠChakram": 5106,
      "ĠCherubael": 5107,
      "ĠSlaanesh": 5108,
      "ĠMechtitan": 5109,
      "ĠTelepathy": 5110,
      "ĠDemilich": 5111,
      "ĠTriskelavite": 5112,
      "ĠLammasu": 5113,
      "ĠCapybara": 5114,
      "ĠBrotherhood": 5115,
      "ĠChitterspitter": 5116
    },
    "merges": [
      [
        "Ġ",
        "<"
      ],
      [
        "Ġ",
        ","
      ],
      [
        "e",
        "n"
      ],
      [
        "r",
        "e"
      ],
      [
        "Ġ",
        "{"
      ],
      [
        "t",
        "e"
      ],
      [
        "Ġ",
        "C"
      ],
      [
        "o",
        "f"
      ],
      [
        "en",
        "d"
      ],
      [
        "a",
        "t"
      ],
      [
        "Ġ",
        "t"
      ],
      [
        "Ġ",
        "c"
      ],
      [
        "x",
        "t"
      ],
      [
        "te",
        "xt"
      ],
      [
        "|",
        ">"
      ],
      [
        "of",
        "text"
      ],
      [
        "end",
        "oftext"
      ],
      [
        "a",
        "n"
      ],
      [
        "u",
        "re"
      ],
      [
        "re",
        "at"
      ],
      [
        "reat",
        "ure"
      ],
      [
        "a",
        "m"
      ],
      [
        "a",
        "r"
      ],
      [
        "ĠC",
        "o"
      ],
      [
        "Ġ",
        "."
      ],
      [
        "o",
        "r"
      ],
      [
        "i",
        "t"
      ],
      [
        "s",
        "t"
      ],
      [
        "<",
        "|"
      ],
      [
        "M",
        "E"
      ],
      [
        "N",
        "A"
      ],
      [
        "o",
        "u"
      ],
      [
        "e",
        "r"
      ],
      [
        "am",
        "e"
      ],
      [
        "n",
        "ame"
      ],
      [
        "en",
        "t"
      ],
      [
        "ĠC",
        "reature"
      ],
      [
        "N",
        "E"
      ],
      [
        "i",
        "n"
      ],
      [
        "Ġt",
        "h"
      ],
      [
        "Ġ",
        "I"
      ],
      [
        "o",
        "n"
      ],
      [
        "a",
        "c"
      ],
      [
        "Ġ",
        "a"
      ],
      [
        "Ġ",
        "y"
      ],
      [
        "Ġy",
        "ou"
      ],
      [
        "Ġ",
        "B"
      ],
      [
        "ar",
        "d"
      ],
      [
        "l",
        "or"
      ],
      [
        "i",
        "f"
      ],
      [
        "g",
        "e"
      ],
      [
        "it",
        "y"
      ],
      [
        "T",
        "Y"
      ],
      [
        "ĠCo",
        "st"
      ],
      [
        "ĠCo",
        "lor"
      ],
      [
        "d",
        "ent"
      ],
      [
        "L",
        "E"
      ],
      [
        "dent",
        "ity"
      ],
      [
        "ĠI",
        "dentity"
      ],
      [
        "A",
        "R"
      ],
      [
        "AR",
        "D"
      ],
      [
        "A",
        "C"
      ],
      [
        "A",
        "NA"
      ],
      [
        "C",
        "O"
      ],
      [
        "C",
        "ARD"
      ],
      [
        "E",
        "X"
      ],
      [
        "E",
        "ME"
      ],
      [
        "H",
        "EME"
      ],
      [
        "I",
        "NE"
      ],
      [
        "L",
        "INE"
      ],
      [
        "M",
        "ANA"
      ],
      [
        "O",
        "R"
      ],
      [
        "P",
        "E"
      ],
      [
        "S",
        "T"
      ],
      [
        "T",
        "EX"
      ],
      [
        "T",
        "HEME"
      ],
      [
        "Ġ<",
        "|"
      ],
      [
        "NA",
        "ME"
      ],
      [
        "TY",
        "PE"
      ],
      [
        "AC",
        "LE"
      ],
      [
        "CO",
        "ST"
      ],
      [
        "OR",
        "ACLE"
      ],
      [
        "TEX",
        "T"
      ],
      [
        "THEME",
        "S"
      ],
      [
        "Ġ",
        "W"
      ],
      [
        "Ġc",
        "reature"
      ],
      [
        "a",
        "s"
      ],
      [
        "Ġ",
        "1"
      ],
      [
        "e",
        "d"
      ],
      [
        "Ġ",
        "S"
      ],
      [
        "Ġ",
        "A"
      ],
      [
        "r",
        "o"
      ],
      [
        "Ġ",
        "d"
      ],
      [
        "Ġ",
        "\\"
      ],
      [
        "Ġ",
        "p"
      ],
      [
        "Ġ",
        "â"
      ],
      [
        "Ģ",
        "Ķ"
      ],
      [
        "Ġâ",
        "ĢĶ"
      ],
      [
        "l",
        "e"
      ],
      [
        "i",
        "s"
      ],
      [
        "an",
        "d"
      ],
      [
        "Ġth",
        "e"
      ],
      [
        "Ġ",
        "D"
      ],
      [
        "Ġ",
        "E"
      ],
      [
        "in",
        "g"
      ],
      [
        "Ġt",
        "o"
      ],
      [
        "te",
        "r"
      ],
      [
        "Ġ",
        "b"
      ],
      [
        "Ġ",
        "T"
      ],
      [
        "u",
        "r"
      ],
      [
        "ge",
        "t"
      ],
      [
        "an",
        "t"
      ],
      [
        "Ġ",
        "of"
      ],
      [
        "ĠB",
        "as"
      ],
      [
        "a",
        "y"
      ],
      [
        "Ġc",
        "ard"
      ],
      [
        "ĠBas",
        "ed"
      ],
      [
        "a",
        "l"
      ],
      [
        "Ġ",
        "R"
      ],
      [
        "Ġ",
        "f"
      ],
      [
        "Ġ",
        "s"
      ],
      [
        "Ġ",
        "it"
      ],
      [
        "E",
        "R"
      ],
      [
        "G",
        "H"
      ],
      [
        "O",
        "U"
      ],
      [
        "O",
        "W"
      ],
      [
        "P",
        "OW"
      ],
      [
        "S",
        "S"
      ],
      [
        "T",
        "OU"
      ],
      [
        "NE",
        "SS"
      ],
      [
        "GH",
        "NESS"
      ],
      [
        "POW",
        "ER"
      ],
      [
        "TOU",
        "GHNESS"
      ],
      [
        "Ġ",
        "m"
      ],
      [
        "Ġ",
        "G"
      ],
      [
        "Ġ",
        "l"
      ],
      [
        "r",
        "a"
      ],
      [
        "Ġ",
        "2"
      ],
      [
        "c",
        "h"
      ],
      [
        "on",
        "t"
      ],
      [
        "u",
        "n"
      ],
      [
        "ro",
        "l"
      ],
      [
        "h",
        "en"
      ],
      [
        "Ġ",
        "w"
      ],
      [
        "i",
        "c"
      ],
      [
        "Ġyou",
        "r"
      ],
      [
        "ar",
        "get"
      ],
      [
        "Ġ",
        "F"
      ],
      [
        "Ġc",
        "ont"
      ],
      [
        "Ġcont",
        "rol"
      ],
      [
        "ter",
        "s"
      ],
      [
        "ac",
        "t"
      ],
      [
        "Ġ",
        "U"
      ],
      [
        "ĠW",
        "hen"
      ],
      [
        "ur",
        "n"
      ],
      [
        "e",
        "l"
      ],
      [
        "t",
        "if"
      ],
      [
        "Ġ",
        "L"
      ],
      [
        "e",
        "s"
      ],
      [
        "Ġ",
        "on"
      ],
      [
        "i",
        "l"
      ],
      [
        "Ġ",
        "e"
      ],
      [
        "tif",
        "act"
      ],
      [
        "Ġ",
        ":"
      ],
      [
        "m",
        "ent"
      ],
      [
        "l",
        "y"
      ],
      [
        "Ġ",
        "H"
      ],
      [
        "e",
        "g"
      ],
      [
        "Ġ",
        "g"
      ],
      [
        "Ġt",
        "arget"
      ],
      [
        "v",
        "e"
      ],
      [
        "Ġ",
        "h"
      ],
      [
        "m",
        "an"
      ],
      [
        "Ġ",
        "an"
      ],
      [
        "ar",
        "y"
      ],
      [
        "Ġth",
        "is"
      ],
      [
        "k",
        "en"
      ],
      [
        "Ġ",
        "or"
      ],
      [
        "a",
        "ge"
      ],
      [
        "ĠE",
        "n"
      ],
      [
        "am",
        "age"
      ],
      [
        "ĠA",
        "r"
      ],
      [
        "Ġt",
        "urn"
      ],
      [
        "Ġ",
        "3"
      ],
      [
        "ch",
        "ant"
      ],
      [
        "Ġc",
        "o"
      ],
      [
        "Ġ",
        "("
      ],
      [
        "Ġ",
        ")"
      ],
      [
        "Ġ",
        "en"
      ],
      [
        "Ġ",
        "un"
      ],
      [
        "Ġ",
        "and"
      ],
      [
        "u",
        "t"
      ],
      [
        "ĠI",
        "n"
      ],
      [
        "ĠEn",
        "chant"
      ],
      [
        "ly",
        "ing"
      ],
      [
        "ĠAr",
        "tifact"
      ],
      [
        "ac",
        "h"
      ],
      [
        "ac",
        "k"
      ],
      [
        "it",
        "h"
      ],
      [
        "ou",
        "n"
      ],
      [
        "Ġ",
        "in"
      ],
      [
        "er",
        "y"
      ],
      [
        "a",
        "st"
      ],
      [
        "or",
        "c"
      ],
      [
        "orc",
        "ery"
      ],
      [
        "Ġd",
        "e"
      ],
      [
        "u",
        "man"
      ],
      [
        "Ġ",
        "P"
      ],
      [
        "ic",
        "e"
      ],
      [
        "ĠH",
        "uman"
      ],
      [
        "at",
        "t"
      ],
      [
        "a",
        "in"
      ],
      [
        "e",
        "v"
      ],
      [
        "Ġp",
        "l"
      ],
      [
        "Ġw",
        "ith"
      ],
      [
        "m",
        "b"
      ],
      [
        "st",
        "ant"
      ],
      [
        "Ġth",
        "at"
      ],
      [
        "r",
        "if"
      ],
      [
        "Ġ",
        "o"
      ],
      [
        "Ġ",
        "N"
      ],
      [
        "i",
        "r"
      ],
      [
        "ac",
        "rif"
      ],
      [
        "el",
        "l"
      ],
      [
        "ĠEnchant",
        "ment"
      ],
      [
        "p",
        "ell"
      ],
      [
        "Ġun",
        "t"
      ],
      [
        "a",
        "te"
      ],
      [
        "Ġc",
        "oun"
      ],
      [
        "Ġ",
        "n"
      ],
      [
        "p",
        "p"
      ],
      [
        "ken",
        "s"
      ],
      [
        "ĠIn",
        "stant"
      ],
      [
        "Ġm",
        "ay"
      ],
      [
        "ĠF",
        "lying"
      ],
      [
        "Ġen",
        "ters"
      ],
      [
        "acrif",
        "ice"
      ],
      [
        "ra",
        "w"
      ],
      [
        "ev",
        "er"
      ],
      [
        "Ġ",
        "end"
      ],
      [
        "ĠWhen",
        "ever"
      ],
      [
        "end",
        "ary"
      ],
      [
        "Ġpl",
        "ay"
      ],
      [
        "ĠT",
        "o"
      ],
      [
        "Ġs",
        "pell"
      ],
      [
        "k",
        "e"
      ],
      [
        "ĠS",
        "orcery"
      ],
      [
        "ro",
        "m"
      ],
      [
        "Ġf",
        "rom"
      ],
      [
        "Ġc",
        "ast"
      ],
      [
        "ĠL",
        "eg"
      ],
      [
        "ĠLeg",
        "endary"
      ],
      [
        "Ġ",
        "4"
      ],
      [
        "ĠTo",
        "kens"
      ],
      [
        "Ġplay",
        "er"
      ],
      [
        "Ġd",
        "amage"
      ],
      [
        "Ġ",
        "re"
      ],
      [
        "'",
        "s"
      ],
      [
        "o",
        "s"
      ],
      [
        "Ġde",
        "al"
      ],
      [
        "Ġ",
        "get"
      ],
      [
        "Ġe",
        "ach"
      ],
      [
        "Ġ",
        "M"
      ],
      [
        "Ġunt",
        "il"
      ],
      [
        "ĠS",
        "acrifice"
      ],
      [
        "Ġp",
        "ut"
      ],
      [
        "r",
        "i"
      ],
      [
        "l",
        "o"
      ],
      [
        "Ġcard",
        "s"
      ],
      [
        "q",
        "u"
      ],
      [
        "Ġb",
        "e"
      ],
      [
        "Ġf",
        "or"
      ],
      [
        "c",
        "t"
      ],
      [
        "Ġa",
        "s"
      ],
      [
        "i",
        "b"
      ],
      [
        "ĠA",
        "t"
      ],
      [
        "x",
        "i"
      ],
      [
        "'",
        "t"
      ],
      [
        "l",
        "d"
      ],
      [
        "Ġ",
        "Y"
      ],
      [
        "t",
        "h"
      ],
      [
        "Ġit",
        "s"
      ],
      [
        "Ġcreature",
        "s"
      ],
      [
        "ĠY",
        "ou"
      ],
      [
        "Ġg",
        "ain"
      ],
      [
        "Ġh",
        "and"
      ],
      [
        "ĠD",
        "raw"
      ],
      [
        "ra",
        "ve"
      ],
      [
        "y",
        "ard"
      ],
      [
        "Ġg",
        "rave"
      ],
      [
        "Ġgrave",
        "yard"
      ],
      [
        "Ġ",
        "att"
      ],
      [
        "c",
        "k"
      ],
      [
        "ĠT",
        "h"
      ],
      [
        "Ġcoun",
        "ter"
      ],
      [
        "lo",
        "ck"
      ],
      [
        "am",
        "p"
      ],
      [
        "Ġm",
        "an"
      ],
      [
        "i",
        "g"
      ],
      [
        "ĠI",
        "f"
      ],
      [
        "ĠCo",
        "un"
      ],
      [
        "Ġc",
        "an"
      ],
      [
        "if",
        "e"
      ],
      [
        "Ġdeal",
        "s"
      ],
      [
        "Ġget",
        "s"
      ],
      [
        "ĠD",
        "amage"
      ],
      [
        "ib",
        "r"
      ],
      [
        "Ġl",
        "ibr"
      ],
      [
        "i",
        "on"
      ],
      [
        "th",
        "er"
      ],
      [
        "Ġlibr",
        "ary"
      ],
      [
        "Ġatt",
        "ack"
      ],
      [
        "a",
        "p"
      ],
      [
        "on",
        "ent"
      ],
      [
        "e",
        "p"
      ],
      [
        "pp",
        "onent"
      ],
      [
        "Ġo",
        "pponent"
      ],
      [
        "d",
        "d"
      ],
      [
        "Ġman",
        "a"
      ],
      [
        "ĠCoun",
        "ters"
      ],
      [
        "u",
        "p"
      ],
      [
        "Ġ",
        "ar"
      ],
      [
        "Ġ",
        "is"
      ],
      [
        "Ġl",
        "ife"
      ],
      [
        "o",
        "w"
      ],
      [
        "Ġar",
        "tifact"
      ],
      [
        "o",
        "m"
      ],
      [
        "os",
        "e"
      ],
      [
        "i",
        "es"
      ],
      [
        "ĠR",
        "e"
      ],
      [
        "re",
        "ate"
      ],
      [
        "h",
        "o"
      ],
      [
        "Ġan",
        "y"
      ],
      [
        "s",
        "s"
      ],
      [
        "Ġh",
        "as"
      ],
      [
        "xi",
        "le"
      ],
      [
        "Ġ",
        "up"
      ],
      [
        "u",
        "e"
      ],
      [
        "Ġb",
        "lock"
      ],
      [
        "is",
        "c"
      ],
      [
        "ĠD",
        "e"
      ],
      [
        "el",
        "d"
      ],
      [
        "mb",
        "at"
      ],
      [
        "isc",
        "ard"
      ],
      [
        "i",
        "eld"
      ],
      [
        "Ġ",
        "X"
      ],
      [
        "att",
        "le"
      ],
      [
        "Ġco",
        "st"
      ],
      [
        "Ġb",
        "attle"
      ],
      [
        "f",
        "ield"
      ],
      [
        "Ġbattle",
        "field"
      ],
      [
        "Ġt",
        "w"
      ],
      [
        "qu",
        "i"
      ],
      [
        "Ġ",
        "if"
      ],
      [
        "Ġ",
        "V"
      ],
      [
        "o",
        "re"
      ],
      [
        "ur",
        "a"
      ],
      [
        "i",
        "z"
      ],
      [
        "Ġon",
        "e"
      ],
      [
        "Ġl",
        "and"
      ],
      [
        "Ġ",
        "5"
      ],
      [
        "Ġ",
        "0"
      ],
      [
        "Ġtw",
        "o"
      ],
      [
        "le",
        "ss"
      ],
      [
        "ke",
        "ep"
      ],
      [
        "pp",
        "ed"
      ],
      [
        "in",
        "n"
      ],
      [
        "ĠC",
        "ard"
      ],
      [
        "ĠW",
        "ar"
      ],
      [
        "Ġto",
        "ken"
      ],
      [
        "c",
        "e"
      ],
      [
        "ĠA",
        "ura"
      ],
      [
        "Ġp",
        "er"
      ],
      [
        "ĠE",
        "qui"
      ],
      [
        "amp",
        "le"
      ],
      [
        "Ġb",
        "eg"
      ],
      [
        "k",
        "er"
      ],
      [
        "r",
        "ample"
      ],
      [
        "inn",
        "ing"
      ],
      [
        "Ġbeg",
        "inning"
      ],
      [
        "l",
        "l"
      ],
      [
        "a",
        "d"
      ],
      [
        "ĠS",
        "p"
      ],
      [
        "h",
        "t"
      ],
      [
        "iz",
        "ard"
      ],
      [
        "Ġin",
        "t"
      ],
      [
        "man",
        "ent"
      ],
      [
        "Ġper",
        "manent"
      ],
      [
        "Ġp",
        "ay"
      ],
      [
        "Ġint",
        "o"
      ],
      [
        "ri",
        "or"
      ],
      [
        "ĠWar",
        "rior"
      ],
      [
        "t",
        "urn"
      ],
      [
        "Ġ",
        "K"
      ],
      [
        "ĠAt",
        "t"
      ],
      [
        "ĠL",
        "and"
      ],
      [
        "Ġcoun",
        "ters"
      ],
      [
        "ĠTh",
        "is"
      ],
      [
        "Ġ",
        "-"
      ],
      [
        "l",
        "er"
      ],
      [
        "Ġth",
        "en"
      ],
      [
        "i",
        "d"
      ],
      [
        "ĠT",
        "arget"
      ],
      [
        "o",
        "ld"
      ],
      [
        "ĠW",
        "izard"
      ],
      [
        "on",
        "g"
      ],
      [
        "i",
        "v"
      ],
      [
        "ĠEqui",
        "p"
      ],
      [
        "i",
        "e"
      ],
      [
        "ĠL",
        "if"
      ],
      [
        "i",
        "er"
      ],
      [
        "old",
        "ier"
      ],
      [
        "ĠS",
        "oldier"
      ],
      [
        "Ġto",
        "p"
      ],
      [
        "te",
        "d"
      ],
      [
        "ĠA",
        "dd"
      ],
      [
        "u",
        "mb"
      ],
      [
        "umb",
        "er"
      ],
      [
        "ac",
        "e"
      ],
      [
        "ho",
        "ose"
      ],
      [
        "Ġn",
        "umber"
      ],
      [
        "Ġd",
        "raw"
      ],
      [
        "Ġw",
        "h"
      ],
      [
        "Ġco",
        "mbat"
      ],
      [
        "a",
        "pped"
      ],
      [
        "r",
        "u"
      ],
      [
        "i",
        "m"
      ],
      [
        "Ġe",
        "xile"
      ],
      [
        "ack",
        "ing"
      ],
      [
        "Ġc",
        "reate"
      ],
      [
        "ĠAtt",
        "acking"
      ],
      [
        "st",
        "ro"
      ],
      [
        "Ġgain",
        "s"
      ],
      [
        "w",
        "al"
      ],
      [
        "Ġthe",
        "ir"
      ],
      [
        "Ġd",
        "o"
      ],
      [
        "ow",
        "er"
      ],
      [
        "ri",
        "ke"
      ],
      [
        "stro",
        "y"
      ],
      [
        "re",
        "e"
      ],
      [
        "Ġ",
        "v"
      ],
      [
        "Ġm",
        "ore"
      ],
      [
        "ĠT",
        "rample"
      ],
      [
        "Ġa",
        "b"
      ],
      [
        "as",
        "h"
      ],
      [
        "ĠI",
        "t"
      ],
      [
        "Ġp",
        "ower"
      ],
      [
        "an",
        "ce"
      ],
      [
        "Ġon",
        "ly"
      ],
      [
        "ir",
        "st"
      ],
      [
        "Ġco",
        "lor"
      ],
      [
        "w",
        "n"
      ],
      [
        "ĠS",
        "h"
      ],
      [
        "Ġ",
        "O"
      ],
      [
        "ĠG",
        "o"
      ],
      [
        "a",
        "ve"
      ],
      [
        "ch",
        "an"
      ],
      [
        "l",
        "ash"
      ],
      [
        "ig",
        "il"
      ],
      [
        "igil",
        "ance"
      ],
      [
        "ĠU",
        "n"
      ],
      [
        "l",
        "f"
      ],
      [
        "o",
        "g"
      ],
      [
        "Ġo",
        "wn"
      ],
      [
        "Ġattack",
        "s"
      ],
      [
        "ĠD",
        "iscard"
      ],
      [
        "Ġ",
        "Z"
      ],
      [
        "ĠP",
        "ut"
      ],
      [
        "o",
        "mb"
      ],
      [
        "ĠZ",
        "omb"
      ],
      [
        "ir",
        "it"
      ],
      [
        "chan",
        "ted"
      ],
      [
        "Ġ",
        "at"
      ],
      [
        "ĠSp",
        "irit"
      ],
      [
        "Ġa",
        "ll"
      ],
      [
        "c",
        "om"
      ],
      [
        "ig",
        "ht"
      ],
      [
        "Ġe",
        "x"
      ],
      [
        "Ġf",
        "lying"
      ],
      [
        "Ġn",
        "e"
      ],
      [
        "Ġblock",
        "ed"
      ],
      [
        "Ġn",
        "on"
      ],
      [
        "ĠZomb",
        "ie"
      ],
      [
        "Ġh",
        "ave"
      ],
      [
        "o",
        "t"
      ],
      [
        "ve",
        "al"
      ],
      [
        "Ġup",
        "keep"
      ],
      [
        "f",
        "f"
      ],
      [
        "Ġo",
        "ther"
      ],
      [
        "Ġbe",
        "com"
      ],
      [
        "an",
        "es"
      ],
      [
        "te",
        "p"
      ],
      [
        "Ġs",
        "tep"
      ],
      [
        "anes",
        "wal"
      ],
      [
        "Ġt",
        "apped"
      ],
      [
        "aneswal",
        "ker"
      ],
      [
        "o",
        "ther"
      ],
      [
        "Ġ",
        "st"
      ],
      [
        "ĠE",
        "le"
      ],
      [
        "Ġs",
        "orcery"
      ],
      [
        "e",
        "ar"
      ],
      [
        "u",
        "s"
      ],
      [
        "eg",
        "ain"
      ],
      [
        "ĠLif",
        "egain"
      ],
      [
        "Ġab",
        "il"
      ],
      [
        "Ġs",
        "h"
      ],
      [
        "Ġan",
        "other"
      ],
      [
        "ĠEquip",
        "ment"
      ],
      [
        "iv",
        "ate"
      ],
      [
        "qu",
        "al"
      ],
      [
        "Ġe",
        "qual"
      ],
      [
        "ĠD",
        "ra"
      ],
      [
        "ont",
        "o"
      ],
      [
        "Ġcontrol",
        "s"
      ],
      [
        "ĠE",
        "lf"
      ],
      [
        "b",
        "le"
      ],
      [
        "Ġ",
        "less"
      ],
      [
        "ĠU",
        "p"
      ],
      [
        "as",
        "te"
      ],
      [
        "ĠH",
        "aste"
      ],
      [
        "Ġown",
        "er"
      ],
      [
        "ou",
        "t"
      ],
      [
        "o",
        "l"
      ],
      [
        "Ġb",
        "l"
      ],
      [
        "Ġb",
        "y"
      ],
      [
        "Ġre",
        "veal"
      ],
      [
        "ĠF",
        "lash"
      ],
      [
        "Ġbecom",
        "es"
      ],
      [
        "Ġne",
        "xt"
      ],
      [
        "ment",
        "al"
      ],
      [
        "Ġ",
        "6"
      ],
      [
        "Ġa",
        "dd"
      ],
      [
        "Ġd",
        "iscard"
      ],
      [
        "ĠEle",
        "mental"
      ],
      [
        "Ġth",
        "ree"
      ],
      [
        "es",
        "s"
      ],
      [
        "ĠB",
        "e"
      ],
      [
        "o",
        "o"
      ],
      [
        "p",
        "y"
      ],
      [
        "d",
        "er"
      ],
      [
        "ou",
        "ld"
      ],
      [
        "st",
        "ru"
      ],
      [
        "stru",
        "ct"
      ],
      [
        "e",
        "re"
      ],
      [
        "b",
        "l"
      ],
      [
        "Ġre",
        "turn"
      ],
      [
        "ĠS",
        "c"
      ],
      [
        "p",
        "e"
      ],
      [
        "ĠC",
        "ler"
      ],
      [
        "ĠCler",
        "ic"
      ],
      [
        "Ġl",
        "ong"
      ],
      [
        "Ġg",
        "re"
      ],
      [
        "ĠV",
        "igilance"
      ],
      [
        "ĠS",
        "t"
      ],
      [
        "f",
        "end"
      ],
      [
        "ĠE",
        "xile"
      ],
      [
        "Ġs",
        "acrifice"
      ],
      [
        "ĠUp",
        "keep"
      ],
      [
        "it",
        "ion"
      ],
      [
        "im",
        "e"
      ],
      [
        "ĠA",
        "s"
      ],
      [
        "Ġ",
        "am"
      ],
      [
        "Ġunt",
        "ap"
      ],
      [
        "ĠGo",
        "bl"
      ],
      [
        "ĠGobl",
        "in"
      ],
      [
        "il",
        "l"
      ],
      [
        "Ġd",
        "ies"
      ],
      [
        "ĠP",
        "h"
      ],
      [
        "Ġadd",
        "ition"
      ],
      [
        "ĠR",
        "og"
      ],
      [
        "Ġv",
        "al"
      ],
      [
        "Ġc",
        "hoose"
      ],
      [
        "ĠP",
        "l"
      ],
      [
        "l",
        "and"
      ],
      [
        "Ġ",
        "onto"
      ],
      [
        "ĠC",
        "reate"
      ],
      [
        "ĠRog",
        "ue"
      ],
      [
        "Ġval",
        "ue"
      ],
      [
        "u",
        "ff"
      ],
      [
        "y",
        "re"
      ],
      [
        "ĠRe",
        "turn"
      ],
      [
        "uff",
        "le"
      ],
      [
        "yre",
        "xi"
      ],
      [
        "ĠPh",
        "yrexi"
      ],
      [
        "ĠCo",
        "n"
      ],
      [
        "ĠPhyrexi",
        "an"
      ],
      [
        "i",
        "re"
      ],
      [
        "Ġw",
        "ould"
      ],
      [
        "ĠBe",
        "ast"
      ],
      [
        "Ġwh",
        "i"
      ],
      [
        "Ġsh",
        "uffle"
      ],
      [
        "ĠDe",
        "stroy"
      ],
      [
        "ĠB",
        "G"
      ],
      [
        "ou",
        "g"
      ],
      [
        "in",
        "k"
      ],
      [
        "oug",
        "h"
      ],
      [
        "el",
        "ink"
      ],
      [
        "n",
        "ight"
      ],
      [
        "Ġhas",
        "te"
      ],
      [
        "ĠK",
        "night"
      ],
      [
        "Ġdeal",
        "t"
      ],
      [
        "Ġt",
        "y"
      ],
      [
        "ĠB",
        "R"
      ],
      [
        "Ġthe",
        "m"
      ],
      [
        "Ġcontrol",
        "ler"
      ],
      [
        "s",
        "te"
      ],
      [
        "Ġt",
        "ime"
      ],
      [
        "ĠD",
        "ies"
      ],
      [
        "l",
        "ing"
      ],
      [
        "ĠA",
        "n"
      ],
      [
        "Ġen",
        "chant"
      ],
      [
        "Ġa",
        "re"
      ],
      [
        "Ġst",
        "rike"
      ],
      [
        "s",
        "e"
      ],
      [
        "g",
        "on"
      ],
      [
        "ear",
        "ch"
      ],
      [
        "ĠA",
        "ct"
      ],
      [
        "ĠCo",
        "mbat"
      ],
      [
        "ĠAct",
        "ivate"
      ],
      [
        "i",
        "ve"
      ],
      [
        "ĠEn",
        "chanted"
      ],
      [
        "ĠE",
        "ach"
      ],
      [
        "f",
        "ol"
      ],
      [
        "fol",
        "k"
      ],
      [
        "Ġco",
        "py"
      ],
      [
        "ou",
        "r"
      ],
      [
        "Ġpl",
        "aneswalker"
      ],
      [
        "m",
        "o"
      ],
      [
        "os",
        "es"
      ],
      [
        "Ġ",
        "le"
      ],
      [
        "ste",
        "ad"
      ],
      [
        "amp",
        "ire"
      ],
      [
        "am",
        "an"
      ],
      [
        "ĠF",
        "irst"
      ],
      [
        "ĠSh",
        "aman"
      ],
      [
        "Ġin",
        "stead"
      ],
      [
        "ĠV",
        "ampire"
      ],
      [
        "ou",
        "ch"
      ],
      [
        "ur",
        "ing"
      ],
      [
        "Ġwh",
        "ere"
      ],
      [
        "en",
        "ace"
      ],
      [
        "ĠG",
        "R"
      ],
      [
        "Ġf",
        "ace"
      ],
      [
        "ĠDra",
        "gon"
      ],
      [
        "ir",
        "d"
      ],
      [
        "at",
        "ht"
      ],
      [
        "atht",
        "ouch"
      ],
      [
        "ĠC",
        "hoose"
      ],
      [
        "Ġenchant",
        "ment"
      ],
      [
        "Ġth",
        "an"
      ],
      [
        "r",
        "y"
      ],
      [
        "Ġwhi",
        "te"
      ],
      [
        "te",
        "ct"
      ],
      [
        "Ġam",
        "ong"
      ],
      [
        "n",
        "ess"
      ],
      [
        "ĠM",
        "er"
      ],
      [
        "a",
        "ur"
      ],
      [
        "d",
        "e"
      ],
      [
        "ĠB",
        "U"
      ],
      [
        "ĠSt",
        "rike"
      ],
      [
        "Ġw",
        "ay"
      ],
      [
        "Ġbl",
        "ack"
      ],
      [
        "y",
        "c"
      ],
      [
        "Ġf",
        "irst"
      ],
      [
        "Ġun",
        "less"
      ],
      [
        "Ġspell",
        "s"
      ],
      [
        "Ġ",
        "r"
      ],
      [
        "ĠB",
        "ird"
      ],
      [
        "ĠTh",
        "e"
      ],
      [
        "Ġaddition",
        "al"
      ],
      [
        "er",
        "ate"
      ],
      [
        "Ġattack",
        "ing"
      ],
      [
        "Ġto",
        "kens"
      ],
      [
        "oo",
        "k"
      ],
      [
        "ĠUn",
        "t"
      ],
      [
        "Ġl",
        "oses"
      ],
      [
        "Ġde",
        "stroy"
      ],
      [
        "er",
        "s"
      ],
      [
        "ib",
        "le"
      ],
      [
        "it",
        "ies"
      ],
      [
        "p",
        "h"
      ],
      [
        "Ġgre",
        "en"
      ],
      [
        "struct",
        "ible"
      ],
      [
        "de",
        "structible"
      ],
      [
        "Ġc",
        "h"
      ],
      [
        "ĠH",
        "or"
      ],
      [
        "Ġabil",
        "ity"
      ],
      [
        "mo",
        "ve"
      ],
      [
        "Ġthe",
        "y"
      ],
      [
        "Ġd",
        "uring"
      ],
      [
        "ĠG",
        "U"
      ],
      [
        "fend",
        "er"
      ],
      [
        "Ġnon",
        "land"
      ],
      [
        "Ġin",
        "stant"
      ],
      [
        "ic",
        "ker"
      ],
      [
        "Ġc",
        "ho"
      ],
      [
        "at",
        "ion"
      ],
      [
        "ĠT",
        "ut"
      ],
      [
        "ĠTut",
        "or"
      ],
      [
        "Ġ",
        "name"
      ],
      [
        "Ġwith",
        "out"
      ],
      [
        "Ġw",
        "as"
      ],
      [
        "Ġt",
        "rample"
      ],
      [
        "Ġex",
        "c"
      ],
      [
        "u",
        "l"
      ],
      [
        "Ġun",
        "der"
      ],
      [
        "ro",
        "tect"
      ],
      [
        "yc",
        "ling"
      ],
      [
        "t",
        "om"
      ],
      [
        "Ġb",
        "ot"
      ],
      [
        "Ġbot",
        "tom"
      ],
      [
        "ĠR",
        "U"
      ],
      [
        "Ġabil",
        "ities"
      ],
      [
        "rotect",
        "ion"
      ],
      [
        "ĠU",
        "W"
      ],
      [
        "ĠRe",
        "ach"
      ],
      [
        "ĠT",
        "hen"
      ],
      [
        "Ġt",
        "ough"
      ],
      [
        "Ġtough",
        "ness"
      ],
      [
        "ĠM",
        "enace"
      ],
      [
        "ĠC",
        "at"
      ],
      [
        "Ġen",
        "chanted"
      ],
      [
        "Ġb",
        "as"
      ],
      [
        "ĠMer",
        "folk"
      ],
      [
        "Ġre",
        "d"
      ],
      [
        "ĠLif",
        "elink"
      ],
      [
        "al",
        "l"
      ],
      [
        "re",
        "d"
      ],
      [
        "Ġd",
        "on"
      ],
      [
        "ĠG",
        "W"
      ],
      [
        "Ġcost",
        "s"
      ],
      [
        "en",
        "erate"
      ],
      [
        "ĠD",
        "ru"
      ],
      [
        "ĠDru",
        "id"
      ],
      [
        "r",
        "or"
      ],
      [
        "ĠDe",
        "athtouch"
      ],
      [
        "ĠHor",
        "ror"
      ],
      [
        "ĠC",
        "ycling"
      ],
      [
        "Ġt",
        "ap"
      ],
      [
        "ge",
        "l"
      ],
      [
        "ow",
        "n"
      ],
      [
        "ĠDe",
        "fender"
      ],
      [
        "b",
        "ack"
      ],
      [
        "ĠR",
        "W"
      ],
      [
        "ĠAn",
        "gel"
      ],
      [
        "ep",
        "t"
      ],
      [
        "Ġcho",
        "ice"
      ],
      [
        "ĠCreature",
        "s"
      ],
      [
        "Ġth",
        "ose"
      ],
      [
        "Ġexc",
        "ept"
      ],
      [
        "x",
        "p"
      ],
      [
        "ĠS",
        "n"
      ],
      [
        "acrif",
        "ic"
      ],
      [
        "Ġs",
        "acrific"
      ],
      [
        "Ġre",
        "st"
      ],
      [
        "re",
        "as"
      ],
      [
        "oun",
        "t"
      ],
      [
        "Ġf",
        "our"
      ],
      [
        "Ġ",
        "7"
      ],
      [
        "reas",
        "ure"
      ],
      [
        "ĠE",
        "ld"
      ],
      [
        "ĠT",
        "reasure"
      ],
      [
        "Ġex",
        "il"
      ],
      [
        "ou",
        "ble"
      ],
      [
        "ĠPl",
        "aneswalker"
      ],
      [
        "Ġexil",
        "ed"
      ],
      [
        "ĠT",
        "ap"
      ],
      [
        "Ġn",
        "o"
      ],
      [
        "Ġpermanent",
        "s"
      ],
      [
        "ĠB",
        "W"
      ],
      [
        "Ġty",
        "pe"
      ],
      [
        "Ġland",
        "s"
      ],
      [
        "a",
        "ble"
      ],
      [
        "Ġpay",
        "ing"
      ],
      [
        "or",
        "ph"
      ],
      [
        "re",
        "v"
      ],
      [
        "ĠIn",
        "se"
      ],
      [
        "ĠInse",
        "ct"
      ],
      [
        "Ġor",
        "der"
      ],
      [
        "a",
        "ter"
      ],
      [
        "T",
        "K"
      ],
      [
        "ar",
        "t"
      ],
      [
        "ĠS",
        "earch"
      ],
      [
        "Ġ",
        "act"
      ],
      [
        "ĠSc",
        "ry"
      ],
      [
        "m",
        "on"
      ],
      [
        "m",
        "p"
      ],
      [
        "ĠD",
        "ev"
      ],
      [
        "i",
        "ant"
      ],
      [
        "Ġopponent",
        "s"
      ],
      [
        "and",
        "om"
      ],
      [
        "Ġr",
        "andom"
      ],
      [
        "a",
        "v"
      ],
      [
        "z",
        "i"
      ],
      [
        "a",
        "re"
      ],
      [
        "ra",
        "zi"
      ],
      [
        "Ġv",
        "igilance"
      ],
      [
        "ĠEld",
        "razi"
      ],
      [
        "b",
        "lock"
      ],
      [
        "e",
        "xp"
      ],
      [
        "ro",
        "of"
      ],
      [
        "exp",
        "roof"
      ],
      [
        "in",
        "os"
      ],
      [
        "inos",
        "aur"
      ],
      [
        "ĠR",
        "eg"
      ],
      [
        "ĠD",
        "inosaur"
      ],
      [
        "Ġdo",
        "es"
      ],
      [
        "tif",
        "ic"
      ],
      [
        "ĠO",
        "ther"
      ],
      [
        "rev",
        "ent"
      ],
      [
        "ĠAr",
        "tific"
      ],
      [
        "ĠArtific",
        "er"
      ],
      [
        "ĠG",
        "iant"
      ],
      [
        "ĠP",
        "ay"
      ],
      [
        "Ġact",
        "ivate"
      ],
      [
        "ĠReg",
        "enerate"
      ],
      [
        "Ġl",
        "ose"
      ],
      [
        "Ġdiscard",
        "s"
      ],
      [
        "ĠA",
        "l"
      ],
      [
        "le",
        "m"
      ],
      [
        "im",
        "ation"
      ],
      [
        "ĠCon",
        "struct"
      ],
      [
        "an",
        "imation"
      ],
      [
        "ĠRe",
        "animation"
      ],
      [
        "ĠP",
        "rotection"
      ],
      [
        "ĠF",
        "ore"
      ],
      [
        "ĠDe",
        "mon"
      ],
      [
        "Ġbl",
        "ue"
      ],
      [
        "p",
        "es"
      ],
      [
        "Ġm",
        "ill"
      ],
      [
        "ĠEqui",
        "pped"
      ],
      [
        "ĠK",
        "icker"
      ],
      [
        "Ġty",
        "pes"
      ],
      [
        "ĠSc",
        "out"
      ],
      [
        "ĠIn",
        "destructible"
      ],
      [
        "ĠC",
        "h"
      ],
      [
        "fend",
        "ing"
      ],
      [
        "ĠUnt",
        "il"
      ],
      [
        "Ġd",
        "own"
      ],
      [
        "Ġde",
        "fending"
      ],
      [
        "as",
        "s"
      ],
      [
        "on",
        "e"
      ],
      [
        "Ġatt",
        "ach"
      ],
      [
        "Ī",
        "Ĵ"
      ],
      [
        "Ġâ",
        "ĪĴ"
      ],
      [
        "ĠL",
        "ook"
      ],
      [
        "Ġgre",
        "ater"
      ],
      [
        "oo",
        "d"
      ],
      [
        "ĠM",
        "ill"
      ],
      [
        "ĠS",
        "pell"
      ],
      [
        "ĠF",
        "ood"
      ],
      [
        "os",
        "en"
      ],
      [
        "Ġch",
        "osen"
      ],
      [
        "Ġtarget",
        "s"
      ],
      [
        "Ġcolor",
        "less"
      ],
      [
        "Ġbas",
        "ic"
      ],
      [
        "Ġs",
        "earch"
      ],
      [
        "ĠUn",
        "block"
      ],
      [
        "Ġ",
        "k"
      ],
      [
        "ĠUnblock",
        "able"
      ],
      [
        "u",
        "m"
      ],
      [
        "Ġa",
        "l"
      ],
      [
        ">",
        "'"
      ],
      [
        "Ġdoes",
        "n"
      ],
      [
        "e",
        "ct"
      ],
      [
        "o",
        "d"
      ],
      [
        "Ġunt",
        "apped"
      ],
      [
        "t",
        "al"
      ],
      [
        "ain",
        "s"
      ],
      [
        "ra",
        "te"
      ],
      [
        "ĠT",
        "urn"
      ],
      [
        "ĠSpell",
        "s"
      ],
      [
        "ĠB",
        "o"
      ],
      [
        "ĠS",
        "l"
      ],
      [
        "Ġco",
        "m"
      ],
      [
        "ĠA",
        "ss"
      ],
      [
        "Ġre",
        "move"
      ],
      [
        "wal",
        "k"
      ],
      [
        "ĠP",
        "i"
      ],
      [
        "ĠCounters",
        "pell"
      ],
      [
        "a",
        "ke"
      ],
      [
        "i",
        "p"
      ],
      [
        "Ġname",
        "d"
      ],
      [
        "e",
        "c"
      ],
      [
        "ĠPi",
        "rate"
      ],
      [
        "Ġartifact",
        "s"
      ],
      [
        "Ġs",
        "p"
      ],
      [
        "ĠThe",
        "y"
      ],
      [
        "if",
        "elink"
      ],
      [
        "Ġl",
        "ifelink"
      ],
      [
        "v",
        "o"
      ],
      [
        "ar",
        "ge"
      ],
      [
        "ĠG",
        "ain"
      ],
      [
        "ĠM",
        "on"
      ],
      [
        "at",
        "ive"
      ],
      [
        "ĠW",
        "all"
      ],
      [
        "r",
        "ou"
      ],
      [
        "Ġthe",
        "re"
      ],
      [
        "ĠGo",
        "lem"
      ],
      [
        "ĠCoun",
        "ter"
      ],
      [
        "ĠRe",
        "move"
      ],
      [
        "ĠV",
        "e"
      ],
      [
        "is",
        "e"
      ],
      [
        "h",
        "ic"
      ],
      [
        "ĠVe",
        "hic"
      ],
      [
        "ĠVehic",
        "le"
      ],
      [
        "Ġab",
        "le"
      ],
      [
        "Ġsacrific",
        "es"
      ],
      [
        "ĠR",
        "at"
      ],
      [
        "ĠF",
        "a"
      ],
      [
        "ĠUnt",
        "ap"
      ],
      [
        "ĠTh",
        "at"
      ],
      [
        "ĠSl",
        "iv"
      ],
      [
        "ĠI",
        "s"
      ],
      [
        "Ġpay",
        "s"
      ],
      [
        "er",
        "ie"
      ],
      [
        "h",
        "if"
      ],
      [
        "ĠIs",
        "land"
      ],
      [
        "Ġman",
        "y"
      ],
      [
        "ĠF",
        "or"
      ],
      [
        "Ġblock",
        "ing"
      ],
      [
        "ĠA",
        "d"
      ],
      [
        "ĠC",
        "l"
      ],
      [
        "Ġnon",
        "c"
      ],
      [
        "m",
        "and"
      ],
      [
        "ĠP",
        "revent"
      ],
      [
        "ĠFlash",
        "back"
      ],
      [
        "Ġp",
        "h"
      ],
      [
        "Ġto",
        "tal"
      ],
      [
        "ĠS",
        "w"
      ],
      [
        "ĠM",
        "in"
      ],
      [
        "i",
        "st"
      ],
      [
        "ĠL",
        "izard"
      ],
      [
        "ĠFore",
        "st"
      ],
      [
        "Ġph",
        "as"
      ],
      [
        "Ġm",
        "u"
      ],
      [
        "Ġin",
        "destructible"
      ],
      [
        "ĠD",
        "ouble"
      ],
      [
        "Ġle",
        "g"
      ],
      [
        "ass",
        "in"
      ],
      [
        "ĠAss",
        "assin"
      ],
      [
        "ĠSn",
        "ake"
      ],
      [
        "ĠFa",
        "erie"
      ],
      [
        "ic",
        "k"
      ],
      [
        "ĠM",
        "ount"
      ],
      [
        "Ġnonc",
        "reature"
      ],
      [
        "Ġl",
        "ook"
      ],
      [
        "ap",
        "es"
      ],
      [
        "ĠSliv",
        "er"
      ],
      [
        "is",
        "on"
      ],
      [
        "a",
        "id"
      ],
      [
        "o",
        "ison"
      ],
      [
        "ĠCo",
        "py"
      ],
      [
        "ĠO",
        "r"
      ],
      [
        "av",
        "es"
      ],
      [
        "ĠH",
        "exproof"
      ],
      [
        "Ġle",
        "aves"
      ],
      [
        "ĠSw",
        "amp"
      ],
      [
        "ĠM",
        "orph"
      ],
      [
        "ĠBG",
        "R"
      ],
      [
        "Ġcom",
        "mand"
      ],
      [
        "on",
        "d"
      ],
      [
        "Ġon",
        "ce"
      ],
      [
        "oun",
        "d"
      ],
      [
        "at",
        "h"
      ],
      [
        "ĠSh",
        "apes"
      ],
      [
        "ĠShapes",
        "hif"
      ],
      [
        "ar",
        "f"
      ],
      [
        "ĠWar",
        "lock"
      ],
      [
        "ĠShapeshif",
        "ter"
      ],
      [
        "ĠOr",
        "c"
      ],
      [
        "Ġblock",
        "s"
      ],
      [
        "an",
        "e"
      ],
      [
        "ro",
        "w"
      ],
      [
        "Ġ",
        "8"
      ],
      [
        "ĠD",
        "w"
      ],
      [
        "o",
        "lf"
      ],
      [
        "ĠDra",
        "in"
      ],
      [
        "Ġattach",
        "ed"
      ],
      [
        "ĠAr",
        "c"
      ],
      [
        "vo",
        "ke"
      ],
      [
        "ĠDw",
        "arf"
      ],
      [
        "onto",
        "ken"
      ],
      [
        "ĠArc",
        "ane"
      ],
      [
        "Ġe",
        "qui"
      ],
      [
        "h",
        "in"
      ],
      [
        "Ġf",
        "lash"
      ],
      [
        "Ġf",
        "ive"
      ],
      [
        "re",
        "s"
      ],
      [
        "Ġth",
        "ough"
      ],
      [
        "ick",
        "ed"
      ],
      [
        "A",
        "L"
      ],
      [
        "L",
        "O"
      ],
      [
        "Y",
        "AL"
      ],
      [
        "y",
        "r"
      ],
      [
        "LO",
        "YAL"
      ],
      [
        "LOYAL",
        "TY"
      ],
      [
        "Ġn",
        "ontoken"
      ],
      [
        "ĠCon",
        "t"
      ],
      [
        "Ġmu",
        "ch"
      ],
      [
        "Ġb",
        "o"
      ],
      [
        "Ġs",
        "our"
      ],
      [
        "o",
        "y"
      ],
      [
        "ĠAr",
        "ch"
      ],
      [
        "ĠCont",
        "rol"
      ],
      [
        "ĠW",
        "ard"
      ],
      [
        "ĠA",
        "ll"
      ],
      [
        "Ġde",
        "athtouch"
      ],
      [
        "ul",
        "t"
      ],
      [
        "ĠCl",
        "ue"
      ],
      [
        "o",
        "p"
      ],
      [
        "re",
        "w"
      ],
      [
        "Ġleg",
        "endary"
      ],
      [
        "g",
        "re"
      ],
      [
        "Ġdraw",
        "s"
      ],
      [
        "ĠO",
        "gre"
      ],
      [
        "o",
        "id"
      ],
      [
        "ĠW",
        "olf"
      ],
      [
        "ĠAl",
        "ly"
      ],
      [
        "Ġk",
        "icked"
      ],
      [
        "g",
        "g"
      ],
      [
        "ĠN",
        "o"
      ],
      [
        "f",
        "t"
      ],
      [
        "ev",
        "en"
      ],
      [
        "in",
        "j"
      ],
      [
        "Ġequi",
        "pped"
      ],
      [
        "Ġs",
        "even"
      ],
      [
        "ĠM",
        "ut"
      ],
      [
        "ĠSn",
        "ow"
      ],
      [
        "er",
        "ker"
      ],
      [
        "Ġg",
        "ame"
      ],
      [
        "ĠDev",
        "oid"
      ],
      [
        "ĠB",
        "ers"
      ],
      [
        "ĠBers",
        "erker"
      ],
      [
        "ur",
        "ve"
      ],
      [
        "ĠN",
        "inj"
      ],
      [
        "Ġplayer",
        "s"
      ],
      [
        "ĠAtt",
        "ach"
      ],
      [
        "ĠR",
        "o"
      ],
      [
        "n",
        "er"
      ],
      [
        "ĠD",
        "og"
      ],
      [
        "ad",
        "e"
      ],
      [
        "Ġreveal",
        "s"
      ],
      [
        "art",
        "ner"
      ],
      [
        "Ġd",
        "ouble"
      ],
      [
        "urve",
        "il"
      ],
      [
        "u",
        "al"
      ],
      [
        "le",
        "t"
      ],
      [
        "s",
        "o"
      ],
      [
        "Ġal",
        "so"
      ],
      [
        "g",
        "y"
      ],
      [
        "er",
        "gy"
      ],
      [
        "in",
        "d"
      ],
      [
        "ĠNo",
        "ble"
      ],
      [
        "ĠL",
        "ife"
      ],
      [
        "ĠAd",
        "v"
      ],
      [
        "ĠW",
        "ur"
      ],
      [
        "ff",
        "ect"
      ],
      [
        "ĠWur",
        "m"
      ],
      [
        "Ġsour",
        "ce"
      ],
      [
        "Ġs",
        "c"
      ],
      [
        "ĠF",
        "ree"
      ],
      [
        "ve",
        "st"
      ],
      [
        "Ġam",
        "ount"
      ],
      [
        "ĠA",
        "v"
      ],
      [
        "ĠT",
        "ree"
      ],
      [
        "ig",
        "ate"
      ],
      [
        "Ġsp",
        "ent"
      ],
      [
        "vest",
        "igate"
      ],
      [
        "ĠTree",
        "folk"
      ],
      [
        "Ġm",
        "enace"
      ],
      [
        "Ġbo",
        "th"
      ],
      [
        "v",
        "er"
      ],
      [
        "Ġt",
        "ri"
      ],
      [
        "or",
        "m"
      ],
      [
        "Ġs",
        "ame"
      ],
      [
        "f",
        "all"
      ],
      [
        "p",
        "end"
      ],
      [
        "ĠE",
        "x"
      ],
      [
        "ĠLand",
        "fall"
      ],
      [
        "Ġp",
        "aid"
      ],
      [
        "Ġl",
        "ast"
      ],
      [
        "ĠF",
        "og"
      ],
      [
        "ĠPl",
        "ains"
      ],
      [
        "at",
        "ar"
      ],
      [
        "ĠAv",
        "atar"
      ],
      [
        "Ġ",
        "J"
      ],
      [
        "ĠI",
        "ll"
      ],
      [
        "Ġh",
        "ad"
      ],
      [
        "Ġre",
        "ach"
      ],
      [
        "Ġis",
        "n"
      ],
      [
        "i",
        "x"
      ],
      [
        "ĠF",
        "l"
      ],
      [
        "us",
        "ion"
      ],
      [
        "Ġbas",
        "e"
      ],
      [
        "ĠIll",
        "usion"
      ],
      [
        "a",
        "us"
      ],
      [
        "Ġc",
        "aus"
      ],
      [
        "Ġp",
        "rotection"
      ],
      [
        "Ġe",
        "ffect"
      ],
      [
        "Ġch",
        "arge"
      ],
      [
        "Ġsc",
        "ry"
      ],
      [
        "Ġmill",
        "s"
      ],
      [
        "rou",
        "d"
      ],
      [
        "i",
        "pe"
      ],
      [
        "w",
        "ipe"
      ],
      [
        "ard",
        "wipe"
      ],
      [
        "ĠBo",
        "ardwipe"
      ],
      [
        "is",
        "or"
      ],
      [
        "Ġne",
        "w"
      ],
      [
        "ot",
        "aur"
      ],
      [
        "ĠMin",
        "otaur"
      ],
      [
        "ĠArch",
        "er"
      ],
      [
        "ĠAdv",
        "isor"
      ],
      [
        "Ġ1",
        "0"
      ],
      [
        "ĠRe",
        "b"
      ],
      [
        "Ġreveal",
        "ed"
      ],
      [
        "te",
        "red"
      ],
      [
        "er",
        "t"
      ],
      [
        "ad",
        "ow"
      ],
      [
        "c",
        "en"
      ],
      [
        "ĠMer",
        "cen"
      ],
      [
        "ĠAr",
        "m"
      ],
      [
        "f",
        "ore"
      ],
      [
        "ĠN",
        "ight"
      ],
      [
        "ĠDra",
        "ke"
      ],
      [
        "is",
        "h"
      ],
      [
        "Ġn",
        "ot"
      ],
      [
        "Ġbe",
        "fore"
      ],
      [
        "i",
        "le"
      ],
      [
        "pe",
        "t"
      ],
      [
        "ĠC",
        "rew"
      ],
      [
        "ec",
        "ond"
      ],
      [
        "Ġcast",
        "s"
      ],
      [
        "ho",
        "ld"
      ],
      [
        "ĠAn",
        "y"
      ],
      [
        "ual",
        "ly"
      ],
      [
        "pet",
        "ually"
      ],
      [
        "ĠI",
        "mp"
      ],
      [
        "Ġw",
        "hen"
      ],
      [
        "Ġper",
        "petually"
      ],
      [
        "ĠMon",
        "k"
      ],
      [
        "us",
        "pend"
      ],
      [
        "Ġsacrific",
        "ed"
      ],
      [
        "ĠS",
        "er"
      ],
      [
        "ĠS",
        "ke"
      ],
      [
        "ĠS",
        "am"
      ],
      [
        "ĠSp",
        "id"
      ],
      [
        "Ġm",
        "on"
      ],
      [
        "ra",
        "ft"
      ],
      [
        "ĠP",
        "artner"
      ],
      [
        "Ġpl",
        "us"
      ],
      [
        "let",
        "on"
      ],
      [
        "i",
        "ed"
      ],
      [
        "ĠRe",
        "veal"
      ],
      [
        "ĠMercen",
        "ary"
      ],
      [
        "ĠSpid",
        "er"
      ],
      [
        "rol",
        "l"
      ],
      [
        "ura",
        "i"
      ],
      [
        "ĠCh",
        "an"
      ],
      [
        "ĠSke",
        "leton"
      ],
      [
        "ĠSam",
        "urai"
      ],
      [
        "ĠD",
        "el"
      ],
      [
        "ĠPl",
        "ant"
      ],
      [
        "ath",
        "er"
      ],
      [
        "ĠB",
        "ack"
      ],
      [
        "Ġre",
        "g"
      ],
      [
        "ĠYou",
        "r"
      ],
      [
        "in",
        "e"
      ],
      [
        "ĠArm",
        "y"
      ],
      [
        "ĠD",
        "es"
      ],
      [
        "ĠTh",
        "res"
      ],
      [
        "Ġphas",
        "e"
      ],
      [
        "Ġflash",
        "back"
      ],
      [
        "ĠMut",
        "ant"
      ],
      [
        "Ġst",
        "ill"
      ],
      [
        "Ġactivate",
        "d"
      ],
      [
        "ĠMount",
        "ain"
      ],
      [
        "ĠThres",
        "hold"
      ],
      [
        "t",
        "y"
      ],
      [
        "ĠC",
        "it"
      ],
      [
        "Ġput",
        "s"
      ],
      [
        "iz",
        "en"
      ],
      [
        "ĠCit",
        "izen"
      ],
      [
        "Ġp",
        "oison"
      ],
      [
        "Ġh",
        "exproof"
      ],
      [
        "ĠLand",
        "walk"
      ],
      [
        "m",
        "are"
      ],
      [
        "al",
        "f"
      ],
      [
        "ĠNight",
        "mare"
      ],
      [
        "f",
        "er"
      ],
      [
        "Ġ",
        "out"
      ],
      [
        "Ġc",
        "on"
      ],
      [
        "Ġs",
        "econd"
      ],
      [
        "ear",
        "th"
      ],
      [
        "Ġen",
        "ter"
      ],
      [
        "ith",
        "er"
      ],
      [
        "ĠK",
        "or"
      ],
      [
        "and",
        "ing"
      ],
      [
        "ter",
        "n"
      ],
      [
        "Ġre",
        "s"
      ],
      [
        "ĠDe",
        "tect"
      ],
      [
        "ad",
        "ness"
      ],
      [
        "ĠUn",
        "earth"
      ],
      [
        "ight",
        "s"
      ],
      [
        "Ġr",
        "ather"
      ],
      [
        "ĠDetect",
        "ive"
      ],
      [
        "if",
        "erate"
      ],
      [
        "rol",
        "iferate"
      ],
      [
        "Ġa",
        "ge"
      ],
      [
        "Ġf",
        "l"
      ],
      [
        "Ġbecom",
        "e"
      ],
      [
        "ĠBR",
        "U"
      ],
      [
        "lo",
        "od"
      ],
      [
        "ĠS",
        "qu"
      ],
      [
        "ĠSp",
        "hin"
      ],
      [
        "ĠCon",
        "voke"
      ],
      [
        "ĠSphin",
        "x"
      ],
      [
        "'",
        "ve"
      ],
      [
        "te",
        "ll"
      ],
      [
        "ot",
        "ion"
      ],
      [
        "ĠGR",
        "W"
      ],
      [
        "e",
        "e"
      ],
      [
        "v",
        "ed"
      ],
      [
        "Ġre",
        "m"
      ],
      [
        "ul",
        "ative"
      ],
      [
        "um",
        "ulative"
      ],
      [
        "ĠC",
        "ast"
      ],
      [
        "Ġwhi",
        "le"
      ],
      [
        "Ġtri",
        "gg"
      ],
      [
        "w",
        "ise"
      ],
      [
        "ĠC",
        "ent"
      ],
      [
        "lo",
        "red"
      ],
      [
        "ĠS",
        "ap"
      ],
      [
        "rol",
        "ing"
      ],
      [
        "ĠF",
        "ro"
      ],
      [
        "ĠCent",
        "aur"
      ],
      [
        "ĠSap",
        "roling"
      ],
      [
        "f",
        "in"
      ],
      [
        "ĠS",
        "urveil"
      ],
      [
        "Ġreg",
        "enerate"
      ],
      [
        "Ġc",
        "ould"
      ],
      [
        "ĠOther",
        "wise"
      ],
      [
        "v",
        "es"
      ],
      [
        "ĠC",
        "umulative"
      ],
      [
        "Ġcommand",
        "er"
      ],
      [
        "Ġsh",
        "are"
      ],
      [
        "ĠFro",
        "g"
      ],
      [
        "k",
        "in"
      ],
      [
        "o",
        "st"
      ],
      [
        "ith",
        "kin"
      ],
      [
        "Ġattack",
        "ed"
      ],
      [
        "ĠK",
        "ithkin"
      ],
      [
        "ĠReb",
        "el"
      ],
      [
        "Ġfor",
        "m"
      ],
      [
        "o",
        "lored"
      ],
      [
        "u",
        "b"
      ],
      [
        "ir",
        "i"
      ],
      [
        "'",
        "re"
      ],
      [
        "g",
        "r"
      ],
      [
        "r",
        "one"
      ],
      [
        "er",
        "o"
      ],
      [
        "un",
        "g"
      ],
      [
        "ph",
        "ant"
      ],
      [
        "Ġregenerate",
        "d"
      ],
      [
        "U",
        "W"
      ],
      [
        "z",
        "e"
      ],
      [
        "if",
        "fer"
      ],
      [
        "ĠS",
        "uspend"
      ],
      [
        "Ġm",
        "orph"
      ],
      [
        "ĠH",
        "y"
      ],
      [
        "a",
        "g"
      ],
      [
        "f",
        "ter"
      ],
      [
        "t",
        "s"
      ],
      [
        "Ġd",
        "iffer"
      ],
      [
        "Ġre",
        "mo"
      ],
      [
        "ĠEle",
        "phant"
      ],
      [
        "oy",
        "al"
      ],
      [
        "ung",
        "us"
      ],
      [
        "s",
        "h"
      ],
      [
        "ĠNinj",
        "a"
      ],
      [
        "re",
        "l"
      ],
      [
        "ĠD",
        "uring"
      ],
      [
        "Ġe",
        "v"
      ],
      [
        "ir",
        "rel"
      ],
      [
        "ĠSqu",
        "irrel"
      ],
      [
        "ch",
        "o"
      ],
      [
        "Ġgraveyard",
        "s"
      ],
      [
        "ĠBU",
        "W"
      ],
      [
        "en",
        "ce"
      ],
      [
        "ĠDes",
        "ert"
      ],
      [
        "Ġremo",
        "ved"
      ],
      [
        "h",
        "ere"
      ],
      [
        "r",
        "an"
      ],
      [
        "ĠB",
        "lood"
      ],
      [
        "Ġp",
        "revent"
      ],
      [
        "id",
        "e"
      ],
      [
        "ĠDel",
        "iri"
      ],
      [
        "ĠDeliri",
        "um"
      ],
      [
        "e",
        "st"
      ],
      [
        "ĠD",
        "om"
      ],
      [
        "ic",
        "olored"
      ],
      [
        "ĠF",
        "ungus"
      ],
      [
        "ĠGU",
        "W"
      ],
      [
        "ult",
        "icolored"
      ],
      [
        "d",
        "ra"
      ],
      [
        "f",
        "ect"
      ],
      [
        "ĠDev",
        "il"
      ],
      [
        "Ġcaus",
        "es"
      ],
      [
        "ĠBack",
        "gr"
      ],
      [
        "ĠBackgr",
        "ound"
      ],
      [
        "n",
        "ow"
      ],
      [
        "ic",
        "ate"
      ],
      [
        "ĠIn",
        "vestigate"
      ],
      [
        "Ġw",
        "in"
      ],
      [
        "ĠO",
        "o"
      ],
      [
        "ĠAl",
        "tern"
      ],
      [
        "oyal",
        "ty"
      ],
      [
        "ĠAltern",
        "ative"
      ],
      [
        "Ġd",
        "iv"
      ],
      [
        "o",
        "on"
      ],
      [
        "ĠD",
        "rone"
      ],
      [
        "Ġcolor",
        "s"
      ],
      [
        "ĠSh",
        "roud"
      ],
      [
        "Ġshuffle",
        "s"
      ],
      [
        "Ġtrigg",
        "ers"
      ],
      [
        "x",
        "ic"
      ],
      [
        "ĠF",
        "ace"
      ],
      [
        "ĠBGR",
        "UW"
      ],
      [
        "ĠOo",
        "ze"
      ],
      [
        "ar",
        "ch"
      ],
      [
        "ro",
        "c"
      ],
      [
        "Ġturn",
        "ed"
      ],
      [
        "Ġde",
        "fender"
      ],
      [
        "ĠP",
        "row"
      ],
      [
        "ĠHor",
        "se"
      ],
      [
        "ĠHy",
        "dra"
      ],
      [
        "g",
        "u"
      ],
      [
        "ed",
        "al"
      ],
      [
        "ĠD",
        "o"
      ],
      [
        "ĠE",
        "l"
      ],
      [
        "Ġs",
        "ix"
      ],
      [
        "Ġw",
        "ard"
      ],
      [
        "ĠF",
        "ear"
      ],
      [
        "ĠIn",
        "c"
      ],
      [
        "ĠV",
        "edal"
      ],
      [
        "ĠDom",
        "ain"
      ],
      [
        "ĠVedal",
        "ken"
      ],
      [
        "i",
        "te"
      ],
      [
        "ĠT",
        "ime"
      ],
      [
        "Ġs",
        "now"
      ],
      [
        "Ġw",
        "ho"
      ],
      [
        "Ġcoun",
        "tered"
      ],
      [
        "iz",
        "e"
      ],
      [
        "ĠIt",
        "s"
      ],
      [
        "j",
        "inn"
      ],
      [
        "l",
        "ed"
      ],
      [
        "ĠD",
        "jinn"
      ],
      [
        "Ġle",
        "ast"
      ],
      [
        "r",
        "act"
      ],
      [
        "ar",
        "g"
      ],
      [
        "ou",
        "l"
      ],
      [
        "j",
        "ure"
      ],
      [
        "p",
        "ent"
      ],
      [
        "st",
        "ow"
      ],
      [
        "al",
        "ted"
      ],
      [
        "ĠTurn",
        "ed"
      ],
      [
        "ĠC",
        "as"
      ],
      [
        "is",
        "gu"
      ],
      [
        "Ġdiffer",
        "ent"
      ],
      [
        "isgu",
        "ise"
      ],
      [
        "g",
        "er"
      ],
      [
        "ran",
        "s"
      ],
      [
        "ĠEn",
        "ergy"
      ],
      [
        "w",
        "here"
      ],
      [
        "ge",
        "on"
      ],
      [
        "un",
        "geon"
      ],
      [
        "ĠP",
        "oison"
      ],
      [
        "ife",
        "st"
      ],
      [
        "ĠSh",
        "adow"
      ],
      [
        "Ġfl",
        "ip"
      ],
      [
        "c",
        "raft"
      ],
      [
        "te",
        "s"
      ],
      [
        "ĠB",
        "ear"
      ],
      [
        "ĠM",
        "e"
      ],
      [
        "ĠM",
        "yr"
      ],
      [
        "Ġexile",
        "s"
      ],
      [
        "Ġcreate",
        "s"
      ],
      [
        "ĠChan",
        "ge"
      ],
      [
        "Ġd",
        "ie"
      ],
      [
        "Ġw",
        "ere"
      ],
      [
        "ĠP",
        "roliferate"
      ],
      [
        "Ġany",
        "where"
      ],
      [
        "ĠSp",
        "end"
      ],
      [
        "Ġex",
        "p"
      ],
      [
        "Ġexc",
        "ess"
      ],
      [
        "f",
        "orm"
      ],
      [
        "ĠW",
        "h"
      ],
      [
        "ĠActivate",
        "d"
      ],
      [
        "Ġcho",
        "oses"
      ],
      [
        "sh",
        "ip"
      ],
      [
        "l",
        "a"
      ],
      [
        "Ġowner",
        "s"
      ],
      [
        "ĠProw",
        "ess"
      ],
      [
        "c",
        "end"
      ],
      [
        "ĠPl",
        "ay"
      ],
      [
        "art",
        "y"
      ],
      [
        "ind",
        "red"
      ],
      [
        "Ġen",
        "ergy"
      ],
      [
        "ĠIn",
        "fect"
      ],
      [
        "ĠM",
        "an"
      ],
      [
        "ĠTh",
        "op"
      ],
      [
        "ĠEx",
        "alted"
      ],
      [
        "Ġd",
        "id"
      ],
      [
        "Ġde",
        "c"
      ],
      [
        "Ġdestroy",
        "ed"
      ],
      [
        "Ġeffect",
        "s"
      ],
      [
        "Ġrem",
        "ains"
      ],
      [
        "Ġdid",
        "n"
      ],
      [
        "c",
        "ade"
      ],
      [
        "Ġ",
        "9"
      ],
      [
        "at",
        "or"
      ],
      [
        "Ġco",
        "p"
      ],
      [
        "ĠM",
        "adness"
      ],
      [
        "Ġtw",
        "ice"
      ],
      [
        "ĠThop",
        "ter"
      ],
      [
        "ĠG",
        "rif"
      ],
      [
        "ĠK",
        "indred"
      ],
      [
        "ĠBo",
        "ar"
      ],
      [
        "Ġres",
        "ol"
      ],
      [
        "ĠGrif",
        "fin"
      ],
      [
        "ĠC",
        "ur"
      ],
      [
        "Ġb",
        "anding"
      ],
      [
        "ra",
        "ge"
      ],
      [
        "k",
        "ing"
      ],
      [
        "s",
        "u"
      ],
      [
        "in",
        "ity"
      ],
      [
        "ĠA",
        "ff"
      ],
      [
        "ĠEn",
        "rage"
      ],
      [
        "i",
        "an"
      ],
      [
        "o",
        "x"
      ],
      [
        "re",
        "ad"
      ],
      [
        "Ġa",
        "fter"
      ],
      [
        "ĠS",
        "oul"
      ],
      [
        "ĠR",
        "hin"
      ],
      [
        "ĠH",
        "ero"
      ],
      [
        "Ġcast",
        "ing"
      ],
      [
        "ire",
        "d"
      ],
      [
        "ĠSer",
        "pent"
      ],
      [
        "ĠRhin",
        "o"
      ],
      [
        "Ġo",
        "il"
      ],
      [
        "Ġbe",
        "ing"
      ],
      [
        "Ġv",
        "o"
      ],
      [
        "ĠFore",
        "tell"
      ],
      [
        "Ġcop",
        "ies"
      ],
      [
        "l",
        "icate"
      ],
      [
        "v",
        "otion"
      ],
      [
        "ĠB",
        "at"
      ],
      [
        "ĠT",
        "roll"
      ],
      [
        "Ġe",
        "ither"
      ],
      [
        "Ġde",
        "votion"
      ],
      [
        "Ġk",
        "ind"
      ],
      [
        "c",
        "ap"
      ],
      [
        "Ġ",
        "te"
      ],
      [
        "Ġt",
        "im"
      ],
      [
        "an",
        "king"
      ],
      [
        "ĠT",
        "e"
      ],
      [
        "ĠG",
        "ate"
      ],
      [
        "ĠL",
        "ev"
      ],
      [
        "ĠP",
        "lo"
      ],
      [
        "ĠSp",
        "l"
      ],
      [
        "ĠRo",
        "ll"
      ],
      [
        "ĠPlay",
        "ers"
      ],
      [
        "Ġtim",
        "es"
      ],
      [
        "ĠPlo",
        "t"
      ],
      [
        "or",
        "n"
      ],
      [
        "st",
        "rou"
      ],
      [
        "Ġf",
        "ore"
      ],
      [
        "el",
        "p"
      ],
      [
        "ut",
        "su"
      ],
      [
        "ĠGo",
        "d"
      ],
      [
        "ĠCh",
        "arge"
      ],
      [
        "Ġmon",
        "strou"
      ],
      [
        "Ġmonstrou",
        "s"
      ],
      [
        "ra",
        "b"
      ],
      [
        "ĠF",
        "ish"
      ],
      [
        "Ġh",
        "elp"
      ],
      [
        "ĠRU",
        "W"
      ],
      [
        "Ġal",
        "one"
      ],
      [
        "ist",
        "or"
      ],
      [
        "cap",
        "e"
      ],
      [
        "h",
        "ap"
      ],
      [
        "s",
        "p"
      ],
      [
        "en",
        "own"
      ],
      [
        "Ġd",
        "ied"
      ],
      [
        "ĠD",
        "ry"
      ],
      [
        "Ġg",
        "reate"
      ],
      [
        "ĠAtt",
        "ract"
      ],
      [
        "ĠSpells",
        "hap"
      ],
      [
        "ĠDry",
        "ad"
      ],
      [
        "Ġgreate",
        "st"
      ],
      [
        "ĠAttract",
        "ion"
      ],
      [
        "ĠSpellshap",
        "er"
      ],
      [
        "h",
        "er"
      ],
      [
        "m",
        "er"
      ],
      [
        "ĠE",
        "xp"
      ],
      [
        "ĠR",
        "ing"
      ],
      [
        "Ġh",
        "istor"
      ],
      [
        "Ġphas",
        "es"
      ],
      [
        "Ġhistor",
        "ic"
      ],
      [
        "s",
        "ity"
      ],
      [
        "ĠC",
        "rab"
      ],
      [
        "ou",
        "s"
      ],
      [
        "ĠR",
        "an"
      ],
      [
        "Ġenchantment",
        "s"
      ],
      [
        "ĠInc",
        "ub"
      ],
      [
        "Ġm",
        "ut"
      ],
      [
        "ĠH",
        "alf"
      ],
      [
        "ct",
        "op"
      ],
      [
        "id",
        "ed"
      ],
      [
        "ĠO",
        "ctop"
      ],
      [
        "Ġdiscard",
        "ed"
      ],
      [
        "ĠNinj",
        "utsu"
      ],
      [
        "Ġmut",
        "ate"
      ],
      [
        "ĠHalf",
        "ling"
      ],
      [
        "ĠOctop",
        "us"
      ],
      [
        "u",
        "te"
      ],
      [
        "art",
        "ing"
      ],
      [
        "Ġcon",
        "jure"
      ],
      [
        "ĠRan",
        "ger"
      ],
      [
        "c",
        "oun"
      ],
      [
        "ac",
        "le"
      ],
      [
        "ĠE",
        "cho"
      ],
      [
        "ter",
        "able"
      ],
      [
        "Ġh",
        "ig"
      ],
      [
        "Ġhand",
        "s"
      ],
      [
        "chan",
        "ge"
      ],
      [
        "ĠUn",
        "coun"
      ],
      [
        "Ġstep",
        "s"
      ],
      [
        "ĠUncoun",
        "terable"
      ],
      [
        "ĠF",
        "ights"
      ],
      [
        "man",
        "ship"
      ],
      [
        "ct",
        "or"
      ],
      [
        "ĠChange",
        "ling"
      ],
      [
        "Ġt",
        "en"
      ],
      [
        "ĠA",
        "b"
      ],
      [
        "Ġin",
        "vestigate"
      ],
      [
        "ĠTo",
        "xic"
      ],
      [
        "Ġplaneswalker",
        "s"
      ],
      [
        "ĠDo",
        "ctor"
      ],
      [
        "or",
        "t"
      ],
      [
        "Ġcontrol",
        "led"
      ],
      [
        "ĠMin",
        "ion"
      ],
      [
        "Ġl",
        "oyalty"
      ],
      [
        "ĠK",
        "av"
      ],
      [
        "Ġcommand",
        "ers"
      ],
      [
        "ĠCur",
        "se"
      ],
      [
        "ĠKav",
        "u"
      ],
      [
        "am",
        "orph"
      ],
      [
        "ĠD",
        "isguise"
      ],
      [
        "Ġl",
        "ost"
      ],
      [
        "il",
        "ities"
      ],
      [
        "eg",
        "amorph"
      ],
      [
        "icker",
        "s"
      ],
      [
        "ĠCas",
        "cade"
      ],
      [
        "ĠAb",
        "ilities"
      ],
      [
        "s",
        "ter"
      ],
      [
        "in",
        "t"
      ],
      [
        "ĠB",
        "l"
      ],
      [
        "Ġsh",
        "adow"
      ],
      [
        "mp",
        "ts"
      ],
      [
        "Ġexp",
        "lo"
      ],
      [
        "Ġ",
        "roll"
      ],
      [
        "Ġc",
        "yc"
      ],
      [
        "ar",
        "ies"
      ],
      [
        "or",
        "d"
      ],
      [
        "ĠS",
        "at"
      ],
      [
        "ĠT",
        "rans"
      ],
      [
        "Ġe",
        "mb"
      ],
      [
        "Ġle",
        "ave"
      ],
      [
        "Ġresol",
        "ves"
      ],
      [
        "ĠHero",
        "ic"
      ],
      [
        "ĠExp",
        "lo"
      ],
      [
        "b",
        "ar"
      ],
      [
        "c",
        "row"
      ],
      [
        "Ġm",
        "ain"
      ],
      [
        "ĠH",
        "ell"
      ],
      [
        "Ġnon",
        "bl"
      ],
      [
        "ĠSc",
        "are"
      ],
      [
        "ĠScare",
        "crow"
      ],
      [
        "w",
        "ine"
      ],
      [
        "Ġp",
        "ile"
      ],
      [
        "le",
        "ct"
      ],
      [
        "Ġs",
        "urveil"
      ],
      [
        "ĠBe",
        "stow"
      ],
      [
        "ĠSt",
        "ickers"
      ],
      [
        "ĠFl",
        "ip"
      ],
      [
        "ĠAff",
        "inity"
      ],
      [
        "c",
        "es"
      ],
      [
        "ĠB",
        "ar"
      ],
      [
        "if",
        "t"
      ],
      [
        "Ġl",
        "ater"
      ],
      [
        "ĠF",
        "ox"
      ],
      [
        "Ġh",
        "alf"
      ],
      [
        "Ġen",
        "ough"
      ],
      [
        "Ġmon",
        "arch"
      ],
      [
        "ĠSat",
        "yr"
      ],
      [
        "ĠS",
        "ur"
      ],
      [
        "ul",
        "ar"
      ],
      [
        "Ġsp",
        "end"
      ],
      [
        "bar",
        "ian"
      ],
      [
        "ĠBar",
        "barian"
      ],
      [
        "e",
        "t"
      ],
      [
        "Ġf",
        "ights"
      ],
      [
        "ĠG",
        "arg"
      ],
      [
        "Ġsh",
        "roud"
      ],
      [
        "oy",
        "le"
      ],
      [
        "Ġwhen",
        "ever"
      ],
      [
        "Ġcyc",
        "le"
      ],
      [
        "Ġemb",
        "lem"
      ],
      [
        "Ġnonbl",
        "ack"
      ],
      [
        "ĠGarg",
        "oyle"
      ],
      [
        "Ġb",
        "ack"
      ],
      [
        "ĠR",
        "a"
      ],
      [
        "ĠR",
        "aid"
      ],
      [
        "ĠG",
        "n"
      ],
      [
        "Ġen",
        "tered"
      ],
      [
        "ig",
        "n"
      ],
      [
        "Ġcaus",
        "e"
      ],
      [
        "b",
        "as"
      ],
      [
        "e",
        "as"
      ],
      [
        "ar",
        "tifact"
      ],
      [
        "ĠB",
        "u"
      ],
      [
        "ro",
        "om"
      ],
      [
        "ĠP",
        "ho"
      ],
      [
        "im",
        "id"
      ],
      [
        "ĠBG",
        "U"
      ],
      [
        "ĠBR",
        "W"
      ],
      [
        "ĠGR",
        "U"
      ],
      [
        "Ġr",
        "ound"
      ],
      [
        "ĠEld",
        "er"
      ],
      [
        "ee",
        "k"
      ],
      [
        "bas",
        "ic"
      ],
      [
        "Ġ",
        "room"
      ],
      [
        "ĠA",
        "m"
      ],
      [
        "ro",
        "d"
      ],
      [
        "ĠE",
        "s"
      ],
      [
        "ĠM",
        "ulticolored"
      ],
      [
        "us",
        "h"
      ],
      [
        "ĠBu",
        "y"
      ],
      [
        "imid",
        "ate"
      ],
      [
        "b",
        "b"
      ],
      [
        "i",
        "en"
      ],
      [
        "t",
        "ing"
      ],
      [
        "en",
        "ix"
      ],
      [
        "ĠA",
        "ur"
      ],
      [
        "Ġco",
        "in"
      ],
      [
        "ĠSp",
        "ec"
      ],
      [
        "Ġshare",
        "s"
      ],
      [
        "ĠPho",
        "enix"
      ],
      [
        "ĠBuy",
        "back"
      ],
      [
        "ĠAur",
        "as"
      ],
      [
        "1",
        "0"
      ],
      [
        "Ġd",
        "ungeon"
      ],
      [
        "Ġp",
        "arty"
      ],
      [
        "Ġs",
        "ay"
      ],
      [
        "th",
        "ing"
      ],
      [
        "ll",
        "ation"
      ],
      [
        "ĠGo",
        "ad"
      ],
      [
        "Ġst",
        "un"
      ],
      [
        "ĠCon",
        "ste"
      ],
      [
        "Ġal",
        "read"
      ],
      [
        "ĠSer",
        "vo"
      ],
      [
        "ĠAm",
        "ass"
      ],
      [
        "ĠConste",
        "llation"
      ],
      [
        "Ġalread",
        "y"
      ],
      [
        "n",
        "el"
      ],
      [
        "Ġp",
        "a"
      ],
      [
        "Ġre",
        "p"
      ],
      [
        "ĠTh",
        "ose"
      ],
      [
        "om",
        "e"
      ],
      [
        "id",
        "o"
      ],
      [
        "ĠSt",
        "orm"
      ],
      [
        "ĠEl",
        "k"
      ],
      [
        "Ġround",
        "ed"
      ],
      [
        "ush",
        "ido"
      ],
      [
        "bb",
        "it"
      ],
      [
        "xt",
        "ra"
      ],
      [
        "ĠH",
        "om"
      ],
      [
        "ĠP",
        "ower"
      ],
      [
        "ĠP",
        "eas"
      ],
      [
        "ri",
        "m"
      ],
      [
        "id",
        "ence"
      ],
      [
        "stro",
        "sity"
      ],
      [
        "av",
        "en"
      ],
      [
        "ĠMon",
        "strosity"
      ],
      [
        "ĠChan",
        "nel"
      ],
      [
        "ĠRa",
        "bbit"
      ],
      [
        "ĠPeas",
        "ant"
      ],
      [
        "t",
        "le"
      ],
      [
        "ĠB",
        "ard"
      ],
      [
        "ĠB",
        "ushido"
      ],
      [
        "ĠT",
        "apped"
      ],
      [
        "Ġnon",
        "artifact"
      ],
      [
        "ĠJ",
        "u"
      ],
      [
        "Ġev",
        "ery"
      ],
      [
        "Ġdiv",
        "ided"
      ],
      [
        "ĠGn",
        "ome"
      ],
      [
        "a",
        "k"
      ],
      [
        "ent",
        "ure"
      ],
      [
        "ĠA",
        "pe"
      ],
      [
        "ĠE",
        "v"
      ],
      [
        "ĠT",
        "ur"
      ],
      [
        "Ġg",
        "ive"
      ],
      [
        "com",
        "es"
      ],
      [
        "Ġnon",
        "basic"
      ],
      [
        "ĠBe",
        "comes"
      ],
      [
        "ĠMan",
        "ifest"
      ],
      [
        "ĠTur",
        "tle"
      ],
      [
        "a",
        "wn"
      ],
      [
        "Ġs",
        "ize"
      ],
      [
        "ĠRe",
        "c"
      ],
      [
        "ĠSh",
        "ade"
      ],
      [
        "ĠZomb",
        "ies"
      ],
      [
        "ĠMe",
        "tal"
      ],
      [
        "a",
        "ut"
      ],
      [
        "r",
        "int"
      ],
      [
        "ar",
        "k"
      ],
      [
        "ĠB",
        "anding"
      ],
      [
        "and",
        "s"
      ],
      [
        "Ġco",
        "mp"
      ],
      [
        "ĠM",
        "ir"
      ],
      [
        "ĠBG",
        "W"
      ],
      [
        "roc",
        "ess"
      ],
      [
        "ĠMetal",
        "craft"
      ],
      [
        "h",
        "e"
      ],
      [
        "l",
        "lect"
      ],
      [
        "s",
        "ign"
      ],
      [
        "w",
        "er"
      ],
      [
        "an",
        "id"
      ],
      [
        "ĠT",
        "yr"
      ],
      [
        "Ġm",
        "od"
      ],
      [
        "lo",
        "ad"
      ],
      [
        "Ġas",
        "sign"
      ],
      [
        "ĠSp",
        "awn"
      ],
      [
        "ver",
        "load"
      ],
      [
        "ĠEx",
        "change"
      ],
      [
        "Ġres",
        "ult"
      ],
      [
        "ĠTyr",
        "anid"
      ],
      [
        "d",
        "y"
      ],
      [
        "ĠC",
        "roc"
      ],
      [
        "st",
        "one"
      ],
      [
        "ent",
        "or"
      ],
      [
        "ĠT",
        "ra"
      ],
      [
        "Ġf",
        "e"
      ],
      [
        "Ġm",
        "adness"
      ],
      [
        "Ġm",
        "ulticolored"
      ],
      [
        "Ġin",
        "c"
      ],
      [
        "ĠP",
        "ro"
      ],
      [
        "ĠTo",
        "ken"
      ],
      [
        "ue",
        "st"
      ],
      [
        "od",
        "ile"
      ],
      [
        "rim",
        "e"
      ],
      [
        "ĠCroc",
        "odile"
      ],
      [
        "o",
        "b"
      ],
      [
        "ĠW",
        "ither"
      ],
      [
        "less",
        "ing"
      ],
      [
        "ĠK",
        "ra"
      ],
      [
        "ĠMut",
        "ate"
      ],
      [
        "Ġvo",
        "tes"
      ],
      [
        "b",
        "r"
      ],
      [
        "p",
        "s"
      ],
      [
        "ĠS",
        "ag"
      ],
      [
        "Ġd",
        "up"
      ],
      [
        "ĠM",
        "or"
      ],
      [
        "ĠDev",
        "otion"
      ],
      [
        "ĠImp",
        "rint"
      ],
      [
        "Ġhig",
        "h"
      ],
      [
        "Ġdup",
        "licate"
      ],
      [
        "o",
        "ver"
      ],
      [
        "ĠC",
        "yc"
      ],
      [
        "it",
        "i"
      ],
      [
        "ĠArtifact",
        "s"
      ],
      [
        "lo",
        "ps"
      ],
      [
        "ĠTh",
        "ru"
      ],
      [
        "ap",
        "t"
      ],
      [
        "ul",
        "us"
      ],
      [
        "ĠPower",
        "stone"
      ],
      [
        "ĠCyc",
        "lops"
      ],
      [
        "ĠThru",
        "ll"
      ],
      [
        "b",
        "id"
      ],
      [
        "c",
        "ycling"
      ],
      [
        "g",
        "ain"
      ],
      [
        "it",
        "z"
      ],
      [
        "Ġa",
        "gain"
      ],
      [
        "ĠD",
        "ice"
      ],
      [
        "Ġb",
        "lessing"
      ],
      [
        "al",
        "ize"
      ],
      [
        "ĠG",
        "re"
      ],
      [
        "ĠM",
        "entor"
      ],
      [
        "la",
        "w"
      ],
      [
        "Ġfore",
        "tell"
      ],
      [
        "ĠIncub",
        "ator"
      ],
      [
        "ĠEs",
        "cape"
      ],
      [
        "ĠKra",
        "ken"
      ],
      [
        "ĠMor",
        "bid"
      ],
      [
        "c",
        "ulus"
      ],
      [
        "n",
        "ing"
      ],
      [
        "an",
        "ge"
      ],
      [
        "un",
        "culus"
      ],
      [
        "Ġe",
        "ight"
      ],
      [
        "Ġun",
        "block"
      ],
      [
        "ĠP",
        "er"
      ],
      [
        "Ġany",
        "thing"
      ],
      [
        "ĠSc",
        "ion"
      ],
      [
        "ĠAs",
        "cend"
      ],
      [
        "Ġch",
        "ange"
      ],
      [
        "ĠFl",
        "icker"
      ],
      [
        "ĠReb",
        "ound"
      ],
      [
        "ĠHom",
        "unculus"
      ],
      [
        "Ġmod",
        "if"
      ],
      [
        "Ġunblock",
        "ed"
      ],
      [
        "H",
        "uman"
      ],
      [
        "b",
        "ot"
      ],
      [
        "r",
        "on"
      ],
      [
        "Ġc",
        "ity"
      ],
      [
        "ĠCo",
        "in"
      ],
      [
        "ou",
        "se"
      ],
      [
        "in",
        "ce"
      ],
      [
        "ĠE",
        "voke"
      ],
      [
        "Ġm",
        "o"
      ],
      [
        "Ġ2",
        "0"
      ],
      [
        "Ġturn",
        "s"
      ],
      [
        "ĠIn",
        "t"
      ],
      [
        "ĠM",
        "egamorph"
      ],
      [
        "ĠAl",
        "ien"
      ],
      [
        "ĠRo",
        "bot"
      ],
      [
        "ĠFl",
        "anking"
      ],
      [
        "ĠLev",
        "el"
      ],
      [
        "ĠW",
        "or"
      ],
      [
        "Ġs",
        "ince"
      ],
      [
        "ĠL",
        "ord"
      ],
      [
        "Ġg",
        "o"
      ],
      [
        "ĠM",
        "ouse"
      ],
      [
        "ĠSh",
        "r"
      ],
      [
        "ĠIsland",
        "s"
      ],
      [
        "ĠAd",
        "apt"
      ],
      [
        "ĠCl",
        "one"
      ],
      [
        "dy",
        "ing"
      ],
      [
        "iti",
        "ative"
      ],
      [
        "t",
        "ter"
      ],
      [
        "t",
        "wine"
      ],
      [
        "Ġ",
        "es"
      ],
      [
        "ar",
        "n"
      ],
      [
        "or",
        "gon"
      ],
      [
        "ĠW",
        "e"
      ],
      [
        "Ġp",
        "rev"
      ],
      [
        "Ġm",
        "ost"
      ],
      [
        "ic",
        "orn"
      ],
      [
        "ĠEn",
        "twine"
      ],
      [
        "ĠN",
        "om"
      ],
      [
        "ĠM",
        "y"
      ],
      [
        "ĠM",
        "age"
      ],
      [
        "Ġattack",
        "ers"
      ],
      [
        "ĠUn",
        "icorn"
      ],
      [
        "Ġst",
        "icker"
      ],
      [
        "Ġst",
        "arting"
      ],
      [
        "Ġless",
        "er"
      ],
      [
        "ĠRat",
        "her"
      ],
      [
        "Ġte",
        "am"
      ],
      [
        "ĠSpec",
        "ter"
      ],
      [
        "ĠInt",
        "imidate"
      ],
      [
        "Ġgo",
        "ad"
      ],
      [
        "ĠNom",
        "ad"
      ],
      [
        "Ġ",
        "qu"
      ],
      [
        "an",
        "ion"
      ],
      [
        "ĠCo",
        "m"
      ],
      [
        "er",
        "a"
      ],
      [
        "in",
        "al"
      ],
      [
        "ac",
        "c"
      ],
      [
        "ro",
        "v"
      ],
      [
        "Ġs",
        "eek"
      ],
      [
        "Ġbe",
        "en"
      ],
      [
        "Ġreturn",
        "s"
      ],
      [
        "Ġr",
        "enown"
      ],
      [
        "ĠWh",
        "ile"
      ],
      [
        "r",
        "up"
      ],
      [
        "Ġc",
        "ame"
      ],
      [
        "st",
        "ar"
      ],
      [
        "Ġp",
        "roliferate"
      ],
      [
        "Ġe",
        "xtra"
      ],
      [
        "ĠN",
        "ec"
      ],
      [
        "ĠM",
        "od"
      ],
      [
        "Ġar",
        "en"
      ],
      [
        "ĠK",
        "ob"
      ],
      [
        "ĠO",
        "tter"
      ],
      [
        "Ġsh",
        "ield"
      ],
      [
        "ĠSpl",
        "ice"
      ],
      [
        "Ġexplo",
        "res"
      ],
      [
        "ĠMage",
        "craft"
      ],
      [
        "ĠNec",
        "ron"
      ],
      [
        "ĠKob",
        "old"
      ],
      [
        "f",
        "ig"
      ],
      [
        "w",
        "ard"
      ],
      [
        "en",
        "ted"
      ],
      [
        "ĠCo",
        "r"
      ],
      [
        "on",
        "fig"
      ],
      [
        "ĠA",
        "star"
      ],
      [
        "ĠR",
        "acc"
      ],
      [
        "ĠG",
        "orgon"
      ],
      [
        "il",
        "ot"
      ],
      [
        "Ġe",
        "cho"
      ],
      [
        "ĠP",
        "ilot"
      ],
      [
        "att",
        "ach"
      ],
      [
        "Ġman",
        "ifest"
      ],
      [
        "ĠO",
        "ut"
      ],
      [
        "us",
        "pe"
      ],
      [
        "ol",
        "t"
      ],
      [
        "Ġred",
        "u"
      ],
      [
        "Ġrem",
        "ain"
      ],
      [
        "ĠRec",
        "onfig"
      ],
      [
        "Ġprev",
        "ented"
      ],
      [
        "Ġqu",
        "est"
      ],
      [
        "Ġrenown",
        "ed"
      ],
      [
        "ĠAstar",
        "tes"
      ],
      [
        "ĠRacc",
        "oon"
      ],
      [
        "ĠReconfig",
        "ure"
      ],
      [
        "c",
        "ore"
      ],
      [
        "d",
        "own"
      ],
      [
        "g",
        "ge"
      ],
      [
        "v",
        "en"
      ],
      [
        "Ġ",
        "z"
      ],
      [
        "Ġt",
        "ied"
      ],
      [
        "un",
        "ning"
      ],
      [
        "ĠP",
        "ers"
      ],
      [
        "ri",
        "ad"
      ],
      [
        "Ġgain",
        "ed"
      ],
      [
        "Ġleg",
        "end"
      ],
      [
        "ĠHorse",
        "manship"
      ],
      [
        "rov",
        "ise"
      ],
      [
        "gge",
        "red"
      ],
      [
        "ĠPers",
        "ist"
      ],
      [
        "a",
        "un"
      ],
      [
        "a",
        "xi"
      ],
      [
        "b",
        "ute"
      ],
      [
        "i",
        "k"
      ],
      [
        "m",
        "um"
      ],
      [
        "s",
        "hif"
      ],
      [
        "an",
        "ish"
      ],
      [
        "or",
        "age"
      ],
      [
        "Ġd",
        "raft"
      ],
      [
        "Ġp",
        "artner"
      ],
      [
        "Ġm",
        "axi"
      ],
      [
        "eg",
        "as"
      ],
      [
        "ĠP",
        "egas"
      ],
      [
        "ĠO",
        "ff"
      ],
      [
        "ĠUn",
        "dying"
      ],
      [
        "Ġmu",
        "st"
      ],
      [
        "ĠRo",
        "le"
      ],
      [
        "Ġtri",
        "ggered"
      ],
      [
        "Ġlast",
        "s"
      ],
      [
        "la",
        "red"
      ],
      [
        "Ġdec",
        "lared"
      ],
      [
        "mer",
        "ge"
      ],
      [
        "ĠWor",
        "ld"
      ],
      [
        "Ġz",
        "one"
      ],
      [
        "shif",
[...]
