{
  "version": "1.0",
  "truncation": {
    "direction": "Right",
    "max_length": 512,
    "strategy": "LongestFirst",
    "stride": 0
  },
  "padding": {
    "strategy": "BatchLongest",
    "direction": "Right",
    "pad_to_multiple_of": null,
    "pad_id": 0,
    "pad_type_id": 0,
    "pad_token": "[PAD]"
  },
  "added_tokens": [
    {
      "id": 0,
      "content": "[PAD]",
      "single_word": false,
      "lstrip": false,
      "rstrip": false,
      "normalized": false,
      "special": true
    },
    {
      "id": 1,
      "content": "[UNK]",
      "single_word": false,
      "lstrip": false,
      "rstrip": false,
      "normalized": false,
      "special": true
    },
    {
      "id": 2,
      "content": "[CLS]",
      "single_word": false,
      "lstrip": false,
      "rstrip": false,
      "normalized": false,
      "special": true
    },
    {
      "id": 3,
      "content": "[SEP]",
      "single_word": false,
      "lstrip": false,
      "rstrip": false,
      "normalized": false,
      "special": true
    },
    {
      "id": 4,
      "content": "[MASK]",
      "single_word": false,
      "lstrip": false,
      "rstrip": false,
      "normalized": false,
      "special": true
    }
  ],
  "normalizer": null,
  "pre_tokenizer": {
    "type": "Whitespace"
  },
  "post_processor": null,
  "decoder": null,
  "model": {
    "type": "BPE",
    "dropout": null,
    "unk_token": null,
    "continuing_subword_prefix": null,
    "end_of_word_suffix": null,
    "fuse_unk": false,
    "byte_fallback": false,
    "ignore_merges": false,
    "vocab": {
      "[PAD]": 0,
      "[UNK]": 1,
      "[CLS]": 2,
      "[SEP]": 3,
      "[MASK]": 4,
      "!": 5,
      "\"": 6,
      "#": 7,
      "$": 8,
      "&": 9,
      "'": 10,
      "(": 11,
      ")": 12,
      "+": 13,
      ",": 14,
      "-": 15,
      ".": 16,
      "/": 17,
      "0": 18,
      "1": 19,
      "2": 20,
      "3": 21,
      "4": 22,
      "5": 23,
      "6": 24,
      "7": 25,
      "8": 26,
      "9": 27,
      ":": 28,
      ";": 29,
      "=": 30,
      "?": 31,
      "A": 32,
      "B": 33,
      "C": 34,
      "D": 35,
      "E": 36,
      "F": 37,
      "G": 38,
      "H": 39,
      "I": 40,
      "J": 41,
      "K": 42,
      "L": 43,
      "M": 44,
      "N": 45,
      "O": 46,
      "P": 47,
      "Q": 48,
      "R": 49,
      "S": 50,
      "T": 51,
      "U": 52,
      "V": 53,
      "W": 54,
      "X": 55,
      "Y": 56,
      "Z": 57,
      "[": 58,
      "\\": 59,
      "]": 60,
      "_": 61,
      "a": 62,
      "b": 63,
      "c": 64,
      "d": 65,
      "e": 66,
      "f": 67,
      "g": 68,
      "h": 69,
      "i": 70,
      "j": 71,
      "k": 72,
      "l": 73,
      "m": 74,
      "n": 75,
      "o": 76,
      "p": 77,
      "q": 78,
      "r": 79,
      "s": 80,
      "t": 81,
      "u": 82,
      "v": 83,
      "w": 84,
      "x": 85,
      "y": 86,
      "z": 87,
      "{": 88,
      "|": 89,
      "}": 90,
      "®": 91,
      "²": 92,
      "½": 93,
      "É": 94,
      "á": 95,
      "â": 96,
      "ã": 97,
      "è": 98,
      "é": 99,
      "í": 100,
      "î": 101,
      "ï": 102,
      "ñ": 103,
      "ó": 104,
      "ö": 105,
      "ú": 106,
      "û": 107,
      "ü": 108,
      "Š": 109,
      "̶": 110,
      "π": 111,
      "—": 112,
      "•": 113,
      "™": 114,
      "→": 115,
      "−": 116,
      "√": 117,
      "∞": 118,
      "☐": 119,
      "♦": 120,
      "꞉": 121,
      "re": 122,
      "th": 123,
      "at": 124,
      "er": 125,
      "nt": 126,
      "ou": 127,
      "ar": 128,
      "an": 129,
      "en": 130,
      "you": 131,
      "in": 132,
      "reat": 133,
      "creat": 134,
      "ure": 135,
      "on": 136,
      "creature": 137,
      "ge": 138,
      "st": 139,
      "ard": 140,
      "ac": 141,
      "co": 142,
      "ro": 143,
      "or": 144,
      "the": 145,
      "it": 146,
      "to": 147,
      "of": 148,
      "is": 149,
      "and": 150,
      "card": 151,
      "le": 152,
      "al": 153,
      "get": 154,
      "ay": 155,
      "ent": 156,
      "if": 157,
      "ur": 158,
      "ing": 159,
      "hen": 160,
      "your": 161,
      "rol": 162,
      "arget": 163,
      "When": 164,
      "cont": 165,
      "control": 166,
      "urn": 167,
      "el": 168,
      "ra": 169,
      "turn": 170,
      "as": 171,
      "es": 172,
      "ed": 173,
      "ers": 174,
      "target": 175,
      "il": 176,
      "am": 177,
      "this": 178,
      "ve": 179,
      "ch": 180,
      "de": 181,
      "ast": 182,
      "pl": 183,
      "end": 184,
      "ic": 185,
      "ach": 186,
      "ith": 187,
      "be": 188,
      "ut": 189,
      "ount": 190,
      "att": 191,
      "ev": 192,
      "that": 193,
      "with": 194,
      "man": 195,
      "/+": 196,
      "sp": 197,
      "unt": 198,
      "ly": 199,
      "pp": 200,
      "ell": 201,
      "ever": 202,
      "count": 203,
      "may": 204,
      "play": 205,
      "age": 206,
      "Whenever": 207,
      "enters": 208,
      "lo": 209,
      "spell": 210,
      "rom": 211,
      "from": 212,
      "cast": 213,
      "amage": 214,
      "each": 215,
      "ack": 216,
      "ex": 217,
      "player": 218,
      "ain": 219,
      "cards": 220,
      "damage": 221,
      "mb": 222,
      "ant": 223,
      "deal": 224,
      "until": 225,
      "put": 226,
      "se": 227,
      "ow": 228,
      "for": 229,
      "ir": 230,
      "li": 231,
      "Th": 232,
      "ice": 233,
      "You": 234,
      "its": 235,
      "gain": 236,
      "act": 237,
      "hand": 238,
      "ile": 239,
      "ary": 240,
      "ad": 241,
      "ep": 242,
      "ken": 243,
      "creatures": 244,
      "art": 245,
      "gra": 246,
      "yard": 247,
      "veyard": 248,
      "rif": 249,
      "graveyard": 250,
      "lying": 251,
      "If": 252,
      "acrif": 253,
      "nto": 254,
      "can": 255,
      "land": 256,
      "counter": 257,
      "br": 258,
      "ther": 259,
      "lif": 260,
      "token": 261,
      "libr": 262,
      "raw": 263,
      "deals": 264,
      "library": 265,
      "fi": 266,
      "chant": 267,
      "opp": 268,
      "onent": 269,
      "opponent": 270,
      "gets": 271,
      "one": 272,
      "ck": 273,
      "qu": 274,
      "mana": 275,
      "ifact": 276,
      "ti": 277,
      "attack": 278,
      "up": 279,
      "oo": 280,
      "life": 281,
      "acrifice": 282,
      "artifact": 283,
      "ss": 284,
      "ke": 285,
      "any": 286,
      "mo": 287,
      "eld": 288,
      "ap": 289,
      "attle": 290,
      "lock": 291,
      "tw": 292,
      "battle": 293,
      "field": 294,
      "battlefield": 295,
      "other": 296,
      "block": 297,
      "less": 298,
      "cost": 299,
      "per": 300,
      "two": 301,
      "ning": 302,
      "gin": 303,
      "begin": 304,
      "beginning": 305,
      "pped": 306,
      "ri": 307,
      "has": 308,
      "un": 309,
      "At": 310,
      "manent": 311,
      "exile": 312,
      "Re": 313,
      "permanent": 314,
      "into": 315,
      "Flying": 316,
      "wh": 317,
      "pay": 318,
      "own": 319,
      "then": 320,
      "ion": 321,
      "counters": 322,
      "This": 323,
      "ong": 324,
      "draw": 325,
      "ate": 326,
      "ab": 327,
      "En": 328,
      "Sacrifice": 329,
      "mber": 330,
      "all": 331,
      "Ad": 332,
      "ies": 333,
      "top": 334,
      "ha": 335,
      "com": 336,
      "nu": 337,
      "gh": 338,
      "Target": 339,
      "number": 340,
      "ce": 341,
      "comb": 342,
      "lor": 343,
      "oose": 344,
      "do": 345,
      "Add": 346,
      "combat": 347,
      "ld": 348,
      "ue": 349,
      "their": 350,
      "color": 351,
      "De": 352,
      "bl": 353,
      "Enchant": 354,
      "sh": 355,
      "gains": 356,
      "stro": 357,
      "more": 358,
      "create": 359,
      "ower": 360,
      "apped": 361,
      "stroy": 362,
      "ere": 363,
      "Creat": 364,
      "It": 365,
      "der": 366,
      "only": 367,
      "power": 368,
      "equ": 369,
      "mp": 370,
      "inst": 371,
      "cti": 372,
      "Put": 373,
      "have": 374,
      "add": 375,
      "keep": 376,
      "cer": 377,
      "step": 378,
      "enchant": 379,
      "attacks": 380,
      "ace": 381,
      "non": 382,
      "iscard": 383,
      "ment": 384,
      "ff": 385,
      "upkeep": 386,
      "me": 387,
      "blocked": 388,
      "flying": 389,
      "ker": 390,
      "becom": 391,
      "sor": 392,
      "ilit": 393,
      "abilit": 394,
      "Ch": 395,
      "ot": 396,
      "tapped": 397,
      "ree": 398,
      "cery": 399,
      "sorcery": 400,
      "Ex": 401,
      "ext": 402,
      "equal": 403,
      "reve": 404,
      "onto": 405,
      "qui": 406,
      "are": 407,
      "Equi": 408,
      "Draw": 409,
      "another": 410,
      "by": 411,
      "mple": 412,
      "controls": 413,
      "As": 414,
      "becomes": 415,
      "ig": 416,
      "aste": 417,
      "next": 418,
      "ame": 419,
      "rample": 420,
      "Sp": 421,
      "wal": 422,
      "cho": 423,
      "three": 424,
      "ty": 425,
      "ess": 426,
      "id": 427,
      "ler": 428,
      "ould": 429,
      "ition": 430,
      "owner": 431,
      "The": 432,
      "long": 433,
      "return": 434,
      "ol": 435,
      "tou": 436,
      "Exile": 437,
      "val": 438,
      "sacrifice": 439,
      "irst": 440,
      "reveal": 441,
      "addition": 442,
      "ite": 443,
      "ses": 444,
      "uff": 445,
      "choose": 446,
      "Create": 447,
      "uffle": 448,
      "arch": 449,
      "ash": 450,
      "dies": 451,
      "cop": 452,
      "red": 453,
      "untap": 454,
      "typ": 455,
      "vate": 456,
      "value": 457,
      "shuffle": 458,
      "om": 459,
      "Return": 460,
      "plan": 461,
      "would": 462,
      "them": 463,
      "stri": 464,
      "out": 465,
      "where": 466,
      "Destroy": 467,
      "ead": 468,
      "eswal": 469,
      "our": 470,
      "haste": 471,
      "planeswal": 472,
      "ance": 473,
      "strike": 474,
      "/-": 475,
      "ul": 476,
      "time": 477,
      "copy": 478,
      "dealt": 479,
      "way": 480,
      "Each": 481,
      "face": 482,
      "lash": 483,
      "black": 484,
      "rest": 485,
      "controller": 486,
      "Equip": 487,
      "ter": 488,
      "than": 489,
      "instead": 490,
      "uring": 491,
      "Enchanted": 492,
      "Choose": 493,
      "gre": 494,
      "ct": 495,
      "white": 496,
      "first": 497,
      "enchantment": 498,
      "av": 499,
      "ness": 500,
      "igil": 501,
      "spells": 502,
      "tokens": 503,
      "discard": 504,
      "among": 505,
      "ble": 506,
      "igilance": 507,
      "they": 508,
      "Acti": 509,
      "additional": 510,
      "ill": 511,
      "ie": 512,
      "St": 513,
      "planeswalker": 514,
      "loses": 515,
      "unless": 516,
      "Unt": 517,
      "destroy": 518,
      "Activate": 519,
      "ght": 520,
      "ability": 521,
      "green": 522,
      "fend": 523,
      "attacking": 524,
      "Se": 525,
      "under": 526,
      "ose": 527,
      "move": 528,
      "ru": 529,
      "nonland": 530,
      "instant": 531,
      "during": 532,
      "ath": 533,
      "Discard": 534,
      "bas": 535,
      "without": 536,
      "trample": 537,
      "Ar": 538,
      "tom": 539,
      "Then": 540,
      "bot": 541,
      "In": 542,
      "was": 543,
      "us": 544,
      "ghness": 545,
      "toughness": 546,
      "abilities": 547,
      "bottom": 548,
      "exc": 549,
      "An": 550,
      "te": 551,
      "Creature": 552,
      "no": 553,
      "Sh": 554,
      "don": 555,
      "ry": 556,
      "those": 557,
      "pro": 558,
      "enchanted": 559,
      "amp": 560,
      "iv": 561,
      "loo": 562,
      "costs": 563,
      "ag": 564,
      "Go": 565,
      "ling": 566,
      "ist": 567,
      "Creatures": 568,
      "vent": 569,
      "et": 570,
      "type": 571,
      "lands": 572,
      "ore": 573,
      "permanents": 574,
      "Flash": 575,
      "ept": 576,
      "tap": 577,
      "Sc": 578,
      "choice": 579,
      "four": 580,
      "ink": 581,
      "except": 582,
      "Trample": 583,
      "rand": 584,
      "exiled": 585,
      "led": 586,
      "order": 587,
      "great": 588,
      "acrific": 589,
      "sacrific": 590,
      "ener": 591,
      "random": 592,
      "ight": 593,
      "defend": 594,
      "paying": 595,
      "sen": 596,
      "II": 597,
      "dis": 598,
      "Tap": 599,
      "TK": 600,
      "opponents": 601,
      "elink": 602,
      "Search": 603,
      "chosen": 604,
      "Dra": 605,
      "ph": 606,
      "down": 607,
      "ook": 608,
      "omb": 609,
      "revent": 610,
      "con": 611,
      "back": 612,
      "est": 613,
      "mand": 614,
      "lose": 615,
      "basic": 616,
      "attach": 617,
      "um": 618,
      "ian": 619,
      "touch": 620,
      "ire": 621,
      "enace": 622,
      "For": 623,
      "types": 624,
      "discards": 625,
      "Other": 626,
      "os": 627,
      "vigilance": 628,
      "blue": 629,
      "yc": 630,
      "nan": 631,
      "ver": 632,
      "does": 633,
      "old": 634,
      "able": 635,
      "Until": 636,
      "stru": 637,
      "iz": 638,
      "athtouch": 639,
      "ect": 640,
      "colorless": 641,
      "game": 642,
      "Equipped": 643,
      "Al": 644,
      "Pl": 645,
      "gon": 646,
      "greater": 647,
      "nam": 648,
      "rou": 649,
      "search": 650,
      "Look": 651,
      "targets": 652,
      "im": 653,
      "ne": 654,
      "Att": 655,
      "ity": 656,
      "defending": 657,
      "ated": 658,
      "tal": 659,
      "ine": 660,
      "Co": 661,
      "Dragon": 662,
      "War": 663,
      "fter": 664,
      "sc": 665,
      "ction": 666,
      "mill": 667,
      "ick": 668,
      "leg": 669,
      "command": 670,
      "They": 671,
      "doesn": 672,
      "Zomb": 673,
      "name": 674,
      "\")": 675,
      "gener": 676,
      "named": 677,
      "remove": 678,
      "structi": 679,
      "Ph": 680,
      "destructi": 681,
      "destructible": 682,
      "mon": 683,
      "lifelink": 684,
      "Pro": 685,
      "total": 686,
      "legend": 687,
      "Tre": 688,
      "ough": 689,
      "artifacts": 690,
      "phas": 691,
      "untapped": 692,
      "Spir": 693,
      "ouble": 694,
      "mu": 695,
      "Sw": 696,
      "so": 697,
      "there": 698,
      "res": 699,
      "Con": 700,
      "blin": 701,
      "Count": 702,
      "Vigilance": 703,
      "Goblin": 704,
      "many": 705,
      "ise": 706,
      "That": 707,
      "orph": 708,
      "nd": 709,
      "Counter": 710,
      "su": 711,
      "ains": 712,
      "Spirit": 713,
      "bo": 714,
      "pays": 715,
      "look": 716,
      "asure": 717,
      "Remove": 718,
      "after": 719,
      "ind": 720,
      "sacrifices": 721,
      "Ro": 722,
      "au": 723,
      "ood": 724,
      "Untap": 725,
      "Treasure": 726,
      "ive": 727,
      "ip": 728,
      "once": 729,
      "tection": 730,
      "ous": 731,
      "ation": 732,
      "icker": 733,
      "legendary": 734,
      "aves": 735,
      "Zombie": 736,
      "Sk": 737,
      "ass": 738,
      "ier": 739,
      "tion": 740,
      "ade": 741,
      "indestructible": 742,
      "blocking": 743,
      "ycling": 744,
      "Aur": 745,
      "even": 746,
      "po": 747,
      "gg": 748,
      "leaves": 749,
      "pa": 750,
      "ran": 751,
      "vo": 752,
      "Prevent": 753,
      "attached": 754,
      "Haste": 755,
      "five": 756,
      "Be": 757,
      "aw": 758,
      "fore": 759,
      "Ele": 760,
      "si": 761,
      "noncreature": 762,
      "Fo": 763,
      "Is": 764,
      "Ve": 765,
      "last": 766,
      "Hu": 767,
      "though": 768,
      "ish": 769,
      "much": 770,
      "El": 771,
      "lood": 772,
      "To": 773,
      "ak": 774,
      "flash": 775,
      "ator": 776,
      "First": 777,
      "not": 778,
      "draws": 779,
      "Human": 780,
      "ivate": 781,
      "activate": 782,
      "Forest": 783,
      "ontoken": 784,
      "blocks": 785,
      "Equipment": 786,
      "deathtouch": 787,
      "mental": 788,
      "expro": 789,
      "exproof": 790,
      "players": 791,
      "form": 792,
      "seven": 793,
      "ffect": 794,
      "nontoken": 795,
      "yre": 796,
      "tri": 797,
      "ipped": 798,
      "icked": 799,
      "Turn": 800,
      "double": 801,
      "sour": 802,
      "also": 803,
      "All": 804,
      "both": 805,
      "aled": 806,
      "Mount": 807,
      "Reach": 808,
      "Defend": 809,
      "Elemental": 810,
      "ner": 811,
      "ison": 812,
      "ear": 813,
      "ft": 814,
      "ange": 815,
      "Cl": 816,
      "equipped": 817,
      "Defender": 818,
      "Pay": 819,
      "same": 820,
      "night": 821,
      "menace": 822,
      "reveals": 823,
      "Cycling": 824,
      "spent": 825,
      "rior": 826,
      "Warrior": 827,
      "generate": 828,
      "gu": 829,
      "ual": 830,
      "ered": 831,
      "revealed": 832,
      "scry": 833,
      "kicked": 834,
      "Un": 835,
      "Menace": 836,
      "Swamp": 837,
      "Blood": 838,
      "op": 839,
      "Attach": 840,
      "dif": 841,
      "effect": 842,
      "arge": 843,
      "activ": 844,
      "phase": 845,
      "Regenerate": 846,
      "casts": 847,
      "cl": 848,
      "had": 849,
      "Aura": 850,
      "base": 851,
      "wor": 852,
      "rem": 853,
      "roll": 854,
      "amount": 855,
      "isn": 856,
      "Or": 857,
      "reach": 858,
      "Sold": 859,
      "hic": 860,
      "Bl": 861,
      "Reve": 862,
      "new": 863,
      "Island": 864,
      "hicle": 865,
      "Fl": 866,
      "Vehicle": 867,
      "source": 868,
      "cau": 869,
      "when": 870,
      "xian": 871,
      "ark": 872,
      "Phyre": 873,
      "walk": 874,
      "Mo": 875,
      "oul": 876,
      "mills": 877,
      "Dev": 878,
      "fol": 879,
      "charge": 880,
      "rew": 881,
      "protection": 882,
      "cond": 883,
      "Reveal": 884,
      "Your": 885,
      "before": 886,
      "ult": 887,
      "III": 888,
      "Phyrexian": 889,
      "Soldier": 890,
      "aur": 891,
      "lem": 892,
      "paid": 893,
      "deck": 894,
      "commander": 895,
      "Food": 896,
      "pet": 897,
      "ger": 898,
      "ved": 899,
      "plus": 900,
      "second": 901,
      "ually": 902,
      "dra": 903,
      "spend": 904,
      "petually": 905,
      "Mer": 906,
      "orm": 907,
      "poison": 908,
      "Kicker": 909,
      "hexproof": 910,
      "perpetually": 911,
      "prevent": 912,
      "win": 913,
      "ave": 914,
      "Deathtouch": 915,
      "Damage": 916,
      "Wh": 917,
      "my": 918,
      "ward": 919,
      "az": 920,
      "ial": 921,
      "Land": 922,
      "die": 923,
      "still": 924,
      "six": 925,
      "Bo": 926,
      "flashback": 927,
      "eg": 928,
      "10": 929,
      "read": 930,
      "puts": 931,
      "Ser": 932,
      "wise": 933,
      "were": 934,
      "row": 935,
      "Any": 936,
      "sacrificed": 937,
      "enter": 938,
      "lip": 939,
      "activated": 940,
      "become": 941,
      "planeswalk": 942,
      "while": 943,
      "Knight": 944,
      "ec": 945,
      "sha": 946,
      "ves": 947,
      "Gu": 948,
      "trigg": 949,
      "ax": 950,
      "cha": 951,
      "Spell": 952,
      "Cast": 953,
      "fere": 954,
      "ven": 955,
      "orn": 956,
      "choo": 957,
      "Vamp": 958,
      "igh": 959,
      "ird": 960,
      "Otherwise": 961,
      "Lif": 962,
      "let": 963,
      "adow": 964,
      "Scry": 965,
      "ater": 966,
      "artner": 967,
      "Her": 968,
      "rather": 969,
      "du": 970,
      "now": 971,
      "Vampire": 972,
      "Sag": 973,
      "ide": 974,
      "low": 975,
      "ake": 976,
      "ied": 977,
      "ub": 978,
      "could": 979,
      "differe": 980,
      "Sli": 981,
      "gel": 982,
      "che": 983,
      "band": 984,
      "fin": 985,
      "folk": 986,
      "chooses": 987,
      "vest": 988,
      "colors": 989,
      "int": 990,
      "ence": 991,
      "who": 992,
      "aster": 993,
      "attacked": 994,
      "Angel": 995,
      "My": 996,
      "Do": 997,
      "iant": 998,
      "Flashback": 999,
      "Fire": 1000,
      "ound": 1001,
      "graveyards": 1002,
      "izard": 1003,
      "ither": 1004,
      "Mountain": 1005,
      "Mon": 1006,
      "Ward": 1007,
      "go": 1008,
      "he": 1009,
      "Lo": 1010,
      "round": 1011,
      "Sur": 1012,
      "Soul": 1013,
      "fall": 1014,
      "remo": 1015,
      "ster": 1016,
      "flip": 1017,
      "gy": 1018,
      "mer": 1019,
      "ensu": 1020,
      "shuffles": 1021,
      "Play": 1022,
      "ensues": 1023,
      "ten": 1024,
      "plic": 1025,
      "Morph": 1026,
      "ted": 1027,
      "Wall": 1028,
      "regener": 1029,
      "morph": 1030,
      "change": 1031,
      "ided": 1032,
      "removed": 1033,
      "Man": 1034,
      "evel": 1035,
      "remains": 1036,
      "Lifelink": 1037,
      "Dis": 1038,
      "start": 1039,
      "veil": 1040,
      "Army": 1041,
      "triggers": 1042,
      "least": 1043,
      "olf": 1044,
      "chaos": 1045,
      "regenerated": 1046,
      "During": 1047,
      "Ra": 1048,
      "ia": 1049,
      "oid": 1050,
      "creates": 1051,
      "raz": 1052,
      "Theme": 1053,
      "Plains": 1054,
      "causes": 1055,
      "atch": 1056,
      "Hor": 1057,
      "ative": 1058,
      "div": 1059,
      "Its": 1060,
      "Inf": 1061,
      "Gain": 1062,
      "Te": 1063,
      "ift": 1064,
      "vestig": 1065,
      "Fa": 1066,
      "Wizard": 1067,
      "ield": 1068,
      "ates": 1069,
      "king": 1070,
      "Art": 1071,
      "roud": 1072,
      "Beast": 1073,
      "Ass": 1074,
      "ron": 1075,
      "Elf": 1076,
      "He": 1077,
      "different": 1078,
      "Squ": 1079,
      "twice": 1080,
      "Spend": 1081,
      "aven": 1082,
      "voke": 1083,
      "Imp": 1084,
      "yal": 1085,
      "countered": 1086,
      "ize": 1087,
      "Eld": 1088,
      "ew": 1089,
      "jure": 1090,
      "turned": 1091,
      "lore": 1092,
      "Hy": 1093,
      "Crew": 1094,
      "Giant": 1095,
      "ild": 1096,
      "anywhere": 1097,
      "owners": 1098,
      "rans": 1099,
      "Saga": 1100,
      "20": 1101,
      "Mag": 1102,
      "vot": 1103,
      "Landfall": 1104,
      "Players": 1105,
      "Des": 1106,
      "Mar": 1107,
      "ctor": 1108,
      "Clue": 1109,
      "vestigate": 1110,
      "mut": 1111,
      "ust": 1112,
      "rap": 1113,
      "ship": 1114,
      "Orc": 1115,
      "did": 1116,
      "ho": 1117,
      "kind": 1118,
      "mes": 1119,
      "defender": 1120,
      "effects": 1121,
      "cheme": 1122,
      "snow": 1123,
      "Protection": 1124,
      "high": 1125,
      "main": 1126,
      "scheme": 1127,
      "ond": 1128,
      "elp": 1129,
      "didn": 1130,
      "Sap": 1131,
      "arth": 1132,
      "adness": 1133,
      "rim": 1134,
      "Double": 1135,
      "emb": 1136,
      "ful": 1137,
      "ud": 1138,
      "exiles": 1139,
      "destroyed": 1140,
      "Arcan": 1141,
      "energy": 1142,
      "say": 1143,
      "cor": 1144,
      "ek": 1145,
      "hal": 1146,
      "Devoid": 1147,
      "but": 1148,
      "ious": 1149,
      "ulti": 1150,
      "commanders": 1151,
      "Storm": 1152,
      "eed": 1153,
      "tell": 1154,
      "ord": 1155,
      "resol": 1156,
      "Com": 1157,
      "gue": 1158,
      "sur": 1159,
      "ert": 1160,
      "Sun": 1161,
      "vers": 1162,
      "casting": 1163,
      "ces": 1164,
      "oil": 1165,
      "arm": 1166,
      "ign": 1167,
      "Cler": 1168,
      "ren": 1169,
      "stone": 1170,
      "ort": 1171,
      "oll": 1172,
      "greatest": 1173,
      "Level": 1174,
      "excess": 1175,
      "result": 1176,
      "Arcane": 1177,
      "fight": 1178,
      "times": 1179,
      "apt": 1180,
      "word": 1181,
      "Ring": 1182,
      "rel": 1183,
      "hands": 1184,
      "Del": 1185,
      "Rat": 1186,
      "Sn": 1187,
      "ium": 1188,
      "vel": 1189,
      "Demon": 1190,
      "ampion": 1191,
      "Cleric": 1192,
      "either": 1193,
      "ape": 1194,
      "Partner": 1195,
      "ale": 1196,
      "cre": 1197,
      "colo": 1198,
      "roling": 1199,
      "acking": 1200,
      "copies": 1201,
      "Rogue": 1202,
      "Sky": 1203,
      "Merfolk": 1204,
      "Hero": 1205,
      "Saproling": 1206,
      "Bar": 1207,
      "fl": 1208,
      "tr": 1209,
      "resh": 1210,
      "leave": 1211,
      "Wolf": 1212,
      "Champion": 1213,
      "Attacking": 1214,
      "Artifact": 1215,
      "We": 1216,
      "thing": 1217,
      "being": 1218,
      "istor": 1219,
      "Le": 1220,
      "ired": 1221,
      "min": 1222,
      "pile": 1223,
      "ang": 1224,
      "phases": 1225,
      "Sl": 1226,
      "help": 1227,
      "aries": 1228,
      "ror": 1229,
      "side": 1230,
      "Sliver": 1231,
      "Bu": 1232,
      "Gra": 1233,
      "aker": 1234,
      "esc": 1235,
      "enchantments": 1236,
      "aver": 1237,
      "colored": 1238,
      "ix": 1239,
      "ull": 1240,
      "yalty": 1241,
      "Hydra": 1242,
      "died": 1243,
      "ider": 1244,
      "zone": 1245,
      "Golem": 1246,
      "conjure": 1247,
      "plicate": 1248,
      "Bird": 1249,
      "itch": 1250,
      "Thresh": 1251,
      "planeswalkers": 1252,
      "Cat": 1253,
      "Ent": 1254,
      "set": 1255,
      "steps": 1256,
      "discarded": 1257,
      "banding": 1258,
      "emblem": 1259,
      "loyalty": 1260,
      "Command": 1261,
      "Mir": 1262,
      "ai": 1263,
      "ze": 1264,
      "erie": 1265,
      "devo": 1266,
      "awn": 1267,
      "Hell": 1268,
      "Su": 1269,
      "ifer": 1270,
      "urm": 1271,
      "controlled": 1272,
      "expl": 1273,
      "osaur": 1274,
      "rous": 1275,
      "razi": 1276,
      "Eldrazi": 1277,
      "istoric": 1278,
      "Au": 1279,
      "ting": 1280,
      "rep": 1281,
      "strous": 1282,
      "coin": 1283,
      "arty": 1284,
      "Ho": 1285,
      "ber": 1286,
      "historic": 1287,
      "ract": 1288,
      "sk": 1289,
      "oom": 1290,
      "share": 1291,
      "devotion": 1292,
      "Back": 1293,
      "Din": 1294,
      "Prow": 1295,
      "Out": 1296,
      "rolifer": 1297,
      "shroud": 1298,
      "Threshold": 1299,
      "cyc": 1300,
      "size": 1301,
      "investigate": 1302,
      "lost": 1303,
      "Start": 1304,
      "Shadow": 1305,
      "Guard": 1306,
      "roliferate": 1307,
      "Light": 1308,
      "Mage": 1309,
      "Pir": 1310,
      "alone": 1311,
      "Battle": 1312,
      "Fore": 1313,
      "Tri": 1314,
      "Ur": 1315,
      "od": 1316,
      "turns": 1317,
      "Arch": 1318,
      "ready": 1319,
      "surveil": 1320,
      "cra": 1321,
      "Cont": 1322,
      "Spells": 1323,
      "Dinosaur": 1324,
      "Une": 1325,
      "irrel": 1326,
      "monstrous": 1327,
      "assin": 1328,
      "whenever": 1329,
      "Assassin": 1330,
      "half": 1331,
      "Unearth": 1332,
      "Band": 1333,
      "Ke": 1334,
      "Sent": 1335,
      "Tra": 1336,
      "Change": 1337,
      "umul": 1338,
      "Fro": 1339,
      "Min": 1340,
      "ail": 1341,
      "unge": 1342,
      "monarch": 1343,
      "ransform": 1344,
      "resolves": 1345,
      "Har": 1346,
      "Wor": 1347,
      "ens": 1348,
      "inger": 1349,
      "cause": 1350,
      "Squirrel": 1351,
      "fights": 1352,
      "umulative": 1353,
      "Hunt": 1354,
      "cub": 1355,
      "sy": 1356,
      "xic": 1357,
      "Flame": 1358,
      "already": 1359,
      "spect": 1360,
      "most": 1361,
      "shadow": 1362,
      "nonblack": 1363,
      "team": 1364,
      "Gate": 1365,
      "Leg": 1366,
      "py": 1367,
      "ely": 1368,
      "decl": 1369,
      "cycle": 1370,
      "Me": 1371,
      "later": 1372,
      "room": 1373,
      "declare": 1374,
      "Gl": 1375,
      "Ru": 1376,
      "ts": 1377,
      "motion": 1378,
      "Reb": 1379,
      "outside": 1380,
      "draft": 1381,
      "Ge": 1382,
      "Night": 1383,
      "ether": 1384,
      "text": 1385,
      "ann": 1386,
      "entered": 1387,
      "every": 1388,
      "aren": 1389,
      "guise": 1390,
      "starting": 1391,
      "Cor": 1392,
      "Wurm": 1393,
      "acle": 1394,
      "ifest": 1395,
      "been": 1396,
      "Convoke": 1397,
      "Cumulative": 1398,
      "Par": 1399,
      "gained": 1400,
      "shares": 1401,
      "Qu": 1402,
      "Ti": 1403,
      "Tree": 1404,
      "enough": 1405,
      "votes": 1406,
      "ungeon": 1407,
      "On": 1408,
      "stun": 1409,
      "ecial": 1410,
      "Dom": 1411,
      "Sy": 1412,
      "cend": 1413,
      "inity": 1414,
      "Stri": 1415,
      "Pal": 1416,
      "Pri": 1417,
      "Up": 1418,
      "few": 1419,
      "mage": 1420,
      "master": 1421,
      "sided": 1422,
      "ream": 1423,
      "itter": 1424,
      "fire": 1425,
      "olt": 1426,
      "Auras": 1427,
      "Car": 1428,
      "Gar": 1429,
      "Py": 1430,
      "city": 1431,
      "give": 1432,
      "ating": 1433,
      "inj": 1434,
      "alker": 1435,
      "manship": 1436,
      "semanship": 1437,
      "Those": 1438,
      "Zombies": 1439,
      "Bri": 1440,
      "Cur": 1441,
      "ich": 1442,
      "anking": 1443,
      "paired": 1444,
      "Mana": 1445,
      "Tr": 1446,
      "ced": 1447,
      "ll": 1448,
      "over": 1449,
      "sing": 1450,
      "sticker": 1451,
      "lessing": 1452,
      "Death": 1453,
      "nonartifact": 1454,
      "imum": 1455,
      "Copy": 1456,
      "Aven": 1457,
      "Cas": 1458,
      "Sil": 1459,
      "den": 1460,
      "uk": 1461,
      "Indestructible": 1462,
      "Sham": 1463,
      "Blade": 1464,
      "Int": 1465,
      "Res": 1466,
      "cade": 1467,
      "Scaven": 1468,
      "guard": 1469,
      "Power": 1470,
      "party": 1471,
      "stor": 1472,
      "les": 1473,
      "Faerie": 1474,
      "craft": 1475,
      "Hexproof": 1476,
      "No": 1477,
      "Ninj": 1478,
      "dy": 1479,
      "dungeon": 1480,
      "hor": 1481,
      "max": 1482,
      "partner": 1483,
      "level": 1484,
      "rant": 1485,
      "comp": 1486,
      "produ": 1487,
      "venture": 1488,
      "Ally": 1489,
      "Phant": 1490,
      "Merc": 1491,
      "rounded": 1492,
      "divided": 1493,
      "Desert": 1494,
      "ulticolored": 1495,
      "Commander": 1496,
      "here": 1497,
      "amorph": 1498,
      "nonbasic": 1499,
      "ular": 1500,
      "Inse": 1501,
      "fewer": 1502,
      "maximum": 1503,
      "Cha": 1504,
      "Fear": 1505,
      "Mor": 1506,
      "Mind": 1507,
      "Ske": 1508,
      "Ty": 1509,
      "cycling": 1510,
      "atic": 1511,
      "iss": 1512,
      "assign": 1513,
      "Insect": 1514,
      "Bal": 1515,
      "Du": 1516,
      "Mill": 1517,
      "mor": 1518,
      "lot": 1519,
      "light": 1520,
      "tied": 1521,
      "anything": 1522,
      "ief": 1523,
      "Drake": 1524,
      "opter": 1525,
      "work": 1526,
      "mutate": 1527,
      "Artifacts": 1528,
      "Suspend": 1529,
      "Aff": 1530,
      "Bas": 1531,
      "Run": 1532,
      "San": 1533,
      "Spl": 1534,
      "aunt": 1535,
      "eat": 1536,
      "ground": 1537,
      "we": 1538,
      "war": 1539,
      "ince": 1540,
      "ination": 1541,
      "core": 1542,
      "irium": 1543,
      "Ste": 1544,
      "Role": 1545,
      "Delirium": 1546,
      "Cra": 1547,
      "Master": 1548,
      "Roll": 1549,
      "madness": 1550,
      "ye": 1551,
      "ara": 1552,
      "lect": 1553,
      "returns": 1554,
      "While": 1555,
      "Ev": 1556,
      "Gh": 1557,
      "Po": 1558,
      "ient": 1559,
      "oth": 1560,
      "wine": 1561,
      "rop": 1562,
      "speed": 1563,
      "blade": 1564,
      "Spawn": 1565,
      "redu": 1566,
      "Lightning": 1567,
      "Aether": 1568,
      "Plot": 1569,
      "again": 1570,
      "cess": 1571,
      "rup": 1572,
      "sadd": 1573,
      "since": 1574,
      "ans": 1575,
      "acy": 1576,
      "modif": 1577,
      "must": 1578,
      "open": 1579,
      "raction": 1580,
      "came": 1581,
      "kin": 1582,
      "pt": 1583,
      "zz": 1584,
      "extra": 1585,
      "Attraction": 1586,
      "foretell": 1587,
      "Under": 1588,
      "bute": 1589,
      "Gre": 1590,
      "Met": 1591,
      "Pr": 1592,
      "Per": 1593,
      "Tor": 1594,
      "bid": 1595,
      "blessing": 1596,
      "eight": 1597,
      "jin": 1598,
      "nal": 1599,
      "ering": 1600,
      "inder": 1601,
      "col": 1602,
      "loss": 1603,
      "Char": 1604,
      "explore": 1605,
      "Echo": 1606,
      "day": 1607,
      "multicolored": 1608,
      "illed": 1609,
      "seek": 1610,
      "Thopter": 1611,
      "prevented": 1612,
      "host": 1613,
      "Prowess": 1614,
      "Domain": 1615,
      "Cou": 1616,
      "Madness": 1617,
      "ma": 1618,
      "manifest": 1619,
      "eper": 1620,
      "attackers": 1621,
      "duplicate": 1622,
      "goad": 1623,
      "Horror": 1624,
      "highest": 1625,
      "Ce": 1626,
      "Ogre": 1627,
      "Over": 1628,
      "Vol": 1629,
      "itan": 1630,
      "ald": 1631,
      "list": 1632,
      "comes": 1633,
      "shield": 1634,
      "scape": 1635,
      "Dark": 1636,
      "Val": 1637,
      "bre": 1638,
      "ik": 1639,
      "na": 1640,
      "proliferate": 1641,
      "ring": 1642,
      "wood": 1643,
      "za": 1644,
      "gent": 1645,
      "stack": 1646,
      "rawler": 1647,
      "Incub": 1648,
      "Constru": 1649,
      "remain": 1650,
      "Changeling": 1651,
      "ok": 1652,
      "pent": 1653,
      "itor": 1654,
      "ask": 1655,
      "esh": 1656,
      "mancer": 1657,
      "Thr": 1658,
      "lesser": 1659,
      "Serpent": 1660,
      "Doctor": 1661,
      "Magic": 1662,
      "Background": 1663,
      "Dwar": 1664,
      "Nec": 1665,
      "Sand": 1666,
      "Sha": 1667,
      "Wild": 1668,
      "echo": 1669,
      "hin": 1670,
      "ido": 1671,
      "law": 1672,
      "rime": 1673,
      "Pho": 1674,
      "resent": 1675,
      "follow": 1676,
      "World": 1677,
      "Am": 1678,
      "Chand": 1679,
      "Troll": 1680,
      "book": 1681,
      "Dead": 1682,
      "temp": 1683,
      "Shuffle": 1684,
      "Rather": 1685,
      "Raid": 1686,
      "raption": 1687,
      "Guardian": 1688,
      "Contraption": 1689,
      "Chandra": 1690,
      "After": 1691,
      "Ca": 1692,
      "Kra": 1693,
      "Mut": 1694,
      "Vis": 1695,
      "crew": 1696,
      "line": 1697,
      "yond": 1698,
      "spir": 1699,
      "unblocked": 1700,
      "sher": 1701,
      "Myr": 1702,
      "explores": 1703,
      "Construct": 1704,
      "Cru": 1705,
      "Fle": 1706,
      "Ren": 1707,
      "aken": 1708,
      "away": 1709,
      "ple": 1710,
      "rent": 1711,
      "rint": 1712,
      "ung": 1713,
      "Another": 1714,
      "Black": 1715,
      "leton": 1716,
      "cret": 1717,
      "Pirate": 1718,
      "tempts": 1719,
      "Cit": 1720,
      "Em": 1721,
      "Ill": 1722,
      "Que": 1723,
      "gge": 1724,
      "aring": 1725,
      "anion": 1726,
      "inel": 1727,
      "incl": 1728,
      "stic": 1729,
      "alted": 1730,
      "special": 1731,
      "load": 1732,
      "Spider": 1733,
      "izes": 1734,
      "rank": 1735,
      "single": 1736,
      "Mercen": 1737,
      "specializes": 1738,
      "Ab": 1739,
      "Av": 1740,
      "Col": 1741,
      "Non": 1742,
      "Oo": 1743,
      "So": 1744,
      "Ter": 1745,
      "ane": 1746,
      "ros": 1747,
      "alm": 1748,
      "ality": 1749,
      "elf": 1750,
      "defin": 1751,
      "ict": 1752,
      "pper": 1753,
      "Thunder": 1754,
      "Expl": 1755,
      "ager": 1756,
      "Islands": 1757,
      "rowth": 1758,
      "Bre": 1759,
      "Cry": 1760,
      "EL": 1761,
      "Fer": 1762,
      "LE": 1763,
      "Sadd": 1764,
      "Titan": 1765,
      "cle": 1766,
      "clash": 1767,
      "mit": 1768,
      "milled": 1769,
      "ving": 1770,
      "won": 1771,
      "third": 1772,
      "enix": 1773,
      "exact": 1774,
      "exist": 1775,
      "stros": 1776,
      "Ascend": 1777,
      "iver": 1778,
      "represent": 1779,
      "Sentinel": 1780,
      "Shaman": 1781,
      "horsemanship": 1782,
      "Skeleton": 1783,
      "Affinity": 1784,
      "saddled": 1785,
      "Phoenix": 1786,
      "App": 1787,
      "Dr": 1788,
      "Mist": 1789,
      "Tw": 1790,
      "VEL": 1791,
      "ah": 1792,
      "ault": 1793,
      "d20": 1794,
      "ike": 1795,
      "cover": 1796,
      "rage": 1797,
      "asm": 1798,
      "ili": 1799,
      "process": 1800,
      "lasts": 1801,
      "declared": 1802,
      "Time": 1803,
      "Treefolk": 1804,
      "LEVEL": 1805,
      "Saddle": 1806,
      "exactly": 1807,
      "Dread": 1808,
      "Gr": 1809,
      "Gro": 1810,
      "Kav": 1811,
      "sol": 1812,
      "yr": 1813,
      "rer": 1814,
      "ari": 1815,
      "indefin": 1816,
      "itely": 1817,
      "beyond": 1818,
      "rier": 1819,
      "owned": 1820,
      "Foretell": 1821,
      "Ooze": 1822,
      "Kavu": 1823,
      "indefinitely": 1824,
      "Blast": 1825,
      "Ma": 1826,
      "Ob": 1827,
      "Red": 1828,
      "Rak": 1829,
      "Sam": 1830,
      "Van": 1831,
      "dice": 1832,
      "hil": 1833,
      "use": 1834,
      "best": 1835,
      "izen": 1836,
      "suspend": 1837,
      "suspect": 1838,
      "Surveil": 1839,
      "annel": 1840,
      "Pyro": 1841,
      "Chaos": 1842,
      "ggered": 1843,
      "Bro": 1844,
      "Lord": 1845,
      "Ment": 1846,
      "af": 1847,
      "crime": 1848,
      "targeted": 1849,
      "mbol": 1850,
      "cket": 1851,
      "Channel": 1852,
      "God": 1853,
      "Scion": 1854,
      "imid": 1855,
      "triggered": 1856,
      "aze": 1857,
      "goy": 1858,
      "Rats": 1859,
      "Bra": 1860,
      "Cro": 1861,
      "Cent": 1862,
      "Gli": 1863,
      "Were": 1864,
      "em": 1865,
      "gift": 1866,
      "kicker": 1867,
      "prom": 1868,
      "spl": 1869,
      "utsu": 1870,
      "putting": 1871,
      "semb": 1872,
      "landwalk": 1873,
      "quest": 1874,
      "ctive": 1875,
      "idence": 1876,
      "idden": 1877,
      "Shr": 1878,
      "Shield": 1879,
      "roup": 1880,
      "Heart": 1881,
      "renowned": 1882,
      "Hunter": 1883,
      "symbol": 1884,
      "Powerstone": 1885,
      "Mentor": 1886,
      "Ash": 1887,
      "Clock": 1888,
      "Capt": 1889,
      "Dru": 1890,
      "Fi": 1891,
      "Fam": 1892,
      "Gor": 1893,
      "Head": 1894,
      "Hidden": 1895,
      "Im": 1896,
      "One": 1897,
      "Wind": 1898,
      "bit": 1899,
      "lers": 1900,
      "og": 1901,
      "transform": 1902,
      "itz": 1903,
      "left": 1904,
      "spellbook": 1905,
      "soon": 1906,
      "Elves": 1907,
      "Moon": 1908,
      "Devil": 1909,
      "Infect": 1910,
      "strosity": 1911,
      "Bur": 1912,
      "Eye": 1913,
      "Ne": 1914,
      "Pit": 1915,
      "Sol": 1916,
      "bar": 1917,
      "cient": 1918,
      "group": 1919,
      "take": 1920,
      "reg": 1921,
      "ress": 1922,
      "ins": 1923,
      "cod": 1924,
      "toxic": 1925,
      "evidence": 1926,
      "adin": 1927,
      "Rest": 1928,
      "lord": 1929,
      "adds": 1930,
      "Ancient": 1931,
      "Gold": 1932,
      "Bear": 1933,
      "Slivers": 1934,
      "intens": 1935,
      "Monstrosity": 1936,
      "Orcs": 1937,
      "higher": 1938,
      "flanking": 1939,
      "Starting": 1940,
      "assigns": 1941,
      "Burn": 1942,
      "Best": 1943,
      "Di": 1944,
      "Fall": 1945,
      "Ju": 1946,
      "Ni": 1947,
      "Rad": 1948,
      "Sor": 1949,
      "Transform": 1950,
      "bon": 1951,
      "boo": 1952,
      "fade": 1953,
      "ob": 1954,
      "exp": 1955,
      "ool": 1956,
      "Recon": 1957,
      "chose": 1958,
      "Star": 1959,
      "wasn": 1960,
      "usion": 1961,
      "Dragons": 1962,
      "Skull": 1963,
      "Sagas": 1964,
      "Dog": 1965,
      "Disguise": 1966,
      "escape": 1967,
      "Aug": 1968,
      "Urza": 1969,
      "storage": 1970,
      "Cele": 1971,
      "Incubator": 1972,
      "Br": 1973,
      "Kor": 1974,
      "Max": 1975,
      "Pil": 1976,
      "Ri": 1977,
      "Trans": 1978,
      "Wand": 1979,
      "bor": 1980,
      "crank": 1981,
      "dge": 1982,
      "fo": 1983,
      "nce": 1984,
      "pe": 1985,
      "spore": 1986,
      "counts": 1987,
      "adv": 1988,
      "libraries": 1989,
      "key": 1990,
      "aper": 1991,
      "riend": 1992,
      "which": 1993,
      "Spike": 1994,
      "ulk": 1995,
      "Stone": 1996,
      "iving": 1997,
      "legendaries": 1998,
      "Toxic": 1999,
      "Vehicles": 2000,
      "wins": 2001,
      "Heroic": 2002,
      "Legion": 2003,
      "Paladin": 2004,
      "Green": 2005,
      "following": 2006,
      "imidate": 2007,
      "Captain": 2008,
      "Cal": 2009,
      "Dream": 2010,
      "Eter": 2011,
      "Kar": 2012,
      "Kam": 2013,
      "Op": 2014,
      "Sav": 2015,
      "mare": 2016,
      "tle": 2017,
      "iti": 2018,
      "amass": 2019,
      "oot": 2020,
      "moth": 2021,
      "unning": 2022,
      "End": 2023,
      "otaur": 2024,
      "stribute": 2025,
      "ists": 2026,
      "Plant": 2027,
      "ations": 2028,
      "White": 2029,
      "Serv": 2030,
      "inter": 2031,
      "Minotaur": 2032,
      "Corrup": 2033,
      "Ninjutsu": 2034,
      "Citizen": 2035,
      "13": 2036,
      "Meg": 2037,
      "Prim": 2038,
      "Sal": 2039,
      "fear": 2040,
      "oc": 2041,
      "pack": 2042,
      "oud": 2043,
      "ifter": 2044,
      "urai": 2045,
      "secret": 2046,
      "combination": 2047,
      "Deep": 2048,
      "Shroud": 2049,
      "ague": 2050,
      "phant": 2051,
      "Const": 2052,
      "Surv": 2053,
      "Temp": 2054,
      "piles": 2055,
      "Bands": 2056,
      "Phantom": 2057,
      "Caval": 2058,
      "spiracy": 2059,
      "Samurai": 2060,
      "Ghost": 2061,
      "Hel": 2062,
      "born": 2063,
      "eal": 2064,
      "gure": 2065,
      "her": 2066,
      "nc": 2067,
      "sw": 2068,
      "yback": 2069,
      "cher": 2070,
      "ute": 2071,
      "figure": 2072,
      "attacker": 2073,
      "Ref": 2074,
      "aller": 2075,
      "Dete": 2076,
      "teran": 2077,
      "weren": 2078,
      "trigger": 2079,
      "Marsh": 2080,
      "Snake": 2081,
      "skip": 2082,
      "Sanct": 2083,
      "bestow": 2084,
      "Bestow": 2085,
      "Cyc": 2086,
      "Fish": 2087,
      "Living": 2088,
      "Mine": 2089,
      "Ver": 2090,
      "Wood": 2091,
      "air": 2092,
      "ding": 2093,
      "ters": 2094,
      "year": 2095,
      "acker": 2096,
      "Thal": 2097,
      "ader": 2098,
      "mode": 2099,
      "right": 2100,
      "haust": 2101,
      "Inst": 2102,
      "usk": 2103,
      "disguise": 2104,
      "conspiracy": 2105,
      "Plan": 2106,
      "names": 2107,
      "Forests": 2108,
      "sources": 2109,
      "Mountains": 2110,
      "difference": 2111,
      "vote": 2112,
      "Werew": 2113,
      "Druid": 2114,
      "Reconfigure": 2115,
      "secretly": 2116,
      "Bat": 2117,
      "Batt": 2118,
      "Grif": 2119,
      "Hal": 2120,
      "Raven": 2121,
      "ather": 2122,
      "dread": 2123,
      "treat": 2124,
      "van": 2125,
      "lid": 2126,
      "like": 2127,
      "twe": 2128,
      "gine": 2129,
      "Engine": 2130,
      "shido": 2131,
      "returned": 2132,
      "Prote": 2133,
      "phased": 2134,
      "rown": 2135,
      "divide": 2136,
      "Buyback": 2137,
      "repeat": 2138,
      "Cascade": 2139,
      "Tyrant": 2140,
      "Metal": 2141,
      "Centaur": 2142,
      "Fiend": 2143,
      "Ac": 2144,
      "Doom": 2145,
      "Iron": 2146,
      "Mal": 2147,
      "Pat": 2148,
      "Vi": 2149,
      "kite": 2150,
      "ni": 2151,
      "created": 2152,
      "rov": 2153,
      "andon": 2154,
      "abandon": 2155,
      "equip": 2156,
      "arer": 2157,
      "Investigate": 2158,
      "post": 2159,
      "Servo": 2160,
      "heal": 2161,
      "atcher": 2162,
      "Infer": 2163,
      "verse": 2164,
      "Illusion": 2165,
      "includ": 2166,
      "iliar": 2167,
      "Shrine": 2168,
      "regular": 2169,
      "advance": 2170,
      "Eternal": 2171,
      "19": 2172,
      "Ban": 2173,
      "Escape": 2174,
      "Ger": 2175,
      "Haunt": 2176,
      "Mant": 2177,
      "Off": 2178,
      "Proliferate": 2179,
      "Witch": 2180,
      "bu": 2181,
      "cru": 2182,
      "eker": 2183,
      "ki": 2184,
      "ral": 2185,
      "ues": 2186,
      "off": 2187,
      "ley": 2188,
      "controllers": 2189,
      "rath": 2190,
      "ames": 2191,
      "Chim": 2192,
      "outlaw": 2193,
      "discarding": 2194,
      "iege": 2195,
      "Comp": 2196,
      "Goblins": 2197,
      "ishing": 2198,
      "Swampwalk": 2199,
      "ope": 2200,
      "words": 2201,
      "Enter": 2202,
      "Ghoul": 2203,
      "breaker": 2204,
      "hinx": 2205,
      "represents": 2206,
      "ncil": 2207,
      "Detective": 2208,
      "Ak": 2209,
      "Can": 2210,
      "Fal": 2211,
      "Rev": 2212,
      "Rage": 2213,
      "Revel": 2214,
      "Scor": 2215,
      "Und": 2216,
      "par": 2217,
      "pers": 2218,
      "sm": 2219,
      "toward": 2220,
      "ury": 2221,
      "apon": 2222,
      "peri": 2223,
      "unk": 2224,
      "Exalted": 2225,
      "Spark": 2226,
      "Sphinx": 2227,
      "Stalker": 2228,
      "Veteran": 2229,
      "guess": 2230,
      "creas": 2231,
      "collect": 2232,
      "booster": 2233,
      "Djin": 2234,
      "Gift": 2235,
      "Ham": 2236,
      "Kith": 2237,
      "Lav": 2238,
      "Pur": 2239,
      "Pers": 2240,
      "Pack": 2241,
      "Rid": 2242,
      "Ramp": 2243,
      "Take": 2244,
      "Vault": 2245,
      "han": 2246,
      "ying": 2247,
      "anger": 2248,
      "enty": 2249,
      "exchange": 2250,
      "ledge": 2251,
      "ummon": 2252,
      "Sword": 2253,
      "Sentry": 2254,
      "Rebel": 2255,
      "Kraken": 2256,
      "Familiar": 2257,
      "Kithkin": 2258,
      "Aw": 2259,
      "Amb": 2260,
      "Cr": 2261,
      "Ef": 2262,
      "Kin": 2263,
      "Raz": 2264,
      "Sm": 2265,
      "Will": 2266,
      "bur": 2267,
      "cy": 2268,
      "cas": 2269,
      "eel": 2270,
      "his": 2271,
      "ival": 2272,
      "ys": 2273,
      "ally": 2274,
      "ications": 2275,
      "ellation": 2276,
      "playing": 2277,
      "played": 2278,
      "riad": 2279,
      "Spec": 2280,
      "ulate": 2281,
      "Coloss": 2282,
      "Cloud": 2283,
      "Islandwalk": 2284,
      "Bog": 2285,
      "Mystic": 2286,
      "Warden": 2287,
      "Lost": 2288,
      "Bushido": 2289,
      "Mirror": 2290,
      "Frost": 2291,
      "Scavenge": 2292,
      "Courier": 2293,
      "Mercenary": 2294,
      "Clockwork": 2295,
      "transforms": 2296,
      "Restless": 2297,
      "Constellation": 2298,
      "Werewolf": 2299,
      "Metalcraft": 2300,
      "Djinn": 2301,
      "Agent": 2302,
      "Ben": 2303,
      "Bers": 2304,
      "Bolt": 2305,
      "Cave": 2306,
      "Flip": 2307,
      "Great": 2308,
      "High": 2309,
      "Om": 2310,
      "Pu": 2311,
      "Vo": 2312,
      "aff": 2313,
      "bal": 2314,
      "cip": 2315,
      "horn": 2316,
      "icore": 2317,
      "mate": 2318,
      "niv": 2319,
      "run": 2320,
      "era": 2321,
      "ism": 2322,
      "ised": 2323,
      "rad": 2324,
      "dec": 2325,
      "deple": 2326,
      "tide": 2327,
      "Reck": 2328,
      "reet": 2329,
      "prow": 2330,
      "Lands": 2331,
      "merge": 2332,
      "Elder": 2333,
      "Once": 2334,
      "modifications": 2335,
      "Visit": 2336,
      "Quest": 2337,
      "Griffin": 2338,
      "tween": 2339,
      "Berser": 2340,
      "depletion": 2341,
      "Grim": 2342,
      "Ice": 2343,
      "Jo": 2344,
      "Rab": 2345,
      "Sto": 2346,
      "Tal": 2347,
      "Ven": 2348,
      "aim": 2349,
      "desc": 2350,
      "fe": 2351,
      "fect": 2352,
      "gen": 2353,
      "ging": 2354,
      "head": 2355,
      "son": 2356,
      "wing": 2357,
      "atar": 2358,
      "ancer": 2359,
      "ayer": 2360,
      "separ": 2361,
      "Thief": 2362,
      "une": 2363,
      "Adventure": 2364,
      "Charm": 2365,
      "Exchange": 2366,
      "avor": 2367,
      "Scour": 2368,
      "Conjure": 2369,
      "Elite": 2370,
      "Guide": 2371,
      "letter": 2372,
      "Surge": 2373,
      "aptor": 2374,
      "minus": 2375,
      "Hellkite": 2376,
      "modified": 2377,
      "Mutate": 2378,
      "splice": 2379,
      "Cyclo": 2380,
      "treated": 2381,
      "Cre": 2382,
      "Cap": 2383,
      "Comb": 2384,
      "Cinder": 2385,
      "Gn": 2386,
      "Gri": 2387,
      "Lu": 2388,
      "Lead": 2389,
      "Oc": 2390,
      "Rep": 2391,
      "Rav": 2392,
      "Worm": 2393,
      "gl": 2394,
      "gamorph": 2395,
      "hold": 2396,
      "mark": 2397,
      "thirst": 2398,
      "erted": 2399,
      "increas": 2400,
      "entwine": 2401,
      "between": 2402,
      "loom": 2403,
      "loak": 2404,
      "exert": 2405,
      "owers": 2406,
      "twenty": 2407,
      "nonlegendary": 2408,
      "Seek": 2409,
      "ample": 2410,
      "pair": 2411,
      "isher": 2412,
      "Swamps": 2413,
      "activating": 2414,
      "Boar": 2415,
      "Horde": 2416,
      "Entwine": 2417,
      "explo": 2418,
      "Pirates": 2419,
      "Keeper": 2420,
      "Nightmare": 2421,
      "Inter": 2422,
      "produce": 2423,
      "goaded": 2424,
      "Burning": 2425,
      "Bol": 2426,
      "Dawn": 2427,
      "IV": 2428,
      "Mol": 2429,
      "New": 2430,
      "Rel": 2431,
      "Raptor": 2432,
      "bond": 2433,
      "growth": 2434,
      "mir": 2435,
      "sed": 2436,
      "vated": 2437,
      "ino": 2438,
      "iner": 2439,
      "ayed": 2440,
      "entity": 2441,
      "exerted": 2442,
      "example": 2443,
      "Thorn": 2444,
      "ket": 2445,
      "megamorph": 2446,
      "planar": 2447,
      "Stal": 2448,
      "Sea": 2449,
      "Scout": 2450,
      "Form": 2451,
      "Fort": 2452,
      "Alli": 2453,
      "mono": 2454,
      "Swarm": 2455,
      "finality": 2456,
      "Squad": 2457,
      "mutates": 2458,
      "true": 2459,
      "Frog": 2460,
      "companion": 2461,
      "Splice": 2462,
      "Evol": 2463,
      "reduced": 2464,
      "opening": 2465,
      "Shade": 2466,
      "Avatar": 2467,
      "Crypt": 2468,
      "suspected": 2469,
      "intensity": 2470,
      "forest": 2471,
      "Instant": 2472,
      "Az": 2473,
      "Bell": 2474,
      "River": 2475,
      "Tower": 2476,
      "Wing": 2477,
      "bomb": 2478,
      "ps": 2479,
      "aro": 2480,
      "ines": 2481,
      "incub": 2482,
      "ones": 2483,
      "acious": 2484,
      "rod": 2485,
      "ory": 2486,
      "elt": 2487,
      "mbra": 2488,
      "shift": 2489,
      "keeper": 2490,
      "Sphere": 2491,
      "Activated": 2492,
      "aging": 2493,
      "cons": 2494,
      "Plague": 2495,
      "Rock": 2496,
      "akes": 2497,
      "Humans": 2498,
      "Bloodthirst": 2499,
      "Flanking": 2500,
      "heart": 2501,
      "Discip": 2502,
      "cord": 2503,
      "Rebound": 2504,
      "Geist": 2505,
      "Gargoy": 2506,
      "Avenger": 2507,
      "complet": 2508,
      "Morbid": 2509,
      "eshifter": 2510,
      "Necro": 2511,
      "Fleet": 2512,
      "Kami": 2513,
      "Megamorph": 2514,
      "Gargoyle": 2515,
      "Cir": 2516,
      "Cour": 2517,
      "City": 2518,
      "Evoke": 2519,
      "Hed": 2520,
      "Hatch": 2521,
      "Oath": 2522,
      "Psy": 2523,
      "Room": 2524,
      "Sle": 2525,
      "Tru": 2526,
      "Wither": 2527,
      "bound": 2528,
      "caller": 2529,
      "fang": 2530,
      "ib": 2531,
      "ius": 2532,
      "oke": 2533,
      "tic": 2534,
      "ought": 2535,
      "encod": 2536,
      "ply": 2537,
      "spe": 2538,
      "artist": 2539,
      "drawn": 2540,
      "Shap": 2541,
      "taps": 2542,
      "Forge": 2543,
      "Life": 2544,
      "Magecraft": 2545,
      "Phantasm": 2546,
      "Split": 2547,
      "clashing": 2548,
      "solve": 2549,
      "Transmut": 2550,
      "Corrupted": 2551,
      "Ravenous": 2552,
      "Awaken": 2553,
      "Berserker": 2554,
      "Molten": 2555,
      "forestwalk": 2556,
      "consists": 2557,
      "encoded": 2558,
      "Bomb": 2559,
      "Egg": 2560,
      "Fier": 2561,
      "Gal": 2562,
      "Hope": 2563,
      "Kal": 2564,
      "Pe": 2565,
      "Ta": 2566,
      "Water": 2567,
      "cat": 2568,
      "dular": 2569,
      "iers": 2570,
      "ju": 2571,
      "kn": 2572,
      "vish": 2573,
      "reer": 2574,
      "ony": 2575,
      "isk": 2576,
      "lee": 2577,
      "lection": 2578,
      "iller": 2579,
      "mble": 2580,
      "ions": 2581,
      "dos": 2582,
      "Spire": 2583,
      "Str": 2584,
      "Anim": 2585,
      "teen": 2586,
      "imic": 2587,
      "Proto": 2588,
      "Devour": 2589,
      "Guild": 2590,
      "Herald": 2591,
      "Vampires": 2592,
      "Imprint": 2593,
      "Grave": 2594,
      "Priest": 2595,
      "Overload": 2596,
      "Augment": 2597,
      "itiative": 2598,
      "Persist": 2599,
      "Specter": 2600,
      "Scourge": 2601,
      "reerunning": 2602,
      "Dusk": 2603,
      "Fung": 2604,
      "Fury": 2605,
      "Hand": 2606,
      "King": 2607,
      "Mask": 2608,
      "Roo": 2609,
      "Rot": 2610,
      "Rider": 2611,
      "Sage": 2612,
      "Tro": 2613,
      "Trap": 2614,
      "Zeal": 2615,
      "cur": 2616,
      "done": 2617,
      "drew": 2618,
      "fer": 2619,
      "gr": 2620,
      "sil": 2621,
      "uary": 2622,
      "ery": 2623,
      "ining": 2624,
      "initiative": 2625,
      "acon": 2626,
      "tooth": 2627,
      "islandwalk": 2628,
      "ays": 2629,
      "ender": 2630,
      "ical": 2631,
      "ountain": 2632,
      "Thra": 2633,
      "whose": 2634,
      "haven": 2635,
      "noncombat": 2636,
      "Exp": 2637,
      "Arm": 2638,
      "Warlock": 2639,
      "Spirits": 2640,
      "Skyc": 2641,
      "point": 2642,
      "Elephant": 2643,
      "Elvish": 2644,
      "Flames": 2645,
      "Backup": 2646,
      "ittering": 2647,
      "overload": 2648,
      "Torch": 2649,
      "Dwarven": 2650,
      "Servant": 2651,
      "Undying": 2652,
      "Lava": 2653,
      "decayed": 2654,
      "Reckless": 2655,
      "Venge": 2656,
      "incubate": 2657,
      "Disciple": 2658,
      "Hatchling": 2659,
      "Transmute": 2660,
      "Aer": 2661,
      "Dash": 2662,
      "Ember": 2663,
      "Earth": 2664,
      "Field": 2665,
      "Gen": 2666,
      "Glor": 2667,
      "Hom": 2668,
      "Hound": 2669,
      "Li": 2670,
      "Lur": 2671,
      "Lil": 2672,
      "Lie": 2673,
      "Mid": 2674,
      "Ox": 2675,
      "Tar": 2676,
      "Vent": 2677,
      "Wol": 2678,
      "ef": 2679,
      "fac": 2680,
      "ojin": 2681,
      "rite": 2682,
      "ouse": 2683,
      "enant": 2684,
      "enda": 2685,
      "ended": 2686,
      "utenant": 2687,
      "bringer": 2688,
      "blockers": 2689,
      "rider": 2690,
      "hasn": 2691,
      "Cho": 2692,
      "Special": 2693,
      "identity": 2694,
      "Stand": 2695,
      "Scar": 2696,
      "boon": 2697,
      "Forestwalk": 2698,
      "Modular": 2699,
      "Whis": 2700,
      "Myojin": 2701,
      "Loc": 2702,
      "Horsemanship": 2703,
      "Marau": 2704,
      "Delve": 2705,
      "Assassins": 2706,
      "Cursed": 2707,
      "Ninja": 2708,
      "produced": 2709,
      "Steel": 2710,
      "Prison": 2711,
      "crews": 2712,
      "Rakdos": 2713,
      "Sorce": 2714,
      "Thallid": 2715,
      "Shapeshifter": 2716,
      "Prototype": 2717,
      "Lieutenant": 2718,
      "Bone": 2719,
      "Bot": 2720,
      "Cy": 2721,
      "Div": 2722,
      "Ever": 2723,
      "Fe": 2724,
      "Far": 2725,
      "Gide": 2726,
      "How": 2727,
      "Mast": 2728,
      "Tur": 2729,
      "Tide": 2730,
      "Vor": 2731,
      "ae": 2732,
      "des": 2733,
      "friend": 2734,
      "hour": 2735,
      "istribute": 2736,
      "ude": 2737,
      "uck": 2738,
      "va": 2739,
      "alion": 2740,
      "ify": 2741,
      "assemb": 2742,
      "iltr": 2743,
      "dev": 2744,
      "evoke": 2745,
      "caster": 2746,
      "unattach": 2747,
      "unpaired": 2748,
      "Realm": 2749,
      "Enrage": 2750,
      "commit": 2751,
      "blitz": 2752,
      "Chrom": 2753,
      "ote": 2754,
      "Ext": 2755,
      "omen": 2756,
      "plane": 2757,
      "Seas": 2758,
      "Armor": 2759,
      "conniv": 2760,
      "Coven": 2761,
      "ickness": 2762,
      "some": 2763,
      "noted": 2764,
      "Body": 2765,
      "Knights": 2766,
      "Monk": 2767,
      "hemoth": 2768,
      "Soulshift": 2769,
      "starts": 2770,
      "Infiltr": 2771,
      "Ley": 2772,
      "Mirrod": 2773,
      "Outlast": 2774,
      "Harvest": 2775,
      "Amass": 2776,
      "Colle": 2777,
      "Vanguard": 2778,
      "suspended": 2779,
      "Protector": 2780,
      "Viash": 2781,
      "person": 2782,
      "exploits": 2783,
      "Fiery": 2784,
      "Gideon": 2785,
      "connives": 2786,
      "Infiltrator": 2787,
      "Mirrodin": 2788,
      "12": 2789,
      "Brawler": 2790,
      "Cau": 2791,
      "Dro": 2792,
      "Fest": 2793,
      "Got": 2794,
      "Junk": 2795,
      "Lit": 2796,
      "Less": 2797,
      "Lore": 2798,
      "Sen": 2799,
      "Ul": 2800,
      "__": 2801,
      "app": 2802,
      "bent": 2803,
      "bra": 2804,
      "got": 2805,
      "oit": 2806,
      "odon": 2807,
      "powers": 2808,
      "uence": 2809,
      "wer": 2810,
      "replicate": 2811,
      "aton": 2812,
      "ani": 2813,
      "storm": 2814,
      "ors": 2815,
      "iter": 2816,
      "aya": 2817,
      "ching": 2818,
      "icate": 2819,
      "spring": 2820,
      "Thought": 2821,
      "quis": 2822,
      "rid": 2823,
      "und": 2824,
      "unlock": 2825,
      "owns": 2826,
      "Adapt": 2827,
      "haunt": 2828,
      "Targeting": 2829,
      "Spy": 2830,
      "olis": 2831,
      "values": 2832,
      "rush": 2833,
      "sacrificing": 2834,
      "Rogu": 2835,
      "pop": 2836,
      "Elect": 2837,
      "Warriors": 2838,
      "claw": 2839,
      "Order": 2840,
      "Blue": 2841,
      "Improv": 2842,
      "Orcish": 2843,
      "resolved": 2844,
      "Hellion": 2845,
      "Hellbent": 2846,
      "Host": 2847,
      "Curse": 2848,
      "issary": 2849,
      "Permanent": 2850,
      "Volcan": 2851,
      "Thrull": 2852,
      "Dwarf": 2853,
      "Emissary": 2854,
      "Exploit": 2855,
      "Grove": 2856,
      "hilator": 2857,
      "ckets": 2858,
      "promised": 2859,
      "expend": 2860,
      "Cavalier": 2861,
      "includes": 2862,
      "Companion": 2863,
      "cascade": 2864,
      "Court": 2865,
      "Sorcerer": 2866,
      "Rogues": 2867,
      "Call": 2868,
      "Fract": 2869,
      "Grem": 2870,
      "Growth": 2871,
      "Horn": 2872,
      "Lot": 2873,
      "Pre": 2874,
      "Pra": 2875,
      "Path": 2876,
      "Pet": 2877,
      "Pest": 2878,
      "Siege": 2879,
      "Tomb": 2880,
      "Way": 2881,
      "aar": 2882,
      "aut": 2883,
      "gan": 2884,
      "summon": 2885,
      "sickness": 2886,
      "vis": 2887,
      "ances": 2888,
      "engin": 2889,
      "infect": 2890,
      "else": 2891,
      "chor": 2892,
      "ounty": 2893,
      "mane": 2894,
      "spro": 2895,
      "ading": 2896,
      "common": 2897,
      "Spect": 2898,
      "tomaton": 2899,
      "Ship": 2900,
      "linger": 2901,
      "Force": 2902,
      "Comple": 2903,
      "gger": 2904,
      "Behemoth": 2905,
      "nowledge": 2906,
      "intimidate": 2907,
      "Soulbond": 2908,
      "Bargain": 2909,
      "Slu": 2910,
      "Strider": 2911,
      "Carri": 2912,
      "Silver": 2913,
      "Scavenger": 2914,
      "Basic": 2915,
      "Runner": 2916,
      "Flesh": 2917,
      "promise": 2918,
      "Survival": 2919,
      "smith": 2920,
      "Efreet": 2921,
      "burst": 2922,
      "Colossus": 2923,
      "Cyclops": 2924,
      "Psych": 2925,
      "Leyline": 2926,
      "Permanents": 2927,
      "Greml": 2928,
      "engines": 2929,
      "Ali": 2930,
      "But": 2931,
      "Cle": 2932,
      "Culti": 2933,
      "Caver": 2934,
      "Crown": 2935,
      "Dist": 2936,
      "Er": 2937,
      "Emp": 2938,
      "Ebon": 2939,
      "Fate": 2940,
      "Gru": 2941,
      "Han": 2942,
      "Hex": 2943,
      "Hide": 2944,
      "Keld": 2945,
      "Lizard": 2946,
      "Ram": 2947,
      "cloak": 2948,
      "distribute": 2949,
      "pse": 2950,
      "ric": 2951,
      "ton": 2952,
      "uous": 2953,
      "water": 2954,
      "arn": 2955,
      "ards": 2956,
      "rog": 2957,
      "ede": 2958,
      "ched": 2959,
      "ending": 2960,
      "ics": 2961,
      "bearer": 2962,
      "spired": 2963,
      "log": 2964,
      "tive": 2965,
      "erer": 2966,
      "instances": 2967,
      "Assemb": 2968,
      "untaps": 2969,
      "Seer": 2970,
      "Inspired": 2971,
      "Anni": 2972,
      "ister": 2973,
      "ets": 2974,
      "Scare": 2975,
      "Switch": 2976,
      "Conver": 2977,
      "claim": 2978,
      "Blitz": 2979,
      "Mob": 2980,
      "Myriad": 2981,
      "Monster": 2982,
      "Walls": 2983,
      "Manifest": 2984,
      "trace": 2985,
      "Weaver": 2986,
      "Memor": 2987,
      "Bridge": 2988,
      "Duel": 2989,
      "Crab": 2990,
      "Terr": 2991,
      "Feroc": 2992,
      "Vanishing": 2993,
      "bargained": 2994,
      "Pilot": 2995,
      "swamp": 2996,
      "Battalion": 2997,
      "Razor": 2998,
      "Zealot": 2999,
      "Collector": 3000,
      "Viashino": 3001,
      "Cavern": 3002,
      "Ax": 3003,
      "Blight": 3004,
      "Found": 3005,
      "Grand": 3006,
      "Gear": 3007,
      "Ha": 3008,
      "Hol": 3009,
      "Ig": 3010,
      "Med": 3011,
      "Saw": 3012,
      "Wil": 3013,
      "Watch": 3014,
      "dash": 3015,
      "ka": 3016,
      "lan": 3017,
      "nel": 3018,
      "oing": 3019,
      "oph": 3020,
      "rate": 3021,
      "squ": 3022,
      "soul": 3023,
      "yl": 3024,
      "yn": 3025,
      "ina": 3026,
      "ons": 3027,
      "stalker": 3028,
      "steel": 3029,
      "leash": 3030,
      "pport": 3031,
      "unattached": 3032,
      "Read": 3033,
      "ongoing": 3034,
      "bler": 3035,
      "gress": 3036,
      "Ink": 3037,
      "Scrap": 3038,
      "Draft": 3039,
      "iana": 3040,
      "Cons": 3041,
      "Isle": 3042,
      "earn": 3043,
      "worn": 3044,
      "world": 3045,
      "Move": 3046,
      "Faith": 3047,
      "Assist": 3048,
      "flame": 3049,
      "Lee": 3050,
      "Automaton": 3051,
      "Prowler": 3052,
      "Urbor": 3053,
      "Intimidate": 3054,
      "weaver": 3055,
      "Prism": 3056,
      "Council": 3057,
      "Reneg": 3058,
      "Opal": 3059,
      "Planeswal": 3060,
      "Chimera": 3061,
      "outlaws": 3062,
      "Ambu": 3063,
      "increases": 3064,
      "completed": 3065,
      "Gotcha": 3066,
      "summoning": 3067,
      "sprockets": 3068,
      "swampwalk": 3069,
      "Urborg": 3070,
      "Ant": 3071,
      "Crawler": 3072,
      "Dire": 3073,
      "Flow": 3074,
      "Just": 3075,
      "Lich": 3076,
      "Mis": 3077,
      "Multi": 3078,
      "Pi": 3079,
      "Pan": 3080,
      "Pyre": 3081,
      "Wave": 3082,
      "ba": 3083,
      "blood": 3084,
      "crow": 3085,
      "earch": 3086,
      "gers": 3087,
      "iph": 3088,
      "iok": 3089,
      "maw": 3090,
      "mmer": 3091,
      "net": 3092,
      "nine": 3093,
      "ored": 3094,
      "print": 3095,
      "zan": 3096,
      "ana": 3097,
      "onin": 3098,
      "stud": 3099,
      "oran": 3100,
      "lent": 3101,
      "henomen": 3102,
      "vere": 3103,
      "chas": 3104,
      "atter": 3105,
      "exhaust": 3106,
      "experi": 3107,
      "ante": 3108,
      "ilent": 3109,
      "ephal": 3110,
      "landcycling": 3111,
      "Recru": 3112,
      "Encore": 3113,
      "Adam": 3114,
      "Exhaust": 3115,
      "Spree": 3116,
      "longer": 3117,
      "illa": 3118,
      "Sting": 3119,
      "Arc": 3120,
      "using": 3121,
      "nore": 3122,
      "agon": 3123,
      "Alt": 3124,
      "searches": 3125,
      "Skir": 3126,
      "Unleash": 3127,
      "Foods": 3128,
      "Serap": 3129,
      "bands": 3130,
      "Raider": 3131,
      "divinity": 3132,
      "Temple": 3133,
      "Wizards": 3134,
      "armor": 3135,
      "Legend": 3136,
      "Syr": 3137,
      "Research": 3138,
      "Duo": 3139,
      "Queen": 3140,
      "Mercenaries": 3141,
      "Breath": 3142,
      "Brood": 3143,
      "Burst": 3144,
      "Inferno": 3145,
      "Rabbit": 3146,
      "descended": 3147,
      "Octop": 3148,
      "Relic": 3149,
      "miracle": 3150,
      "silver": 3151,
      "Liliana": 3152,
      "Lesson": 3153,
      "populate": 3154,
      "Improvise": 3155,
      "Fractal": 3156,
      "Scarecrow": 3157,
      "Ferocious": 3158,
      "Renegade": 3159,
      "henomenon": 3160,
      "experience": 3161,
      "Ag": 3162,
      "Ara": 3163,
      "Bron": 3164,
      "Dep": 3165,
      "Dim": 3166,
      "Face": 3167,
      "Friend": 3168,
      "Gno": 3169,
      "Gener": 3170,
      "Gates": 3171,
      "Knowledge": 3172,
      "Llan": 3173,
      "Map": 3174,
      "Mark": 3175,
      "Por": 3176,
      "Peg": 3177,
      "Sat": 3178,
      "Squi": 3179,
      "Sub": 3180,
      "Treat": 3181,
      "Tot": 3182,
      "Tig": 3183,
      "Tour": 3184,
      "Umbra": 3185,
      "Void": 3186,
      "Wicked": 3187,
      "cry": 3188,
      "foot": 3189,
      "gar": 3190,
      "iqu": 3191,
      "kers": 3192,
      "lon": 3193,
      "self": 3194,
      "yes": 3195,
      "anup": 3196,
      "stral": 3197,
      "lex": 3198,
      "aly": 3199,
      "rak": 3200,
      "iler": 3201,
      "plac": 3202,
      "endant": 3203,
      "owar": 3204,
      "iri": 3205,
      "itself": 3206,
      "iled": 3207,
      "eph": 3208,
      "rix": 3209,
      "Retri": 3210,
      "mph": 3211,
      "keeps": 3212,
      "meter": 3213,
      "Spring": 3214,
      "ulus": 3215,
      "Inc": 3216,
      "ivan": 3217,
      "immer": 3218,
      "scri": 3219,
      "sub": 3220,
      "Robot": 3221,
      "Skip": 3222,
      "note": 3223,
      "ualty": 3224,
      "Oracle": 3225,
      "Spellbomb": 3226,
      "Heir": 3227,
      "Descend": 3228,
      "fully": 3229,
      "Strive": 3230,
      "Tracker": 3231,
      "Case": 3232,
      "Rune": 3233,
      "Steam": 3234,
      "reduces": 3235,
      "Charger": 3236,
      "naut": 3237,
      "Renown": 3238,
      "Pyromancer": 3239,
      "goyf": 3240,
      "Cross": 3241,
      "Surviv": 3242,
      "skips": 3243,
      "abandoned": 3244,
      "Germ": 3245,
      "Crack": 3246,
      "Voice": 3247,
      "Fungus": 3248,
      "Keldon": 3249,
      "Leech": 3250,
      "Seraph": 3251,
      "Llanowar": 3252,
      "Pegas": 3253,
      "Age": 3254,
      "Amu": 3255,
      "Bel": 3256,
      "Bow": 3257,
      "Boo": 3258,
      "Dar": 3259,
      "Den": 3260,
      "Emb": 3261,
      "Emer": 3262,
      "Eerie": 3263,
      "Fan": 3264,
      "Furn": 3265,
      "Fading": 3266,
      "Jace": 3267,
      "Lic": 3268,
      "Lim": 3269,
      "Lair": 3270,
      "Mur": 3271,
      "Ny": 3272,
      "Net": 3273,
      "Ow": 3274,
      "Pun": 3275,
      "Pred": 3276,
      "Pass": 3277,
      "Ras": 3278,
      "Rip": 3279,
      "Rub": 3280,
      "Rhin": 3281,
      "Ranger": 3282,
      "Sup": 3283,
      "Smo": 3284,
      "Ten": 3285,
      "Wre": 3286,
      "Walker": 3287,
      "Yav": 3288,
      "Zone": 3289,
      "affect": 3290,
      "cut": 3291,
      "emerge": 3292,
      "gler": 3293,
      "hort": 3294,
      "io": 3295,
      "imay": 3296,
      "imp": 3297,
      "ko": 3298,
      "phenomenon": 3299,
      "ray": 3300,
      "rict": 3301,
      "sl": 3302,
      "well": 3303,
      "ats": 3304,
      "atog": 3305,
      "ank": 3306,
      "inker": 3307,
      "ged": 3308,
      "ortion": 3309,
      "orger": 3310,
      "ica": 3311,
      "plays": 3312,
      "exalted": 3313,
      "brand": 3314,
      "brid": 3315,
      "Replic": 3316,
      "Chain": 3317,
      "avel": 3318,
      "rules": 3319,
      "Goad": 3320,
      "discover": 3321,
      "izer": 3322,
      "Alp": 3323,
      "ney": 3324,
      "Cohort": 3325,
      "box": 3326,
      "inding": 3327,
      "indic": 3328,
      "augh": 3329,
      "Beet": 3330,
      "Mounts": 3331,
      "Class": 3332,
      "Boast": 3333,
      "Serra": 3334,
      "chem": 3335,
      "Loyal": 3336,
      "Weapon": 3337,
      "Graft": 3338,
      "odd": 3339,
      "Quick": 3340,
      "Strike": 3341,
      "Pride": 3342,
      "issa": 3343,
      "Basil": 3344,
      "weapon": 3345,
      "Valiant": 3346,
      "cleanup": 3347,
      "Two": 3348,
      "Glimmer": 3349,
      "Golden": 3350,
      "Distribute": 3351,
      "Celest": 3352,
      "Sanctuary": 3353,
      "Manticore": 3354,
      "Revolt": 3355,
      "Hammer": 3356,
      "prowess": 3357,
      "Alliance": 3358,
      "monocolored": 3359,
      "Evolve": 3360,
      "Warlocks": 3361,
      "Skycl": 3362,
      "Lotus": 3363,
      "Foundry": 3364,
      "Adamant": 3365,
      "Gnome": 3366,
      "Tiger": 3367,
      "Furnace": 3368,
      "Rhino": 3369,
      "Yavimay": 3370,
      "Yavimaya": 3371,
      "00": 3372,
      "11": 3373,
      "Bli": 3374,
      "Clash": 3375,
      "Cephal": 3376,
      "Dry": 3377,
      "Doll": 3378,
      "Dale": 3379,
      "Eater": 3380,
      "Gard": 3381,
      "Hon": 3382,
      "Jour": 3383,
      "Kj": 3384,
      "La": 3385,
      "Last": 3386,
      "Lev": 3387,
      "Lion": 3388,
      "Mach": 3389,
      "Mite": 3390,
      "Nant": 3391,
      "Nim": 3392,
      "Ot": 3393,
      "Rig": 3394,
      "Sark": 3395,
      "Silent": 3396,
      "Vir": 3397,
      "Viv": 3398,
      "bber": 3399,
      "ee": 3400,
      "ox": 3401,
      "sworn": 3402,
      "vator": 3403,
      "thir": 3404,
      "atur": 3405,
      "anos": 3406,
      "encounter": 3407,
      "oner": 3408,
      "iser": 3409,
      "ander": 3410,
      "andal": 3411,
      "leader": 3412,
      "iff": 3413,
      "ution": 3414,
      "lyte": 3415,
      "see": 3416,
      "Three": 3417,
      "ades": 3418,
      "apply": 3419,
      "begins": 3420,
      "Replicate": 3421,
      "Retrace": 3422,
      "Enfor": 3423,
      "dol": 3424,
      "shot": 3425,
      "Chron": 3426,
      "ignore": 3427,
      "Spin": 3428,
      "walker": 3429,
      "asher": 3430,
      "used": 3431,
      "vention": 3432,
      "awk": 3433,
      "Clan": 3434,
      "clave": 3435,
      "Tefer": 3436,
      "ortex": 3437,
      "escap": 3438,
      "Archer": 3439,
      "Mech": 3440,
      "mastery": 3441,
      "Trick": 3442,
      "uko": 3443,
      "reduce": 3444,
      "Undergrowth": 3445,
      "rentice": 3446,
      "Abom": 3447,
      "Apprentice": 3448,
      "Crocod": 3449,
      "expans": 3450,
      "Dogs": 3451,
      "Riot": 3452,
      "Savage": 3453,
      "Cavalry": 3454,
      "Patrol": 3455,
      "Infernal": 3456,
      "Leads": 3457,
      "glass": 3458,
      "Bolas": 3459,
      "Azor": 3460,
      "Hedge": 3461,
      "Midnight": 3462,
      "Standard": 3463,
      "Marauder": 3464,
      "Gremlin": 3465,
      "Converge": 3466,
      "Multikicker": 3467,
      "Bronze": 3468,
      "Satyr": 3469,
      "Totem": 3470,
      "Pegasus": 3471,
      "Amulet": 3472,
      "Dalek": 3473,
      "Kjeld": 3474,
      "Nantuko": 3475,
      "Sarkhan": 3476,
      "Teferi": 3477,
      "Cab": 3478,
      "Dred": 3479,
      "Eido": 3480,
      "Flood": 3481,
      "Farm": 3482,
      "Hawk": 3483,
      "Idol": 3484,
      "Mish": 3485,
      "Nar": 3486,
      "Rust": 3487,
      "Sar": 3488,
      "Sab": 3489,
      "Sig": 3490,
      "Slash": 3491,
      "Tang": 3492,
      "Vit": 3493,
      "Vess": 3494,
      "Vill": 3495,
      "Wal": 3496,
      "Wast": 3497,
      "cou": 3498,
      "cent": 3499,
      "del": 3500,
      "doom": 3501,
      "emp": 3502,
      "freerunning": 3503,
      "him": 3504,
      "lict": 3505,
      "tra": 3506,
      "tain": 3507,
      "wear": 3508,
      "reen": 3509,
      "ourer": 3510,
      "oned": 3511,
      "stick": 3512,
      "stays": 3513,
      "told": 3514,
      "ific": 3515,
      "edition": 3516,
      "erse": 3517,
      "ama": 3518,
      "plasm": 3519,
      "attered": 3520,
      "spire": 3521,
      "ppe": 3522,
      "ellow": 3523,
      "Thri": 3524,
      "bricate": 3525,
      "apter": 3526,
      "unspent": 3527,
      "Reward": 3528,
      "bling": 3529,
      "Spit": 3530,
      "Shri": 3531,
      "Shivan": 3532,
      "Scra": 3533,
      "izz": 3534,
      "Attendant": 3535,
      "Condu": 3536,
      "Treasures": 3537,
      "Top": 3538,
      "Whip": 3539,
      "entering": 3540,
      "Angelic": 3541,
      "Mountainwalk": 3542,
      "Magma": 3543,
      "surge": 3544,
      "Sunburst": 3545,
      "results": 3546,
      "Auro": 3547,
      "Key": 3548,
      "Training": 3549,
      "Worker": 3550,
      "Ruins": 3551,
      "Parad": 3552,
      "Only": 3553,
      "Poison": 3554,
      "Underworld": 3555,
      "include": 3556,
      "Appar": 3557,
      "Fallen": 3558,
      "Jugger": 3559,
      "Primal": 3560,
      "Primord": 3561,
      "Marshal": 3562,
      "Revelers": 3563,
      "Omen": 3564,
      "Ravager": 3565,
      "Circle": 3566,
      "Phantasmal": 3567,
      "Strong": 3568,
      "Vengeful": 3569,
      "Specialize": 3570,
      "Locus": 3571,
      "Voracious": 3572,
      "Electro": 3573,
      "Psychic": 3574,
      "Territor": 3575,
      "printed": 3576,
      "Cephalid": 3577,
      "Crocodile": 3578,
      "Kjeldoran": 3579,
      "Eidolon": 3580,
      "Mishra": 3581,
      "council": 3582,
      "Thriving": 3583,
      "Juggernaut": 3584,
      "!\"": 3585,
      "Ae": 3586,
      "Aco": 3587,
      "Asp": 3588,
      "Bak": 3589,
      "Cer": 3590,
      "Cut": 3591,
      "Cos": 3592,
      "Free": 3593,
      "Gae": 3594,
      "Haven": 3595,
      "Kob": 3596,
      "Kher": 3597,
      "Long": 3598,
      "Learn": 3599,
      "Mi": 3600,
      "Mes": 3601,
      "Mimic": 3602,
      "Nissa": 3603,
      "Oran": 3604,
      "Reven": 3605,
      "Rally": 3606,
      "Scho": 3607,
      "Tom": 3608,
      "Vigil": 3609,
      "Viz": 3610,
      "Vod": 3611,
      "Watcher": 3612,
      "bed": 3613,
      "ball": 3614,
      "bol": 3615,
      "bane": 3616,
      "dle": 3617,
      "dig": 3618,
      "gold": 3619,
      "hunt": 3620,
      "hide": 3621,
      "ige": 3622,
      "ira": 3623,
      "iev": 3624,
      "maker": 3625,
      "oa": 3626,
      "pre": 3627,
      "pool": 3628,
      "rat": 3629,
      "tag": 3630,
      "tail": 3631,
      "takes": 3632,
      "tched": 3633,
      "wart": 3634,
      "wind": 3635,
      "ya": 3636,
      "ythe": 3637,
      "replac": 3638,
      "thers": 3639,
      "arian": 3640,
      "ening": 3641,
      "coon": 3642,
      "ori": 3643,
      "ited": 3644,
      "aler": 3645,
      "rolled": 3646,
      "contin": 3647,
      "iling": 3648,
      "chapter": 3649,
      "death": 3650,
      "ician": 3651,
      "ada": 3652,
      "ads": 3653,
      "kenrath": 3654,
      "liff": 3655,
      "opper": 3656,
      "Rein": 3657,
      "ongue": 3658,
      "Enlist": 3659,
      "Cham": 3660,
      "Charge": 3661,
      "Experi": 3662,
      "Spite": 3663,
      "ides": 3664,
      "ulf": 3665,
      "ulpt": 3666,
      "Strom": 3667,
      "Steed": 3668,
      "athom": 3669,
      "Inv": 3670,
      "Initi": 3671,
      "Sho": 3672,
      "Coal": 3673,
      "Confl": 3674,
      "Bee": 3675,
      "Beacon": 3676,
      "forever": 3677,
      "ators": 3678,
      "ops": 3679,
      "Soldiers": 3680,
      "Moss": 3681,
      "Devourer": 3682,
      "Whelp": 3683,
      "Boros": 3684,
      "lowest": 3685,
      "Slime": 3686,
      "Fabricate": 3687,
      "corn": 3688,
      "Hoard": 3689,
      "Trial": 3690,
      "Tribe": 3691,
      "Keep": 3692,
      "Squirrels": 3693,
      "Ruin": 3694,
      "anni": 3695,
      "Brig": 3696,
      "Casualty": 3697,
      "Noble": 3698,
      "Duplic": 3699,
      "ruption": 3700,
      "Vision": 3701,
      "Explos": 3702,
      "symbols": 3703,
      "Radiant": 3704,
      "Augur": 3705,
      "Celebr": 3706,
      "Reflection": 3707,
      "Sanctum": 3708,
      "Falkenrath": 3709,
      "Benal": 3710,
      "prowl": 3711,
      "Rootw": 3712,
      "Expedition": 3713,
      "Venture": 3714,
      "Wolves": 3715,
      "faced": 3716,
      "Extort": 3717,
      "Bodyguard": 3718,
      "Butcher": 3719,
      "Duelist": 3720,
      "chaser": 3721,
      "Legendary": 3722,
      "Octopus": 3723,
      "Licid": 3724,
      "Beetle": 3725,
      "Skyclave": 3726,
      "Enforcer": 3727,
      "Acolyte": 3728,
      "Gaea": 3729,
      "Kobold": 3730,
      "bolster": 3731,
      "hunter": 3732,
      "'\"": 3733,
      "15": 3734,
      "Ade": 3735,
      "Bane": 3736,
      "Cow": 3737,
      "Crow": 3738,
      "Cust": 3739,
      "Ciph": 3740,
      "Drif": 3741,
      "Emerge": 3742,
      "Fil": 3743,
      "Hall": 3744,
      "Izz": 3745,
      "Ichor": 3746,
      "Jack": 3747,
      "Ka": 3748,
      "Mard": 3749,
      "Mad": 3750,
      "Marty": 3751,
      "Maze": 3752,
      "Oper": 3753,
      "Old": 3754,
      "Pin": 3755,
      "Pain": 3756,
      "Pup": 3757,
      "Phas": 3758,
      "Rh": 3759,
      "Rac": 3760,
      "Rit": 3761,
      "Ral": 3762,
      "Sim": 3763,
      "Snow": 3764,
      "Tact": 3765,
      "Vortex": 3766,
      "Winter": 3767,
      "ca": 3768,
      "cu": 3769,
      "grim": 3770,
      "ior": 3771,
      "ible": 3772,
      "ked": 3773,
      "lar": 3774,
      "match": 3775,
      "pie": 3776,
      "scor": 3777,
      "tax": 3778,
      "uge": 3779,
      "record": 3780,
      "thr": 3781,
      "thy": 3782,
      "ouch": 3783,
      "arl": 3784,
      "stin": 3785,
      "stal": 3786,
      "raith": 3787,
      "mbling": 3788,
      "force": 3789,
      "Thran": 3790,
      "fiend": 3791,
      "tist": 3792,
      "ooter": 3793,
      "unc": 3794,
      "Regent": 3795,
      "about": 3796,
      "ldron": 3797,
      "Dec": 3798,
      "Defi": 3799,
      "nonattacking": 3800,
      "Exc": 3801,
      "igator": 3802,
      "Sprite": 3803,
      "ession": 3804,
      "Staff": 3805,
      "Set": 3806,
      "Searing": 3807,
      "Archange": 3808,
      "Inquis": 3809,
      "Ance": 3810,
      "test": 3811,
      "Shark": 3812,
      "umin": 3813,
      "touching": 3814,
      "searched": 3815,
      "scale": 3816,
      "Conclave": 3817,
      "Skin": 3818,
      "Vec": 3819,
      "Orb": 3820,
      "Magm": 3821,
      "says": 3822,
      "igned": 3823,
      "Barbar": 3824,
      "Leonin": 3825,
      "Birds": 3826,
      "Miracle": 3827,
      "Trigon": 3828,
      "Bandit": 3829,
      "ension": 3830,
      "teammate": 3831,
      "Legacy": 3832,
      "drafted": 3833,
      "Syn": 3834,
      "Evil": 3835,
      "Poss": 3836,
      "Darksteel": 3837,
      "Necrop": 3838,
      "Mutant": 3839,
      "Crus": 3840,
      "Obs": 3841,
      "Glint": 3842,
      "Solved": 3843,
      "Pilgrim": 3844,
      "Wanderer": 3845,
      "Salv": 3846,
      "Helm": 3847,
      "Verd": 3848,
      "Half": 3849,
      "including": 3850,
      "Offspring": 3851,
      "Cannon": 3852,
      "Ridge": 3853,
      "Greater": 3854,
      "Repeat": 3855,
      "Wormfang": 3856,
      "Stalwart": 3857,
      "Lurking": 3858,
      "assembles": 3859,
      "Harvester": 3860,
      "Cauldron": 3861,
      "Festering": 3862,
      "Compleated": 3863,
      "Carrion": 3864,
      "District": 3865,
      "Hollow": 3866,
      "square": 3867,
      "Flowstone": 3868,
      "vereign": 3869,
      "Portal": 3870,
      "Celestial": 3871,
      "Trickster": 3872,
      "Abomination": 3873,
      "expansion": 3874,
      "Vessel": 3875,
      "Scholar": 3876,
      "replacing": 3877,
      "Chamber": 3878,
      "Initiate": 3879,
      "Cipher": 3880,
      "Izzet": 3881,
      "Mardu": 3882,
      "Martyr": 3883,
      "Operative": 3884,
      "Archangel": 3885,
      "Barbarian": 3886,
      "!)": 3887,
      "Aj": 3888,
      "Ap": 3889,
      "Bor": 3890,
      "Border": 3891,
      "Brim": 3892,
      "Bloom": 3893,
      "Binding": 3894,
      "Camp": 3895,
      "Crim": 3896,
      "Fountain": 3897,
      "Gol": 3898,
      "Gang": 3899,
      "Hour": 3900,
      "Hier": 3901,
      "Icat": 3902,
      "Jew": 3903,
      "Mat": 3904,
      "Nur": 3905,
      "Need": 3906,
      "Oj": 3907,
      "Oil": 3908,
      "Omin": 3909,
      "Pier": 3910,
      "Party": 3911,
      "Rain": 3912,
      "Rho": 3913,
      "Tun": 3914,
      "Tail": 3915,
      "Vial": 3916,
      "Wit": 3917,
      "Well": 3918,
      "ben": 3919,
      "bel": 3920,
      "bow": 3921,
      "bounty": 3922,
      "cleave": 3923,
      "fly": 3924,
      "gis": 3925,
      "gir": 3926,
      "gari": 3927,
      "gorger": 3928,
      "iary": 3929,
      "mountain": 3930,
      "ng": 3931,
      "page": 3932,
      "rith": 3933,
      "rison": 3934,
      "sis": 3935,
      "sli": 3936,
      "sim": 3937,
      "vow": 3938,
      "xodon": 3939,
      "ately": 3940,
      "ero": 3941,
      "eries": 3942,
      "arid": 3943,
      "ures": 3944,
      "onder": 3945,
      "roat": 3946,
      "roach": 3947,
      "orous": 3948,
      "alian": 3949,
      "ifier": 3950,
      "contains": 3951,
      "aming": 3952,
      "amond": 3953,
      "plot": 3954,
      "bear": 3955,
      "beast": 3956,
      "wither": 3957,
      "sper": 3958,
      "antry": 3959,
      "forage": 3960,
      "liv": 3961,
      "brack": 3962,
      "cker": 3963,
      "mos": 3964,
      "Reaver": 3965,
      "Reaper": 3966,
      "Dece": 3967,
      "eret": 3968,
      "derm": 3969,
      "aret": 3970,
      "iga": 3971,
      "idian": 3972,
      "olver": 3973,
      "ashi": 3974,
      "Seal": 3975,
      "Secret": 3976,
      "Seeker": 3977,
      "Shar": 3978,
      "Shin": 3979,
      "agenda": 3980,
      "Goat": 3981,
      "Scythe": 3982,
      "convoke": 3983,
      "neither": 3984,
      "Cog": 3985,
      "totals": 3986,
      "Swe": 3987,
      "board": 3988,
      "looks": 3989,
      "Roc": 3990,
      "Skulk": 3991,
      "rane": 3992,
      "Univ": 3993,
      "Blaz": 3994,
      "Mogg": 3995,
      "letters": 3996,
      "lower": 3997,
      "Fires": 3998,
      "Firebrand": 3999,
      "Loxodon": 4000,
      "Discover": 4001,
      "Championship": 4002,
      "Weird": 4003,
      "Slayer": 4004,
      "Grasp": 4005,
      "Banding": 4006,
      "Trail": 4007,
      "Front": 4008,
      "Harb": 4009,
      "Hunted": 4010,
      "spector": 4011,
      "Timber": 4012,
      "Syl": 4013,
      "Garg": 4014,
      "produces": 4015,
      "Baloth": 4016,
      "Evange": 4017,
      "saddles": 4018,
      "zzle": 4019,
      "Cemeter": 4020,
      "followed": 4021,
      "crewed": 4022,
      "Noncreature": 4023,
      "Sovereign": 4024,
      "Drone": 4025,
      "Gorilla": 4026,
      "Diamond": 4027,
      "Tempting": 4028,
      "herd": 4029,
      "Vermin": 4030,
      "guesses": 4031,
      "guessed": 4032,
      "Rampaging": 4033,
      "runner": 4034,
      "heads": 4035,
      "Combine": 4036,
      "Taj": 4037,
      "Homunc": 4038,
      "Masticore": 4039,
      "Sengir": 4040,
      "Volcanic": 4041,
      "Gruul": 4042,
      "Hideaway": 4043,
      "Axe": 4044,
      "Ambusher": 4045,
      "Dimir": 4046,
      "General": 4047,
      "Dryad": 4048,
      "Dredge": 4049,
      "Apparition": 4050,
      "Territorial": 4051,
      "Vizier": 4052,
      "Vodalian": 4053,
      "Confluence": 4054,
      "Phasing": 4055,
      "Crusader": 4056,
      "Ajani": 4057,
      "Golgari": 4058,
      "Icatian": 4059,
      "Ominous": 4060,
      "Blazing": 4061,
      "Cemetery": 4062,
      "Homunculus": 4063,
      "Bad": 4064,
      "Bound": 4065,
      "Bond": 4066,
      "Blessing": 4067,
      "Cart": 4068,
      "Core": 4069,
      "Clow": 4070,
      "Cleave": 4071,
      "Cunning": 4072,
      "Cliff": 4073,
      "Dance": 4074,
      "Daring": 4075,
      "Ess": 4076,
      "Esc": 4077,
      "Emin": 4078,
      "Fr": 4079,
      "Fathom": 4080,
      "Gig": 4081,
      "Hood": 4082,
      "Hang": 4083,
      "Imo": 4084,
      "Jar": 4085,
      "Kh": 4086,
      "Kn": 4087,
      "Ken": 4088,
      "Kit": 4089,
      "Kill": 4090,
      "Lab": 4091,
      "Mire": 4092,
      "Mizz": 4093,
      "Pill": 4094,
      "Pool": 4095,
      "Sac": 4096,
      "Saf": 4097,
      "Summon": 4098,
      "Simic": 4099,
      "Slinger": 4100,
      "Ved": 4101,
      "Vine": 4102,
      "Vandal": 4103,
      "Xen": 4104,
      "Zub": 4105,
      "aab": 4106,
      "bble": 4107,
      "belt": 4108,
      "cing": 4109,
      "cap": 4110,
      "fast": 4111,
      "fold": 4112,
      "fuse": 4113,
      "gment": 4114,
      "iator": 4115,
      "just": 4116,
      "knot": 4117,
      "nor": 4118,
      "ners": 4119,
      "ov": 4120,
      "ostor": 4121,
      "pri": 4122,
      "ris": 4123,
      "ug": 4124,
      "ux": 4125,
      "umph": 4126,
      "yri": 4127,
      "thi": 4128,
      "ths": 4129,
      "ured": 4130,
      "static": 4131,
      "ardan": 4132,
      "isan": 4133,
      "alken": 4134,
      "ified": 4135,
      "ura": 4136,
      "urk": 4137,
      "els": 4138,
      "plite": 4139,
      "ices": 4140,
      "icious": 4141,
      "eval": 4142,
      "event": 4143,
      "playtest": 4144,
      "irl": 4145,
      "epherd": 4146,
      "fist": 4147,
      "oney": 4148,
      "unsol": 4149,
      "mbering": 4150,
      "having": 4151,
      "nonwhite": 4152,
      "igree": 4153,
      "Spe": 4154,
      "Spara": 4155,
      "choices": 4156,
      "Stinger": 4157,
      "Static": 4158,
      "Seed": 4159,
      "ruk": 4160,
      "rule": 4161,
      "Arson": 4162,
      "Infin": 4163,
      "Inspector": 4164,
      "Shell": 4165,
      "Shred": 4166,
      "Shepherd": 4167,
      "agger": 4168,
      "etic": 4169,
      "orer": 4170,
      "Scri": 4171,
      "Conscri": 4172,
      "Skanos": 4173,
      "Skaab": 4174,
      "ggart": 4175,
      "ggler": 4176,
      "Fox": 4177,
      "Veiled": 4178,
      "Bloodrush": 4179,
      "Phyrexians": 4180,
      "Merchant": 4181,
      "myriad": 4182,
      "Landscape": 4183,
      "Herd": 4184,
      "goth": 4185,
      "Surve": 4186,
      "Souls": 4187,
      "iathan": 4188,
      "razed": 4189,
      "renz": 4190,
      "Clerics": 4191,
      "Barrage": 4192,
      "Barbed": 4193,
      "tract": 4194,
      "Buzz": 4195,
      "Cats": 4196,
      "Mirran": 4197,
      "Hoplite": 4198,
      "Outlaw": 4199,
      "Battlemage": 4200,
      "Archive": 4201,
      "Minion": 4202,
      "spectacle": 4203,
      "Gem": 4204,
      "Domin": 4205,
      "Prize": 4206,
      "Resol": 4207,
      "Torment": 4208,
      "Volat": 4209,
      "break": 4210,
      "Throne": 4211,
      "Worlds": 4212,
      "Ampl": 4213,
      "Raiders": 4214,
      "Cruel": 4215,
      "Brass": 4216,
      "Immo": 4217,
      "Imper": 4218,
      "Brute": 4219,
      "keyword": 4220,
      "Open": 4221,
      "Endless": 4222,
      "Heli": 4223,
      "Bogardan": 4224,
      "Puzzle": 4225,
      "feather": 4226,
      "separates": 4227,
      "Adventurer": 4228,
      "Intervention": 4229,
      "speaker": 4230,
      "Galvan": 4231,
      "Peace": 4232,
      "Aerial": 4233,
      "Glory": 4234,
      "Cyber": 4235,
      "Cultivator": 4236,
      "Annihilator": 4237,
      "Justice": 4238,
      "Recruiter": 4239,
      "Retriever": 4240,
      "Survivor": 4241,
      "Rubble": 4242,
      "affected": 4243,
      "bridge": 4244,
      "Journey": 4245,
      "Leviathan": 4246,
      "Otter": 4247,
      "escapes": 4248,
      "Walking": 4249,
      "Baku": 4250,
      "origin": 4251,
      "Reinforce": 4252,
      "Celebration": 4253,
      "Adept": 4254,
      "Custod": 4255,
      "Filigree": 4256,
      "Excav": 4257,
      "Tunnel": 4258,
      "brackets": 4259,
      "Harbinger": 4260,
      "Clown": 4261,
      "Essence": 4262,
      "Eminence": 4263,
      "Vedalken": 4264,
      "Zubera": 4265,
      "unsolved": 4266,
      "Braw": 4267,
      "Bru": 4268,
      "Cath": 4269,
      "Cold": 4270,
      "Don": 4271,
      "Dart": 4272,
      "Daunt": 4273,
      "Effect": 4274,
      "Edge": 4275,
      "Fen": 4276,
      "Fac": 4277,
      "Fang": 4278,
      "Favor": 4279,
      "Freerunning": 4280,
      "Gam": 4281,
      "Ground": 4282,
      "Gild": 4283,
      "Gale": 4284,
      "Gloom": 4285,
      "Hold": 4286,
      "Haz": 4287,
      "Hulk": 4288,
      "Jes": 4289,
      "Jung": 4290,
      "Ku": 4291,
      "Kind": 4292,
      "Lam": 4293,
      "Law": 4294,
      "Laz": 4295,
      "Lancer": 4296,
      "Mong": 4297,
      "Mare": 4298,
      "Mass": 4299,
      "Name": 4300,
      "Neg": 4301,
      "Pa": 4302,
      "Pen": 4303,
      "Pol": 4304,
      "Rift": 4305,
      "Resc": 4306,
      "Rief": 4307,
      "Sa": 4308,
      "Table": 4309,
      "Tim": 4310,
      "Vile": 4311,
      "Vale": 4312,
      "Wish": 4313,
      "Wraith": 4314,
      "cension": 4315,
      "da": 4316,
      "dent": 4317,
      "eter": 4318,
      "fif": 4319,
      "flood": 4320,
      "gth": 4321,
      "gard": 4322,
      "gling": 4323,
      "gence": 4324,
      "gald": 4325,
      "hulk": 4326,
      "icorn": 4327,
      "ja": 4328,
      "je": 4329,
      "la": 4330,
      "mong": 4331,
      "mire": 4332,
      "ned": 4333,
      "oz": 4334,
      "olog": 4335,
      "portion": 4336,
      "rac": 4337,
      "rise": 4338,
      "saken": 4339,
      "uses": 4340,
      "vian": 4341,
      "wr": 4342,
      "yo": 4343,
      "zho": 4344,
      "eric": 4345,
      "oun": 4346,
      "outh": 4347,
      "ened": 4348,
      "ona": 4349,
      "gest": 4350,
      "ste": 4351,
      "ardic": 4352,
      "itu": 4353,
      "isman": 4354,
      "leas": 4355,
      "lete": 4356,
      "ife": 4357,
      "urb": 4358,
      "ram": 4359,
      "rav": 4360,
      "rain": 4361,
      "ramp": 4362,
      "amog": 4363,
      "dead": 4364,
      "ends": 4365,
      "loon": 4366,
      "ainous": 4367,
      "mbers": 4368,
      "antu": 4369,
      "irth": 4370,
      "ador": 4371,
      "adel": 4372,
      "eping": 4373,
      "unch": 4374,
      "unger": 4375,
      "Reg": 4376,
      "Recl": 4377,
      "Reef": 4378,
      "abo": 4379,
      "Ener": 4380,
      "alla": 4381,
      "allax": 4382,
      "Advers": 4383,
      "Def": 4384,
      "Dem": 4385,
      "instance": 4386,
      "ments": 4387,
      "Chill": 4388,
      "Ascension": 4389,
      "wald": 4390,
      "idal": 4391,
      "idable": 4392,
      "Stat": 4393,
      "See": 4394,
      "rum": 4395,
      "Artist": 4396,
      "Scroll": 4397,
      "Scale": 4398,
      "Sculpt": 4399,
      "fourth": 4400,
      "ested": 4401,
      "Forsaken": 4402,
      "ized": 4403,
      "Alchem": 4404,
      "Coast": 4405,
      "Warlord": 4406,
      "Proph": 4407,
      "Prodig": 4408,
      "Bearer": 4409,
      "ished": 4410,
      "Elk": 4411,
      "Tome": 4412,
      "former": 4413,
      "earth": 4414,
      "guine": 4415,
      "Unicorn": 4416,
      "Undead": 4417,
      "activation": 4418,
      "Orzho": 4419,
      "Mogis": 4420,
      "decks": 4421,
      "Boon": 4422,
      "Hermit": 4423,
      "finder": 4424,
      "inted": 4425,
      "Monu": 4426,
      "Lock": 4427,
      "Morphling": 4428,
      "razzan": 4429,
      "Infantry": 4430,
      "Team": 4431,
      "Faeries": 4432,
      "Assault": 4433,
      "Saprazzan": 4434,
      "udge": 4435,
      "Snarl": 4436,
      "crets": 4437,
      "Heroes": 4438,
      "flavor": 4439,
      "Slith": 4440,
      "ska": 4441,
      "Shadows": 4442,
      "Forecast": 4443,
      "Tribute": 4444,
      "Triumph": 4445,
      "Dinosaurs": 4446,
      "Parallax": 4447,
      "Palace": 4448,
      "Garruk": 4449,
      "True": 4450,
      "Shambler": 4451,
      "Sanguine": 4452,
      "Crag": 4453,
      "Ghitu": 4454,
      "Charging": 4455,
      "Overlord": 4456,
      "Volrath": 4457,
      "Afterlife": 4458,
      "Crusher": 4459,
      "Colony": 4460,
      "aneous": 4461,
      "Explorer": 4462,
      "Feral": 4463,
      "Mistform": 4464,
      "Brain": 4465,
      "Gorgon": 4466,
      "Winds": 4467,
      "Devils": 4468,
      "Jump": 4469,
      "Tempest": 4470,
      "Eternalize": 4471,
      "Haunted": 4472,
      "crusher": 4473,
      "Riders": 4474,
      "Kinship": 4475,
      "Talisman": 4476,
      "Gnar": 4477,
      "Formidable": 4478,
      "Fortress": 4479,
      "Allies": 4480,
      "Necromancer": 4481,
      "Sleeper": 4482,
      "Kaldra": 4483,
      "Masked": 4484,
      "Whisper": 4485,
      "friends": 4486,
      "Ulamog": 4487,
      "Alien": 4488,
      "Fateful": 4489,
      "watermark": 4490,
      "ynx": 4491,
      "Faithful": 4492,
      "study": 4493,
      "Altar": 4494,
      "Dariga": 4495,
      "Owl": 4496,
      "Riptide": 4497,
      "Garden": 4498,
      "Machine": 4499,
      "Vivid": 4500,
      "atural": 4501,
      "Sigard": 4502,
      "Village": 4503,
      "empty": 4504,
      "Primordial": 4505,
      "Stromgald": 4506,
      "annihilator": 4507,
      "Ritual": 4508,
      "throne": 4509,
      "Inquisitor": 4510,
      "Necropolis": 4511,
      "Crimson": 4512,
      "Needle": 4513,
      "mountainwalk": 4514,
      "Imoen": 4515,
      "Safe": 4516,
      "Volatile": 4517,
      "Dauntless": 4518,
      "Effects": 4519,
      "Gilded": 4520,
      "Jungle": 4521,
      "monger": 4522,
      "rampage": 4523,
      "Adversary": 4524,
      "Alchemist": 4525,
      "Darigaaz": 4526,
      "Agon": 4527,
      "Astral": 4528,
      "Bet": 4529,
      "Braz": 4530,
      "Brush": 4531,
      "Chas": 4532,
      "Cards": 4533,
      "Da": 4534,
      "Drom": 4535,
      "Ep": 4536,
      "Ey": 4537,
      "Ere": 4538,
      "Eruption": 4539,
      "Game": 4540,
      "Imple": 4541,
      "Javel": 4542,
      "Ky": 4543,
      "Kros": 4544,
      "Killer": 4545,
      "Line": 4546,
      "Mak": 4547,
      "Mult": 4548,
      "Nex": 4549,
      "Nether": 4550,
      "Oak": 4551,
      "Pig": 4552,
      "Pop": 4553,
      "Ray": 4554,
      "Rack": 4555,
      "Row": 4556,
      "Root": 4557,
      "Sin": 4558,
      "Song": 4559,
      "Sire": 4560,
      "Self": 4561,
      "Tu": 4562,
      "Tin": 4563,
      "Tet": 4564,
      "Touch": 4565,
      "Tidal": 4566,
      "Uk": 4567,
      "Use": 4568,
      "Ugin": 4569,
      "Vindic": 4570,
      "Wo": 4571,
      "Wrath": 4572,
      "Yu": 4573,
      "bird": 4574,
      "brant": 4575,
      "clock": 4576,
      "dist": 4577,
      "dire": 4578,
      "ey": 4579,
      "eur": 4580,
      "far": 4581,
      "hat": 4582,
      "ham": 4583,
      "how": 4584,
      "hood": 4585,
      "iper": 4586,
      "ji": 4587,
      "mn": 4588,
      "mant": 4589,
      "mag": 4590,
      "mind": 4591,
      "make": 4592,
      "mma": 4593,
      "oh": 4594,
      "ome": 4595,
      "ping": 4596,
      "pact": 4597,
      "ration": 4598,
      "sle": 4599,
      "ta": 4600,
      "var": 4601,
      "vin": 4602,
      "vice": 4603,
      "watch": 4604,
      "xa": 4605,
      "zones": 4606,
      "rev": 4607,
      "rect": 4608,
      "thor": 4609,
      "ature": 4610,
      "enger": 4611,
      "inth": 4612,
      "ined": 4613,
      "inner": 4614,
      "strate": 4615,
      "thes": 4616,
      "uri": 4617,
      "ils": 4618,
      "chs": 4619,
      "def": 4620,
      "demon": 4621,
      "plar": 4622,
      "place": 4623,
      "anter": 4624,
      "sealed": 4625,
      "select": 4626,
      "Thous": 4627,
      "Thiev": 4628,
      "ilemma": 4629,
      "epter": 4630,
      "graf": 4631,
      "graph": 4632,
      "bri": 4633,
      "ria": 4634,
      "ongreen": 4635,
      "nus": 4636,
      "numbers": 4637,
      "Deade": 4638,
      "Destin": 4639,
      "shi": 4640,
      "shell": 4641,
      "otic": 4642,
      "Spore": 4643,
      "olves": 4644,
      "ulse": 4645,
      "avolver": 4646,
      "Stag": 4647,
      "Armore": 4648,
      "Arrow": 4649,
      "Archa": 4650,
      "Argoth": 4651,
      "Ins": 4652,
      "Invent": 4653,
      "Inspir": 4654,
      "nod": 4655,
      "Shore": 4656,
      "Shattered": 4657,
      "Scut": 4658,
      "Scream": 4659,
      "Scepter": 4660,
      "Forgot": 4661,
      "Plain": 4662,
      "ima": 4663,
      "neak": 4664,
      "Cove": 4665,
      "Treach": 4666,
      "Conspire": 4667,
      "support": 4668,
      "Royal": 4669,
      "Before": 4670,
      "awning": 4671,
      "aking": 4672,
      "akos": 4673,
      "tribute": 4674,
      "Clay": 4675,
      "activates": 4676,
      "Flail": 4677,
      "seconds": 4678,
      "azer": 4679,
      "Boggart": 4680,
      "egis": 4681,
      "Serum": 4682,
      "chool": 4683,
      "duvian": 4684,
      "couldn": 4685,
      "finish": 4686,
      "Monkey": 4687,
      "Discord": 4688,
      "Infl": 4689,
      "Impostor": 4690,
      "Magus": 4691,
      "kinds": 4692,
      "full": 4693,
      "Snare": 4694,
      "Skyshroud": 4695,
      "Web": 4696,
      "Weather": 4697,
      "Leaf": 4698,
      "Hob": 4699,
      "Outrider": 4700,
      "Archon": 4701,
      "Keyr": 4702,
      "Travel": 4703,
      "Frodo": 4704,
      "Melee": 4705,
      "Glac": 4706,
      "Glass": 4707,
      "Glittering": 4708,
      "everything": 4709,
      "Coral": 4710,
      "Corpse": 4711,
      "Strix": 4712,
      "Garrison": 4713,
      "Scavengers": 4714,
      "dying": 4715,
      "Balduvian": 4716,
      "Afflict": 4717,
      "weir": 4718,
      "bidding": 4719,
      "Volley": 4720,
      "Incubate": 4721,
      "Wildwood": 4722,
      "Contraptions": 4723,
      "Terror": 4724,
      "Thundering": 4725,
      "Breaker": 4726,
      "Dracon": 4727,
      "Gorger": 4728,
      "intensify": 4729,
      "Nimble": 4730,
      "Radi": 4731,
      "Radha": 4732,
      "Celebrant": 4733,
      "Wandering": 4734,
      "pean": 4735,
      "switch": 4736,
      "Woodland": 4737,
      "Colossal": 4738,
      "Omn": 4739,
      "descent": 4740,
      "separate": 4741,
      "Creeper": 4742,
      "Leader": 4743,
      "Bolster": 4744,
      "Stalking": 4745,
      "Cryptic": 4746,
      "Oathsworn": 4747,
      "known": 4748,
      "Liber": 4749,
      "Wolver": 4750,
      "Turtle": 4751,
      "Dross": 4752,
      "haunting": 4753,
      "Praet": 4754,
      "Spectacle": 4755,
      "Spectral": 4756,
      "Empire": 4757,
      "Hanweir": 4758,
      "Assembly": 4759,
      "Memory": 4760,
      "Ready": 4761,
      "Inkling": 4762,
      "Researcher": 4763,
      "Markov": 4764,
      "Squire": 4765,
      "Alpha": 4766,
      "Honor": 4767,
      "thirteen": 4768,
      "Azorius": 4769,
      "Tangle": 4770,
      "Wastes": 4771,
      "stickers": 4772,
      "Paradox": 4773,
      "Stronghold": 4774,
      "Spiteful": 4775,
      "Beeble": 4776,
      "Verdant": 4777,
      "Halfling": 4778,
      "Deceiver": 4779,
      "Cogwork": 4780,
      "Championships": 4781,
      "Sylvan": 4782,
      "prize": 4783,
      "Arsonist": 4784,
      "Resolute": 4785,
      "Imperial": 4786,
      "Heliod": 4787,
      "Galvanic": 4788,
      "originally": 4789,
      "Tablet": 4790,
      "Statue": 4791,
      "Nexus": 4792,
      "Thousand": 4793,
      "Deadeye": 4794,
      "Archae": 4795,
      "Forgotten": 4796,
      "Weatherlight": 4797,
      "Keyrune": 4798,
      "14": 4799,
      "Are": 4800,
      "Aunt": 4801,
      "Amber": 4802,
      "Ace": 4803,
      "Acade": 4804,
      "Block": 4805,
      "Bould": 4806,
      "Baz": 4807,
      "Boom": 4808,
      "Bounty": 4809,
      "Cac": 4810,
      "Cam": 4811,
      "Cage": 4812,
      "Crop": 4813,
      "Cloak": 4814,
      "Day": 4815,
      "Dir": 4816,
      "Dungeon": 4817,
      "Drop": 4818,
      "Dagger": 4819,
      "Ez": 4820,
      "Escor": 4821,
      "Fin": 4822,
      "Fist": 4823,
      "Foul": 4824,
      "Feed": 4825,
      "Git": 4826,
      "Glist": 4827,
      "His": 4828,
      "Hot": 4829,
      "Hunger": 4830,
      "Jaya": 4831,
      "Ker": 4832,
      "Krov": 4833,
      "Lin": 4834,
      "Liege": 4835,
      "Mu": 4836,
      "May": 4837,
      "Might": 4838,
      "Maw": 4839,
      "Multicolored": 4840,
      "Muse": 4841,
      "Mouse": 4842,
      "Nom": 4843,
      "Nav": 4844,
      "Null": 4845,
      "Od": 4846,
      "Opp": 4847,
      "Pent": 4848,
      "Port": 4849,
      "Pardic": 4850,
      "Rose": 4851,
      "Rive": 4852,
      "Rager": 4853,
      "Raging": 4854,
      "Sel": 4855,
      "Sere": 4856,
      "Seven": 4857,
      "Sneak": 4858,
      "Tan": 4859,
      "Too": 4860,
      "Tol": 4861,
      "Tran": 4862,
      "Twin": 4863,
      "Trawler": 4864,
      "Vra": 4865,
      "Vult": 4866,
      "Volt": 4867,
      "Wu": 4868,
      "Wha": 4869,
      "Ye": 4870,
      "Zen": 4871,
      "athe": 4872,
      "aid": 4873,
      "bos": 4874,
      "binder": 4875,
      "cers": 4876,
      "egg": 4877,
      "fro": 4878,
      "hy": 4879,
      "har": 4880,
      "irant": 4881,
      "ject": 4882,
      "lit": 4883,
      "luck": 4884,
      "mel": 4885,
      "native": 4886,
      "nongreen": 4887,
      "pion": 4888,
      "rout": 4889,
      "sn": 4890,
      "sion": 4891,
      "saur": 4892,
      "singer": 4893,
      "tro": 4894,
      "wen": 4895,
      "wild": 4896,
      "tha": 4897,
      "thic": 4898,
      "throat": 4899,
      "nti": 4900,
      "oured": 4901,
      "ouche": 4902,
      "angg": 4903,
      "ena": 4904,
      "enn": 4905,
      "onaut": 4906,
      "gether": 4907,
      "geist": 4908,
      "sto": 4909,
      "coil": 4910,
      "roan": 4911,
      "ross": 4912,
      "ito": 4913,
      "isen": 4914,
      "alli": 4915,
      "uru": 4916,
      "yours": 4917,
      "elve": 4918,
      "asa": 4919,
      "esis": 4920,
      "amander": 4921,
      "chapt": 4922,
      "detain": 4923,
      "endum": 4924,
      "atters": 4925,
      "mancy": 4926,
      "sphere": 4927,
      "seeker": 4928,
      "fort": 4929,
      "active": 4930,
      "adian": 4931,
      "brick": 4932,
      "oneer": 4933,
      "cking": 4934,
      "que": 4935,
      "tim": 4936,
      "modes": 4937,
      "unspecializes": 4938,
      "Recover": 4939,
      "Relent": 4940,
      "Enlight": 4941,
      "Adj": 4942,
      "dog": 4943,
      "Addendum": 4944,
      "blaze": 4945,
      "blazer": 4946,
      "Enchantment": 4947,
      "ility": 4948,
      "Ask": 4949,
      "essan": 4950,
      "oma": 4951,
      "Stitch": 4952,
      "Secrets": 4953,
      "Ingen": 4954,
      "Ingest": 4955,
      "teers": 4956,
      "Shaper": 4957,
      "aga": 4958,
      "agos": 4959,
      "Scree": 4960,
      "pho": 4961,
      "umi": 4962,
      "rough": 4963,
      "Cop": 4964,
      "Cover": 4965,
      "ickly": 4966,
      "Prof": 4967,
      "Provoke": 4968,
      "Robber": 4969,
      "auler": 4970,
      "Skipped": 4971,
      "Auriok": 4972,
      "Elenda": 4973,
      "Unst": 4974,
      "opy": 4975,
      "ople": 4976,
      "Blaze": 4977,
      "Mox": 4978,
      "ultaneous": 4979,
      "ormal": 4980,
      "ighter": 4981,
      "duplic": 4982,
      "final": 4983,
      "Locket": 4984,
      "Horiz": 4985,
      "Tem": 4986,
      "Fair": 4987,
      "Cluestone": 4988,
      "hoof": 4989,
      "rength": 4990,
      "Slag": 4991,
      "sideboard": 4992,
      "Prowl": 4993,
      "Archers": 4994,
      "Archmage": 4995,
      "Harpy": 4996,
      "Glam": 4997,
      "Glade": 4998,
      "Onna": 4999,
      "Carn": 5000,
      "Briar": 5001,
      "Silen": 5002,
      "Shambling": 5003,
      "Blademaster": 5004,
      "horde": 5005,
      "Tyran": 5006,
      "works": 5007,
      "Undercity": 5008,
      "lossom": 5009,
      "Valley": 5010,
      "ikan": 5011,
      "Wilds": 5012,
      "Wildfire": 5013,
      "Citadel": 5014,
      "Collect": 5015,
      "Ascendant": 5016,
      "Drac": 5017,
      "ahead": 5018,
      "Rakish": 5019,
      "Channeler": 5020,
      "biter": 5021,
      "Nicol": 5022,
      "Sorin": 5023,
      "Skullbomb": 5024,
      "Wander": 5025,
      "foe": 5026,
      "Calam": 5027,
      "Dreams": 5028,
      "Savant": 5029,
      "Savior": 5030,
      "Tempor": 5031,
      "Refuge": 5032,
      "Bats": 5033,
      "Battery": 5034,
      "athering": 5035,
      "Viper": 5036,
      "postcombat": 5037,
      "199": 5038,
      "Chimeric": 5039,
      "Akroan": 5040,
      "Scorpion": 5041,
      "Rampage": 5042,
      "separately": 5043,
      "Cyclopean": 5044,
      "Combust": 5045,
      "Bellow": 5046,
      "Bellige": 5047,
      "Spires": 5048,
      "Arms": 5049,
      "Aeronaut": 5050,
      "Homarid": 5051,
      "Lurker": 5052,
      "faces": 5053,
      "Chosen": 5054,
      "Specialist": 5055,
      "Howling": 5056,
      "Seasoned": 5057,
      "haunts": 5058,
      "Volcano": 5059,
      "Shipw": 5060,
      "Memorial": 5061,
      "gressive": 5062,
      "Piper": 5063,
      "Depths": 5064,
      "ique": 5065,
      "subgame": 5066,
      "Embalm": 5067,
      "Nyx": 5068,
      "Predator": 5069,
      "cutter": 5070,
      "Replica": 5071,
      "aughter": 5072,
      "Basilisk": 5073,
      "Blister": 5074,
      "Slasher": 5075,
      "Spitting": 5076,
      "Scrapper": 5077,
      "Aurochs": 5078,
      "Aspirant": 5079,
      "Cutthroat": 5080,
      "Revenant": 5081,
      "Coalition": 5082,
      "Setessan": 5083,
      "Hiero": 5084,
      "Witness": 5085,
      "Gargantu": 5086,
      "Cartouche": 5087,
      "Khans": 5088,
      "Xenagos": 5089,
      "Infinite": 5090,
      "Puzzleknot": 5091,
      "Rubblebelt": 5092,
      "Cathar": 5093,
      "Energy": 5094,
      "Prodigy": 5095,
      "Brazen": 5096,
      "Eyed": 5097,
      "Implement": 5098,
      "Krosan": 5099,
      "Armored": 5100,
      "Draconic": 5101,
      "Radiance": 5102,
      "Auntie": 5103,
      "Academy": 5104,
      "Bazaar": 5105,
      "Escort": 5106,
      "Krovikan": 5107,
      "Vraska": 5108,
      "Whale": 5109,
      "Zenith": 5110,
      "front": 5111,
      "chapters": 5112,
      "Relentless": 5113,
      "ultaneously": 5114,
      "Aren": 5115,
      "Aerie": 5116,
      "Aegis": 5117,
      "Ball": 5118,
      "Bul": 5119,
      "Bag": 5120,
      "Book": 5121,
      "Bold": 5122,
      "Cand": 5123,
      "Clo": 5124,
      "Cli": 5125,
      "Coll": 5126,
      "Caller": 5127,
      "Dam": 5128,
      "Dri": 5129,
      "Down": 5130,
      "Dran": 5131,
      "Ed": 5132,
      "Fre": 5133,
      "Fur": 5134,
      "Fell": 5135,
      "Fight": 5136,
      "Gut": 5137,
      "Gue": 5138,
      "Ginger": 5139,
      "Gathering": 5140,
      "Hi": 5141,
      "Hat": 5142,
      "Hatcher": 5143,
      "Ir": 5144,
      "Iv": 5145,
      "Jag": 5146,
      "Jet": 5147,
      "Kro": 5148,
      "Kaz": 5149,
      "Koz": 5150,
      "Ly": 5151,
      "Lac": 5152,
      "Lake": 5153,
      "Luk": 5154,
      "Lynx": 5155,
      "Lanter": 5156,
      "Mas": 5157,
      "Many": 5158,
      "Meld": 5159,
      "Mother": 5160,
      "Milit": 5161,
      "Mess": 5162,
      "March": 5163,
      "Mour": 5164,
      "Mort": 5165,
      "Miss": 5166,
      "Nu": 5167,
      "Nal": 5168,
      "Nep": 5169,
      "Niv": 5170,
      "Nah": 5171,
      "Note": 5172,
      "Nature": 5173,
      "Prom": 5174,
      "Pie": 5175,
      "Pum": 5176,
      "Prank": 5177,
      "Rise": 5178,
      "Rank": 5179,
      "Say": 5180,
      "Sigil": 5181,
      "Smu": 5182,
      "Saur": 5183,
      "Tut": 5184,
      "Town": 5185,
      "Tale": 5186,
      "Vast": 5187,
      "Vex": 5188,
      "Vold": 5189,
      "Wy": 5190,
      "With": 5191,
      "Year": 5192,
      "Zh": 5193,
      "Zeph": 5194,
      "Zero": 5195,
      "agh": 5196,
      "cal": 5197,
      "cage": 5198,
      "eled": 5199,
      "fit": 5200,
      "fate": 5201,
      "gam": 5202,
      "gmy": 5203,
      "games": 5204,
      "hn": 5205,
      "hall": 5206,
      "hound": 5207,
      "iac": 5208,
      "jara": 5209,
      "kull": 5210,
      "mal": 5211,
      "multi": 5212,
      "nity": 5213,
      "ole": 5214,
      "oti": 5215,
      "part": 5216,
      "ture": 5217,
      "tor": 5218,
      "table": 5219,
      "tongue": 5220,
      "tjara": 5221,
      "uer": 5222,
      "uro": 5223,
      "vill": 5224,
      "vale": 5225,
      "wurm": 5226,
      "xis": 5227,
      "xia": 5228,
      "yor": 5229,
      "zed": 5230,
      "zumi": 5231,
      "ûl": 5232,
      "ref": 5233,
      "rey": 5234,
      "reck": 5235,
      "regenerate": 5236,
      "thal": 5237,
      "ata": 5238,
      "err": 5239,
      "erous": 5240,
      "oum": 5241,
      "aract": 5242,
      "incor": 5243,
      "onic": 5244,
      "geant": 5245,
      "roads": 5246,
      "ork": 5247,
      "iton": 5248,
      "itte": 5249,
      "itude": 5250,
      "tower": 5251,
      "andrix": 5252,
      "leon": 5253,
      "alan": 5254,
      "aling": 5255,
      "alate": 5256,
      "ention": 5257,
      "urous": 5258,
      "eland": 5259,
      "asis": 5260,
      "ilt": 5261,
      "ilight": 5262,
      "icket": 5263,
      "utai": 5264,
      "spark": 5265,
      "lyph": 5266,
      "putin": 5267,
      "owder": 5268,
      "lich": 5269,
      "ilek": 5270,
      "iles": 5271,
      "arter": 5272,
      "moon": 5273,
      "moves": 5274,
      "apult": 5275,
      "whether": 5276,
      "drawing": 5277,
      "Enduring": 5278,
      "haz": 5279,
      "come": 5280,
      "lorless": 5281,
      "ldering": 5282,
      "Dethrone": 5283,
      "blast": 5284,
      "shing": 5285,
      "shooter": 5286,
      "dera": 5287,
      "upkeeps": 5288,
      "Chittering": 5289,
      "Extract": 5290,
      "Ashen": 5291,
      "Spine": 5292,
      "Spear": 5293,
      "olith": 5294,
      "item": 5295,
      "ulking": 5296,
      "ctic": 5297,
      "Stor": 5298,
      "Stran": 5299,
      "undering": 5300,
      "osei": 5301,
      "Arbiter": 5302,
      "Inno": 5303,
      "Incend": 5304,
      "Ano": 5305,
      "She": 5306,
      "Shard": 5307,
      "Shel": 5308,
      "ives": 5309,
      "Gore": 5310,
      "isted": 5311,
      "ette": 5312,
      "ester": 5313,
      "umgar": 5314,
      "touches": 5315,
      "nament": 5316,
      "searching": 5317,
      "Colorless": 5318,
      "Dragonfire": 5319,
      "scycling": 5320,
      "Progress": 5321,
      "Tren": 5322,
      "Conf": 5323,
      "Roar": 5324,
      "aught": 5325,
      "Skitter": 5326,
      "foretold": 5327,
      "Font": 5328,
      "Vein": 5329,
      "Toad": 5330,
      "akut": 5331,
      "guild": 5332,
      "Blades": 5333,
      "Flag": 5334,
      "Phyrexia": 5335,
      "plusan": 5336,
      "Sergeant": 5337,
      "Gust": 5338,
      "uber": 5339,
      "Door": 5340,
      "ounding": 5341,
      "Monitor": 5342,
      "height": 5343,
      "Loath": 5344,
      "changeling": 5345,
      "Mang": 5346,
      "Disp": 5347,
      "Horse": 5348,
      "divides": 5349,
      "Tech": 5350,
      "Artific": 5351,
      "Healer": 5352,
      "differently": 5353,
      "Impet": 5354,
      "Impending": 5355,
      "Maro": 5356,
      "Market": 5357,
      "mesis": 5358,
      "embalm": 5359,
      "udic": 5360,
      "version": 5361,
      "minator": 5362,
      "Auto": 5363,
      "coins": 5364,
      "Shadowheart": 5365,
      "Urs": 5366,
      "crafter": 5367,
      "Rumbling": 5368,
      "Rebirth": 5369,
      "Paras": 5370,
      "Parley": 5371,
      "Quar": 5372,
      "Quandrix": 5373,
      "Pygmy": 5374,
      "Brist": 5375,
      "Silence": 5376,
      "Silumgar": 5377,
      "Balloon": 5378,
      "web": 5379,
      "rope": 5380,
      "Attractions": 5381,
      "Metamorph": 5382,
      "Torrent": 5383,
      "Valakut": 5384,
      "Amal": 5385,
      "Skeletons": 5386,
      "Twilight": 5387,
      "Dreadhorde": 5388,
      "Gray": 5389,
      "Grace": 5390,
      "Mae": 5391,
      "Obsc": 5392,
      "hilim": 5393,
      "Glider": 5394,
      "Shrines": 5395,
      "Nezumi": 5396,
      "Nemesis": 5397,
      "Ancients": 5398,
      "Falls": 5399,
      "whichever": 5400,
      "Caldera": 5401,
      "Karn": 5402,
      "Karplusan": 5403,
      "Salt": 5404,
      "Salamander": 5405,
      "Thalakos": 5406,
      "Protean": 5407,
      "Offic": 5408,
      "buster": 5409,
      "offer": 5410,
      "Akki": 5411,
      "Akoum": 5412,
      "Canopy": 5413,
      "False": 5414,
      "Falcon": 5415,
      "Reveler": 5416,
      "Scorch": 5417,
      "Crater": 5418,
      "Smasher": 5419,
      "fection": 5420,
      "Squadron": 5421,
      "completely": 5422,
      "Circu": 5423,
      "Trust": 5424,
      "Bombard": 5425,
      "Animate": 5426,
      "Libr": 5427,
      "Bottle": 5428,
      "Farmer": 5429,
      "assemble": 5430,
      "Chroma": 5431,
      "Littjara": 5432,
      "Slug": 5433,
      "Cultist": 5434,
      "Annihil": 5435,
      "Willow": 5436,
      "student": 5437,
      "Arcbound": 5438,
      "Squid": 5439,
      "Crossroads": 5440,
      "Crackling": 5441,
      "Ages": 5442,
      "Fanatic": 5443,
      "Nettle": 5444,
      "Rasputin": 5445,
      "Smoldering": 5446,
      "Quicksilver": 5447,
      "Basilica": 5448,
      "Cabal": 5449,
      "Saber": 5450,
      "Mesa": 5451,
      "Visionary": 5452,
      "Benalish": 5453,
      "Tactician": 5454,
      "Decree": 5455,
      "Ancestral": 5456,
      "Magmatic": 5457,
      "Brimstone": 5458,
      "Jeweled": 5459,
      "Ojutai": 5460,
      "vowels": 5461,
      "aretti": 5462,
      "Sharp": 5463,
      "Evangel": 5464,
      "Escalate": 5465,
      "Sacred": 5466,
      "Shredder": 5467,
      "Amplify": 5468,
      "Cyberman": 5469,
      "Bruiser": 5470,
      "Gambit": 5471,
      "Lazav": 5472,
      "fifteen": 5473,
      "Orzhov": 5474,
      "Monument": 5475,
      "Erebos": 5476,
      "Populate": 5477,
      "Siren": 5478,
      "Selfless": 5479,
      "Scutt": 5480,
      "Treacherous": 5481,
      "Wolverine": 5482,
      "Praetor": 5483,
      "Cacoph": 5484,
      "Adjudic": 5485,
      "Silencer": 5486,
      "Belligerent": 5487,
      "Shipwreck": 5488,
      "Arena": 5489,
      "Guest": 5490,
      "Kozilek": 5491,
      "Lantern": 5492,
      "Messenger": 5493,
      "Nephilim": 5494,
      "Nahiri": 5495,
      "Smuggler": 5496,
      "Vexing": 5497,
      "Voldaren": 5498,
      "Zephyr": 5499,
      "multiple": 5500,
      "villainous": 5501,
      "Incendiary": 5502,
      "Aut": 5503,
      "Aby": 5504,
      "Apo": 5505,
      "Aber": 5506,
      "Ape": 5507,
      "Bes": 5508,
      "Blo": 5509,
      "Bless": 5510,
      "Bub": 5511,
      "Bitter": 5512,
      "Bones": 5513,
      "Bio": 5514,
      "Blossom": 5515,
      "Cot": 5516,
      "Civ": 5517,
      "Caves": 5518,
      "Cult": 5519,
      "Copper": 5520,
      "Der": 5521,
      "Dun": 5522,
      "Dau": 5523,
      "Drown": 5524,
      "Dancer": 5525,
      "Eli": 5526,
      "Ethere": 5527,
      "Eyes": 5528,
      "Etched": 5529,
      "Fly": 5530,
      "Flo": 5531,
      "Fav": 5532,
      "Fled": 5533,
      "Flight": 5534,
      "Fyl": 5535,
      "Frenz": 5536,
      "Gis": 5537,
      "Gun": 5538,
      "Hur": 5539,
      "Histor": 5540,
      "Hung": 5541,
      "Id": 5542,
      "Jin": 5543,
      "Jas": 5544,
      "Jitte": 5545,
      "Jester": 5546,
      "Ki": 5547,
      "Kell": 5548,
      "Lar": 5549,
      "Mam": 5550,
      "Mul": 5551,
      "Mold": 5552,
      "Nest": 5553,
      "Nontoken": 5554,
      "Oliv": 5555,
      "Pure": 5556,
      "Pact": 5557,
      "Pine": 5558,
      "Patch": 5559,
      "Pulse": 5560,
      "Powder": 5561,
      "Rap": 5562,
      "Rite": 5563,
      "Sep": 5564,
      "Splic": 5565,
      "Sulf": 5566,
      "School": 5567,
      "Test": 5568,
      "Tuk": 5569,
      "Task": 5570,
      "Tool": 5571,
      "Vant": 5572,
      "Vul": 5573,
      "Vass": 5574,
      "Vicious": 5575,
      "Wed": 5576,
      "Wight": 5577,
      "Wire": 5578,
      "Wake": 5579,
      "Word": 5580,
      "Zur": 5581,
      "bind": 5582,
      "cr": 5583,
      "cate": 5584,
      "cred": 5585,
      "cept": 5586,
      "cumulative": 5587,
      "crazed": 5588,
      "dro": 5589,
      "dor": 5590,
      "dream": 5591,
      "dancer": 5592,
      "dilemma": 5593,
      "find": 5594,
      "gic": 5595,
      "gate": 5596,
      "gul": 5597,
      "hip": 5598,
      "jack": 5599,
      "jek": 5600,
      "makes": 5601,
      "mouth": 5602,
      "mfar": 5603,
      "pin": 5604,
      "path": 5605,
      "rnament": 5606,
      "signed": 5607,
      "tusk": 5608,
      "tender": 5609,
      "uke": 5610,
      "ume": 5611,
      "umbra": 5612,
      "wil": 5613,
      "wall": 5614,
      "will": 5615,
      "xed": 5616,
      "xious": 5617,
      "atl": 5618,
      "atus": 5619,
      "around": 5620,
      "ene": 5621,
      "enor": 5622,
      "strom": 5623,
      "acorn": 5624,
      "rove": 5625,
      "itters": 5626,
      "lea": 5627,
      "learn": 5628,
      "alf": 5629,
      "alk": 5630,
      "iform": 5631,
      "urial": 5632,
      "elion": 5633,
      "elisk": 5634,
      "elstrom": 5635,
      "esail": 5636,
      "ament": 5637,
      "amina": 5638,
      "dered": 5639,
      "plains": 5640,
      "plague": 5641,
      "endo": 5642,
      "seat": 5643,
      "ligan": 5644,
      "Throw": 5645,
      "Thicket": 5646,
      "Young": 5647,
      "aded": 5648,
      "adium": 5649,
      "quickly": 5650,
      "ssal": 5651,
      "twelve": 5652,
      "twork": 5653,
      "rik": 5654,
      "unearth": 5655,
      "unique": 5656,
      "Atl": 5657,
      "Real": 5658,
      "Reju": 5659,
      "abi": 5660,
      "shok": 5661,
      "eres": 5662,
      "melee": 5663,
      "Chor": 5664,
      "Chant": 5665,
      "Child": 5666,
      "Exec": 5667,
      "Exert": 5668,
      "Exuber": 5669,
      "igor": 5670,
      "Spawning": 5671,
      "essed": 5672,
      "essian": 5673,
      "idar": 5674,
      "Their": 5675,
      "olas": 5676,
      "tournament": 5677,
      "valan": 5678,
      "copied": 5679,
      "omer": 5680,
      "ulator": 5681,
      "terrane": 5682,
      "avan": 5683,
      "avite": 5684,
      "avus": 5685,
      "Stage": 5686,
      "Station": 5687,
      "Street": 5688,
      "Stangg": 5689,
      "Strength": 5690,
      "Stadium": 5691,
      "Sewer": 5692,
      "rus": 5693,
      "Arb": 5694,
      "Argent": 5695,
      "Arctic": 5696,
      "Invo": 5697,
      "teor": 5698,
      "Shack": 5699,
      "uming": 5700,
      "ummy": 5701,
      "iano": 5702,
      "struction": 5703,
      "Alley": 5704,
      "Lookout": 5705,
      "Cobra": 5706,
      "scream": 5707,
      "Phy": 5708,
      "Pheres": 5709,
      "such": 5710,
      "Rod": 5711,
      "augment": 5712,
      "Skittering": 5713,
      "ggle": 5714,
      "Behold": 5715,
      "awa": 5716,
      "Veil": 5717,
      "ishment": 5718,
      "Toy": 5719,
      "nery": 5720,
      "Clone": 5721,
      "Claw": 5722,
      "Clues": 5723,
      "Uny": 5724,
      "Unattach": 5725,
      "Bloodcrazed": 5726,
      "dified": 5727,
      "reminder": 5728,
      "rolls": 5729,
      "Orch": 5730,
      "Ordeal": 5731,
      "Moment": 5732,
      "Motion": 5733,
      "Modified": 5734,
      "Merrow": 5735,
      "warden": 5736,
      "Boiler": 5737,
      "Guerr": 5738,
      "Myco": 5739,
      "Mountaincycling": 5740,
      "Monstrous": 5741,
      "flips": 5742,
      "Manor": 5743,
      "ielder": 5744,
      "Artiller": 5745,
      "Artisan": 5746,
      "Beastmaster": 5747,
      "Hyp": 5748,
      "ilding": 5749,
      "hole": 5750,
      "cessor": 5751,
      "orture": 5752,
      "wordy": 5753,
      "Sniper": 5754,
      "Demonic": 5755,
      "Barrier": 5756,
      "Slaughter": 5757,
      "Thresher": 5758,
      "Catac": 5759,
      "Catapult": 5760,
      "Holy": 5761,
      "Home": 5762,
      "skulk": 5763,
      "Battlefield": 5764,
      "Forerunner": 5765,
      "Archfiend": 5766,
      "crasher": 5767,
      "Control": 5768,
      "Bandits": 5769,
      "Mines": 5770,
      "Gatekeeper": 5771,
      "Legolas": 5772,
      "Meteor": 5773,
      "Rush": 5774,
      "Reborn": 5775,
      "Paragon": 5776,
      "Symb": 5777,
      "Sylex": 5778,
      "Paliano": 5779,
      "Bright": 5780,
      "Current": 5781,
      "Triton": 5782,
      "Bladewing": 5783,
      "lesn": 5784,
      "Noxious": 5785,
      "Mercurial": 5786,
      "Skemfar": 5787,
      "Ballist": 5788,
      "Runaway": 5789,
      "others": 5790,
      "colith": 5791,
      "Valk": 5792,
      "breath": 5793,
      "ika": 5794,
      "woods": 5795,
      "Dwarves": 5796,
      "Sandstone": 5797,
      "Emrak": 5798,
      "Crystal": 5799,
      "Titania": 5800,
      "Drinker": 5801,
      "Twisted": 5802,
      "Timeless": 5803,
      "Maelstrom": 5804,
      "Obelisk": 5805,
      "Ashiok": 5806,
      "Neuro": 5807,
      "Soldev": 5808,
      "ressive": 5809,
      "Nihil": 5810,
      "people": 5811,
      "Primeval": 5812,
      "Ghostly": 5813,
      "Helix": 5814,
      "Planar": 5815,
      "Banner": 5816,
      "Mantle": 5817,
      "collected": 5818,
      "Hamster": 5819,
      "Pursu": 5820,
      "Razer": 5821,
      "balt": 5822,
      "Questing": 5823,
      "Join": 5824,
      "Store": 5825,
      "Talon": 5826,
      "Combat": 5827,
      "Hedron": 5828,
      "Awakener": 5829,
      "Guildpact": 5830,
      "Trove": 5831,
      "grace": 5832,
      "Thraben": 5833,
      "Vengeance": 5834,
      "Divine": 5835,
      "Feast": 5836,
      "devoured": 5837,
      "Drover": 5838,
      "____": 5839,
      "apping": 5840,
      "Assemble": 5841,
      "claimed": 5842,
      "Blighted": 5843,
      "Grandeur": 5844,
      "Ign": 5845,
      "Sawtooth": 5846,
      "Prismatic": 5847,
      "Planeswalkers": 5848,
      "Ambush": 5849,
      "Faceless": 5850,
      "Subterrane": 5851,
      "Inciner": 5852,
      "Incarn": 5853,
      "Nylea": 5854,
      "Super": 5855,
      "Wretched": 5856,
      "Alpine": 5857,
      "Virt": 5858,
      "utioner": 5859,
      "Mechan": 5860,
      "Vitality": 5861,
      "travel": 5862,
      "Conduit": 5863,
      "Cerat": 5864,
      "continuous": 5865,
      "Experiment": 5866,
      "Experimental": 5867,
      "Brigand": 5868,
      "Raccoon": 5869,
      "Defiance": 5870,
      "Hourglass": 5871,
      "Rhox": 5872,
      "Universe": 5873,
      "Tajuru": 5874,
      "Hooded": 5875,
      "Kenrith": 5876,
      "Kitesail": 5877,
      "Summoner": 5878,
      "Speaker": 5879,
      "Surveyor": 5880,
      "Gemstone": 5881,
      "Custodi": 5882,
      "Rescuer": 5883,
      "Recluse": 5884,
      "above": 5885,
      "Sigardian": 5886,
      "Javeline": 5887,
      "Rowan": 5888,
      "Thieving": 5889,
      "Destiny": 5890,
      "Argothian": 5891,
      "Inspiring": 5892,
      "Plainscycling": 5893,
      "Influence": 5894,
      "Omnath": 5895,
      "Empires": 5896,
      "Archaeolog": 5897,
      "Boulder": 5898,
      "Glistening": 5899,
      "Nomad": 5900,
      "Riveteers": 5901,
      "Yeti": 5902,
      "meler": 5903,
      "saurus": 5904,
      "Ingenious": 5905,
      "Screeching": 5906,
      "duplicates": 5907,
      "Glamorous": 5908,
      "Draco": 5909,
      "Calamity": 5910,
      "Temporal": 5911,
      "Hierophant": 5912,
      "Laccolith": 5913,
      "Pummeler": 5914,
      "Tutor": 5915,
      "Loathsome": 5916,
      "Artificer": 5917,
      "Ursine": 5918,
      "Amalgam": 5919,
      "Obscura": 5920,
      "Circuit": 5921,
      "Cacophony": 5922,
      "Adjudicators": 5923,
      "Abyssal": 5924,
      "Blessed": 5925,
      "Dauthi": 5926,
      "Ethereal": 5927,
      "Favored": 5928,
      "Fledgling": 5929,
      "Hungry": 5930,
      "Jascon": 5931,
      "Olivia": 5932,
      "Splicer": 5933,
      "Vulshok": 5934,
      "Vassal": 5935,
      "plainswalk": 5936,
      "Rejuven": 5937,
      "Executioner": 5938,
      "Exuberant": 5939,
      "Beholder": 5940,
      "Emrakul": 5941,
      "Neurok": 5942,
      "Soldevi": 5943,
      "Subterranean": 5944,
      "\"[": 5945,
      "Air": 5946,
      "Aqu": 5947,
      "Aspect": 5948,
      "Avalan": 5949,
      "Bon": 5950,
      "Bran": 5951,
      "Cof": 5952,
      "Cack": 5953,
      "Dan": 5954,
      "Dut": 5955,
      "Dig": 5956,
      "Dak": 5957,
      "Dual": 5958,
      "Dust": 5959,
      "Dûl": 5960,
      "ER": 5961,
      "Fel": 5962,
      "Fast": 5963,
      "Fut": 5964,
      "Fbl": 5965,
      "Fol": 5966,
      "Foot": 5967,
      "Fighter": 5968,
      "Gry": 5969,
      "Gran": 5970,
      "Goll": 5971,
      "Ghaz": 5972,
      "Hard": 5973,
      "Hay": 5974,
      "Hav": 5975,
      "Hak": 5976,
      "Hacker": 5977,
      "House": 5978,
      "Iro": 5979,
      "Je": 5980,
      "Jor": 5981,
      "Jel": 5982,
      "Kil": 5983,
      "Kits": 5984,
      "Kab": 5985,
      "Kess": 5986,
      "Kol": 5987,
      "Kath": 5988,
      "Kyre": 5989,
      "Kins": 5990,
      "Lh": 5991,
      "Let": 5992,
      "Mead": 5993,
      "Mus": 5994,
      "Mud": 5995,
      "Maver": 5996,
      "Meph": 5997,
      "Mummy": 5998,
      "Nev": 5999,
      "Nine": 6000,
      "Naz": 6001,
      "Norn": 6002,
      "Nigh": 6003,
      "Naut": 6004,
      "Natural": 6005,
      "Ori": 6006,
      "Overse": 6007,
      "Oko": 6008,
      "Pand": 6009,
      "Pear": 6010,
      "Paper": 6011,
      "Pledge": 6012,
      "Polis": 6013,
      "Rattle": 6014,
      "Rans": 6015,
      "Sell": 6016,
      "Stom": 6017,
      "Sum": 6018,
      "Sak": 6019,
      "Satch": 6020,
      "Solt": 6021,
      "Schem": 6022,
      "Tah": 6023,
      "Towers": 6024,
      "Ura": 6025,
      "Vin": 6026,
      "Ves": 6027,
      "Vener": 6028,
      "Vict": 6029,
      "Wis": 6030,
      "Wonder": 6031,
      "Yam": 6032,
      "Zhalf": 6033,
      "aa": 6034,
      "aum": 6035,
      "aji": 6036,
      "bat": 6037,
      "bro": 6038,
      "bbon": 6039,
      "ci": 6040,
      "cape": 6041,
      "catcher": 6042,
      "dr": 6043,
      "ded": 6044,
      "dler": 6045,
      "dag": 6046,
      "dark": 6047,
      "fli": 6048,
      "fish": 6049,
      "fung": 6050,
      "fellow": 6051,
      "ga": 6052,
      "gorn": 6053,
      "gja": 6054,
      "hit": 6055,
      "ipper": 6056,
      "knight": 6057,
      "kai": 6058,
      "lic": 6059,
      "mad": 6060,
      "meld": 6061,
      "mul": 6062,
      "mine": 6063,
      "mara": 6064,
      "pha": 6065,
      "pyre": 6066,
      "press": 6067,
      "ser": 6068,
      "shas": 6069,
      "song": 6070,
      "tact": 6071,
      "tland": 6072,
      "tte": 6073,
      "tuk": 6074,
      "titan": 6075,
      "wk": 6076,
      "wain": 6077,
      "wright": 6078,
      "yg": 6079,
      "ret": 6080,
      "reth": 6081,
      "reaver": 6082,
      "releas": 6083,
      "thp": 6084,
      "thos": 6085,
      "erve": 6086,
      "erver": 6087,
      "arion": 6088,
      "arium": 6089,
      "arika": 6090,
      "anim": 6091,
      "ancy": 6092,
      "ench": 6093,
      "ense": 6094,
      "encore": 6095,
      "inn": 6096,
      "onom": 6097,
      "onian": 6098,
      "stall": 6099,
      "stream": 6100,
      "acre": 6101,
      "cove": 6102,
      "root": 6103,
      "itive": 6104,
      "ising": 6105,
      "ala": 6106,
      "als": 6107,
      "alpha": 6108,
      "aying": 6109,
      "iful": 6110,
      "urry": 6111,
      "urgoyf": 6112,
      "ela": 6113,
      "rare": 6114,
      "raiser": 6115,
      "asaur": 6116,
      "asma": 6117,
      "eder": 6118,
      "ersp": 6119,
      "ily": 6120,
      "ami": 6121,
      "derer": 6122,
      "plain": 6123,
      "icken": 6124,
      "ache": 6125,
      "beat": 6126,
      "bereth": 6127,
      "spinner": 6128,
      "pple": 6129,
      "pping": 6130,
      "los": 6131,
      "sequ": 6132,
      "sector": 6133,
      "forged": 6134,
      "irk": 6135,
      "irion": 6136,
      "Ther": 6137,
      "There": 6138,
      "Thass": 6139,
      "Thaum": 6140,
      "actor": 6141,
      "action": 6142,
      "actions": 6143,
      "iless": 6144,
      "brute": 6145,
      "therhood": 6146,
      "quake": 6147,
      "quality": 6148,
      "moire": 6149,
      "aptive": 6150,
      "peror": 6151,
      "perform": 6152,
      "riarch": 6153,
      "ripper": 6154,
      "underer": 6155,
      "Reality": 6156,
      "Retro": 6157,
      "abor": 6158,
      "Enig": 6159,
      "Adaptive": 6160,
      "hawk": 6161,
      "sho": 6162,
      "shaper": 6163,
      "shee": 6164,
      "Putrid": 6165,
      "nonenchantment": 6166,
      "Che": 6167,
      "Chan": 6168,
      "Chains": 6169,
      "Chief": 6170,
      "oted": 6171,
      "Exem": 6172,
      "area": 6173,
      "Spot": 6174,
      "Spik": 6175,
      "Sprint": 6176,
      "Sprout": 6177,
      "lerance": 6178,
      "olation": 6179,
      "olution": 6180,
      "vala": 6181,
      "Returned": 6182,
      "strider": 6183,
      "Stones": 6184,
      "Story": 6185,
      "Second": 6186,
      "Selesn": 6187,
      "Arrest": 6188,
      "Ardent": 6189,
      "Inn": 6190,
      "Instru": 6191,
      "Inform": 6192,
      "Investig": 6193,
      "usive": 6194,
      "teer": 6195,
      "Shire": 6196,
      "Shimmer": 6197,
      "agg": 6198,
      "etch": 6199,
      "Scamp": 6200,
      "Scound": 6201,
      "Scald": 6202,
      "ighte": 6203,
      "phy": 6204,
      "backup": 6205,
      "osk": 6206,
      "osition": 6207,
      "verted": 6208,
      "Alab": 6209,
      "imil": 6210,
      "inee": 6211,
      "Warren": 6212,
      "legal": 6213,
      "Phalan": 6214,
      "Progen": 6215,
      "Prosper": 6216,
      "Swift": 6217,
      "resis": 6218,
      "ndicate": 6219,
      "assador": 6220,
      "pod": 6221,
      "Elven": 6222,
      "Forestcycling": 6223,
      "triple": 6224,
      "Elementals": 6225,
      "ears": 6226,
      "Clam": 6227,
      "Unclaimed": 6228,
      "Swampcycling": 6229,
      "Bloodletter": 6230,
      "clad": 6231,
      "worth": 6232,
      "Blink": 6233,
      "Islandcycling": 6234,
      "Flare": 6235,
      "Flaming": 6236,
      "Moor": 6237,
      "Devast": 6238,
      "Who": 6239,
      "Wheel": 6240,
      "aza": 6241,
      "Boss": 6242,
      "Bobble": 6243,
      "Castle": 6244,
      "ferer": 6245,
      "Vampir": 6246,
      "hem": 6247,
      "Surtland": 6248,
      "changed": 6249,
      "Infest": 6250,
      "Tezz": 6251,
      "Assimil": 6252,
      "Heat": 6253,
      "Height": 6254,
      "Heaven": 6255,
      "ewer": 6256,
      "200": 6257,
      "Maggot": 6258,
      "voting": 6259,
      "Deser": 6260,
      "Arcanist": 6261,
      "surv": 6262,
      "Ringleader": 6263,
      "Demons": 6264,
      "Skyship": 6265,
      "Saprolings": 6266,
      "Barren": 6267,
      "Wei": 6268,
      "Graf": 6269,
      "Gravel": 6270,
      "Entity": 6271,
      "Commando": 6272,
      "Support": 6273,
      "Author": 6274,
      "Outcast": 6275,
      "Outpost": 6276,
      "Foretold": 6277,
      "Urn": 6278,
      "Trainer": 6279,
      "Trainee": 6280,
      "Miner": 6281,
      "Harbor": 6282,
      "cycles": 6283,
      "Nightstalker": 6284,
      "Quill": 6285,
      "Quirion": 6286,
      "Tibalt": 6287,
      "Syndicate": 6288,
      "Striker": 6289,
      "fewest": 6290,
      "Silk": 6291,
      "Scavenging": 6292,
      "story": 6293,
      "Mortal": 6294,
      "Skele": 6295,
      "Basal": 6296,
      "aunted": 6297,
      "Steward": 6298,
      "Steppe": 6299,
      "Mastery": 6300,
      "Ghast": 6301,
      "Grey": 6302,
      "Darkness": 6303,
      "naire": 6304,
      "Sands": 6305,
      "Sandstorm": 6306,
      "Kraul": 6307,
      "Krasis": 6308,
      "Cruc": 6309,
      "Embereth": 6310,
      "Emperor": 6311,
      "Illumin": 6312,
      "Nonbasic": 6313,
      "Soaring": 6314,
      "Bretag": 6315,
      "Crystall": 6316,
      "Fervent": 6317,
      "Ascendancy": 6318,
      "Sentinels": 6319,
      "Gris": 6320,
      "Grot": 6321,
      "yrinth": 6322,
      "Maul": 6323,
      "Rakshas": 6324,
      "Brotherhood": 6325,
      "Bramble": 6326,
      "Shieldmate": 6327,
      "Ashnod": 6328,
      "Headed": 6329,
      "Buried": 6330,
      "Falling": 6331,
      "Fallaji": 6332,
      "Pilferer": 6333,
      "Ripper": 6334,
      "Transmo": 6335,
      "Legionnaire": 6336,
      "Servitor": 6337,
      "Salvo": 6338,
      "Halo": 6339,
      "Acid": 6340,
      "Patron": 6341,
      "posted": 6342,
      "Banshee": 6343,
      "Geralf": 6344,
      "Haunting": 6345,
      "building": 6346,
      "Revolution": 6347,
      "Scorching": 6348,
      "Purpho": 6349,
      "Rampant": 6350,
      "Ambassador": 6351,
      "Effi": 6352,
      "Highland": 6353,
      "affinity": 6354,
      "balan": 6355,
      "Creeping": 6356,
      "Grizz": 6357,
      "Grimoire": 6358,
      "Lux": 6359,
      "Lumbering": 6360,
      "Newt": 6361,
      "Sleep": 6362,
      "Trump": 6363,
      "Peak": 6364,
      "Devouring": 6365,
      "curity": 6366,
      "gris": 6367,
      "points": 6368,
      "Embermage": 6369,
      "Genesis": 6370,
      "Whisp": 6371,
      "Boneyard": 6372,
      "Every": 6373,
      "Mastiff": 6374,
      "committed": 6375,
      "Chromatic": 6376,
      "Armory": 6377,
      "brask": 6378,
      "Wayfinder": 6379,
      "visit": 6380,
      "Slumber": 6381,
      "Grub": 6382,
      "Hexgold": 6383,
      "Ramos": 6384,
      "Caverns": 6385,
      "Medic": 6386,
      "Watchdog": 6387,
      "Consul": 6388,
      "Planeswalk": 6389,
      "Planeswalker": 6390,
      "Recruit": 6391,
      "Skirk": 6392,
      "Skirge": 6393,
      "Aragorn": 6394,
      "Friends": 6395,
      "Tourach": 6396,
      "alyst": 6397,
      "Survivors": 6398,
      "Murasa": 6399,
      "Passage": 6400,
      "Smoke": 6401,
      "Tenth": 6402,
      "impressive": 6403,
      "Replicator": 6404,
      "indicated": 6405,
      "000": 6406,
      "Honored": 6407,
      "Viridian": 6408,
      "wears": 6409,
      "wearing": 6410,
      "Aurora": 6411,
      "Electromancer": 6412,
      "Electrostatic": 6413,
      "Aethers": 6414,
      "Mesmer": 6415,
      "tails": 6416,
      "Hoarder": 6417,
      "Explosive": 6418,
      "Benalia": 6419,
      "Rootwalla": 6420,
      "Kobolds": 6421,
      "Cowards": 6422,
      "Defiant": 6423,
      "Possessed": 6424,
      "Salvage": 6425,
      "slide": 6426,
      "slime": 6427,
      "simultaneously": 6428,
      "plotted": 6429,
      "Shinen": 6430,
      "Sweep": 6431,
      "Trailblazer": 6432,
      "Frilled": 6433,
      "Hangar": 6434,
      "Labyrinth": 6435,
      "Pillar": 6436,
      "Scribe": 6437,
      "Conscrip": 6438,
      "Immol": 6439,
      "Peacekeeper": 6440,
      "Aerialist": 6441,
      "Jeskai": 6442,
      "wrong": 6443,
      "Ritualist": 6444,
      "Betray": 6445,
      "Chasm": 6446,
      "Epic": 6447,
      "Vindictive": 6448,
      "mantle": 6449,
      "rectly": 6450,
      "Inventor": 6451,
      "Flailing": 6452,
      "Discordant": 6453,
      "Traveler": 6454,
      "Ambergris": 6455,
      "Toothy": 6456,
      "Copies": 6457,
      "Combustion": 6458,
      "Damned": 6459,
      "Hipp": 6460,
      "Jagged": 6461,
      "Lukamina": 6462,
      "Nalaar": 6463,
      "aghan": 6464,
      "Gustcloak": 6465,
      "Mangara": 6466,
      "Impetuous": 6467,
      "Bombardment": 6468,
      "Annihilation": 6469,
      "Sabertooth": 6470,
      "Fylgja": 6471,
      "Jinxed": 6472,
      "Mammoth": 6473,
      "Tuktuk": 6474,
      "Wedding": 6475,
      "Chorus": 6476,
      "Ballista": 6477,
      "Coffin": 6478,
      "Fblthp": 6479,
      "Gollum": 6480,
      "Iroas": 6481,
      "Kiln": 6482,
      "Kessig": 6483,
      "Kolaghan": 6484,
      "Kyren": 6485,
      "Lhurgoyf": 6486,
      "Meadow": 6487,
      "Maverick": 6488,
      "Nautil": 6489,
      "Overseer": 6490,
      "Pearl": 6491,
      "Stomper": 6492,
      "Satchel": 6493,
      "Soltari": 6494,
      "Urabrask": 6495,
      "Zhalfir": 6496,
      "fungus": 6497,
      "pressure": 6498,
      "tactics": 6499,
      "Thassa": 6500,
      "Enigma": 6501,
      "Exemplar": 6502,
      "Selesnya": 6503,
      "Informant": 6504,
      "Scoundrel": 6505,
      "Phalanx": 6506,
      "Bobbleheads": 6507,
      "Tezzeret": 6508,
      "Bretagard": 6509,
      "Crystalline": 6510,
      "Rakshasa": 6511,
      "Purphoros": 6512,
      "'-": 6513,
      "25": 6514,
      "30": 6515,
      "AY": 6516,
      "Ath": 6517,
      "Ato": 6518,
      "Aband": 6519,
      "Aud": 6520,
      "Alex": 6521,
      "Bau": 6522,
      "Brew": 6523,
      "Bale": 6524,
      "Bull": 6525,
      "Bann": 6526,
      "Cu": 6527,
      "Cone": 6528,
      "Cany": 6529,
      "Care": 6530,
      "Cul": 6531,
      "Cub": 6532,
      "Dopp": 6533,
      "Dax": 6534,
      "Ec": 6535,
      "Eel": 6536,
      "Eag": 6537,
      "Eph": 6538,
      "Eos": 6539,
      "Flock": 6540,
      "Fig": 6541,
      "Fry": 6542,
      "Find": 6543,
      "Five": 6544,
      "Fran": 6545,
      "Frant": 6546,
      "Fug": 6547,
      "Gad": 6548,
      "Goose": 6549,
      "Gim": 6550,
      "Garen": 6551,
      "Gaunt": 6552,
      "Gunk": 6553,
      "Gib": 6554,
      "Here": 6555,
      "Hinter": 6556,
      "Hauler": 6557,
      "Ix": 6558,
      "Ire": 6559,
      "Jou": 6560,
      "Jam": 6561,
      "Jun": 6562,
      "Jade": 6563,
      "Juk": 6564,
      "Jund": 6565,
      "Judge": 6566,
      "Keg": 6567,
      "Kemb": 6568,
      "Kog": 6569,
      "Kapp": 6570,
      "Koma": 6571,
      "Lon": 6572,
      "Lith": 6573,
      "Lage": 6574,
      "Lyre": 6575,
      "Lesh": 6576,
      "Looter": 6577,
      "LAY": 6578,
      "Mac": 6579,
      "Mel": 6580,
      "Mice": 6581,
      "Mig": 6582,
      "Male": 6583,
      "Mender": 6584,
      "Muck": 6585,
      "Nor": 6586,
      "Nish": 6587,
      "Nik": 6588,
      "Naya": 6589,
      "Nashi": 6590,
      "Naga": 6591,
      "Nessian": 6592,
      "Ol": 6593,
      "Os": 6594,
      "Oy": 6595,
      "Oz": 6596,
      "Oup": 6597,
      "Oasis": 6598,
      "Pick": 6599,
      "Pres": 6600,
      "Pak": 6601,
      "Park": 6602,
      "Pious": 6603,
      "Pang": 6604,
      "Psion": 6605,
      "Piles": 6606,
      "PLAY": 6607,
      "Ran": 6608,
      "Rol": 6609,
      "Rish": 6610,
      "Ride": 6611,
      "Round": 6612,
      "Rich": 6613,
      "Ronin": 6614,
      "Risen": 6615,
      "Righte": 6616,
      "Sis": 6617,
      "Snu": 6618,
      "Swal": 6619,
      "Sling": 6620,
      "Six": 6621,
      "Sail": 6622,
      "Sledge": 6623,
      "Ted": 6624,
      "Tect": 6625,
      "Tax": 6626,
      "Torn": 6627,
      "Taken": 6628,
      "Tongue": 6629,
      "Taught": 6630,
      "Torture": 6631,
      "VI": 6632,
      "Va": 6633,
      "Vad": 6634,
      "Vigor": 6635,
      "Was": 6636,
      "Weld": 6637,
      "Warch": 6638,
      "West": 6639,
      "Wise": 6640,
      "Wound": 6641,
      "Wool": 6642,
      "Yid": 6643,
      "Yellow": 6644,
      "Ze": 6645,
      "aad": 6646,
      "bil": 6647,
      "bage": 6648,
      "bud": 6649,
      "bbler": 6650,
      "cen": 6651,
      "cell": 6652,
      "clo": 6653,
      "cir": 6654,
      "cial": 6655,
      "caly": 6656,
      "ewal": 6657,
      "eeker": 6658,
      "food": 6659,
      "flow": 6660,
      "fates": 6661,
      "fitter": 6662,
      "fisher": 6663,
      "gist": 6664,
      "ganger": 6665,
      "gical": 6666,
      "hot": 6667,
      "ien": 6668,
      "ience": 6669,
      "jaw": 6670,
      "ku": 6671,
      "lines": 6672,
      "ms": 6673,
      "mith": 6674,
      "mid": 6675,
      "miss": 6676,
      "nith": 6677,
      "normal": 6678,
      "ocity": 6679,
      "olent": 6680,
      "park": 6681,
      "port": 6682,
      "sun": 6683,
      "said": 6684,
      "tit": 6685,
      "turing": 6686,
      "trap": 6687,
      "tention": 6688,
      "tabi": 6689,
      "uth": 6690,
      "uli": 6691,
      "uity": 6692,
      "vy": 6693,
      "vold": 6694,
      "vine": 6695,
      "wish": 6696,
      "write": 6697,
      "wagg": 6698,
      "zer": 6699,
      "rece": 6700,
      "reroll": 6701,
      "rerak": 6702,
      "reselect": 6703,
      "thless": 6704,
      "thwain": 6705,
      "ato": 6706,
      "ervo": 6707,
      "erhorn": 6708,
      "arr": 6709,
      "anar": 6710,
      "ansing": 6711,
      "onance": 6712,
      "star": 6713,
      "stash": 6714,
      "steed": 6715,
      "coy": 6716,
      "rock": 6717,
      "orist": 6718,
      "itt": 6719,
      "itic": 6720,
      "toy": 6721,
      "together": 6722,
      "alice": 6723,
      "urid": 6724,
      "ingers": 6725,
      "yourself": 6726,
      "elun": 6727,
      "elganger": 6728,
      "asso": 6729,
      "essor": 6730,
      "eding": 6731,
      "ilty": 6732,
      "amin": 6733,
      "chi": 6734,
      "chief": 6735,
      "charact": 6736,
      "demn": 6737,
      "plies": 6738,
      "endent": 6739,
      "icler": 6740,
      "utal": 6741,
      "attering": 6742,
      "spine": 6743,
      "spear": 6744,
      "lov": 6745,
      "love": 6746,
      "ained": 6747,
      "mbs": 6748,
      "mbler": 6749,
      "mbus": 6750,
      "forge": 6751,
      "forger": 6752,
      "irie": 6753,
      "lint": 6754,
      "liath": 6755,
      "Thirst": 6756,
      "Thop": 6757,
      "adventure": 6758,
      "adiator": 6759,
      "grath": 6760,
      "brig": 6761,
      "quill": 6762,
      "tid": 6763,
      "oop": 6764,
      "mod": 6765,
      "mote": 6766,
      "elddag": 6767,
      "aped": 6768,
      "rist": 6769,
      "undying": 6770,
      "unchanged": 6771,
      "permanently": 6772,
      "abol": 6773,
      "Detention": 6774,
      "Decoy": 6775,
      "she": 6776,
      "show": 6777,
      "ctious": 6778,
      "ctives": 6779,
      "ffine": 6780,
      "Chame": 6781,
      "Chalice": 6782,
      "Exarch": 6783,
      "ared": 6784,
      "igo": 6785,
      "itions": 6786,
      "Theater": 6787,
      "ashima": 6788,
      "gren": 6789,
      "avy": 6790,
      "Stuff": 6791,
      "Stamp": 6792,
      "Seism": 6793,
      "instants": 6794,
      "Indo": 6795,
      "usole": 6796,
      "And": 6797,
      "Anurid": 6798,
      "Angrath": 6799,
      "tect": 6800,
      "Shot": 6801,
      "Shrew": 6802,
      "Shift": 6803,
      "Shelt": 6804,
      "protect": 6805,
      "ived": 6806,
      "ivore": 6807,
      "agers": 6808,
      "aggressive": 6809,
      "Gob": 6810,
      "Goliath": 6811,
      "istrate": 6812,
      "oret": 6813,
      "oreal": 6814,
      "Scab": 6815,
      "Scrou": 6816,
      "Screen": 6817,
      "convo": 6818,
      "estalk": 6819,
      "umaro": 6820,
      "izing": 6821,
      "Place": 6822,
      "Plaza": 6823,
      "imar": 6824,
      "need": 6825,
      "Coil": 6826,
      "Dragonlord": 6827,
      "Warp": 6828,
      "Warleader": 6829,
      "scroll": 6830,
      "scaven": 6831,
      "scendo": 6832,
      "Phara": 6833,
      "Phelddag": 6834,
      "legends": 6835,
      "Trees": 6836,
      "Swoo": 6837,
      "Swine": 6838,
      "Counters": 6839,
      "sucker": 6840,
      "boding": 6841,
      "looked": 6842,
      "indi": 6843,
      "Roaring": 6844,
      "Rope": 6845,
      "aud": 6846,
      "oodle": 6847,
      "ipe": 6848,
      "Skarr": 6849,
      "void": 6850,
      "Beyond": 6851,
      "Tolerance": 6852,
      "akir": 6853,
      "Clattering": 6854,
      "scrying": 6855,
      "Unity": 6856,
      "Unho": 6857,
      "cloud": 6858,
      "Ornery": 6859,
      "Flats": 6860,
      "Moth": 6861,
      "aura": 6862,
      "Whirl": 6863,
      "azir": 6864,
      "azda": 6865,
      "Box": 6866,
      "Board": 6867,
      "100": 6868,
      "reads": 6869,
      "rowing": 6870,
      "planeswalks": 6871,
      "shaker": 6872,
      "lets": 6873,
      "Heron": 6874,
      "lowed": 6875,
      "Myth": 6876,
      "Myster": 6877,
      "Dovin": 6878,
      "Firecat": 6879,
      "Firemind": 6880,
      "Mono": 6881,
      "Monarch": 6882,
      "Monolith": 6883,
      "heist": 6884,
      "Loch": 6885,
      "Disaster": 6886,
      "Raffine": 6887,
      "Horses": 6888,
      "Infe": 6889,
      "Fae": 6890,
      "Beasts": 6891,
      "Heavy": 6892,
      "Squee": 6893,
      "Giants": 6894,
      "Magnet": 6895,
      "Magistrate": 6896,
      "voted": 6897,
      "Descent": 6898,
      "Marit": 6899,
      "Marvel": 6900,
      "ondor": 6901,
      "corpse": 6902,
      "teller": 6903,
      "resolving": 6904,
      "Snapping": 6905,
      "Skyline": 6906,
      "Barrow": 6907,
      "Slither": 6908,
      "Golems": 6909,
      "itching": 6910,
      "repid": 6911,
      "skin": 6912,
      "Prowling": 6913,
      "cycled": 6914,
      "Battlew": 6915,
      "Forebear": 6916,
      "Foreboding": 6917,
      "Archway": 6918,
      "Archlich": 6919,
      "Minsc": 6920,
      "Harpo": 6921,
      "enser": 6922,
      "Hunting": 6923,
      "Gladiator": 6924,
      "Quake": 6925,
      "Quarter": 6926,
      "Treetop": 6927,
      "Oni": 6928,
      "Garbage": 6929,
      "Intrepid": 6930,
      "Resounding": 6931,
      "Reservo": 6932,
      "Novice": 6933,
      "Noggle": 6934,
      "complete": 6935,
      "Chaotic": 6936,
      "Tyvar": 6937,
      "mortal": 6938,
      "Basri": 6939,
      "Runed": 6940,
      "Crasher": 6941,
      "Cradle": 6942,
      "Pomp": 6943,
      "Poet": 6944,
      "against": 6945,
      "acyn": 6946,
      "Underdark": 6947,
      "Performer": 6948,
      "Valor": 6949,
      "napper": 6950,
      "oka": 6951,
      "eshift": 6952,
      "Thrice": 6953,
      "Renewal": 6954,
      "Absol": 6955,
      "Avacyn": 6956,
      "Nonartifact": 6957,
      "Terrain": 6958,
      "Approach": 6959,
      "Dreadmaw": 6960,
      "Grotag": 6961,
      "Maj": 6962,
      "Mausole": 6963,
      "Obliv": 6964,
      "Redcap": 6965,
      "Broken": 6966,
      "Broker": 6967,
      "Gods": 6968,
      "Ashes": 6969,
      "Ashling": 6970,
      "Immortal": 6971,
      "Windgrace": 6972,
      "transformed": 6973,
      "Network": 6974,
      "Solar": 6975,
      "Diabol": 6976,
      "Nimbus": 6977,
      "Sorrow": 6978,
      "bones": 6979,
      "oba": 6980,
      "obi": 6981,
      "Stars": 6982,
      "Brutal": 6983,
      "Rime": 6984,
      "bordered": 6985,
      "boryg": 6986,
      "keywords": 6987,
      "Servitude": 6988,
      "Corruption": 6989,
      "Sanctifier": 6990,
      "Cycl": 6991,
      "Thalia": 6992,
      "Instigator": 6993,
      "Werewolves": 6994,
      "Engineer": 6995,
      "Malakir": 6996,
      "equipment": 6997,
      "healing": 6998,
      "Illusionary": 6999,
      "Bank": 7000,
      "Banisher": 7001,
      "Manta": 7002,
      "Mantis": 7003,
      "bug": 7004,
      "offering": 7005,
      "Canal": 7006,
      "Scorcher": 7007,
      "Undaunted": 7008,
      "persist": 7009,
      "Sparkmage": 7010,
      "burden": 7011,
      "yser": 7012,
      "afflict": 7013,
      "nivore": 7014,
      "Joins": 7015,
      "Rabid": 7016,
      "Stomp": 7017,
      "feet": 7018,
      "Crescendo": 7019,
      "Grist": 7020,
      "increased": 7021,
      "Nightmares": 7022,
      "Reliqu": 7023,
      "Evolved": 7024,
      "Towering": 7025,
      "Wings": 7026,
      "Bloodthirsty": 7027,
      "Sleuth": 7028,
      "speak": 7029,
      "Tainted": 7030,
      "knife": 7031,
      "Guildmage": 7032,
      "Emberwil": 7033,
      "Genius": 7034,
      "Genju": 7035,
      "Scarab": 7036,
      "Locthwain": 7037,
      "Marauding": 7038,
      "Diviner": 7039,
      "Howl": 7040,
      "Turnti": 7041,
      "designed": 7042,
      "Chrome": 7043,
      "Lorehold": 7044,
      "Callous": 7045,
      "Horned": 7046,
      "Hornet": 7047,
      "Prairie": 7048,
      "Petal": 7049,
      "Wayf": 7050,
      "Compleation": 7051,
      "Slumbering": 7052,
      "Carriage": 7053,
      "Gremlins": 7054,
      "Clear": 7055,
      "Cleansing": 7056,
      "Gearhulk": 7057,
      "Haazda": 7058,
      "Sawblade": 7059,
      "Wilson": 7060,
      "Consuming": 7061,
      "Prismari": 7062,
      "Panther": 7063,
      "Pyretic": 7064,
      "baile": 7065,
      "Stinging": 7066,
      "Skirm": 7067,
      "Robots": 7068,
      "Leeches": 7069,
      "Ageless": 7070,
      "Emerald": 7071,
      "Limited": 7072,
      "Murk": 7073,
      "Punisher": 7074,
      "Predation": 7075,
      "Rasaad": 7076,
      "Chained": 7077,
      "Weaponry": 7078,
      "Rigger": 7079,
      "Chronicler": 7080,
      "Cabaretti": 7081,
      "Wasteland": 7082,
      "delay": 7083,
      "ification": 7084,
      "Paradise": 7085,
      "Revenge": 7086,
      "Vigilant": 7087,
      "Vigilante": 7088,
      "Invader": 7089,
      "Duplicant": 7090,
      "Explosion": 7091,
      "Rootwater": 7092,
      "Coward": 7093,
      "Drift": 7094,
      "Tactics": 7095,
      "piece": 7096,
      "Synth": 7097,
      "Borboryg": 7098,
      "Matsu": 7099,
      "Nurturing": 7100,
      "Piercer": 7101,
      "Rainbow": 7102,
      "ngarth": 7103,
      "Shinobi": 7104,
      "Univers": 7105,
      "Grasping": 7106,
      "Frontline": 7107,
      "Fathomless": 7108,
      "Knife": 7109,
      "Mizzet": 7110,
      "Mizzium": 7111,
      "Conscript": 7112,
      "Brawlers": 7113,
      "Hazoret": 7114,
      "Mongoose": 7115,
      "Mongrel": 7116,
      "Massacre": 7117,
      "Negoti": 7118,
      "Timing": 7119,
      "ouncer": 7120,
      "Defiler": 7121,
      "Demise": 7122,
      "Sculptor": 7123,
      "Triumphant": 7124,
      "Dais": 7125,
      "Makindi": 7126,
      "Uktabi": 7127,
      "Woe": 7128,
      "clockwise": 7129,
      "disturb": 7130,
      "direction": 7131,
      "hammer": 7132,
      "defense": 7133,
      "Arrows": 7134,
      "Glacial": 7135,
      "Liberator": 7136,
      "Beebles": 7137,
      "Acererak": 7138,
      "Feeder": 7139,
      "Navigator": 7140,
      "Tanazir": 7141,
      "Vultures": 7142,
      "stoker": 7143,
      "Enlightened": 7144,
      "Unstable": 7145,
      "Horizon": 7146,
      "Bellowing": 7147,
      "Gargantuan": 7148,
      "Bully": 7149,
      "Drana": 7150,
      "Melds": 7151,
      "Prankster": 7152,
      "Rankle": 7153,
      "Talent": 7154,
      "Trench": 7155,
      "Flagbearer": 7156,
      "Parasite": 7157,
      "Quarry": 7158,
      "Maestros": 7159,
      "Sharpshooter": 7160,
      "Apocaly": 7161,
      "Aberration": 7162,
      "Bubble": 7163,
      "Drownyard": 7164,
      "Frenzied": 7165,
      "Historian": 7166,
      "Kellan": 7167,
      "Patchwork": 7168,
      "Vantress": 7169,
      "Zurgo": 7170,
      "Invoker": 7171,
      "Orchard": 7172,
      "Symbi": 7173,
      "Valkyri": 7174,
      "Ceratops": 7175,
      "continuously": 7176,
      "Javelineer": 7177,
      "Archaeologist": 7178,
      "Avalanche": 7179,
      "Cackling": 7180,
      "Gryff": 7181,
      "Jelly": 7182,
      "Kitsune": 7183,
      "Kinsbaile": 7184,
      "Muscle": 7185,
      "Origin": 7186,
      "Ransom": 7187,
      "Sakashima": 7188,
      "Tahngarth": 7189,
      "Vesu": 7190,
      "Victory": 7191,
      "covered": 7192,
      "Storyteller": 7193,
      "Vampiric": 7194,
      "Assimilation": 7195,
      "survive": 7196,
      "Basalt": 7197,
      "Effigy": 7198,
      "Whisperer": 7199,
      "Betrayal": 7200,
      "Bauble": 7201,
      "Canyon": 7202,
      "Doppelganger": 7203,
      "Frantic": 7204,
      "Gimli": 7205,
      "Garenbrig": 7206,
      "Hinterland": 7207,
      "Jukai": 7208,
      "Kemba": 7209,
      "Kogla": 7210,
      "Kappa": 7211,
      "Leshrac": 7212,
      "Nishoba": 7213,
      "Psionic": 7214,
      "Righteous": 7215,
      "Teddy": 7216,
      "Tectonic": 7217,
      "Warchief": 7218,
      "Woolly": 7219,
      "fateseal": 7220,
      "Thopters": 7221,
      "Chameleon": 7222,
      "Seismic": 7223,
      "Shrewd": 7224,
      "Shifting": 7225,
      "Sheltered": 7226,
      "Scroun": 7227,
      "convoked": 7228,
      "scavenge": 7229,
      "Pharaoh": 7230,
      "Phelddagrif": 7231,
      "Unholy": 7232,
      "Marvels": 7233,
      "Reservoir": 7234,
      "Mausoleum": 7235,
      "Oblivion": 7236,
      "Diabolic": 7237,
      "Reliquary": 7238,
      "Emberwilde": 7239,
      "Turntimber": 7240,
      "Borborygmos": 7241,
      "Apocalypse": 7242,
      "16": 7243,
      "Aure": 7244,
      "Amph": 7245,
      "Arist": 7246,
      "Bit": 7247,
      "Beach": 7248,
      "Bill": 7249,
      "Bish": 7250,
      "Breach": 7251,
      "Bark": 7252,
      "Card": 7253,
      "Crom": 7254,
      "Cact": 7255,
      "Cad": 7256,
      "Colf": 7257,
      "Caret": 7258,
      "Crazed": 7259,
      "Cache": 7260,
      "Dil": 7261,
      "Dare": 7262,
      "Dorm": 7263,
      "Drow": 7264,
      "Diver": 7265,
      "Dwell": 7266,
      "Ear": 7267,
      "Ether": 7268,
      "Equ": 7269,
      "Eager": 7270,
      "Esper": 7271,
      "Foo": 7272,
      "Fun": 7273,
      "Fates": 7274,
      "Fert": 7275,
      "Fix": 7276,
      "Flint": 7277,
      "Ga": 7278,
      "Gi": 7279,
      "Gan": 7280,
      "Gle": 7281,
      "Gur": 7282,
      "Goo": 7283,
      "Gom": 7284,
      "Graz": 7285,
      "Grap": 7286,
      "Gix": 7287,
      "Gandal": 7288,
      "Gondor": 7289,
      "Hen": 7290,
      "Hoo": 7291,
      "Hate": 7292,
      "Hag": 7293,
      "Hive": 7294,
      "Hulking": 7295,
      "Ish": 7296,
      "Icon": 7297,
      "Ji": 7298,
      "Jab": 7299,
      "Jud": 7300,
      "Kr": 7301,
      "Khen": 7302,
      "Kir": 7303,
      "Knu": 7304,
      "Kul": 7305,
      "Kange": 7306,
      "Kelp": 7307,
      "Khal": 7308,
      "Kaya": 7309,
      "Lor": 7310,
      "Low": 7311,
      "Lone": 7312,
      "Lun": 7313,
      "Lash": 7314,
      "Lum": 7315,
      "Lumin": 7316,
      "Mate": 7317,
      "Madd": 7318,
      "Mne": 7319,
      "Make": 7320,
      "Money": 7321,
      "Na": 7322,
      "Ner": 7323,
      "Nac": 7324,
      "Never": 7325,
      "Nek": 7326,
      "Nix": 7327,
      "Och": 7328,
      "Past": 7329,
      "Part": 7330,
      "Pter": 7331,
      "Poll": 7332,
      "Pix": 7333,
      "Ry": 7334,
      "Rex": 7335,
      "Rup": 7336,
      "Rath": 7337,
      "Rag": 7338,
      "Raze": 7339,
      "Ronom": 7340,
      "Sz": 7341,
      "Sou": 7342,
      "Sure": 7343,
      "Sard": 7344,
      "Sch": 7345,
      "Sower": 7346,
      "Ster": 7347,
      "Sign": 7348,
      "Sundering": 7349,
      "Tel": 7350,
      "Til": 7351,
      "Tow": 7352,
      "Tire": 7353,
      "Tick": 7354,
      "Tish": 7355,
      "Tak": 7356,
      "Taunt": 7357,
      "Tinker": 7358,
      "Tattered": 7359,
      "Tami": 7360,
      "Utop": 7361,
      "Vat": 7362,
      "Vel": 7363,
      "Vap": 7364,
      "Vood": 7365,
      "Wat": 7366,
      "Wel": 7367,
      "Wary": 7368,
      "Wicker": 7369,
      "Wren": 7370,
      "Xander": 7371,
      "Yan": 7372,
      "Yor": 7373,
      "Yes": 7374,
      "Znd": 7375,
      "apper": 7376,
      "aunch": 7377,
      "bi": 7378,
      "bt": 7379,
      "big": 7380,
      "bark": 7381,
      "blight": 7382,
      "bender": 7383,
      "car": 7384,
      "cel": 7385,
      "cour": 7386,
      "clast": 7387,
      "crawler": 7388,
      "carn": 7389,
      "d4": 7390,
      "drop": 7391,
      "eath": 7392,
      "eking": 7393,
      "eye": 7394,
      "fam": 7395,
      "fell": 7396,
      "flo": 7397,
      "finger": 7398,
      "favor": 7399,
      "flinger": 7400,
      "fetch": 7401,
      "gn": 7402,
      "grown": 7403,
      "glyph": 7404,
      "hope": 7405,
      "ii": 7406,
      "irap": 7407,
      "iys": 7408,
      "jour": 7409,
      "juk": 7410,
      "jhan": 7411,
      "jiri": 7412,
      "know": 7413,
      "kram": 7414,
      "len": 7415,
      "large": 7416,
      "mat": 7417,
      "med": 7418,
      "mers": 7419,
      "mast": 7420,
      "mic": 7421,
      "mist": 7422,
      "matter": 7423,
      "nive": 7424,
      "nation": 7425,
      "nacle": 7426,
      "ninj": 7427,
      "natural": 7428,
      "oto": 7429,
      "ock": 7430,
      "oper": 7431,
      "oye": 7432,
      "por": 7433,
      "pot": 7434,
      "pses": 7435,
      "pag": 7436,
      "pass": 7437,
      "rin": 7438,
      "ril": 7439,
      "rut": 7440,
      "rated": 7441,
      "rspl": 7442,
      "sure": 7443,
      "sel": 7444,
      "sup": 7445,
      "site": 7446,
      "tre": 7447,
      "tage": 7448,
      "tru": 7449,
      "tsu": 7450,
      "taker": 7451,
      "uz": 7452,
      "uman": 7453,
      "vener": 7454,
      "vax": 7455,
      "wers": 7456,
      "want": 7457,
      "wid": 7458,
      "wrap": 7459,
      "xir": 7460,
      "yet": 7461,
      "yager": 7462,
      "respe": 7463,
      "retrace": 7464,
      "thus": 7465,
      "ati": 7466,
      "atin": 7467,
      "atli": 7468,
      "oubt": 7469,
      "ars": 7470,
      "arity": 7471,
      "arring": 7472,
      "anical": 7473,
      "enses": 7474,
      "inction": 7475,
      "investig": 7476,
      "incess": 7477,
      "onas": 7478,
      "onist": 7479,
      "onalli": 7480,
      "stand": 7481,
      "sters": 7482,
      "stead": 7483,
      "stop": 7484,
      "stops": 7485,
      "aces": 7486,
      "acrum": 7487,
      "coat": 7488,
      "rot": 7489,
      "orama": 7490,
      "thed": 7491,
      "itary": 7492,
      "itation": 7493,
      "itting": 7494,
      "tograph": 7495,
      "isse": 7496,
      "andu": 7497,
      "leth": 7498,
      "leater": 7499,
      "leaf": 7500,
      "alia": 7501,
      "ifies": 7502,
      "ural": 7503,
      "urist": 7504,
      "eling": 7505,
      "elia": 7506,
      "elix": 7507,
      "ase": 7508,
      "ashen": 7509,
      "erson": 7510,
      "ilis": 7511,
      "ilence": 7512,
      "changer": 7513,
      "plendent": 7514,
      "ploye": 7515,
      "bet": 7516,
      "utton": 7517,
      "eves": 7518,
      "evict": 7519,
      "within": 7520,
      "loch": 7521,
      "lowhen": 7522,
      "acks": 7523,
      "mbo": 7524,
      "forces": 7525,
      "lia": 7526,
      "Though": 7527,
      "Third": 7528,
      "Through": 7529,
      "ado": 7530,
      "adan": 7531,
      "adon": 7532,
      "epic": 7533,
      "arted": 7534,
      "arters": 7535,
      "grant": 7536,
      "grass": 7537,
      "rifter": 7538,
      "cannon": 7539,
      "ckle": 7540,
      "quil": 7541,
      "quito": 7542,
      "tiv": 7543,
      "sserhorn": 7544,
      "kered": 7545,
      "moor": 7546,
      "mogoyf": 7547,
      "apse": 7548,
      "twatch": 7549,
      "riel": 7550,
      "unal": 7551,
      "Atark": 7552,
      "Rec": 7553,
      "Rem": 7554,
      "Restor": 7555,
      "Reactor": 7556,
      "Enc": 7557,
      "mberwald": 7558,
      "Admir": 7559,
      "coming": 7560,
      "cetic": 7561,
      "door": 7562,
      "dotha": 7563,
      "Deal": 7564,
      "Demo": 7565,
      "Detain": 7566,
      "blic": 7567,
      "shin": 7568,
      "mpalm": 7569,
      "added": 7570,
      "keepers": 7571,
      "enchants": 7572,
      "nonsnow": 7573,
      "met": 7574,
      "mestic": 7575,
      "sorry": 7576,
      "Chie": 7577,
      "Exter": 7578,
      "quist": 7579,
      "areth": 7580,
      "arent": 7581,
      "arest": 7582,
      "Asmad": 7583,
      "Ascetic": 7584,
      "igawa": 7585,
      "Spo": 7586,
      "Space": 7587,
      "Spitter": 7588,
      "Sparring": 7589,
      "essive": 7590,
      "ids": 7591,
      "ident": 7592,
      "Them": 7593,
      "ourishing": 7594,
      "uls": 7595,
      "ulker": 7596,
      "ulacrum": 7597,
      "Stro": 7598,
      "Still": 7599,
      "Stud": 7600,
      "Stair": 7601,
      "Staunch": 7602,
      "Sejiri": 7603,
      "ruly": 7604,
      "athran": 7605,
      "Arv": 7606,
      "Armo": 7607,
      "Arden": 7608,
      "Array": 7609,
      "Arwen": 7610,
      "Ann": 7611,
      "Anax": 7612,
      "Angler": 7613,
      "nothing": 7614,
      "noisse": 7615,
      "Shu": 7616,
      "Shim": 7617,
      "ryn": 7618,
      "proce": 7619,
      "agorger": 7620,
      "sence": 7621,
      "Drau": 7622,
      "phon": 7623,
      "phage": 7624,
      "ookie": 7625,
      "converted": 7626,
      "connive": 7627,
      "estic": 7628,
      "umn": 7629,
      "Forager": 7630,
      "Foragers": 7631,
      "Foriys": 7632,
      "oldred": 7633,
      "Plume": 7634,
      "Plasma": 7635,
      "Plunderer": 7636,
      "imen": 7637,
      "neous": 7638,
      "nearest": 7639,
      "Coy": 7640,
      "Code": 7641,
      "Cocoon": 7642,
      "Dragonfly": 7643,
      "ickle": 7644,
      "ickkn": 7645,
      "legs": 7646,
      "monic": 7647,
      "Process": 7648,
      "Provis": 7649,
      "Processor": 7650,
      "Propag": 7651,
      "Tresserhorn": 7652,
      "phasing": 7653,
      "Conqu": 7654,
      "Connoisse": 7655,
      "Spiritmonger": 7656,
      "body": 7657,
      "Roh": 7658,
      "Roil": 7659,
      "Road": 7660,
      "Roiling": 7661,
      "ickering": 7662,
      "Skoph": 7663,
      "Skulker": 7664,
      "range": 7665,
      "ranos": 7666,
      "voice": 7667,
      "awing": 7668,
      "sia": 7669,
      "Fog": 7670,
      "Huatli": 7671,
      "Elspe": 7672,
      "Token": 7673,
      "ftain": 7674,
      "anged": 7675,
      "Unknown": 7676,
      "Unruly": 7677,
      "Bloodfire": 7678,
      "Bloodline": 7679,
      "Bloodhall": 7680,
      "Bloodsucker": 7681,
      "worker": 7682,
      "Orgg": 7683,
      "Blind": 7684,
      "Blaring": 7685,
      "Bladed": 7686,
      "Flayer": 7687,
      "Flux": 7688,
      "Flourishing": 7689,
      "Mole": 7690,
      "Moloch": 7691,
      "Devoted": 7692,
      "Merry": 7693,
      "poisoned": 7694,
      "winning": 7695,
      "azoa": 7696,
      "Bomber": 7697,
      "Bojuk": 7698,
      "reader": 7699,
      "Serrated": 7700,
      "shade": 7701,
      "chair": 7702,
      "Spellgorger": 7703,
      "venwald": 7704,
      "geline": 7705,
      "check": 7706,
      "Angels": 7707,
      "Myra": 7708,
      "Domestic": 7709,
      "Fireball": 7710,
      "Firebird": 7711,
      "Firecannon": 7712,
      "goes": 7713,
      "Surrak": 7714,
      "Surgical": 7715,
      "Soulblade": 7716,
      "falls": 7717,
      "regenerates": 7718,
      "Mangler": 7719,
      "Managorger": 7720,
      "Discharge": 7721,
      "Plainswalk": 7722,
      "diver": 7723,
      "Teys": 7724,
      "Fault": 7725,
      "Beastie": 7726,
      "Squatters": 7727,
      "Hybrid": 7728,
      "Marjhan": 7729,
      "mutated": 7730,
      "kindred": 7731,
      "Storms": 7732,
      "Common": 7733,
      "Suns": 7734,
      "Sunlit": 7735,
      "Snitch": 7736,
      "Snail": 7737,
      "Snakes": 7738,
      "Snapper": 7739,
      "Demonstrate": 7740,
      "creeper": 7741,
      "Baron": 7742,
      "tric": 7743,
      "tracker": 7744,
      "Weak": 7745,
      "Week": 7746,
      "minent": 7747,
      "minimum": 7748,
      "Sludge": 7749,
      "Graveyard": 7750,
      "Entran": 7751,
      "Entrop": 7752,
      "Commanders": 7753,
      "Suit": 7754,
      "Susp": 7755,
      "Hover": 7756,
      "berry": 7757,
      "ractor": 7758,
      "ooming": 7759,
      "Outburst": 7760,
      "Triome": 7761,
      "Contag": 7762,
      "Trained": 7763,
      "Minas": 7764,
      "Harsh": 7765,
      "Harness": 7766,
      "Work": 7767,
      "ensive": 7768,
      "Flamekin": 7769,
      "Gateway": 7770,
      "Gatebreaker": 7771,
      "Gatekeepers": 7772,
      "Glutton": 7773,
      "Ruthless": 7774,
      "Geyser": 7775,
      "Gempalm": 7776,
      "Nightshade": 7777,
      "Corpses": 7778,
      "Paral": 7779,
      "Parcel": 7780,
      "Quag": 7781,
      "Prime": 7782,
      "Prized": 7783,
      "Cartograph": 7784,
      "Pyram": 7785,
      "Trisk": 7786,
      "Deathless": 7787,
      "uki": 7788,
      "uku": 7789,
      "ukranos": 7790,
      "Resp": 7791,
      "Resur": 7792,
      "Resplendent": 7793,
      "Mercadian": 7794,
      "Merciless": 7795,
      "Deserts": 7796,
      "Chaplain": 7797,
      "Chakram": 7798,
      "Fearless": 7799,
      "Moria": 7800,
      "Mindless": 7801,
      "Tymare": 7802,
      "Balor": 7803,
      "Balrog": 7804,
      "mory": 7805,
      "Base": 7806,
      "Sanity": 7807,
      "Crash": 7808,
      "lectro": 7809,
      "Ghirap": 7810,
      "Poly": 7811,
      "Aetherborn": 7812,
      "zzard": 7813,
      "Metathran": 7814,
      "Princess": 7815,
      "Peril": 7816,
      "collection": 7817,
      "Chari": 7818,
      "seeks": 7819,
      "Overgrown": 7820,
      "Incubation": 7821,
      "eshot": 7822,
      "Throng": 7823,
      "Serpents": 7824,
      "Magical": 7825,
      "Sandste": 7826,
      "Deadly": 7827,
      "renton": 7828,
      "Blackblade": 7829,
      "Employe": 7830,
      "gged": 7831,
      "stickered": 7832,
      "Abzan": 7833,
      "Avar": 7834,
      "Avian": 7835,
      "Nonland": 7836,
      "Sojour": 7837,
      "Somberwald": 7838,
      "Ascended": 7839,
      "Apple": 7840,
      "Drill": 7841,
      "Grunt": 7842,
      "Grinder": 7843,
      "Oozeavite": 7844,
      "Pyroclast": 7845,
      "Crook": 7846,
      "Crovax": 7847,
      "splitter": 7848,
      "question": 7849,
      "Heartfire": 7850,
      "Firest": 7851,
      "Gorge": 7852,
      "Moonfolk": 7853,
      "regard": 7854,
      "intensifies": 7855,
      "Ripple": 7856,
      "Eternity": 7857,
      "Karlov": 7858,
      "Kamigawa": 7859,
      "amassed": 7860,
      "Corrupt": 7861,
      "ocrat": 7862,
      "Ghostfire": 7863,
      "Refrain": 7864,
      "Planet": 7865,
      "vanishing": 7866,
      "Accur": 7867,
      "Acquis": 7868,
      "Doomed": 7869,
      "Patient": 7870,
      "Patriarch": 7871,
      "Illusions": 7872,
      "Illusionist": 7873,
      "Germany": 7874,
      "Offering": 7875,
      "bushido": 7876,
      "Chimney": 7877,
      "crease": 7878,
      "Purse": 7879,
      "Person": 7880,
      "Ridgeline": 7881,
      "Smash": 7882,
      "case": 7883,
      "Clouds": 7884,
      "Pupp": 7885,
      "Puppe": 7886,
      "Voyager": 7887,
      "Reckoner": 7888,
      "Rabble": 7889,
      "Stoic": 7890,
      "Venom": 7891,
      "Charmed": 7892,
      "Capashen": 7893,
      "Grixis": 7894,
      "Luck": 7895,
      "marked": 7896,
      "Thornling": 7897,
      "Fortune": 7898,
      "Fortified": 7899,
      "Rockslide": 7900,
      "Necrogen": 7901,
      "Necromancy": 7902,
      "Fleeting": 7903,
      "Psycho": 7904,
      "ticket": 7905,
      "Waterveil": 7906,
      "jump": 7907,
      "leech": 7908,
      "Animus": 7909,
      "Fungal": 7910,
      "Trooper": 7911,
      "grin": 7912,
      "Thrash": 7913,
      "Torchling": 7914,
      "Earthquake": 7915,
      "Earthshaker": 7916,
      "Glorious": 7917,
      "Tarmogoyf": 7918,
      "Scars": 7919,
      "Scarred": 7920,
      "Whispers": 7921,
      "Prisoner": 7922,
      "Botanical": 7923,
      "Divining": 7924,
      "Feather": 7925,
      "Vorrac": 7926,
      "someone": 7927,
      "Caustic": 7928,
      "Fester": 7929,
      "Little": 7930,
      "Sensor": 7931,
      "Ulvenwald": 7932,
      "appears": 7933,
      "brain": 7934,
      "Pretender": 7935,
      "Presence": 7936,
      "Petra": 7937,
      "Pestilence": 7938,
      "Errant": 7939,
      "Ebony": 7940,
      "Hidetsu": 7941,
      "Lizards": 7942,
      "Hagra": 7943,
      "Hollowhen": 7944,
      "Igneous": 7945,
      "Watchful": 7946,
      "Scrapyard": 7947,
      "earned": 7948,
      "Assistant": 7949,
      "Ants": 7950,
      "Panorama": 7951,
      "chase": 7952,
      "Arashin": 7953,
      "Generous": 7954,
      "Below": 7955,
      "Daru": 7956,
      "Denizen": 7957,
      "Emergence": 7958,
      "Murder": 7959,
      "Punct": 7960,
      "Punishment": 7961,
      "Rubin": 7962,
      "Supply": 7963,
      "Tenacious": 7964,
      "impending": 7965,
      "ortionist": 7966,
      "Grafted": 7967,
      "Blizzard": 7968,
      "Journal": 7969,
      "Vivien": 7970,
      "thirty": 7971,
      "Mechtitan": 7972,
      "Narset": 7973,
      "Spitfire": 7974,
      "Shriek": 7975,
      "Shrieker": 7976,
      "Shrieking": 7977,
      "Conductor": 7978,
      "Primordium": 7979,
      "continues": 7980,
      "Invas": 7981,
      "Duplicity": 7982,
      "Jackal": 7983,
      "Kaerve": 7984,
      "Pinnacle": 7985,
      "Rhonas": 7986,
      "Simulacrum": 7987,
      "pieces": 7988,
      "essional": 7989,
      "Vecna": 7990,
      "Synthes": 7991,
      "Obsessive": 7992,
      "Salvager": 7993,
      "Ridges": 7994,
      "Apex": 7995,
      "Borderpost": 7996,
      "Blooming": 7997,
      "Campus": 7998,
      "Jewel": 7999,
      "Piercing": 8000,
      "Wellspring": 8001,
      "beneath": 8002,
      "Frontier": 8003,
      "Evangelist": 8004,
      "Tajic": 8005,
      "Badger": 8006,
      "Boundless": 8007,
      "Gigant": 8008,
      "Scrivener": 8009,
      "Surveill": 8010,
      "Buzzard": 8011,
      "Dominus": 8012,
      "Tormentor": 8013,
      "breakers": 8014,
      "Excavation": 8015,
      "Brawl": 8016,
      "Faces": 8017,
      "Favorite": 8018,
      "Jeska": 8019,
      "Kindle": 8020,
      "Penumbra": 8021,
      "Polukranos": 8022,
      "Saint": 8023,
      "jection": 8024,
      "stein": 8025,
      "Regal": 8026,
      "Seeing": 8027,
      "Seething": 8028,
      "Prophet": 8029,
      "Prophetic": 8030,
      "Gnarlid": 8031,
      "Agonies": 8032,
      "Brushwagg": 8033,
      "Makeshift": 8034,
      "Tetrav": 8035,
      "Wojek": 8036,
      "Yuan": 8037,
      "distance": 8038,
      "direct": 8039,
      "magnet": 8040,
      "demonstrate": 8041,
      "briar": 8042,
      "Shoreline": 8043,
      "Screaming": 8044,
      "Coveted": 8045,
      "Hobbit": 8046,
      "Glaciers": 8047,
      "Blocking": 8048,
      "Camel": 8049,
      "Gitrog": 8050,
      "Linvala": 8051,
      "Mayhem": 8052,
      "Tranquil": 8053,
      "fortune": 8054,
      "Covert": 8055,
      "Carnage": 8056,
      "Tyranno": 8057,
      "Nyxborn": 8058,
      "Cloister": 8059,
      "Kazandu": 8060,
      "Militia": 8061,
      "Mourning": 8062,
      "Sauron": 8063,
      "Vastwood": 8064,
      "fitted": 8065,
      "incorpor": 8066,
      "Extractor": 8067,
      "Sheoldred": 8068,
      "Bristling": 8069,
      "Officer": 8070,
      "Librarian": 8071,
      "Scuttling": 8072,
      "Cottage": 8073,
      "Civil": 8074,
      "Elixir": 8075,
      "Identity": 8076,
      "Separ": 8077,
      "ittersp": 8078,
      "Atlas": 8079,
      "Unyaro": 8080,
      "Guerrilla": 8081,
      "Artillery": 8082,
      "Catacomb": 8083,
      "Pursuit": 8084,
      "Incinerator": 8085,
      "Incarnate": 8086,
      "Mechanic": 8087,
      "Rejuvenator": 8088,
      "Branch": 8089,
      "Dutiful": 8090,
      "Dakmor": 8091,
      "Felidar": 8092,
      "Futurist": 8093,
      "Havoc": 8094,
      "Kathari": 8095,
      "Letter": 8096,
      "erspout": 8097,
      "Sprinter": 8098,
      "Sprouting": 8099,
      "Investigator": 8100,
      "Scalding": 8101,
      "Blinkmoth": 8102,
      "Moorland": 8103,
      "Heights": 8104,
      "Deserter": 8105,
      "Barrens": 8106,
      "Authority": 8107,
      "Skeletal": 8108,
      "Crucible": 8109,
      "Grisly": 8110,
      "balanced": 8111,
      "Grizzled": 8112,
      "Peaks": 8113,
      "Abandoned": 8114,
      "Banneret": 8115,
      "Cube": 8116,
      "Daxos": 8117,
      "Eagle": 8118,
      "Fugitive": 8119,
      "Gauntlet": 8120,
      "Heretic": 8121,
      "Lonely": 8122,
      "Ouphe": 8123,
      "PLAYER": 8124,
      "Rolling": 8125,
      "Rishadan": 8126,
      "Vaevict": 8127,
      "Yidaro": 8128,
      "received": 8129,
      "character": 8130,
      "demnation": 8131,
      "Stuffy": 8132,
      "Skarrgan": 8133,
      "Whirlpool": 8134,
      "Infectious": 8135,
      "Majestic": 8136,
      "Cyclone": 8137,
      "Skirmisher": 8138,
      "Valkyrie": 8139,
      "Aurelia": 8140,
      "Aristocrat": 8141,
      "Bishop": 8142,
      "Cromat": 8143,
      "Colfenor": 8144,
      "Caretaker": 8145,
      "Dormant": 8146,
      "Etherium": 8147,
      "Gixian": 8148,
      "Gomazoa": 8149,
      "Gandalf": 8150,
      "Khenra": 8151,
      "Knuckle": 8152,
      "Kuldotha": 8153,
      "Kangee": 8154,
      "Khalni": 8155,
      "Lorthos": 8156,
      "Mnemonic": 8157,
      "Moneychanger": 8158,
      "Nacatl": 8159,
      "Nixilis": 8160,
      "Rupture": 8161,
      "Tilonalli": 8162,
      "Tireless": 8163,
      "Tishana": 8164,
      "Tamiyo": 8165,
      "Voodoo": 8166,
      "Waterspout": 8167,
      "Yanling": 8168,
      "Zndrspl": 8169,
      "masters": 8170,
      "ninjutsu": 8171,
      "truth": 8172,
      "Atarka": 8173,
      "Restoration": 8174,
      "Admiral": 8175,
      "Chieftain": 8176,
      "Exterminator": 8177,
      "Asmadi": 8178,
      "ickknack": 8179,
      "Propagator": 8180,
      "Connoisseur": 8181,
      "Skophos": 8182,
      "Elspeth": 8183,
      "Bojuka": 8184,
      "Teysa": 8185,
      "Entropic": 8186,
      "Cartographer": 8187,
      "Pyramid": 8188,
      "Tymaret": 8189,
      "Ghirapur": 8190,
      "Sandsteppe": 8191
    },
    "merges": [
      [
        "r",
        "e"
      ],
      [
        "t",
        "h"
      ],
      [
        "a",
        "t"
      ],
      [
        "e",
        "r"
      ],
      [
        "n",
        "t"
      ],
      [
        "o",
        "u"
      ],
      [
        "a",
        "r"
      ],
      [
        "a",
        "n"
      ],
      [
        "e",
        "n"
      ],
      [
        "y",
        "ou"
      ],
      [
        "i",
        "n"
      ],
      [
        "re",
        "at"
      ],
      [
        "c",
        "reat"
      ],
      [
        "u",
        "re"
      ],
      [
        "o",
        "n"
      ],
      [
        "creat",
        "ure"
      ],
      [
        "g",
        "e"
      ],
      [
        "s",
        "t"
      ],
      [
        "ar",
        "d"
      ],
      [
        "a",
        "c"
      ],
      [
        "c",
        "o"
      ],
      [
        "r",
        "o"
      ],
      [
        "o",
        "r"
      ],
      [
        "th",
        "e"
      ],
      [
        "i",
        "t"
      ],
      [
        "t",
        "o"
      ],
      [
        "o",
        "f"
      ],
      [
        "i",
        "s"
      ],
      [
        "an",
        "d"
      ],
      [
        "c",
        "ard"
      ],
      [
        "l",
        "e"
      ],
      [
        "a",
        "l"
      ],
      [
        "ge",
        "t"
      ],
      [
        "a",
        "y"
      ],
      [
        "e",
        "nt"
      ],
      [
        "i",
        "f"
      ],
      [
        "u",
        "r"
      ],
      [
        "in",
        "g"
      ],
      [
        "h",
        "en"
      ],
      [
        "you",
        "r"
      ],
      [
        "ro",
        "l"
      ],
      [
        "ar",
        "get"
      ],
      [
        "W",
        "hen"
      ],
      [
        "co",
        "nt"
      ],
      [
        "cont",
        "rol"
      ],
      [
        "ur",
        "n"
      ],
      [
        "e",
        "l"
      ],
      [
        "r",
        "a"
      ],
      [
        "t",
        "urn"
      ],
      [
        "a",
        "s"
      ],
      [
        "e",
        "s"
      ],
      [
        "e",
        "d"
      ],
      [
        "er",
        "s"
      ],
      [
        "t",
        "arget"
      ],
      [
        "i",
        "l"
      ],
      [
        "a",
        "m"
      ],
      [
        "th",
        "is"
      ],
      [
        "v",
        "e"
      ],
      [
        "c",
        "h"
      ],
      [
        "d",
        "e"
      ],
      [
        "a",
        "st"
      ],
      [
        "p",
        "l"
      ],
      [
        "en",
        "d"
      ],
      [
        "i",
        "c"
      ],
      [
        "ac",
        "h"
      ],
      [
        "i",
        "th"
      ],
      [
        "b",
        "e"
      ],
      [
        "u",
        "t"
      ],
      [
        "ou",
        "nt"
      ],
      [
        "at",
        "t"
      ],
      [
        "e",
        "v"
      ],
      [
        "th",
        "at"
      ],
      [
        "w",
        "ith"
      ],
      [
        "m",
        "an"
      ],
      [
        "/",
        "+"
      ],
      [
        "s",
        "p"
      ],
      [
        "u",
        "nt"
      ],
      [
        "l",
        "y"
      ],
      [
        "p",
        "p"
      ],
      [
        "el",
        "l"
      ],
      [
        "ev",
        "er"
      ],
      [
        "c",
        "ount"
      ],
      [
        "m",
        "ay"
      ],
      [
        "pl",
        "ay"
      ],
      [
        "a",
        "ge"
      ],
      [
        "When",
        "ever"
      ],
      [
        "ent",
        "ers"
      ],
      [
        "l",
        "o"
      ],
      [
        "sp",
        "ell"
      ],
      [
        "ro",
        "m"
      ],
      [
        "f",
        "rom"
      ],
      [
        "c",
        "ast"
      ],
      [
        "am",
        "age"
      ],
      [
        "e",
        "ach"
      ],
      [
        "ac",
        "k"
      ],
      [
        "e",
        "x"
      ],
      [
        "play",
        "er"
      ],
      [
        "a",
        "in"
      ],
      [
        "card",
        "s"
      ],
      [
        "d",
        "amage"
      ],
      [
        "m",
        "b"
      ],
      [
        "a",
        "nt"
      ],
      [
        "de",
        "al"
      ],
      [
        "unt",
        "il"
      ],
      [
        "p",
        "ut"
      ],
      [
        "s",
        "e"
      ],
      [
        "o",
        "w"
      ],
      [
        "f",
        "or"
      ],
      [
        "i",
        "r"
      ],
      [
        "l",
        "i"
      ],
      [
        "T",
        "h"
      ],
      [
        "ic",
        "e"
      ],
      [
        "Y",
        "ou"
      ],
      [
        "it",
        "s"
      ],
      [
        "g",
        "ain"
      ],
      [
        "ac",
        "t"
      ],
      [
        "h",
        "and"
      ],
      [
        "i",
        "le"
      ],
      [
        "ar",
        "y"
      ],
      [
        "a",
        "d"
      ],
      [
        "e",
        "p"
      ],
      [
        "k",
        "en"
      ],
      [
        "creature",
        "s"
      ],
      [
        "ar",
        "t"
      ],
      [
        "g",
        "ra"
      ],
      [
        "y",
        "ard"
      ],
      [
        "ve",
        "yard"
      ],
      [
        "r",
        "if"
      ],
      [
        "gra",
        "veyard"
      ],
      [
        "ly",
        "ing"
      ],
      [
        "I",
        "f"
      ],
      [
        "ac",
        "rif"
      ],
      [
        "nt",
        "o"
      ],
      [
        "c",
        "an"
      ],
      [
        "l",
        "and"
      ],
      [
        "count",
        "er"
      ],
      [
        "b",
        "r"
      ],
      [
        "th",
        "er"
      ],
      [
        "l",
        "if"
      ],
      [
        "to",
        "ken"
      ],
      [
        "li",
        "br"
      ],
      [
        "ra",
        "w"
      ],
      [
        "deal",
        "s"
      ],
      [
        "libr",
        "ary"
      ],
      [
        "f",
        "i"
      ],
      [
        "ch",
        "ant"
      ],
      [
        "o",
        "pp"
      ],
      [
        "on",
        "ent"
      ],
      [
        "opp",
        "onent"
      ],
      [
        "get",
        "s"
      ],
      [
        "on",
        "e"
      ],
      [
        "c",
        "k"
      ],
      [
        "q",
        "u"
      ],
      [
        "man",
        "a"
      ],
      [
        "if",
        "act"
      ],
      [
        "t",
        "i"
      ],
      [
        "att",
        "ack"
      ],
      [
        "u",
        "p"
      ],
      [
        "o",
        "o"
      ],
      [
        "lif",
        "e"
      ],
      [
        "acrif",
        "ice"
      ],
      [
        "art",
        "ifact"
      ],
      [
        "s",
        "s"
      ],
      [
        "k",
        "e"
      ],
      [
        "an",
        "y"
      ],
      [
        "m",
        "o"
      ],
      [
        "el",
        "d"
      ],
      [
        "a",
        "p"
      ],
      [
        "att",
        "le"
      ],
      [
        "lo",
        "ck"
      ],
      [
        "t",
        "w"
      ],
      [
        "b",
        "attle"
      ],
      [
        "fi",
        "eld"
      ],
      [
        "battle",
        "field"
      ],
      [
        "o",
        "ther"
      ],
      [
        "b",
        "lock"
      ],
      [
        "le",
        "ss"
      ],
      [
        "co",
        "st"
      ],
      [
        "p",
        "er"
      ],
      [
        "tw",
        "o"
      ],
      [
        "n",
        "ing"
      ],
      [
        "g",
        "in"
      ],
      [
        "be",
        "gin"
      ],
      [
        "begin",
        "ning"
      ],
      [
        "pp",
        "ed"
      ],
      [
        "r",
        "i"
      ],
      [
        "h",
        "as"
      ],
      [
        "u",
        "n"
      ],
      [
        "A",
        "t"
      ],
      [
        "man",
        "ent"
      ],
      [
        "ex",
        "ile"
      ],
      [
        "R",
        "e"
      ],
      [
        "per",
        "manent"
      ],
      [
        "i",
        "nto"
      ],
      [
        "F",
        "lying"
      ],
      [
        "w",
        "h"
      ],
      [
        "p",
        "ay"
      ],
      [
        "ow",
        "n"
      ],
      [
        "th",
        "en"
      ],
      [
        "i",
        "on"
      ],
      [
        "count",
        "ers"
      ],
      [
        "Th",
        "is"
      ],
      [
        "on",
        "g"
      ],
      [
        "d",
        "raw"
      ],
      [
        "at",
        "e"
      ],
      [
        "a",
        "b"
      ],
      [
        "E",
        "n"
      ],
      [
        "S",
        "acrifice"
      ],
      [
        "mb",
        "er"
      ],
      [
        "al",
        "l"
      ],
      [
        "A",
        "d"
      ],
      [
        "i",
        "es"
      ],
      [
        "to",
        "p"
      ],
      [
        "h",
        "a"
      ],
      [
        "co",
        "m"
      ],
      [
        "n",
        "u"
      ],
      [
        "g",
        "h"
      ],
      [
        "T",
        "arget"
      ],
      [
        "nu",
        "mber"
      ],
      [
        "c",
        "e"
      ],
      [
        "co",
        "mb"
      ],
      [
        "l",
        "or"
      ],
      [
        "oo",
        "se"
      ],
      [
        "d",
        "o"
      ],
      [
        "Ad",
        "d"
      ],
      [
        "comb",
        "at"
      ],
      [
        "l",
        "d"
      ],
      [
        "u",
        "e"
      ],
      [
        "the",
        "ir"
      ],
      [
        "co",
        "lor"
      ],
      [
        "D",
        "e"
      ],
      [
        "b",
        "l"
      ],
      [
        "En",
        "chant"
      ],
      [
        "s",
        "h"
      ],
      [
        "gain",
        "s"
      ],
      [
        "st",
        "ro"
      ],
      [
        "mo",
        "re"
      ],
      [
        "creat",
        "e"
      ],
      [
        "ow",
        "er"
      ],
      [
        "a",
        "pped"
      ],
      [
        "stro",
        "y"
      ],
      [
        "e",
        "re"
      ],
      [
        "C",
        "reat"
      ],
      [
        "I",
        "t"
      ],
      [
        "d",
        "er"
      ],
      [
        "on",
        "ly"
      ],
      [
        "p",
        "ower"
      ],
      [
        "e",
        "qu"
      ],
      [
        "m",
        "p"
      ],
      [
        "in",
        "st"
      ],
      [
        "c",
        "ti"
      ],
      [
        "P",
        "ut"
      ],
      [
        "ha",
        "ve"
      ],
      [
        "ad",
        "d"
      ],
      [
        "ke",
        "ep"
      ],
      [
        "c",
        "er"
      ],
      [
        "st",
        "ep"
      ],
      [
        "en",
        "chant"
      ],
      [
        "attack",
        "s"
      ],
      [
        "ac",
        "e"
      ],
      [
        "n",
        "on"
      ],
      [
        "is",
        "card"
      ],
      [
        "m",
        "ent"
      ],
      [
        "f",
        "f"
      ],
      [
        "up",
        "keep"
      ],
      [
        "m",
        "e"
      ],
      [
        "block",
        "ed"
      ],
      [
        "f",
        "lying"
      ],
      [
        "k",
        "er"
      ],
      [
        "be",
        "com"
      ],
      [
        "s",
        "or"
      ],
      [
        "il",
        "it"
      ],
      [
        "ab",
        "ilit"
      ],
      [
        "C",
        "h"
      ],
      [
        "o",
        "t"
      ],
      [
        "t",
        "apped"
      ],
      [
        "re",
        "e"
      ],
      [
        "cer",
        "y"
      ],
      [
        "sor",
        "cery"
      ],
      [
        "E",
        "x"
      ],
      [
        "ex",
        "t"
      ],
      [
        "equ",
        "al"
      ],
      [
        "re",
        "ve"
      ],
      [
        "o",
        "nto"
      ],
      [
        "qu",
        "i"
      ],
      [
        "a",
        "re"
      ],
      [
        "E",
        "qui"
      ],
      [
        "D",
        "raw"
      ],
      [
        "an",
        "other"
      ],
      [
        "b",
        "y"
      ],
      [
        "mp",
        "le"
      ],
      [
        "control",
        "s"
      ],
      [
        "A",
        "s"
      ],
      [
        "becom",
        "es"
      ],
      [
        "i",
        "g"
      ],
      [
        "ast",
        "e"
      ],
      [
        "n",
        "ext"
      ],
      [
        "am",
        "e"
      ],
      [
        "ra",
        "mple"
      ],
      [
        "S",
        "p"
      ],
      [
        "w",
        "al"
      ],
      [
        "ch",
        "o"
      ],
      [
        "th",
        "ree"
      ],
      [
        "t",
        "y"
      ],
      [
        "es",
        "s"
      ],
      [
        "i",
        "d"
      ],
      [
        "l",
        "er"
      ],
      [
        "ou",
        "ld"
      ],
      [
        "it",
        "ion"
      ],
      [
        "own",
        "er"
      ],
      [
        "Th",
        "e"
      ],
      [
        "l",
        "ong"
      ],
      [
        "re",
        "turn"
      ],
      [
        "o",
        "l"
      ],
      [
        "t",
        "ou"
      ],
      [
        "Ex",
        "ile"
      ],
      [
        "v",
        "al"
      ],
      [
        "s",
        "acrifice"
      ],
      [
        "ir",
        "st"
      ],
      [
        "reve",
        "al"
      ],
      [
        "add",
        "ition"
      ],
      [
        "it",
        "e"
      ],
      [
        "s",
        "es"
      ],
      [
        "u",
        "ff"
      ],
      [
        "ch",
        "oose"
      ],
      [
        "Creat",
        "e"
      ],
      [
        "uff",
        "le"
      ],
      [
        "ar",
        "ch"
      ],
      [
        "as",
        "h"
      ],
      [
        "d",
        "ies"
      ],
      [
        "co",
        "p"
      ],
      [
        "re",
        "d"
      ],
      [
        "unt",
        "ap"
      ],
      [
        "ty",
        "p"
      ],
      [
        "v",
        "ate"
      ],
      [
        "val",
        "ue"
      ],
      [
        "sh",
        "uffle"
      ],
      [
        "o",
        "m"
      ],
      [
        "Re",
        "turn"
      ],
      [
        "pl",
        "an"
      ],
      [
        "w",
        "ould"
      ],
      [
        "the",
        "m"
      ],
      [
        "st",
        "ri"
      ],
      [
        "ou",
        "t"
      ],
      [
        "wh",
        "ere"
      ],
      [
        "De",
        "stroy"
      ],
      [
        "e",
        "ad"
      ],
      [
        "es",
        "wal"
      ],
      [
        "ou",
        "r"
      ],
      [
        "h",
        "aste"
      ],
      [
        "plan",
        "eswal"
      ],
      [
        "an",
        "ce"
      ],
      [
        "stri",
        "ke"
      ],
      [
        "/",
        "-"
      ],
      [
        "u",
        "l"
      ],
      [
        "ti",
        "me"
      ],
      [
        "cop",
        "y"
      ],
      [
        "deal",
        "t"
      ],
      [
        "w",
        "ay"
      ],
      [
        "E",
        "ach"
      ],
      [
        "f",
        "ace"
      ],
      [
        "l",
        "ash"
      ],
      [
        "bl",
        "ack"
      ],
      [
        "re",
        "st"
      ],
      [
        "control",
        "ler"
      ],
      [
        "Equi",
        "p"
      ],
      [
        "t",
        "er"
      ],
      [
        "th",
        "an"
      ],
      [
        "inst",
        "ead"
      ],
      [
        "ur",
        "ing"
      ],
      [
        "Enchant",
        "ed"
      ],
      [
        "Ch",
        "oose"
      ],
      [
        "g",
        "re"
      ],
      [
        "c",
        "t"
      ],
      [
        "wh",
        "ite"
      ],
      [
        "f",
        "irst"
      ],
      [
        "enchant",
        "ment"
      ],
      [
        "a",
        "v"
      ],
      [
        "n",
        "ess"
      ],
      [
        "ig",
        "il"
      ],
      [
        "spell",
        "s"
      ],
      [
        "token",
        "s"
      ],
      [
        "d",
        "iscard"
      ],
      [
        "am",
        "ong"
      ],
      [
        "b",
        "le"
      ],
      [
        "igil",
        "ance"
      ],
      [
        "the",
        "y"
      ],
      [
        "A",
        "cti"
      ],
      [
        "addition",
        "al"
      ],
      [
        "il",
        "l"
      ],
      [
        "i",
        "e"
      ],
      [
        "S",
        "t"
      ],
      [
        "planeswal",
        "ker"
      ],
      [
        "lo",
        "ses"
      ],
      [
        "un",
        "less"
      ],
      [
        "U",
        "nt"
      ],
      [
        "de",
        "stroy"
      ],
      [
        "Acti",
        "vate"
      ],
      [
        "gh",
        "t"
      ],
      [
        "abilit",
        "y"
      ],
      [
        "gre",
        "en"
      ],
      [
        "f",
        "end"
      ],
      [
        "attack",
        "ing"
      ],
      [
        "S",
        "e"
      ],
      [
        "un",
        "der"
      ],
      [
        "o",
        "se"
      ],
      [
        "mo",
        "ve"
      ],
      [
        "r",
        "u"
      ],
      [
        "non",
        "land"
      ],
      [
        "inst",
        "ant"
      ],
      [
        "d",
        "uring"
      ],
      [
        "a",
        "th"
      ],
      [
        "D",
        "iscard"
      ],
      [
        "b",
        "as"
      ],
      [
        "with",
        "out"
      ],
      [
        "t",
        "rample"
      ],
      [
        "A",
        "r"
      ],
      [
        "to",
        "m"
      ],
      [
        "T",
        "hen"
      ],
      [
        "b",
        "ot"
      ],
      [
        "I",
        "n"
      ],
      [
        "w",
        "as"
      ],
      [
        "u",
        "s"
      ],
      [
        "gh",
        "ness"
      ],
      [
        "tou",
        "ghness"
      ],
      [
        "abilit",
        "ies"
      ],
      [
        "bot",
        "tom"
      ],
      [
        "ex",
        "c"
      ],
      [
        "A",
        "n"
      ],
      [
        "t",
        "e"
      ],
      [
        "Creat",
        "ure"
      ],
      [
        "n",
        "o"
      ],
      [
        "S",
        "h"
      ],
      [
        "d",
        "on"
      ],
      [
        "r",
        "y"
      ],
      [
        "th",
        "ose"
      ],
      [
        "p",
        "ro"
      ],
      [
        "enchant",
        "ed"
      ],
      [
        "am",
        "p"
      ],
      [
        "i",
        "v"
      ],
      [
        "lo",
        "o"
      ],
      [
        "cost",
        "s"
      ],
      [
        "a",
        "g"
      ],
      [
        "G",
        "o"
      ],
      [
        "l",
        "ing"
      ],
      [
        "i",
        "st"
      ],
      [
        "Creature",
        "s"
      ],
      [
        "v",
        "ent"
      ],
      [
        "e",
        "t"
      ],
      [
        "typ",
        "e"
      ],
      [
        "land",
        "s"
      ],
      [
        "o",
        "re"
      ],
      [
        "permanent",
        "s"
      ],
      [
        "F",
        "lash"
      ],
      [
        "ep",
        "t"
      ],
      [
        "t",
        "ap"
      ],
      [
        "S",
        "c"
      ],
      [
        "cho",
        "ice"
      ],
      [
        "f",
        "our"
      ],
      [
        "in",
        "k"
      ],
      [
        "exc",
        "ept"
      ],
      [
        "T",
        "rample"
      ],
      [
        "r",
        "and"
      ],
      [
        "exile",
        "d"
      ],
      [
        "le",
        "d"
      ],
      [
        "or",
        "der"
      ],
      [
        "g",
        "reat"
      ],
      [
        "acrif",
        "ic"
      ],
      [
        "s",
        "acrific"
      ],
      [
        "en",
        "er"
      ],
      [
        "rand",
        "om"
      ],
      [
        "i",
        "ght"
      ],
      [
        "de",
        "fend"
      ],
      [
        "pay",
        "ing"
      ],
      [
        "s",
        "en"
      ],
      [
        "I",
        "I"
      ],
      [
        "d",
        "is"
      ],
      [
        "T",
        "ap"
      ],
      [
        "T",
        "K"
      ],
      [
        "opponent",
        "s"
      ],
      [
        "el",
        "ink"
      ],
      [
        "Se",
        "arch"
      ],
      [
        "cho",
        "sen"
      ],
      [
        "D",
        "ra"
      ],
      [
        "p",
        "h"
      ],
      [
        "d",
        "own"
      ],
      [
        "oo",
        "k"
      ],
      [
        "o",
        "mb"
      ],
      [
        "re",
        "vent"
      ],
      [
        "c",
        "on"
      ],
      [
        "b",
        "ack"
      ],
      [
        "e",
        "st"
      ],
      [
        "m",
        "and"
      ],
      [
        "lo",
        "se"
      ],
      [
        "bas",
        "ic"
      ],
      [
        "att",
        "ach"
      ],
      [
        "u",
        "m"
      ],
      [
        "i",
        "an"
      ],
      [
        "tou",
        "ch"
      ],
      [
        "i",
        "re"
      ],
      [
        "en",
        "ace"
      ],
      [
        "F",
        "or"
      ],
      [
        "typ",
        "es"
      ],
      [
        "dis",
        "cards"
      ],
      [
        "O",
        "ther"
      ],
      [
        "o",
        "s"
      ],
      [
        "v",
        "igilance"
      ],
      [
        "bl",
        "ue"
      ],
      [
        "y",
        "c"
      ],
      [
        "n",
        "an"
      ],
      [
        "v",
        "er"
      ],
      [
        "do",
        "es"
      ],
      [
        "o",
        "ld"
      ],
      [
        "ab",
        "le"
      ],
      [
        "Unt",
        "il"
      ],
      [
        "st",
        "ru"
      ],
      [
        "i",
        "z"
      ],
      [
        "ath",
        "touch"
      ],
      [
        "e",
        "ct"
      ],
      [
        "color",
        "less"
      ],
      [
        "g",
        "ame"
      ],
      [
        "Equi",
        "pped"
      ],
      [
        "A",
        "l"
      ],
      [
        "P",
        "l"
      ],
      [
        "g",
        "on"
      ],
      [
        "great",
        "er"
      ],
      [
        "n",
        "am"
      ],
      [
        "r",
        "ou"
      ],
      [
        "se",
        "arch"
      ],
      [
        "L",
        "ook"
      ],
      [
        "target",
        "s"
      ],
      [
        "i",
        "m"
      ],
      [
        "n",
        "e"
      ],
      [
        "At",
        "t"
      ],
      [
        "it",
        "y"
      ],
      [
        "defend",
        "ing"
      ],
      [
        "at",
        "ed"
      ],
      [
        "t",
        "al"
      ],
      [
        "in",
        "e"
      ],
      [
        "C",
        "o"
      ],
      [
        "Dra",
        "gon"
      ],
      [
        "W",
        "ar"
      ],
      [
        "f",
        "ter"
      ],
      [
        "s",
        "c"
      ],
      [
        "cti",
        "on"
      ],
      [
        "m",
        "ill"
      ],
      [
        "ic",
        "k"
      ],
      [
        "le",
        "g"
      ],
      [
        "com",
        "mand"
      ],
      [
        "The",
        "y"
      ],
      [
        "does",
        "n"
      ],
      [
        "Z",
        "omb"
      ],
      [
        "n",
        "ame"
      ],
      [
        "\"",
        ")"
      ],
      [
        "g",
        "ener"
      ],
      [
        "nam",
        "ed"
      ],
      [
        "re",
        "move"
      ],
      [
        "stru",
        "cti"
      ],
      [
        "P",
        "h"
      ],
      [
        "de",
        "structi"
      ],
      [
        "destructi",
        "ble"
      ],
      [
        "m",
        "on"
      ],
      [
        "lif",
        "elink"
      ],
      [
        "P",
        "ro"
      ],
      [
        "to",
        "tal"
      ],
      [
        "leg",
        "end"
      ],
      [
        "T",
        "re"
      ],
      [
        "ou",
        "gh"
      ],
      [
        "artifact",
        "s"
      ],
      [
        "p",
        "has"
      ],
      [
        "unt",
        "apped"
      ],
      [
        "Sp",
        "ir"
      ],
      [
        "ou",
        "ble"
      ],
      [
        "m",
        "u"
      ],
      [
        "S",
        "w"
      ],
      [
        "s",
        "o"
      ],
      [
        "the",
        "re"
      ],
      [
        "re",
        "s"
      ],
      [
        "C",
        "on"
      ],
      [
        "bl",
        "in"
      ],
      [
        "C",
        "ount"
      ],
      [
        "V",
        "igilance"
      ],
      [
        "Go",
        "blin"
      ],
      [
        "man",
        "y"
      ],
      [
        "is",
        "e"
      ],
      [
        "Th",
        "at"
      ],
      [
        "or",
        "ph"
      ],
      [
        "n",
        "d"
      ],
      [
        "Count",
        "er"
      ],
      [
        "s",
        "u"
      ],
      [
        "ain",
        "s"
      ],
      [
        "Spir",
        "it"
      ],
      [
        "b",
        "o"
      ],
      [
        "pay",
        "s"
      ],
      [
        "loo",
        "k"
      ],
      [
        "as",
        "ure"
      ],
      [
        "Re",
        "move"
      ],
      [
        "a",
        "fter"
      ],
      [
[...]
