{
  "version": "1.0",
  "truncation": {
    "direction": "Right",
    "max_length": 512,
    "strategy": "LongestFirst",
    "stride": 0
  },
  "padding": {
    "strategy": "BatchLongest",
    "direction": "Right",
    "pad_to_multiple_of": null,
    "pad_id": 0,
    "pad_type_id": 0,
    "pad_token": "[PAD]"
  },
  "added_tokens": [
    {
      "id": 0,
      "content": "[PAD]",
      "single_word": false,
      "lstrip": false,
      "rstrip": false,
      "normalized": false,
      "special": true
    },
    {
      "id": 1,
      "content": "[UNK]",
      "single_word": false,
      "lstrip": false,
      "rstrip": false,
      "normalized": false,
      "special": true
    },
    {
      "id": 2,
      "content": "[CLS]",
      "single_word": false,
      "lstrip": false,
      "rstrip": false,
      "normalized": false,
      "special": true
    },
    {
      "id": 3,
      "content": "[SEP]",
      "single_word": false,
      "lstrip": false,
      "rstrip": false,
      "normalized": false,
      "special": true
    },
    {
      "id": 4,
      "content": "[MASK]",
      "single_word": false,
      "lstrip": false,
      "rstrip": false,
      "normalized": false,
      "special": true
    }
  ],
  "normalizer": null,
  "pre_tokenizer": {
    "type": "Whitespace"
  },
  "post_processor": null,
  "decoder": null,
  "model": {
    "type": "WordPiece",
    "unk_token": "[UNK]",
    "continuing_subword_prefix": "##",
    "max_input_chars_per_word": 100,
    "vocab": {
      "[PAD]": 0,
      "[UNK]": 1,
      "[CLS]": 2,
      "[SEP]": 3,
      "[MASK]": 4,
      "!": 5,
      "\"": 6,
      "#": 7,
      "$": 8,
      "&": 9,
      "'": 10,
      "(": 11,
      ")": 12,
      "+": 13,
      ",": 14,
      "-": 15,
      ".": 16,
      "/": 17,
      "0": 18,
      "1": 19,
      "2": 20,
      "3": 21,
      "4": 22,
      "5": 23,
      "6": 24,
      "7": 25,
      "8": 26,
      "9": 27,
      ":": 28,
      ";": 29,
      "<": 30,
      "=": 31,
      ">": 32,
      "?": 33,
      "A": 34,
      "B": 35,
      "C": 36,
      "D": 37,
      "E": 38,
      "F": 39,
      "G": 40,
      "H": 41,
      "I": 42,
      "J": 43,
      "K": 44,
      "L": 45,
      "M": 46,
      "N": 47,
      "O": 48,
      "P": 49,
      "Q": 50,
      "R": 51,
      "S": 52,
      "T": 53,
      "U": 54,
      "V": 55,
      "W": 56,
      "X": 57,
      "Y": 58,
      "Z": 59,
      "[": 60,
      "\\": 61,
      "]": 62,
      "_": 63,
      "a": 64,
      "b": 65,
      "c": 66,
      "d": 67,
      "e": 68,
      "f": 69,
      "g": 70,
      "h": 71,
      "i": 72,
      "j": 73,
      "k": 74,
      "l": 75,
      "m": 76,
      "n": 77,
      "o": 78,
      "p": 79,
      "q": 80,
      "r": 81,
      "s": 82,
      "t": 83,
      "u": 84,
      "v": 85,
      "w": 86,
      "x": 87,
      "y": 88,
      "z": 89,
      "{": 90,
      "|": 91,
      "}": 92,
      "®": 93,
      "²": 94,
      "½": 95,
      "ã": 96,
      "è": 97,
      "ñ": 98,
      "ö": 99,
      "ú": 100,
      "ü": 101,
      "Š": 102,
      "̶": 103,
      "π": 104,
      "—": 105,
      "•": 106,
      "™": 107,
      "→": 108,
      "−": 109,
      "√": 110,
      "∞": 111,
      "☐": 112,
      "♦": 113,
      "##x": 114,
      "##i": 115,
      "##l": 116,
      "##e": 117,
      "##s": 118,
      "##a": 119,
      "##r": 120,
      "##n": 121,
      "##g": 122,
      "##f": 123,
      "##d": 124,
      "##u": 125,
      "##o": 126,
      "##c": 127,
      "##k": 128,
      "##y": 129,
      "##w": 130,
      "##m": 131,
      "##b": 132,
      "##p": 133,
      "##t": 134,
      "##h": 135,
      "##v": 136,
      "##z": 137,
      "##K": 138,
      "##-": 139,
      "##0": 140,
      "##2": 141,
      "##R": 142,
      "##q": 143,
      "##E": 144,
      "##A": 145,
      "##D": 146,
      "##Y": 147,
      "##j": 148,
      "##+": 149,
      "##3": 150,
      "##è": 151,
      "##½": 152,
      "##}": 153,
      "##6": 154,
      "##ü": 155,
      "##I": 156,
      "##̶": 157,
      "##C": 158,
      "##\"": 159,
      "##)": 160,
      "##4": 161,
      "##O": 162,
      "##T": 163,
      "##N": 164,
      "##F": 165,
      "##S": 166,
      "##H": 167,
      "##[": 168,
      "##1": 169,
      "##8": 170,
      "##_": 171,
      "##9": 172,
      "##7": 173,
      "##/": 174,
      "##ú": 175,
      "##<": 176,
      "##W": 177,
      "##B": 178,
      "##J": 179,
      "##V": 180,
      "##ã": 181,
      "##L": 182,
      "##(": 183,
      "##5": 184,
      "##ñ": 185,
      "##'": 186,
      "##ö": 187,
      "##U": 188,
      "##—": 189,
      "##∞": 190,
      "##M": 191,
      "##re": 192,
      "##nt": 193,
      "##ou": 194,
      "##at": 195,
      "##er": 196,
      "th": 197,
      "##ar": 198,
      "you": 199,
      "##reat": 200,
      "creat": 201,
      "##nd": 202,
      "##ure": 203,
      "##am": 204,
      "creature": 205,
      "##ard": 206,
      "##en": 207,
      "##ac": 208,
      "##in": 209,
      "co": 210,
      "##ro": 211,
      "the": 212,
      "##et": 213,
      "##ame": 214,
      "to": 215,
      "##st": 216,
      "name": 217,
      "of": 218,
      "card": 219,
      "##ay": 220,
      "##an": 221,
      "##is": 222,
      "it": 223,
      "##le": 224,
      "##al": 225,
      "##ur": 226,
      "##hen": 227,
      "##nter": 228,
      "your": 229,
      "##arg": 230,
      "##on": 231,
      "##arget": 232,
      "##ing": 233,
      "##it": 234,
      "When": 235,
      "##rol": 236,
      "##if": 237,
      "cont": 238,
      "control": 239,
      "##es": 240,
      "on": 241,
      "##urn": 242,
      "##el": 243,
      "##or": 244,
      "##ve": 245,
      "target": 246,
      "this": 247,
      "an": 248,
      "##ed": 249,
      "##and": 250,
      "or": 251,
      "##il": 252,
      "turn": 253,
      "and": 254,
      "##ra": 255,
      "##nters": 256,
      "##ent": 257,
      "##ast": 258,
      "pl": 259,
      "##ach": 260,
      "##ith": 261,
      "be": 262,
      "##ut": 263,
      "de": 264,
      "that": 265,
      "with": 266,
      "##ic": 267,
      "##ev": 268,
      "/+": 269,
      "##ge": 270,
      "cou": 271,
      "unt": 272,
      "##ly": 273,
      "sp": 274,
      "##pp": 275,
      "##ever": 276,
      "may": 277,
      "play": 278,
      "Whenever": 279,
      "enters": 280,
      "##ell": 281,
      "end": 282,
      "##ch": 283,
      "##as": 284,
      "spell": 285,
      "##rom": 286,
      "##age": 287,
      "at": 288,
      "player": 289,
      "from": 290,
      "cast": 291,
      "##amage": 292,
      "damage": 293,
      "##os": 294,
      "##ack": 295,
      "each": 296,
      "##ain": 297,
      "deal": 298,
      "get": 299,
      "until": 300,
      "put": 301,
      "in": 302,
      "##mb": 303,
      "cards": 304,
      "##ant": 305,
      "for": 306,
      "as": 307,
      "bl": 308,
      "You": 309,
      "##ice": 310,
      "its": 311,
      "hand": 312,
      "##ib": 313,
      "gain": 314,
      "creatures": 315,
      "##lying": 316,
      "##ile": 317,
      "##ken": 318,
      "##rave": 319,
      "##ep": 320,
      "##yard": 321,
      "##ir": 322,
      "##raveyard": 323,
      "graveyard": 324,
      "If": 325,
      "##ary": 326,
      "##th": 327,
      "##rif": 328,
      "##acrif": 329,
      "man": 330,
      "att": 331,
      "##nto": 332,
      "Th": 333,
      "counter": 334,
      "lif": 335,
      "can": 336,
      "token": 337,
      "##dd": 338,
      "##xile": 339,
      "##ibr": 340,
      "libr": 341,
      "deals": 342,
      "library": 343,
      "##act": 344,
      "##raw": 345,
      "##onent": 346,
      "##pponent": 347,
      "opponent": 348,
      "##chant": 349,
      "gets": 350,
      "##nchant": 351,
      "is": 352,
      "mana": 353,
      "##rt": 354,
      "re": 355,
      "##ther": 356,
      "##ifact": 357,
      "attack": 358,
      "##acrifice": 359,
      "##ose": 360,
      "life": 361,
      "##rtifact": 362,
      "##ck": 363,
      "st": 364,
      "any": 365,
      "artifact": 366,
      "up": 367,
      "##qu": 368,
      "##att": 369,
      "##ho": 370,
      "##om": 371,
      "##eld": 372,
      "##attle": 373,
      "##ield": 374,
      "battle": 375,
      "##ock": 376,
      "one": 377,
      "##field": 378,
      "battlefield": 379,
      "tw": 380,
      "##ow": 381,
      "cost": 382,
      "##ke": 383,
      "block": 384,
      "##ore": 385,
      "##ap": 386,
      "##man": 387,
      "if": 388,
      "##ct": 389,
      "two": 390,
      "land": 391,
      "per": 392,
      "##gin": 393,
      "##ning": 394,
      "begin": 395,
      "beginning": 396,
      "##pped": 397,
      "Flying": 398,
      "##ess": 399,
      "At": 400,
      "##manent": 401,
      "exile": 402,
      "permanent": 403,
      "into": 404,
      "pay": 405,
      "then": 406,
      "##ion": 407,
      "##ll": 408,
      "##eturn": 409,
      "This": 410,
      "counters": 411,
      "draw": 412,
      "Sacrifice": 413,
      "##ies": 414,
      "has": 415,
      "##isc": 416,
      "##umb": 417,
      "##umber": 418,
      "top": 419,
      "##ong": 420,
      "number": 421,
      "Target": 422,
      "##iscard": 423,
      "##hoose": 424,
      "wh": 425,
      "col": 426,
      "comb": 427,
      "Add": 428,
      "##ate": 429,
      "combat": 430,
      "color": 431,
      "their": 432,
      "do": 433,
      "Enchant": 434,
      "ha": 435,
      "ab": 436,
      "gains": 437,
      "##ig": 438,
      "##ce": 439,
      "create": 440,
      "##ue": 441,
      "##stro": 442,
      "more": 443,
      "##apped": 444,
      "##ower": 445,
      "Creat": 446,
      "##stroy": 447,
      "It": 448,
      "power": 449,
      "##amp": 450,
      "only": 451,
      "equ": 452,
      "##ld": 453,
      "##wn": 454,
      "##iv": 455,
      "##ad": 456,
      "inst": 457,
      "##ere": 458,
      "own": 459,
      "Put": 460,
      "##ex": 461,
      "all": 462,
      "have": 463,
      "##ery": 464,
      "##les": 465,
      "attacks": 466,
      "step": 467,
      "enchant": 468,
      "non": 469,
      "De": 470,
      "##keep": 471,
      "upkeep": 472,
      "other": 473,
      "flying": 474,
      "##com": 475,
      "becom": 476,
      "add": 477,
      "##ace": 478,
      "##ilit": 479,
      "abilit": 480,
      "blocked": 481,
      "sor": 482,
      "##cery": 483,
      "sorcery": 484,
      "##ff": 485,
      "##ri": 486,
      "tapped": 487,
      "sh": 488,
      "equal": 489,
      "##ot": 490,
      "reve": 491,
      "##other": 492,
      "##ext": 493,
      "##ment": 494,
      "##qui": 495,
      "Equi": 496,
      "As": 497,
      "Draw": 498,
      "owner": 499,
      "another": 500,
      "less": 501,
      "##less": 502,
      "controls": 503,
      "##ctiv": 504,
      "##ree": 505,
      "##ample": 506,
      "discard": 507,
      "##aste": 508,
      "##im": 509,
      "becomes": 510,
      "by": 511,
      "##rample": 512,
      "next": 513,
      "##ker": 514,
      "three": 515,
      "##ear": 516,
      "##wal": 517,
      "Re": 518,
      "long": 519,
      "##oo": 520,
      "return": 521,
      "##end": 522,
      "Exile": 523,
      "sacrifice": 524,
      "##ition": 525,
      "reveal": 526,
      "ex": 527,
      "addition": 528,
      "choose": 529,
      "Create": 530,
      "##irst": 531,
      "onto": 532,
      "##uff": 533,
      "am": 534,
      "dies": 535,
      "cop": 536,
      "val": 537,
      "##yp": 538,
      "tim": 539,
      "##gh": 540,
      "untap": 541,
      "##ough": 542,
      "are": 543,
      "shuff": 544,
      "##ctivate": 545,
      "value": 546,
      "##id": 547,
      "##land": 548,
      "##ler": 549,
      "##ould": 550,
      "typ": 551,
      "would": 552,
      "plan": 553,
      "Return": 554,
      "them": 555,
      "ch": 556,
      "Destroy": 557,
      "##eswal": 558,
      "haste": 559,
      "un": 560,
      "planeswal": 561,
      "##rike": 562,
      "copy": 563,
      "strike": 564,
      "##ash": 565,
      "##oses": 566,
      "/-": 567,
      "The": 568,
      "time": 569,
      "dealt": 570,
      "##ead": 571,
      "Each": 572,
      "face": 573,
      "##earch": 574,
      "controller": 575,
      "##ite": 576,
      "##ance": 577,
      "le": 578,
      "##ove": 579,
      "##lash": 580,
      "shuffle": 581,
      "planeswalker": 582,
      "Equip": 583,
      "where": 584,
      "Choose": 585,
      "instead": 586,
      "##our": 587,
      "Enchanted": 588,
      "than": 589,
      "way": 590,
      "##move": 591,
      "##uring": 592,
      "first": 593,
      "white": 594,
      "##ht": 595,
      "enchantment": 596,
      "black": 597,
      "tokens": 598,
      "spells": 599,
      "among": 600,
      "##ect": 601,
      "##ilance": 602,
      "##igilance": 603,
      "##ness": 604,
      "additional": 605,
      "they": 606,
      "no": 607,
      "##reen": 608,
      "##ook": 609,
      "loses": 610,
      "unless": 611,
      "destroy": 612,
      "Unt": 613,
      "ability": 614,
      "Activate": 615,
      "green": 616,
      "##fend": 617,
      "##us": 618,
      "attacking": 619,
      "cho": 620,
      "nonland": 621,
      "instant": 622,
      "##nder": 623,
      "##out": 624,
      "##est": 625,
      "during": 626,
      "Discard": 627,
      "Sp": 628,
      "without": 629,
      "trample": 630,
      "under": 631,
      "Then": 632,
      "exc": 633,
      "##ill": 634,
      "##oughness": 635,
      "toughness": 636,
      "was": 637,
      "abilities": 638,
      "##ott": 639,
      "red": 640,
      "##ers": 641,
      "bott": 642,
      "bottom": 643,
      "Creature": 644,
      "bas": 645,
      "those": 646,
      "don": 647,
      "##ol": 648,
      "enchanted": 649,
      "##ie": 650,
      "costs": 651,
      "Creatures": 652,
      "##ft": 653,
      "##ept": 654,
      "rest": 655,
      "permanents": 656,
      "except": 657,
      "##own": 658,
      "Flash": 659,
      "Trample": 660,
      "com": 661,
      "tap": 662,
      "choice": 663,
      "type": 664,
      "##ive": 665,
      "nan": 666,
      "four": 667,
      "exiled": 668,
      "##art": 669,
      "##ink": 670,
      "##acrific": 671,
      "great": 672,
      "sacrific": 673,
      "##der": 674,
      "##andom": 675,
      "##vent": 676,
      "TK": 677,
      "random": 678,
      "defend": 679,
      "lands": 680,
      "paying": 681,
      "order": 682,
      "##elink": 683,
      "Tap": 684,
      "##osen": 685,
      "chosen": 686,
      "remove": 687,
      "opponents": 688,
      "Search": 689,
      "##ru": 690,
      "##revent": 691,
      "down": 692,
      "##ouch": 693,
      "##enace": 694,
      "lose": 695,
      "##ount": 696,
      "discards": 697,
      "##led": 698,
      "vigilance": 699,
      "types": 700,
      "##ves": 701,
      "Other": 702,
      "blue": 703,
      "##atht": 704,
      "##athtouch": 705,
      "##ul": 706,
      "##mand": 707,
      "does": 708,
      "Until": 709,
      "##ry": 710,
      "##cl": 711,
      "game": 712,
      "colorless": 713,
      "Equipped": 714,
      "##omb": 715,
      "attach": 716,
      "greater": 717,
      "An": 718,
      "al": 719,
      "search": 720,
      "##ruct": 721,
      "targets": 722,
      "Look": 723,
      "defending": 724,
      "basic": 725,
      "en": 726,
      ">'": 727,
      "Att": 728,
      "##cry": 729,
      "##gend": 730,
      "Pl": 731,
      "mill": 732,
      "##ip": 733,
      "##ble": 734,
      "##ight": 735,
      "command": 736,
      "They": 737,
      "doesn": 738,
      "named": 739,
      "\")": 740,
      "lea": 741,
      "Zomb": 742,
      "##tal": 743,
      "##ener": 744,
      "pro": 745,
      "##ible": 746,
      "##fter": 747,
      "##ndest": 748,
      "lifelink": 749,
      "##ructible": 750,
      "##ndestructible": 751,
      "total": 752,
      "##has": 753,
      "##gener": 754,
      "##back": 755,
      "##ated": 756,
      "artifacts": 757,
      "untapped": 758,
      "phas": 759,
      "Vigilance": 760,
      "able": 761,
      "##reas": 762,
      "##ounter": 763,
      "##ouble": 764,
      "##bl": 765,
      "##ph": 766,
      "##iz": 767,
      "there": 768,
      "many": 769,
      "se": 770,
      "That": 771,
      "mu": 772,
      "Counter": 773,
      "legend": 774,
      "##ist": 775,
      "##ains": 776,
      "For": 777,
      "pays": 778,
      "look": 779,
      "##ection": 780,
      "sacrifices": 781,
      "Remove": 782,
      "after": 783,
      "Untap": 784,
      "##tection": 785,
      "##reasure": 786,
      "once": 787,
      "Treasure": 788,
      "nonc": 789,
      "##orph": 790,
      "##icker": 791,
      "II": 792,
      "##are": 793,
      "##ood": 794,
      "Zombie": 795,
      "##ycl": 796,
      "Fore": 797,
      "indestructible": 798,
      "##reature": 799,
      "##ycling": 800,
      "blocking": 801,
      "Go": 802,
      "Haste": 803,
      "tr": 804,
      "##her": 805,
      "##me": 806,
      "leaves": 807,
      "##ise": 808,
      "Prevent": 809,
      "five": 810,
      "noncreature": 811,
      "##ew": 812,
      "##ick": 813,
      "##irit": 814,
      "Spirit": 815,
      "##rou": 816,
      "Aur": 817,
      "legendary": 818,
      "##um": 819,
      "bo": 820,
      "though": 821,
      "##ond": 822,
      "attached": 823,
      "##un": 824,
      "##oll": 825,
      "##pro": 826,
      "much": 827,
      "pa": 828,
      "In": 829,
      "Hu": 830,
      "flash": 831,
      "activate": 832,
      "draws": 833,
      "##ag": 834,
      "po": 835,
      "##pl": 836,
      "##ntoken": 837,
      "blocks": 838,
      "Human": 839,
      "Ar": 840,
      "##ire": 841,
      "##ity": 842,
      "Sw": 843,
      "Is": 844,
      "##of": 845,
      "players": 846,
      "##expro": 847,
      "##exproof": 848,
      "deathtouch": 849,
      "Equipment": 850,
      "##even": 851,
      "##ffect": 852,
      "Forest": 853,
      "Island": 854,
      "nontoken": 855,
      "##so": 856,
      "All": 857,
      "seven": 858,
      "First": 859,
      "also": 860,
      "##ipped": 861,
      "same": 862,
      "sour": 863,
      "##all": 864,
      "##one": 865,
      "Turn": 866,
      "double": 867,
      "sec": 868,
      "both": 869,
      "not": 870,
      "Defend": 871,
      "Dra": 872,
      "##aled": 873,
      "War": 874,
      "menace": 875,
      "equipped": 876,
      "Defender": 877,
      "Pay": 878,
      "reveals": 879,
      "##icked": 880,
      "Menace": 881,
      "Reach": 882,
      "Cycling": 883,
      "res": 884,
      "##old": 885,
      "revealed": 886,
      "scry": 887,
      "##generate": 888,
      "kicked": 889,
      "Attach": 890,
      "Mount": 891,
      "effect": 892,
      "##ather": 893,
      "Swamp": 894,
      "activ": 895,
      "out": 896,
      "Pro": 897,
      "phase": 898,
      "Regenerate": 899,
      "##ally": 900,
      "casts": 901,
      "base": 902,
      "spent": 903,
      "To": 904,
      "Ve": 905,
      "##gon": 906,
      "amount": 907,
      "isn": 908,
      "Aura": 909,
      "had": 910,
      "fl": 911,
      "##aus": 912,
      "last": 913,
      "##hic": 914,
      "caus": 915,
      "##ered": 916,
      "new": 917,
      "when": 918,
      "trig": 919,
      "##rior": 920,
      "mills": 921,
      "Warrior": 922,
      "Ro": 923,
      "##fore": 924,
      "con": 925,
      "source": 926,
      "Dragon": 927,
      "Vehic": 928,
      "Ch": 929,
      "protection": 930,
      "Con": 931,
      "reach": 932,
      "##walk": 933,
      "##ult": 934,
      "##ison": 935,
      "##arge": 936,
      "##veal": 937,
      "Reveal": 938,
      "##pt": 939,
      "second": 940,
      "before": 941,
      "##blin": 942,
      "III": 943,
      "Goblin": 944,
      "Sh": 945,
      "##ied": 946,
      "deck": 947,
      "rem": 948,
      "charge": 949,
      "paid": 950,
      "##pet": 951,
      "##ntered": 952,
      "Sold": 953,
      "Soldi": 954,
      "##ix": 955,
      "##se": 956,
      "Food": 957,
      "##ually": 958,
      "Your": 959,
      "commander": 960,
      "poison": 961,
      "##ues": 962,
      "Deathtouch": 963,
      "##ost": 964,
      "##petually": 965,
      "prevent": 966,
      "hexproof": 967,
      "##ver": 968,
      "perpetually": 969,
      "St": 970,
      "plus": 971,
      "Kicker": 972,
      "mon": 973,
      "six": 974,
      "Damage": 975,
      "die": 976,
      "##rew": 977,
      "flashback": 978,
      "##vo": 979,
      "still": 980,
      "Soldier": 981,
      "puts": 982,
      "Ele": 983,
      "were": 984,
      "sacrificed": 985,
      "activated": 986,
      "become": 987,
      "Any": 988,
      "10": 989,
      "enter": 990,
      "while": 991,
      "##wise": 992,
      "##evel": 993,
      "Vehicle": 994,
      "win": 995,
      "trigg": 996,
      "Otherwise": 997,
      "ve": 998,
      "##ner": 999,
      "##ide": 1000,
      "El": 1001,
      "Scry": 1002,
      "##ian": 1003,
      "##od": 1004,
      "##ord": 1005,
      "chooses": 1006,
      "##mental": 1007,
      "##artner": 1008,
      "Elemental": 1009,
      "rather": 1010,
      "##otion": 1011,
      "share": 1012,
      "Land": 1013,
      "##fere": 1014,
      "dif": 1015,
      "##res": 1016,
      "could": 1017,
      "differe": 1018,
      "Co": 1019,
      "age": 1020,
      "##hy": 1021,
      "Sag": 1022,
      "##aos": 1023,
      "##alt": 1024,
      "##ass": 1025,
      "who": 1026,
      "##ation": 1027,
      "colors": 1028,
      "Cl": 1029,
      "roll": 1030,
      "Dev": 1031,
      "attacked": 1032,
      "Cast": 1033,
      "band": 1034,
      "ev": 1035,
      "Bl": 1036,
      "graveyards": 1037,
      "##usp": 1038,
      "Flashback": 1039,
      "Phy": 1040,
      "##rex": 1041,
      "Phyrex": 1042,
      "Lif": 1043,
      "Sl": 1044,
      "Lifelink": 1045,
      "##ind": 1046,
      "##voke": 1047,
      "Phyrexian": 1048,
      "##wh": 1049,
      "##ange": 1050,
      "ens": 1051,
      "##lem": 1052,
      "shuffles": 1053,
      "flip": 1054,
      "ensues": 1055,
      "##my": 1056,
      "##raft": 1057,
      "Mountain": 1058,
      "##orm": 1059,
      "Theme": 1060,
      "Plains": 1061,
      "##ird": 1062,
      "Play": 1063,
      "regener": 1064,
      "##gel": 1065,
      "##ided": 1066,
      "removed": 1067,
      "least": 1068,
      "remains": 1069,
      "##ans": 1070,
      "triggers": 1071,
      "Sliv": 1072,
      "Un": 1073,
      "chaos": 1074,
      "Army": 1075,
      "morph": 1076,
      "causes": 1077,
      "regenerated": 1078,
      "During": 1079,
      "creates": 1080,
      "##ither": 1081,
      "form": 1082,
      "start": 1083,
      "##sh": 1084,
      "##izard": 1085,
      "##ine": 1086,
      "te": 1087,
      "Gain": 1088,
      "Its": 1089,
      "Morph": 1090,
      "##now": 1091,
      "##urve": 1092,
      "##fall": 1093,
      "##vest": 1094,
      "##ize": 1095,
      "##urveil": 1096,
      "Ex": 1097,
      "Mer": 1098,
      "##where": 1099,
      "Spend": 1100,
      "different": 1101,
      "twice": 1102,
      "##vestig": 1103,
      "div": 1104,
      "countered": 1105,
      "turned": 1106,
      "anywhere": 1107,
      "lore": 1108,
      "##ert": 1109,
      "ward": 1110,
      "##che": 1111,
      "##ampire": 1112,
      "Landfall": 1113,
      "Players": 1114,
      "Vampire": 1115,
      "vot": 1116,
      "##jure": 1117,
      "##vestigate": 1118,
      "Saga": 1119,
      "Wizard": 1120,
      "rep": 1121,
      "##ake": 1122,
      "##ative": 1123,
      "##idn": 1124,
      "owners": 1125,
      "Elf": 1126,
      "##oid": 1127,
      "##read": 1128,
      "defender": 1129,
      "effects": 1130,
      "sche": 1131,
      "##ax": 1132,
      "##gy": 1133,
      "##olk": 1134,
      "didn": 1135,
      "hig": 1136,
      "main": 1137,
      "##sp": 1138,
      "##folk": 1139,
      "##oy": 1140,
      "scheme": 1141,
      "kind": 1142,
      "exiles": 1143,
      "Protection": 1144,
      "##ound": 1145,
      "##ergy": 1146,
      "##ift": 1147,
      "##acking": 1148,
      "destroyed": 1149,
      "energy": 1150,
      "##adow": 1151,
      "Crew": 1152,
      "snow": 1153,
      "##ates": 1154,
      "##adness": 1155,
      "##alty": 1156,
      "Devoid": 1157,
      "##aur": 1158,
      "##mon": 1159,
      "commanders": 1160,
      "Clue": 1161,
      "say": 1162,
      "##ank": 1163,
      "##roud": 1164,
      "resol": 1165,
      "Double": 1166,
      "Rog": 1167,
      "casting": 1168,
      "result": 1169,
      "fore": 1170,
      "ten": 1171,
      "##icate": 1172,
      "excess": 1173,
      "mod": 1174,
      "greatest": 1175,
      "##ub": 1176,
      "##ane": 1177,
      "times": 1178,
      "Be": 1179,
      "fight": 1180,
      "hands": 1181,
      "##ade": 1182,
      "##uspend": 1183,
      "Kn": 1184,
      "spe": 1185,
      "Spell": 1186,
      "Or": 1187,
      "emb": 1188,
      "##tell": 1189,
      "copies": 1190,
      "Knight": 1191,
      "Partner": 1192,
      "either": 1193,
      "oil": 1194,
      "##oad": 1195,
      "##ored": 1196,
      "##add": 1197,
      "dev": 1198,
      "Attacking": 1199,
      "##ship": 1200,
      "Do": 1201,
      "Level": 1202,
      "##elp": 1203,
      "being": 1204,
      "phases": 1205,
      "Sap": 1206,
      "help": 1207,
      "##ces": 1208,
      "##roling": 1209,
      "Arc": 1210,
      "Saproling": 1211,
      "enchantments": 1212,
      "Sliver": 1213,
      "Ward": 1214,
      "##aries": 1215,
      "##oyalty": 1216,
      "Artifact": 1217,
      "died": 1218,
      "pile": 1219,
      "##red": 1220,
      "##cho": 1221,
      "conjure": 1222,
      "Arcane": 1223,
      "Wh": 1224,
      "##ater": 1225,
      "##hold": 1226,
      "discarded": 1227,
      "planeswalkers": 1228,
      "loyalty": 1229,
      "mut": 1230,
      "zone": 1231,
      "steps": 1232,
      "banding": 1233,
      "Orc": 1234,
      "emblem": 1235,
      "Sc": 1236,
      "word": 1237,
      "##sc": 1238,
      "##earth": 1239,
      "expl": 1240,
      "##ract": 1241,
      "coin": 1242,
      "controlled": 1243,
      "##oric": 1244,
      "##istoric": 1245,
      "Eld": 1246,
      "##ero": 1247,
      "##ence": 1248,
      "##asic": 1249,
      "##reshold": 1250,
      "Bird": 1251,
      "historic": 1252,
      "##form": 1253,
      "##raz": 1254,
      "spend": 1255,
      "devotion": 1256,
      "##erate": 1257,
      "##alf": 1258,
      "##rolif": 1259,
      "Rogue": 1260,
      "back": 1261,
      "##ven": 1262,
      "investigate": 1263,
      "Threshold": 1264,
      "##roliferate": 1265,
      "lost": 1266,
      "size": 1267,
      "##ter": 1268,
      "##thing": 1269,
      "planeswalk": 1270,
      "##olf": 1271,
      "alone": 1272,
      "Del": 1273,
      "##gu": 1274,
      "##ci": 1275,
      "##arch": 1276,
      "sticker": 1277,
      "Start": 1278,
      "Cler": 1279,
      "surveil": 1280,
      "turns": 1281,
      "##ired": 1282,
      "Eldraz": 1283,
      "Cleric": 1284,
      "Eldrazi": 1285,
      "##strou": 1286,
      "Blood": 1287,
      "##strous": 1288,
      "cy": 1289,
      "##ish": 1290,
      "nonbl": 1291,
      "whenever": 1292,
      "Chan": 1293,
      "monstrous": 1294,
      "Unearth": 1295,
      "cyc": 1296,
      "so": 1297,
      "set": 1298,
      "##ek": 1299,
      "##side": 1300,
      "##pen": 1301,
      "##ign": 1302,
      "Ass": 1303,
      "##olored": 1304,
      "##umul": 1305,
      "monarch": 1306,
      "resolves": 1307,
      "##scap": 1308,
      "Din": 1309,
      "##ute": 1310,
      "##osaur": 1311,
      "outside": 1312,
      "fights": 1313,
      "##umulative": 1314,
      "Dinosaur": 1315,
      "Al": 1316,
      "Com": 1317,
      "##eg": 1318,
      "##ster": 1319,
      "alread": 1320,
      "Merfolk": 1321,
      "Spells": 1322,
      "already": 1323,
      "Wall": 1324,
      "Angel": 1325,
      "cause": 1326,
      "nonblack": 1327,
      "text": 1328,
      "##xic": 1329,
      "decl": 1330,
      "team": 1331,
      "half": 1332,
      "later": 1333,
      "shadow": 1334,
      "leave": 1335,
      "every": 1336,
      "Beast": 1337,
      "declare": 1338,
      "Back": 1339,
      "Squ": 1340,
      "entered": 1341,
      "most": 1342,
      "motion": 1343,
      "##ud": 1344,
      "shroud": 1345,
      "##ansform": 1346,
      "art": 1347,
      "##ze": 1348,
      "##isgu": 1349,
      "starting": 1350,
      "high": 1351,
      "##isguise": 1352,
      "he": 1353,
      "ro": 1354,
      "##orse": 1355,
      "been": 1356,
      "Convoke": 1357,
      "Cumulative": 1358,
      "Tr": 1359,
      "draft": 1360,
      "round": 1361,
      "##ous": 1362,
      "Const": 1363,
      "shares": 1364,
      "20": 1365,
      "Fl": 1366,
      "Sk": 1367,
      "part": 1368,
      "sided": 1369,
      "##ak": 1370,
      "##wess": 1371,
      "##ely": 1372,
      "stun": 1373,
      "##artifact": 1374,
      "enough": 1375,
      "votes": 1376,
      "open": 1377,
      "##cub": 1378,
      "##lect": 1379,
      "##ifest": 1380,
      "cycle": 1381,
      "##inity": 1382,
      "few": 1383,
      "##py": 1384,
      "Auras": 1385,
      "Pir": 1386,
      "give": 1387,
      "##basic": 1388,
      "##rel": 1389,
      "##ator": 1390,
      "Those": 1391,
      "##manship": 1392,
      "room": 1393,
      "##orsemanship": 1394,
      "Des": 1395,
      "##irrel": 1396,
      "Attract": 1397,
      "Attraction": 1398,
      "Cat": 1399,
      "Ring": 1400,
      "##mpt": 1401,
      "##irac": 1402,
      "nonartifact": 1403,
      "##imum": 1404,
      "##olve": 1405,
      "##scape": 1406,
      "Squirrel": 1407,
      "Indestructible": 1408,
      "Rat": 1409,
      "over": 1410,
      "Zombies": 1411,
      "Fa": 1412,
      "Hexproof": 1413,
      "##ium": 1414,
      "##fect": 1415,
      "##geon": 1416,
      "##ungeon": 1417,
      "Ad": 1418,
      "On": 1419,
      "##la": 1420,
      "##du": 1421,
      "##oul": 1422,
      "##ultic": 1423,
      "##assin": 1424,
      "Assassin": 1425,
      "party": 1426,
      "Ra": 1427,
      "dungeon": 1428,
      "level": 1429,
      "max": 1430,
      "partner": 1431,
      "##upl": 1432,
      "produ": 1433,
      "Copy": 1434,
      "divided": 1435,
      "##anking": 1436,
      "rounded": 1437,
      "##ulticolored": 1438,
      "ag": 1439,
      "dupl": 1440,
      "##mp": 1441,
      "ass": 1442,
      "nonbasic": 1443,
      "Demon": 1444,
      "Ins": 1445,
      "fewer": 1446,
      "maximum": 1447,
      "int": 1448,
      "##plet": 1449,
      "##cial": 1450,
      "assign": 1451,
      "Insect": 1452,
      "Hero": 1453,
      "Wolf": 1454,
      "tied": 1455,
      "##au": 1456,
      "anything": 1457,
      "Artifacts": 1458,
      "mutate": 1459,
      "Mon": 1460,
      "Suspend": 1461,
      "##enown": 1462,
      "##inj": 1463,
      "##irium": 1464,
      "##cend": 1465,
      "ext": 1466,
      "Delirium": 1467,
      "Ally": 1468,
      "Command": 1469,
      "Cas": 1470,
      "Roll": 1471,
      "madness": 1472,
      "##eat": 1473,
      "##change": 1474,
      "returns": 1475,
      "While": 1476,
      "Man": 1477,
      "##een": 1478,
      "##ince": 1479,
      "aren": 1480,
      "redu": 1481,
      "##round": 1482,
      "Role": 1483,
      "speed": 1484,
      "Dom": 1485,
      "Ser": 1486,
      "Up": 1487,
      "sadd": 1488,
      "since": 1489,
      "##ced": 1490,
      "##erie": 1491,
      "##ark": 1492,
      "##ort": 1493,
      "must": 1494,
      "##ption": 1495,
      "modif": 1496,
      "again": 1497,
      "Aff": 1498,
      "En": 1499,
      "##fin": 1500,
      "##lessing": 1501,
      "Cont": 1502,
      "##geling": 1503,
      "foretell": 1504,
      "extra": 1505,
      "Mill": 1506,
      "Ninj": 1507,
      "blessing": 1508,
      "eight": 1509,
      "##sity": 1510,
      "##cycling": 1511,
      "##craft": 1512,
      "##ibute": 1513,
      "exp": 1514,
      "Prowess": 1515,
      "prevented": 1516,
      "explore": 1517,
      "came": 1518,
      "multicolored": 1519,
      "##wine": 1520,
      "##ntwine": 1521,
      "Plot": 1522,
      "Domain": 1523,
      "city": 1524,
      "goad": 1525,
      "##nts": 1526,
      "##amorph": 1527,
      "manifest": 1528,
      "attackers": 1529,
      "##ocked": 1530,
      "exert": 1531,
      "comes": 1532,
      "##ular": 1533,
      "##egamorph": 1534,
      "highest": 1535,
      "duplicate": 1536,
      "##lice": 1537,
      "gained": 1538,
      "Reb": 1539,
      "seek": 1540,
      "##ollow": 1541,
      "Band": 1542,
      "proliferate": 1543,
      "##iant": 1544,
      "##cade": 1545,
      "Desert": 1546,
      "Madness": 1547,
      "ind": 1548,
      "##ground": 1549,
      "##up": 1550,
      "remain": 1551,
      "Background": 1552,
      "echo": 1553,
      "follow": 1554,
      "mil": 1555,
      "##opt": 1556,
      "##isit": 1557,
      "##blocked": 1558,
      "Rather": 1559,
      "##cess": 1560,
      "##ret": 1561,
      "##raption": 1562,
      "lesser": 1563,
      "##uffle": 1564,
      "change": 1565,
      "Shuffle": 1566,
      "tempt": 1567,
      "Commander": 1568,
      "Contraption": 1569,
      "milled": 1570,
      "My": 1571,
      "crew": 1572,
      "sing": 1573,
      "##op": 1574,
      "Thopt": 1575,
      "shield": 1576,
      "unblocked": 1577,
      "##ush": 1578,
      "explores": 1579,
      "Soul": 1580,
      "##ward": 1581,
      "##clud": 1582,
      "##agic": 1583,
      "##resent": 1584,
      "Changeling": 1585,
      "tempts": 1586,
      "single": 1587,
      "##oit": 1588,
      "##20": 1589,
      "best": 1590,
      "includ": 1591,
      "Rec": 1592,
      "exact": 1593,
      "chose": 1594,
      "##izes": 1595,
      "##cializes": 1596,
      "Power": 1597,
      "ad": 1598,
      "stack": 1599,
      "##attach": 1600,
      "Another": 1601,
      "Golem": 1602,
      "Islands": 1603,
      "Affinity": 1604,
      "exactly": 1605,
      "LE": 1606,
      "clash": 1607,
      "day": 1608,
      "dice": 1609,
      "horsemanship": 1610,
      "let": 1611,
      "##load": 1612,
      "##yond": 1613,
      "##VE": 1614,
      "third": 1615,
      "##ich": 1616,
      "enc": 1617,
      "paired": 1618,
      "##uspect": 1619,
      "represent": 1620,
      "saddled": 1621,
      "After": 1622,
      "Non": 1623,
      "d20": 1624,
      "##ting": 1625,
      "##uest": 1626,
      "exist": 1627,
      "process": 1628,
      "Incub": 1629,
      "lasts": 1630,
      "##alted": 1631,
      "declared": 1632,
      "LEVE": 1633,
      "LEVEL": 1634,
      "cr": 1635,
      "fin": 1636,
      "sk": 1637,
      "won": 1638,
      "##lock": 1639,
      "##efin": 1640,
      "##itely": 1641,
      "beyond": 1642,
      "##uts": 1643,
      "stor": 1644,
      "##rime": 1645,
      "##gendary": 1646,
      "Foretell": 1647,
      "indefin": 1648,
      "Thopter": 1649,
      "indefinitely": 1650,
      "Surveil": 1651,
      "but": 1652,
      "renown": 1653,
      "suspend": 1654,
      "suspect": 1655,
      "##cen": 1656,
      "##gered": 1657,
      "Pirate": 1658,
      "Faerie": 1659,
      "Echo": 1660,
      "Magic": 1661,
      "Sn": 1662,
      "crime": 1663,
      "sy": 1664,
      "##ave": 1665,
      "##mer": 1666,
      "##book": 1667,
      "##stone": 1668,
      "targeted": 1669,
      "##mbol": 1670,
      "##ctor": 1671,
      "##rize": 1672,
      "triggered": 1673,
      "Mercen": 1674,
      "Sadd": 1675,
      "Visit": 1676,
      "gu": 1677,
      "gift": 1678,
      "prom": 1679,
      "##row": 1680,
      "putting": 1681,
      "Construct": 1682,
      "##utsu": 1683,
      "renowned": 1684,
      "symbol": 1685,
      "Saddle": 1686,
      "quest": 1687,
      "##way": 1688,
      "##enture": 1689,
      "spellbook": 1690,
      "##rint": 1691,
      "left": 1692,
      "transform": 1693,
      "soon": 1694,
      "Giant": 1695,
      "grou": 1696,
      "take": 1697,
      "##av": 1698,
      "##ination": 1699,
      "toxic": 1700,
      "##ura": 1701,
      "collect": 1702,
      "adds": 1703,
      "##idence": 1704,
      "unattach": 1705,
      "Infect": 1706,
      "flanking": 1707,
      "evidence": 1708,
      "Slivers": 1709,
      "higher": 1710,
      "Doctor": 1711,
      "Starting": 1712,
      "inten": 1713,
      "assigns": 1714,
      "group": 1715,
      "Bu": 1716,
      "Disguise": 1717,
      "Mut": 1718,
      "Se": 1719,
      "Wor": 1720,
      "escape": 1721,
      "fade": 1722,
      "libraries": 1723,
      "wasn": 1724,
      "##istr": 1725,
      "Sagas": 1726,
      "specializes": 1727,
      "storage": 1728,
      "Bo": 1729,
      "##ug": 1730,
      "##argain": 1731,
      "counts": 1732,
      "which": 1733,
      "##imid": 1734,
      "legendaries": 1735,
      "secret": 1736,
      "Vehicles": 1737,
      "Heroic": 1738,
      "Mana": 1739,
      "following": 1740,
      "Powerstone": 1741,
      "adv": 1742,
      "crank": 1743,
      "##imidate": 1744,
      "Imp": 1745,
      "night": 1746,
      "##ike": 1747,
      "##nce": 1748,
      "##pan": 1749,
      "##itz": 1750,
      "amass": 1751,
      "Orcs": 1752,
      "##law": 1753,
      "Ninjutsu": 1754,
      "##istribute": 1755,
      "##panion": 1756,
      "13": 1757,
      "Best": 1758,
      "Hor": 1759,
      "des": 1760,
      "fear": 1761,
      "##awn": 1762,
      "inc": 1763,
      "reg": 1764,
      "combination": 1765,
      "##igure": 1766,
      "##ombat": 1767,
      "Toxic": 1768,
      "consp": 1769,
      "Elves": 1770,
      "piles": 1771,
      "Raid": 1772,
      "Bands": 1773,
      "Fear": 1774,
      "Max": 1775,
      "##licate": 1776,
      "##aven": 1777,
      "names": 1778,
      "##alm": 1779,
      "attacker": 1780,
      "##apt": 1781,
      "weren": 1782,
      "trigger": 1783,
      "difference": 1784,
      "bestow": 1785,
      "Incubator": 1786,
      "skip": 1787,
      "Bestow": 1788,
      "Cit": 1789,
      "Det": 1790,
      "Met": 1791,
      "Sam": 1792,
      "disguise": 1793,
      "min": 1794,
      "us": 1795,
      "year": 1796,
      "##figure": 1797,
      "##oc": 1798,
      "##yback": 1799,
      "##hau": 1800,
      "##onfigure": 1801,
      "##itch": 1802,
      "##izen": 1803,
      "Forests": 1804,
      "sources": 1805,
      "Mountains": 1806,
      "wins": 1807,
      "vote": 1808,
      "##iracy": 1809,
      "Reconfigure": 1810,
      "secretly": 1811,
      "conspiracy": 1812,
      "Citizen": 1813,
      "##haust": 1814,
      "dread": 1815,
      "ke": 1816,
      "##nel": 1817,
      "##over": 1818,
      "##ror": 1819,
      "##ality": 1820,
      "##ampion": 1821,
      "returned": 1822,
      "##ido": 1823,
      "phased": 1824,
      "Shadow": 1825,
      "divide": 1826,
      "repeat": 1827,
      "mode": 1828,
      "Transform": 1829,
      "##ushido": 1830,
      "##urai": 1831,
      "Buyback": 1832,
      "Samurai": 1833,
      "Proliferate": 1834,
      "Rep": 1835,
      "bet": 1836,
      "##ath": 1837,
      "##ating": 1838,
      "created": 1839,
      "##andon": 1840,
      "abandon": 1841,
      "equip": 1842,
      "##ooster": 1843,
      "Spawn": 1844,
      "Investigate": 1845,
      "##semb": 1846,
      "Storm": 1847,
      "heal": 1848,
      "advance": 1849,
      "Tree": 1850,
      "like": 1851,
      "sw": 1852,
      "treat": 1853,
      "##ets": 1854,
      "##ication": 1855,
      "spore": 1856,
      "discarding": 1857,
      "controllers": 1858,
      "Swampwalk": 1859,
      "outlaw": 1860,
      "Shroud": 1861,
      "even": 1862,
      "Channel": 1863,
      "Servo": 1864,
      "represents": 1865,
      "Snake": 1866,
      "guess": 1867,
      "Horror": 1868,
      "##avenge": 1869,
      "Treefolk": 1870,
      "Enter": 1871,
      "ar": 1872,
      "booster": 1873,
      "##ron": 1874,
      "toward": 1875,
      "##elf": 1876,
      "dec": 1877,
      "exchange": 1878,
      "complet": 1879,
      "Plant": 1880,
      "Dragons": 1881,
      "##iracle": 1882,
      "regular": 1883,
      "Metal": 1884,
      "Sur": 1885,
      "vers": 1886,
      "##ling": 1887,
      "##ying": 1888,
      "off": 1889,
      "##legendary": 1890,
      "##epar": 1891,
      "pers": 1892,
      "##ists": 1893,
      "Champion": 1894,
      "words": 1895,
      "Cascade": 1896,
      "##ugment": 1897,
      "19": 1898,
      "Am": 1899,
      "Bushido": 1900,
      "Out": 1901,
      "Were": 1902,
      "his": 1903,
      "pack": 1904,
      "venture": 1905,
      "##ween": 1906,
      "##br": 1907,
      "playing": 1908,
      "played": 1909,
      "##ellation": 1910,
      "Inst": 1911,
      "Islandwalk": 1912,
      "Constellation": 1913,
      "Flip": 1914,
      "transforms": 1915,
      "between": 1916,
      "##ications": 1917,
      "Metalcraft": 1918,
      "Min": 1919,
      "Mir": 1920,
      "Per": 1921,
      "cle": 1922,
      "el": 1923,
      "ru": 1924,
      "##ni": 1925,
      "##eton": 1926,
      "##eleton": 1927,
      "##enty": 1928,
      "deplet": 1929,
      "##strosity": 1930,
      "##eads": 1931,
      "Change": 1932,
      "Exalted": 1933,
      "Skeleton": 1934,
      "Monstrosity": 1935,
      "modifications": 1936,
      "Werew": 1937,
      "depletion": 1938,
      "Gate": 1939,
      "Mage": 1940,
      "Te": 1941,
      "move": 1942,
      "separ": 1943,
      "##idd": 1944,
      "##dra": 1945,
      "##eri": 1946,
      "##riend": 1947,
      "cons": 1948,
      "Goblins": 1949,
      "Scion": 1950,
      "modified": 1951,
      "##merge": 1952,
      "Mutate": 1953,
      "World": 1954,
      "treated": 1955,
      "Escape": 1956,
      "Entwine": 1957,
      "Le": 1958,
      "No": 1959,
      "br": 1960,
      "entwine": 1961,
      "##ele": 1962,
      "twenty": 1963,
      "nonlegendary": 1964,
      "Ascend": 1965,
      "Swamps": 1966,
      "activating": 1967,
      "Scavenge": 1968,
      "produce": 1969,
      "goaded": 1970,
      "increas": 1971,
      "minus": 1972,
      "Mor": 1973,
      "Mod": 1974,
      "kicker": 1975,
      "megamorph": 1976,
      "splice": 1977,
      "##riad": 1978,
      "example": 1979,
      "Splice": 1980,
      "companion": 1981,
      "##ulate": 1982,
      "true": 1983,
      "##unning": 1984,
      "Lands": 1985,
      "Exchange": 1986,
      "mutates": 1987,
      "exploit": 1988,
      "opening": 1989,
      "reduced": 1990,
      "exerted": 1991,
      "letter": 1992,
      "finality": 1993,
      "suspected": 1994,
      "Mercenary": 1995,
      "intensity": 1996,
      "Instant": 1997,
      "Emb": 1998,
      "IV": 1999,
      "Megamorph": 2000,
      "Oo": 2001,
      "Und": 2002,
      "##lit": 2003,
      "##em": 2004,
      "##nal": 2005,
      "##mit": 2006,
      "##bid": 2007,
      "##iti": 2008,
      "##orn": 2009,
      "##oss": 2010,
      "incub": 2011,
      "##iscover": 2012,
      "##ung": 2013,
      "Humans": 2014,
      "conn": 2015,
      "Conjure": 2016,
      "starts": 2017,
      "forest": 2018,
      "Once": 2019,
      "Rebel": 2020,
      "Rebound": 2021,
      "person": 2022,
      "Embalm": 2023,
      "Activ": 2024,
      "Bear": 2025,
      "Evoke": 2026,
      "Fish": 2027,
      "Par": 2028,
      "Take": 2029,
      "cas": 2030,
      "right": 2031,
      "touch": 2032,
      "##able": 2033,
      "##hil": 2034,
      "##ised": 2035,
      "drawn": 2036,
      "##ives": 2037,
      "Spid": 2038,
      "taps": 2039,
      "##rupt": 2040,
      "##oded": 2041,
      "artist": 2042,
      "##akes": 2043,
      "Myr": 2044,
      "clashing": 2045,
      "encoded": 2046,
      "Magecraft": 2047,
      "consists": 2048,
      "Morbid": 2049,
      "forestwalk": 2050,
      "Activated": 2051,
      "Hell": 2052,
      "Over": 2053,
      "drew": 2054,
      "fac": 2055,
      "solve": 2056,
      "##last": 2057,
      "##dent": 2058,
      "##ob": 2059,
      "##kin": 2060,
      "##bond": 2061,
      "##pa": 2062,
      "##reer": 2063,
      "##ayed": 2064,
      "island": 2065,
      "##ome": 2066,
      "##venture": 2067,
      "##ishing": 2068,
      "Seek": 2069,
      "Imprint": 2070,
      "arm": 2071,
      "##nihil": 2072,
      "Werewolf": 2073,
      "##reerunning": 2074,
      "Augment": 2075,
      "Cor": 2076,
      "Ill": 2077,
      "Kith": 2078,
      "app": 2079,
      "away": 2080,
      "here": 2081,
      "ident": 2082,
      "sc": 2083,
      "##oon": 2084,
      "##mute": 2085,
      "##atch": 2086,
      "##ved": 2087,
      "initi": 2088,
      "whose": 2089,
      "##ime": 2090,
      "done": 2091,
      "noncombat": 2092,
      "pair": 2093,
      "Forestwalk": 2094,
      "##ansmute": 2095,
      "##shift": 2096,
      "Dog": 2097,
      "##ternal": 2098,
      "Transmute": 2099,
      "Flanking": 2100,
      "##olved": 2101,
      "overload": 2102,
      "##laim": 2103,
      "##rowth": 2104,
      "decayed": 2105,
      "Ooze": 2106,
      "incubate": 2107,
      "islandwalk": 2108,
      "Corrupt": 2109,
      "Kithkin": 2110,
      "initiative": 2111,
      "##ternalize": 2112,
      "Ev": 2113,
      "Gift": 2114,
      "Horsemanship": 2115,
      "Im": 2116,
      "cl": 2117,
      "claim": 2118,
      "ne": 2119,
      "rad": 2120,
      "##race": 2121,
      "##nc": 2122,
      "##erm": 2123,
      "##acle": 2124,
      "##anishing": 2125,
      "##ild": 2126,
      "blockers": 2127,
      "hasn": 2128,
      "plane": 2129,
      "unsp": 2130,
      "##ective": 2131,
      "##usion": 2132,
      "##olster": 2133,
      "commit": 2134,
      "Spirits": 2135,
      "Room": 2136,
      "Devil": 2137,
      "Expl": 2138,
      "Delve": 2139,
      "Backup": 2140,
      "Pirates": 2141,
      "produced": 2142,
      "crews": 2143,
      "verse": 2144,
      "Overload": 2145,
      "Illusion": 2146,
      "identity": 2147,
      "Col": 2148,
      "Eternalize": 2149,
      "Fro": 2150,
      "Off": 2151,
      "evoke": 2152,
      "hour": 2153,
      "prize": 2154,
      "##iance": 2155,
      "##ring": 2156,
      "##wl": 2157,
      "##ang": 2158,
      "##entor": 2159,
      "blitz": 2160,
      "##ype": 2161,
      "planar": 2162,
      "unpa": 2163,
      "poi": 2164,
      "noted": 2165,
      "Chaos": 2166,
      "Vampires": 2167,
      "Assassins": 2168,
      "Soulshift": 2169,
      "suspended": 2170,
      "Amass": 2171,
      "Outlast": 2172,
      "exploits": 2173,
      "connives": 2174,
      "Spider": 2175,
      "##nihilator": 2176,
      "Corrupted": 2177,
      "unpaired": 2178,
      "Bat": 2179,
      "Cur": 2180,
      "Dw": 2181,
      "Hy": 2182,
      "Night": 2183,
      "Pers": 2184,
      "Prize": 2185,
      "sum": 2186,
      "##ik": 2187,
      "##ab": 2188,
      "##ale": 2189,
      "##gn": 2190,
      "##gg": 2191,
      "##go": 2192,
      "##ful": 2193,
      "##bb": 2194,
      "##bent": 2195,
      "##ving": 2196,
      "##rock": 2197,
      "##iss": 2198,
      "##ify": 2199,
      "##ict": 2200,
      "sprock": 2201,
      "##thirst": 2202,
      "powers": 2203,
      "values": 2204,
      "Split": 2205,
      "##olt": 2206,
      "sacrificing": 2207,
      "boon": 2208,
      "##unk": 2209,
      "pop": 2210,
      "Warlock": 2211,
      "Prot": 2212,
      "Shr": 2213,
      "replicate": 2214,
      "resolved": 2215,
      "Rogues": 2216,
      "expend": 2217,
      "includes": 2218,
      "promised": 2219,
      "Detective": 2220,
      "Permanent": 2221,
      "cascade": 2222,
      "Hellbent": 2223,
      "##ncil": 2224,
      "Exploit": 2225,
      "Dwar": 2226,
      "Hydra": 2227,
      "Persist": 2228,
      "Basic": 2229,
      "Dash": 2230,
      "Wither": 2231,
      "bargain": 2232,
      "friend": 2233,
      "host": 2234,
      "sick": 2235,
      "##ail": 2236,
      "##viv": 2237,
      "##vise": 2238,
      "##ances": 2239,
      "##urst": 2240,
      "infect": 2241,
      "ask": 2242,
      "##gines": 2243,
      "Targeting": 2244,
      "hau": 2245,
      "owns": 2246,
      "unlock": 2247,
      "##ectacle": 2248,
      "common": 2249,
      "engines": 2250,
      "##provise": 2251,
      "Warriors": 2252,
      "White": 2253,
      "Adapt": 2254,
      "intimidate": 2255,
      "Soulbond": 2256,
      "promise": 2257,
      "Surviv": 2258,
      "else": 2259,
      "Modular": 2260,
      "Undying": 2261,
      "summon": 2262,
      "Permanents": 2263,
      "sickness": 2264,
      "12": 2265,
      "Em": 2266,
      "He": 2267,
      "Mentor": 2268,
      "Ret": 2269,
      "distribute": 2270,
      "old": 2271,
      "qu": 2272,
      "##eap": 2273,
      "##wa": 2274,
      "##rod": 2275,
      "##cha": 2276,
      "assemb": 2277,
      "##ions": 2278,
      "haven": 2279,
      "instances": 2280,
      "##otaur": 2281,
      "##earn": 2282,
      "untaps": 2283,
      "Insp": 2284,
      "##ress": 2285,
      "##spring": 2286,
      "Bloodthirst": 2287,
      "Walls": 2288,
      "Adventure": 2289,
      "##avor": 2290,
      "swamp": 2291,
      "Minotaur": 2292,
      "##ungus": 2293,
      "sprockets": 2294,
      "bargained": 2295,
      "Bargain": 2296,
      "Got": 2297,
      "Int": 2298,
      "Kra": 2299,
      "Red": 2300,
      "Vanishing": 2301,
      "Will": 2302,
      "dash": 2303,
      "miracle": 2304,
      "odd": 2305,
      "##ia": 2306,
      "##ox": 2307,
      "##word": 2308,
      "##bot": 2309,
      "##ays": 2310,
      "ongo": 2311,
      "##rage": 2312,
      "##omen": 2313,
      "landwalk": 2314,
      "##iving": 2315,
      "##olves": 2316,
      "post": 2317,
      "Draft": 2318,
      "Stri": 2319,
      "Rabb": 2320,
      "Enrage": 2321,
      "experi": 2322,
      "unattached": 2323,
      "descend": 2324,
      "outlaws": 2325,
      "completed": 2326,
      "Mirrod": 2327,
      "increases": 2328,
      "Frog": 2329,
      "summoning": 2330,
      "##eapon": 2331,
      "swampwalk": 2332,
      "Gotcha": 2333,
      "Intimidate": 2334,
      "ongoing": 2335,
      "Rabbit": 2336,
      "experience": 2337,
      "Mirrodin": 2338,
      "Battle": 2339,
      "Less": 2340,
      "Move": 2341,
      "Mult": 2342,
      "Wur": 2343,
      "act": 2344,
      "loss": 2345,
      "su": 2346,
      "sur": 2347,
      "##yword": 2348,
      "##ters": 2349,
      "##za": 2350,
      "##ether": 2351,
      "##esh": 2352,
      "stud": 2353,
      "##ampage": 2354,
      "##ading": 2355,
      "##otype": 2356,
      "longer": 2357,
      "exhaust": 2358,
      "##use": 2359,
      "Spree": 2360,
      "##ulk": 2361,
      "searches": 2362,
      "Switch": 2363,
      "seconds": 2364,
      "Foods": 2365,
      "Devour": 2366,
      "bands": 2367,
      "Exhaust": 2368,
      "divinity": 2369,
      "Rats": 2370,
      "##aunt": 2371,
      "keep": 2372,
      "clean": 2373,
      "armor": 2374,
      "Improvise": 2375,
      "Offspring": 2376,
      "##gnore": 2377,
      "populate": 2378,
      "Prototype": 2379,
      "descended": 2380,
      "Lesson": 2381,
      "Wurm": 2382,
      "Fero": 2383,
      "Green": 2384,
      "Germ": 2385,
      "Living": 2386,
      "Oct": 2387,
      "Renown": 2388,
      "Sun": 2389,
      "Tw": 2390,
      "Treat": 2391,
      "cry": 2392,
      "sub": 2393,
      "water": 2394,
      "weapon": 2395,
      "##ualty": 2396,
      "##core": 2397,
      "##mare": 2398,
      "##burst": 2399,
      "##hin": 2400,
      "##henomen": 2401,
      "##rain": 2402,
      "itself": 2403,
      "rec": 2404,
      "landcycling": 2405,
      "##phant": 2406,
      "##ump": 2407,
      "note": 2408,
      "Robot": 2409,
      "Wizards": 2410,
      "##cious": 2411,
      "##ously": 2412,
      "Skip": 2413,
      "Manifest": 2414,
      "reduces": 2415,
      "Encore": 2416,
      "skips": 2417,
      "##ocolored": 2418,
      "abandoned": 2419,
      "Evolve": 2420,
      "Nightmare": 2421,
      "Dwarf": 2422,
      "Kraken": 2423,
      "Strive": 2424,
      "keeps": 2425,
      "cleanup": 2426,
      "Ferocious": 2427,
      "##henomenon": 2428,
      "Batt": 2429,
      "Distribute": 2430,
      "Fading": 2431,
      "Rev": 2432,
      "Ur": 2433,
      "affect": 2434,
      "bid": 2435,
      "emerge": 2436,
      "phenomenon": 2437,
      "##ien": 2438,
      "##eep": 2439,
      "##for": 2440,
      "##ust": 2441,
      "##og": 2442,
      "##ple": 2443,
      "##aneswal": 2444,
      "##alion": 2445,
      "##ory": 2446,
      "##mbra": 2447,
      "##irt": 2448,
      "Read": 2449,
      "exalted": 2450,
      "Spe": 2451,
      "Planeswal": 2452,
      "prowess": 2453,
      "##arer": 2454,
      "God": 2455,
      "Goad": 2456,
      "monocolored": 2457,
      "Coven": 2458,
      "Black": 2459,
      "Blitz": 2460,
      "results": 2461,
      "One": 2462,
      "Myriad": 2463,
      "Mercenaries": 2464,
      "Boast": 2465,
      "using": 2466,
      "keyword": 2467,
      "rules": 2468,
      "point": 2469,
      "Warlocks": 2470,
      "Survival": 2471,
      "Inspired": 2472,
      "Battalion": 2473,
      "Av": 2474,
      "Fract": 2475,
      "Gl": 2476,
      "Hord": 2477,
      "Leads": 2478,
      "Time": 2479,
      "cycling": 2480,
      "discover": 2481,
      "ignore": 2482,
      "mast": 2483,
      "nine": 2484,
      "squ": 2485,
      "##lict": 2486,
      "##ran": 2487,
      "##oak": 2488,
      "##amant": 2489,
      "##ards": 2490,
      "##its": 2491,
      "##pport": 2492,
      "plays": 2493,
      "begins": 2494,
      "colored": 2495,
      "see": 2496,
      "Mounts": 2497,
      "Conver": 2498,
      "Sham": 2499,
      "Elephant": 2500,
      "Assist": 2501,
      "Adamant": 2502,
      "Case": 2503,
      "reduce": 2504,
      "Ninja": 2505,
      "expans": 2506,
      "##opus": 2507,
      "encounter": 2508,
      "Replicate": 2509,
      "##elee": 2510,
      "apply": 2511,
      "##ikicker": 2512,
      "Retrace": 2513,
      "##waken": 2514,
      "Multikicker": 2515,
      "Octopus": 2516,
      "Revolt": 2517,
      "Urza": 2518,
      "Fractal": 2519,
      "mastery": 2520,
      "Converge": 2521,
      "11": 2522,
      "Bers": 2523,
      "Clash": 2524,
      "Cave": 2525,
      "Eerie": 2526,
      "Ri": 2527,
      "ant": 2528,
      "det": 2529,
      "fe": 2530,
      "fo": 2531,
      "ful": 2532,
      "freerunning": 2533,
      "him": 2534,
      "my": 2535,
      "print": 2536,
      "soul": 2537,
      "wor": 2538,
      "##fl": 2539,
      "##mark": 2540,
      "##pent": 2541,
      "##ilot": 2542,
      "council": 2543,
      "stays": 2544,
      "##apesh": 2545,
      "doom": 2546,
      "Treasures": 2547,
      "Shapesh": 2548,
      "entering": 2549,
      "Mountainwalk": 2550,
      "Ext": 2551,
      "repl": 2552,
      "Knights": 2553,
      "teamm": 2554,
      "Descend": 2555,
      "Only": 2556,
      "##cialize": 2557,
      "Serpent": 2558,
      "Enl": 2559,
      "include": 2560,
      "##bricate": 2561,
      "unspent": 2562,
      "Sunburst": 2563,
      "Specialize": 2564,
      "Horde": 2565,
      "Berser": 2566,
      "fully": 2567,
      "printed": 2568,
      "Shapeshift": 2569,
      "!\"": 2570,
      "Comb": 2571,
      "Dale": 2572,
      "Fungus": 2573,
      "Gn": 2574,
      "Junk": 2575,
      "La": 2576,
      "Lizard": 2577,
      "Miracle": 2578,
      "Under": 2579,
      "Umbra": 2580,
      "bolster": 2581,
      "escap": 2582,
      "imp": 2583,
      "rol": 2584,
      "run": 2585,
      "takes": 2586,
      "use": 2587,
      "##ger": 2588,
      "##cast": 2589,
      "##ream": 2590,
      "thirt": 2591,
      "##ines": 2592,
      "##leash": 2593,
      "yours": 2594,
      "contin": 2595,
      "##irc": 2596,
      "##owest": 2597,
      "##apter": 2598,
      "Reward": 2599,
      "chapter": 2600,
      "prowl": 2601,
      "Alliance": 2602,
      "Soldiers": 2603,
      "Stand": 2604,
      "##white": 2605,
      "forever": 2606,
      "##redge": 2607,
      "Fabricate": 2608,
      "Casualty": 2609,
      "symbols": 2610,
      "intens": 2611,
      "##idden": 2612,
      "Legendary": 2613,
      "faced": 2614,
      "Shaman": 2615,
      "Extort": 2616,
      "replac": 2617,
      "Berserker": 2618,
      "Shapeshifter": 2619,
      "Dalek": 2620,
      "rolled": 2621,
      "'\"": 2622,
      "15": 2623,
      "Awaken": 2624,
      "Cip": 2625,
      "Cele": 2626,
      "Emerge": 2627,
      "Gates": 2628,
      "Hom": 2629,
      "Hide": 2630,
      "Kob": 2631,
      "Learn": 2632,
      "Map": 2633,
      "Mite": 2634,
      "Pilot": 2635,
      "Rad": 2636,
      "Solved": 2637,
      "We": 2638,
      "go": 2639,
      "ice": 2640,
      "lowest": 2641,
      "match": 2642,
      "wear": 2643,
      "##lif": 2644,
      "##away": 2645,
      "##rush": 2646,
      "##growth": 2647,
      "##uck": 2648,
      "##ull": 2649,
      "##ma": 2650,
      "cor": 2651,
      "##eth": 2652,
      "##str": 2653,
      "##ones": 2654,
      "ori": 2655,
      "##rab": 2656,
      "forage": 2657,
      "blood": 2658,
      "##attacking": 2659,
      "nonattacking": 2660,
      "##ounty": 2661,
      "searched": 2662,
      "totals": 2663,
      "flavor": 2664,
      "Class": 2665,
      "Unleash": 2666,
      "says": 2667,
      "##igned": 2668,
      "drafted": 2669,
      "Squirrels": 2670,
      "including": 2671,
      "guesses": 2672,
      "offer": 2673,
      "touching": 2674,
      "Shrine": 2675,
      "assembles": 2676,
      "watermark": 2677,
      "record": 2678,
      "square": 2679,
      "expansion": 2680,
      "ante": 2681,
      "teammate": 2682,
      "Enlist": 2683,
      "Combine": 2684,
      "Gnome": 2685,
      "replacing": 2686,
      "Cipher": 2687,
      "Kobold": 2688,
      "!)": 2689,
      "Cou": 2690,
      "Dredge": 2691,
      "Hidden": 2692,
      "Rally": 2693,
      "Revel": 2694,
      "Val": 2695,
      "aff": 2696,
      "agend": 2697,
      "bounty": 2698,
      "page": 2699,
      "vow": 2700,
      "##na": 2701,
      "##creature": 2702,
      "##pe": 2703,
      "##ted": 2704,
      "##test": 2705,
      "##__": 2706,
      "##ouse": 2707,
      "##ately": 2708,
      "##eries": 2709,
      "item": 2710,
      "##roll": 2711,
      "contains": 2712,
      "wither": 2713,
      "##ices": 2714,
      "numbers": 2715,
      "##ool": 2716,
      "Annihilator": 2717,
      "Form": 2718,
      "looks": 2719,
      "Goat": 2720,
      "convoke": 2721,
      "Blue": 2722,
      "produces": 2723,
      "saddles": 2724,
      "##ortion": 2725,
      "Banding": 2726,
      "followed": 2727,
      "crewed": 2728,
      "letters": 2729,
      "Noncreature": 2730,
      "Boar": 2731,
      "Repeat": 2732,
      "guessed": 2733,
      "##rone": 2734,
      "Championship": 2735,
      "brack": 2736,
      "cloak": 2737,
      "neither": 2738,
      "haunt": 2739,
      "##ressive": 2740,
      "surge": 2741,
      "##raining": 2742,
      "Lair": 2743,
      "Standard": 2744,
      "Hideaway": 2745,
      "##life": 2746,
      "Valiant": 2747,
      "agenda": 2748,
      "Ca": 2749,
      "Cow": 2750,
      "Don": 2751,
      "Discover": 2752,
      "Graft": 2753,
      "Head": 2754,
      "Light": 2755,
      "Ox": 2756,
      "Ot": 2757,
      "Phas": 2758,
      "Tour": 2759,
      "Venture": 2760,
      "just": 2761,
      "mount": 2762,
      "mark": 2763,
      "sl": 2764,
      "sil": 2765,
      "side": 2766,
      "tra": 2767,
      "tax": 2768,
      "##sed": 2769,
      "##solved": 2770,
      "##uence": 2771,
      "##rem": 2772,
      "##arn": 2773,
      "##inence": 2774,
      "##leave": 2775,
      "##ors": 2776,
      "##andra": 2777,
      "##gest": 2778,
      "spectacle": 2779,
      "playtest": 2780,
      "Thru": 2781,
      "##key": 2782,
      "having": 2783,
      "##ivers": 2784,
      "nonwhite": 2785,
      "Assemb": 2786,
      "##ides": 2787,
      "unsolved": 2788,
      "leg": 2789,
      "choices": 2790,
      "Arch": 2791,
      "Chandra": 2792,
      "Phyrexians": 2793,
      "Birds": 2794,
      "Clerics": 2795,
      "Bloodrush": 2796,
      "Companion": 2797,
      "##egas": 2798,
      "Skulk": 2799,
      "Cats": 2800,
      "Worker": 2801,
      "used": 2802,
      "rule": 2803,
      "separates": 2804,
      "Eminence": 2805,
      "affected": 2806,
      "myriad": 2807,
      "##fluence": 2808,
      "Undergrowth": 2809,
      "escapes": 2810,
      "Celebr": 2811,
      "origin": 2812,
      "brackets": 2813,
      "Phasing": 2814,
      "mountain": 2815,
      "Ball": 2816,
      "Cent": 2817,
      "Cleave": 2818,
      "Dark": 2819,
      "Effect": 2820,
      "Fire": 2821,
      "Freerunning": 2822,
      "Gu": 2823,
      "Ham": 2824,
      "Han": 2825,
      "Half": 2826,
      "Jump": 2827,
      "Kh": 2828,
      "Kin": 2829,
      "Kor": 2830,
      "Lil": 2831,
      "Lie": 2832,
      "Mine": 2833,
      "Pest": 2834,
      "Pegas": 2835,
      "Rhin": 2836,
      "Tower": 2837,
      "Training": 2838,
      "ac": 2839,
      "bidd": 2840,
      "event": 2841,
      "empt": 2842,
      "fuse": 2843,
      "hat": 2844,
      "head": 2845,
      "ki": 2846,
      "list": 2847,
      "nor": 2848,
      "now": 2849,
      "portion": 2850,
      "rampage": 2851,
      "sle": 2852,
      "sim": 2853,
      "tide": 2854,
      "##game": 2855,
      "##flect": 2856,
      "##oves": 2857,
      "##combat": 2858,
      "##erman": 2859,
      "##enant": 2860,
      "annihilator": 2861,
      "bearer": 2862,
      "##utenant": 2863,
      "read": 2864,
      "instance": 2865,
      "##idable": 2866,
      "fourth": 2867,
      "##iple": 2868,
      "Forecast": 2869,
      "box": 2870,
      "Ink": 2871,
      "##irect": 2872,
      "Allies": 2873,
      "activation": 2874,
      "flood": 2875,
      "decks": 2876,
      "mono": 2877,
      "Alien": 2878,
      "Monk": 2879,
      "Afflict": 2880,
      "finish": 2881,
      "Mutant": 2882,
      "##ocus": 2883,
      "##rong": 2884,
      "Surge": 2885,
      "cleave": 2886,
      "Worlds": 2887,
      "friends": 2888,
      "study": 2889,
      "Planeswalker": 2890,
      "Riot": 2891,
      "##ething": 2892,
      "vowel": 2893,
      "Formidable": 2894,
      "Thrull": 2895,
      "Celebration": 2896,
      "mountainwalk": 2897,
      "Centaur": 2898,
      "Effects": 2899,
      "Kinship": 2900,
      "Lieutenant": 2901,
      "Rhino": 2902,
      "empty": 2903,
      "Art": 2904,
      "Bolster": 2905,
      "Dru": 2906,
      "Locus": 2907,
      "Niss": 2908,
      "Po": 2909,
      "Ru": 2910,
      "Su": 2911,
      "Wolves": 2912,
      "bu": 2913,
      "bal": 2914,
      "dist": 2915,
      "direct": 2916,
      "how": 2917,
      "make": 2918,
      "pre": 2919,
      "sho": 2920,
      "some": 2921,
      "visit": 2922,
      "zones": 2923,
      "##inder": 2924,
      "##lin": 2925,
      "##eal": 2926,
      "##az": 2927,
      "##cul": 2928,
      "##we": 2929,
      "##pic": 2930,
      "##head": 2931,
      "##hrone": 2932,
      "##atar": 2933,
      "##infor": 2934,
      "##ani": 2935,
      "##ified": 2936,
      "def": 2937,
      "##ics": 2938,
      "count": 2939,
      "ends": 2940,
      "##omething": 2941,
      "##ongreen": 2942,
      "about": 2943,
      "Reinfor": 2944,
      "##ending": 2945,
      "Spectacle": 2946,
      "tribute": 2947,
      "##ague": 2948,
      "activates": 2949,
      "Consp": 2950,
      "Confluence": 2951,
      "##iana": 2952,
      "couldn": 2953,
      "kinds": 2954,
      "Before": 2955,
      "stickers": 2956,
      "Dinosaurs": 2957,
      "everything": 2958,
      "Tribute": 2959,
      "Afterlife": 2960,
      "Incubate": 2961,
      "switch": 2962,
      "Mirran": 2963,
      "separate": 2964,
      "Parad": 2965,
      "faces": 2966,
      "support": 2967,
      "Two": 2968,
      "subgame": 2969,
      "thirteen": 2970,
      "intensify": 2971,
      "Championships": 2972,
      "haunting": 2973,
      "Otter": 2974,
      "originally": 2975,
      "Balloon": 2976,
      "Halfling": 2977,
      "Liliana": 2978,
      "Inkling": 2979,
      "Druid": 2980,
      "Nissa": 2981,
      "Reinforce": 2982,
      "Conspire": 2983,
      "14": 2984,
      "Cro": 2985,
      "Cards": 2986,
      "Circ": 2987,
      "Fate": 2988,
      "Ge": 2989,
      "Gor": 2990,
      "Grem": 2991,
      "Haunt": 2992,
      "Kal": 2993,
      "Kav": 2994,
      "Keep": 2995,
      "Multicolored": 2996,
      "Melee": 2997,
      "Mouse": 2998,
      "Pr": 2999,
      "Sor": 3000,
      "Wra": 3001,
      "Wicked": 3002,
      "ahead": 3003,
      "bord": 3004,
      "egg": 3005,
      "fing": 3006,
      "fift": 3007,
      "full": 3008,
      "kn": 3009,
      "native": 3010,
      "nongreen": 3011,
      "pe": 3012,
      "tri": 3013,
      "##iqu": 3014,
      "##ecializes": 3015,
      "##gre": 3016,
      "##oard": 3017,
      "##cret": 3018,
      "##ye": 3019,
      "##board": 3020,
      "##rect": 3021,
      "##atho": 3022,
      "##era": 3023,
      "##arm": 3024,
      "##amil": 3025,
      "##ense": 3026,
      "##angeling": 3027,
      "##ley": 3028,
      "##elve": 3029,
      "stop": 3030,
      "Addend": 3031,
      "Enchantment": 3032,
      "##cere": 3033,
      "Reflect": 3034,
      "chapt": 3035,
      "unearth": 3036,
      "##ourn": 3037,
      "##olas": 3038,
      "sealed": 3039,
      "Gold": 3040,
      "##uncul": 3041,
      "Prowl": 3042,
      "##ultane": 3043,
      "Clown": 3044,
      "modes": 3045,
      "Skipped": 3046,
      "Faeries": 3047,
      "Contraptions": 3048,
      "Secret": 3049,
      "separately": 3050,
      "brick": 3051,
      "unspecializes": 3052,
      "Collect": 3053,
      "haunts": 3054,
      "postcombat": 3055,
      "active": 3056,
      "Avatar": 3057,
      "detain": 3058,
      "foe": 3059,
      "Homuncul": 3060,
      "Radiance": 3061,
      "##strate": 3062,
      "silver": 3063,
      "sideboard": 3064,
      "Khans": 3065,
      "Pegasus": 3066,
      "Fateful": 3067,
      "Gremlin": 3068,
      "Kavu": 3069,
      "Wraith": 3070,
      "Addendum": 3071,
      "chapters": 3072,
      "##ultaneously": 3073,
      "Homunculus": 3074,
      "Bolas": 3075,
      "Esc": 3076,
      "Egg": 3077,
      "Friend": 3078,
      "Gr": 3079,
      "Lev": 3080,
      "Lord": 3081,
      "Open": 3082,
      "Ogre": 3083,
      "Pack": 3084,
      "Pop": 3085,
      "Rac": 3086,
      "Rampage": 3087,
      "Sy": 3088,
      "Say": 3089,
      "Ty": 3090,
      "Use": 3091,
      "Zero": 3092,
      "augment": 3093,
      "cate": 3094,
      "fate": 3095,
      "growth": 3096,
      "inter": 3097,
      "know": 3098,
      "luck": 3099,
      "met": 3100,
      "mult": 3101,
      "moves": 3102,
      "pie": 3103,
      "self": 3104,
      "something": 3105,
      "table": 3106,
      "vill": 3107,
      "##ech": 3108,
      "##sw": 3109,
      "##ses": 3110,
      "##aw": 3111,
      "##ram": 3112,
      "##rite": 3113,
      "##dy": 3114,
      "##ov": 3115,
      "##oin": 3116,
      "##cent": 3117,
      "##coon": 3118,
      "##ked": 3119,
      "##be": 3120,
      "##told": 3121,
      "##hort": 3122,
      "##var": 3123,
      "##zz": 3124,
      "##acy": 3125,
      "##leas": 3126,
      "##alate": 3127,
      "##orless": 3128,
      "plains": 3129,
      "##icated": 3130,
      "##ellow": 3131,
      "##roma": 3132,
      "##ainous": 3133,
      "regenerate": 3134,
      "drawing": 3135,
      "whether": 3136,
      "Death": 3137,
      "upkeeps": 3138,
      "changeling": 3139,
      "##ruption": 3140,
      "searching": 3141,
      "Ingest": 3142,
      "##plify": 3143,
      "Drake": 3144,
      "Provoke": 3145,
      "Chroma": 3146,
      "Cohort": 3147,
      "Plainscycling": 3148,
      "Univers": 3149,
      "differently": 3150,
      "divides": 3151,
      "foretold": 3152,
      "embalm": 3153,
      "coins": 3154,
      "Squad": 3155,
      "height": 3156,
      "200": 3157,
      "Attractions": 3158,
      "Monster": 3159,
      "whichever": 3160,
      "incor": 3161,
      "Dethrone": 3162,
      "completely": 3163,
      "Amplify": 3164,
      "Parley": 3165,
      "touches": 3166,
      "Dogs": 3167,
      "Colorless": 3168,
      "Shrines": 3169,
      "##ails": 3170,
      "student": 3171,
      "Ready": 3172,
      "Glim": 3173,
      "work": 3174,
      "Revelers": 3175,
      "Lightning": 3176,
      "vowels": 3177,
      "Paradox": 3178,
      "Kaldra": 3179,
      "bordered": 3180,
      "fifteen": 3181,
      "Escalate": 3182,
      "Grand": 3183,
      "Populate": 3184,
      "Raccoon": 3185,
      "multiple": 3186,
      "villainous": 3187,
      "End": 3188,
      "Gar": 3189,
      "Grif": 3190,
      "Gide": 3191,
      "Jace": 3192,
      "Leg": 3193,
      "Moon": 3194,
      "Pra": 3195,
      "Sm": 3196,
      "Sand": 3197,
      "around": 3198,
      "book": 3199,
      "cred": 3200,
      "cumulative": 3201,
      "dile": 3202,
      "dream": 3203,
      "fast": 3204,
      "learn": 3205,
      "makes": 3206,
      "melee": 3207,
      "pin": 3208,
      "ret": 3209,
      "rev": 3210,
      "sm": 3211,
      "signed": 3212,
      "tourn": 3213,
      "und": 3214,
      "wind": 3215,
      "wrong": 3216,
      "##iar": 3217,
      "##ial": 3218,
      "##ipp": 3219,
      "##iath": 3220,
      "##sy": 3221,
      "##gl": 3222,
      "##gory": 3223,
      "##crow": 3224,
      "##ys": 3225,
      "##mma": 3226,
      "##vel": 3227,
      "##oured": 3228,
      "##eroll": 3229,
      "##reath": 3230,
      "##enchant": 3231,
      "cover": 3232,
      "##ament": 3233,
      "##isp": 3234,
      "##urd": 3235,
      "##ited": 3236,
      "##ific": 3237,
      "##rap": 3238,
      "place": 3239,
      "plague": 3240,
      "beg": 3241,
      "##uth": 3242,
      "death": 3243,
      "##icates": 3244,
      "##chang": 3245,
      "twelve": 3246,
      "perform": 3247,
      "above": 3248,
      "others": 3249,
      "##rix": 3250,
      "copied": 3251,
      "uniqu": 3252,
      "##ector": 3253,
      "##otted": 3254,
      "come": 3255,
      "##ledge": 3256,
      "games": 3257,
      "seat": 3258,
      "##arecrow": 3259,
      "##ickly": 3260,
      "Hunt": 3261,
      "##alls": 3262,
      "resp": 3263,
      "Top": 3264,
      "reminder": 3265,
      "Clues": 3266,
      "rolls": 3267,
      "flips": 3268,
      "Mountaincycling": 3269,
      "Unattach": 3270,
      "Exert": 3271,
      "##oyf": 3272,
      "devoured": 3273,
      "Scarecrow": 3274,
      "wordy": 3275,
      "##mpting": 3276,
      "duplicates": 3277,
      "##eath": 3278,
      "##ope": 3279,
      "##ople": 3280,
      "skulk": 3281,
      "collected": 3282,
      "descent": 3283,
      "Temp": 3284,
      "Tempting": 3285,
      "Nontoken": 3286,
      "Modified": 3287,
      "##ilding": 3288,
      "Curse": 3289,
      "Cursed": 3290,
      "quickly": 3291,
      "assemble": 3292,
      "such": 3293,
      "subt": 3294,
      "feather": 3295,
      "continu": 3296,
      "wearing": 3297,
      "Council": 3298,
      "travel": 3299,
      "Hamster": 3300,
      "acorn": 3301,
      "bidding": 3302,
      "Planeswalkers": 3303,
      "Poison": 3304,
      "Gorgon": 3305,
      "people": 3306,
      "##amiliar": 3307,
      "Leviath": 3308,
      "category": 3309,
      "plainswalk": 3310,
      "Glimmer": 3311,
      "Griffin": 3312,
      "Gideon": 3313,
      "dilemma": 3314,
      "tournament": 3315,
      "unique": 3316,
      "\"[": 3317,
      "\"<": 3318,
      "00": 3319,
      "Breath": 3320,
      "Cra": 3321,
      "Crab": 3322,
      "Face": 3323,
      "Garg": 3324,
      "Her": 3325,
      "Join": 3326,
      "Not": 3327,
      "New": 3328,
      "Ok": 3329,
      "Pho": 3330,
      "San": 3331,
      "Tim": 3332,
      "cur": 3333,
      "fungus": 3334,
      "fits": 3335,
      "gold": 3336,
      "hit": 3337,
      "heads": 3338,
      "me": 3339,
      "meld": 3340,
      "norm": 3341,
      "phy": 3342,
      "press": 3343,
      "pool": 3344,
      "rare": 3345,
      "tact": 3346,
      "well": 3347,
      "yes": 3348,
      "##eel": 3349,
      "##eck": 3350,
      "##ss": 3351,
      "##sk": 3352,
      "##aze": 3353,
      "##ng": 3354,
      "##net": 3355,
      "##oice": 3356,
      "##cer": 3357,
      "##kn": 3358,
      "##bre": 3359,
      "##bble": 3360,
      "##put": 3361,
      "##pies": 3362,
      "##here": 3363,
      "##heads": 3364,
      "##vive": 3365,
      "##ER": 3366,
      "##jin": 3367,
      "##rent": 3368,
      "##nth": 3369,
      "##atur": 3370,
      "##ara": 3371,
      "##aring": 3372,
      "##aract": 3373,
      "##rop": 3374,
      "##ett": 3375,
      "##etch": 3376,
      "##stal": 3377,
      "##iter": 3378,
      "##orus": 3379,
      "##ilt": 3380,
      "plot": 3381,
      "plotted": 3382,
      "##ical": 3383,
      "##pple": 3384,
      "##acker": 3385,
      "Three": 3386,
      "releas": 3387,
      "##atter": 3388,
      "nonenchant": 3389,
      "##rim": 3390,
      "Ash": 3391,
      "##imited": 3392,
      "##eart": 3393,
      "area": 3394,
      "##ids": 3395,
      "Sphin": 3396,
      "alph": 3397,
      "Forestcycling": 3398,
      "Islandcycling": 3399,
      "##athering": 3400,
      "Swampcycling": 3401,
      "Shark": 3402,
      "##vern": 3403,
      "##verted": 3404,
      "Elementals": 3405,
      "Copies": 3406,
      "voting": 3407,
      "##oyle": 3408,
      "Saprolings": 3409,
      "backup": 3410,
      "cycles": 3411,
      "Comple": 3412,
      "fewest": 3413,
      "Demons": 3414,
      "indicated": 3415,
      "Myst": 3416,
      "Recover": 3417,
      "encore": 3418,
      "Nonbasic": 3419,
      "final": 3420,
      "Bobble": 3421,
      "uses": 3422,
      "complete": 3423,
      "199": 3424,
      "Skeletons": 3425,
      "Nothing": 3426,
      "scream": 3427,
      "scroll": 3428,
      "committed": 3429,
      "points": 3430,
      "quality": 3431,
      "posted": 3432,
      "actions": 3433,
      "survive": 3434,
      "##aunted": 3435,
      "Planeswalk": 3436,
      "foot": 3437,
      "worth": 3438,
      "impressive": 3439,
      "wears": 3440,
      "Kobolds": 3441,
      "affinity": 3442,
      "Cavern": 3443,
      "Cowards": 3444,
      "slime": 3445,
      "Assembly": 3446,
      "Hanwe": 3447,
      "simultaneously": 3448,
      "ready": 3449,
      "Support": 3450,
      "balan": 3451,
      "Sorcere": 3452,
      "triple": 3453,
      "##rectly": 3454,
      "Reflection": 3455,
      "Friends": 3456,
      "##bearer": 3457,
      "##sych": 3458,
      "##changed": 3459,
      "Temple": 3460,
      "Gargoyle": 3461,
      "Note": 3462,
      "pressure": 3463,
      "tactics": 3464,
      "##atural": 3465,
      "nonenchantment": 3466,
      "Sphinx": 3467,
      "Compleated": 3468,
      "Bobbleheads": 3469,
      "Hanweir": 3470,
      "Sorcerer": 3471,
      "(<": 3472,
      "25": 3473,
      "30": 3474,
      ">\"": 3475,
      "Ab": 3476,
      "Ant": 3477,
      "Ape": 3478,
      "Bri": 3479,
      "Boo": 3480,
      "Bolt": 3481,
      "Cy": 3482,
      "Djin": 3483,
      "Emp": 3484,
      "Eye": 3485,
      "Fight": 3486,
      "Fox": 3487,
      "Fatho": 3488,
      "Gro": 3489,
      "Grave": 3490,
      "German": 3491,
      "Gathering": 3492,
      "How": 3493,
      "Horse": 3494,
      "Mice": 3495,
      "Meld": 3496,
      "Mox": 3497,
      "Ne": 3498,
      "PL": 3499,
      "Pile": 3500,
      "Ras": 3501,
      "Rag": 3502,
      "Round": 3503,
      "Sat": 3504,
      "Sal": 3505,
      "Tut": 3506,
      "Tom": 3507,
      "VI": 3508,
      "Wast": 3509,
      "Wind": 3510,
      "Yan": 3511,
      "aura": 3512,
      "burd": 3513,
      "cage": 3514,
      "circ": 3515,
      "d1": 3516,
      "del": 3517,
      "earn": 3518,
      "food": 3519,
      "fates": 3520,
      "fellow": 3521,
      "gl": 3522,
      "gener": 3523,
      "lines": 3524,
      "pass": 3525,
      "rever": 3526,
      "reroll": 3527,
      "sa": 3528,
      "tit": 3529,
      "tails": 3530,
      "wish": 3531,
      "write": 3532,
      "##io": 3533,
      "##int": 3534,
      "##inter": 3535,
      "##ient": 3536,
      "##ee": 3537,
      "##eur": 3538,
      "##elect": 3539,
      "##aker": 3540,
      "##rough": 3541,
      "##gether": 3542,
      "##gressive": 3543,
      "##uit": 3544,
      "##cc": 3545,
      "##yr": 3546,
      "##mless": 3547,
      "##bles": 3548,
      "##berman": 3549,
      "##pse": 3550,
      "##tect": 3551,
      "##ha": 3552,
      "##AY": 3553,
      "##amand": 3554,
      "##eter": 3555,
      "toy": 3556,
      "together": 3557,
      "##start": 3558,
      "##ald": 3559,
      "##urb": 3560,
      "##iteri": 3561,
      "answ": 3562,
      "##rant": 3563,
      "##aster": 3564,
      "beat": 3565,
      "demon": 3566,
      "##icorn": 3567,
      "##osing": 3568,
      "##osition": 3569,
      "There": 3570,
      "ref": 3571,
      "rece": 3572,
      "stash": 3573,
      "##ocking": 3574,
      "permanently": 3575,
      "##llig": 3576,
      "door": 3577,
      "nons": 3578,
      "Ask": 3579,
      "##lerance": 3580,
      "check": 3581,
      "charact": 3582,
      "unchanged": 3583,
      "Their": 3584,
      "instants": 3585,
      "##ief": 3586,
      "##ruk": 3587,
      "##ulpt": 3588,
      "Anim": 3589,
      "protect": 3590,
      "select": 3591,
      "mullig": 3592,
      "legends": 3593,
      "looked": 3594,
      "##une": 3595,
      "##agbearer": 3596,
      "##ires": 3597,
      "Sword": 3598,
      "reselect": 3599,
      "scrying": 3600,
      "Tolerance": 3601,
      "flame": 3602,
      "convo": 3603,
      "100": 3604,
      "Elk": 3605,
      "Phyrexia": 3606,
      "voted": 3607,
      "resolving": 3608,
      "Whisp": 3609,
      "Elder": 3610,
      "planeswalks": 3611,
      "cycled": 3612,
      "Flame": 3613,
      "Flagbearer": 3614,
      "##ators": 3615,
      "aggressive": 3616,
      "against": 3617,
      "Thopters": 3618,
      "adventure": 3619,
      "Nonartifact": 3620,
      "criteri": 3621,
      "story": 3622,
      "guild": 3623,
      "transformed": 3624,
      "collector": 3625,
      "Impending": 3626,
      "designed": 3627,
      "equipment": 3628,
      "healing": 3629,
      "persist": 3630,
      "Werewolves": 3631,
      "Leech": 3632,
      "increased": 3633,
      "Undaunted": 3634,
      "scavenge": 3635,
      "need": 3636,
      "Robots": 3637,
      "keywords": 3638,
      "feet": 3639,
      "yourself": 3640,
      "corpse": 3641,
      "offering": 3642,
      "Counters": 3643,
      "afflict": 3644,
      "Coward": 3645,
      "Assemble": 3646,
      "legal": 3647,
      "Artific": 3648,
      "disturb": 3649,
      "direction": 3650,
      "show": 3651,
      "defense": 3652,
      "finger": 3653,
      "known": 3654,
      "works": 3655,
      "Grandeur": 3656,
      "Garruk": 3657,
      "Praet": 3658,
      "undying": 3659,
      "continuously": 3660,
      "000": 3661,
      "normal": 3662,
      "Cyberman": 3663,
      "Djinn": 3664,
      "Empires": 3665,
      "Fathomless": 3666,
      "Melds": 3667,
      "PLAY": 3668,
      "Piles": 3669,
      "Satyr": 3670,
      "Salamand": 3671,
      "Tutor": 3672,
      "burden": 3673,
      "delay": 3674,
      "fateseal": 3675,
      "said": 3676,
      "receive": 3677,
      "convoked": 3678,
      "criteria": 3679,
      "16": 3680,
      "Au": 3681,
      "Br": 3682,
      "Bro": 3683,
      "Cart": 3684,
      "Count": 3685,
      "Capt": 3686,
      "Ef": 3687,
      "Epic": 3688,
      "Fe": 3689,
      "Familiar": 3690,
      "Har": 3691,
      "Hand": 3692,
      "Host": 3693,
      "Hacker": 3694,
      "Heart": 3695,
      "Jug": 3696,
      "Just": 3697,
      "Ke": 3698,
      "Kam": 3699,
      "King": 3700,
      "Kher": 3701,
      "Ll": 3702,
      "Lost": 3703,
      "Lab": 3704,
      "Limited": 3705,
      "Mar": 3706,
      "Mark": 3707,
      "Om": 3708,
      "Py": 3709,
      "Ph": 3710,
      "Qu": 3711,
      "Rock": 3712,
      "Rid": 3713,
      "Rub": 3714,
      "Rak": 3715,
      "Sent": 3716,
      "Sim": 3717,
      "Sol": 3718,
      "Snow": 3719,
      "Ted": 3720,
      "Wal": 3721,
      "Worm": 3722,
      "Xen": 3723,
      "Yes": 3724,
      "Zub": 3725,
      "av": 3726,
      "aim": 3727,
      "ben": 3728,
      "big": 3729,
      "bushido": 3730,
      "cal": 3731,
      "dying": 3732,
      "ey": 3733,
      "ear": 3734,
      "epic": 3735,
      "fold": 3736,
      "find": 3737,
      "favor": 3738,
      "falls": 3739,
      "fetch": 3740,
      "hu": 3741,
      "her": 3742,
      "hope": 3743,
      "im": 3744,
      "jump": 3745,
      "lower": 3746,
      "large": 3747,
      "mag": 3748,
      "mire": 3749,
      "matter": 3750,
      "ninj": 3751,
      "sun": 3752,
      "sector": 3753,
      "tick": 3754,
      "void": 3755,
      "vanishing": 3756,
      "voice": 3757,
      "want": 3758,
      "yet": 3759,
      "##iest": 3760,
      "##ious": 3761,
      "##line": 3762,
      "##ectiv": 3763,
      "##ault": 3764,
      "##aver": 3765,
      "##rance": 3766,
      "##gen": 3767,
      "##fly": 3768,
      "##fection": 3769,
      "##fire": 3770,
      "##feri": 3771,
      "##ual": 3772,
      "##uilding": 3773,
      "##cept": 3774,
      "##yal": 3775,
      "##bon": 3776,
      "##born": 3777,
      "##por": 3778,
      "##ten": 3779,
      "##hal": 3780,
      "##vant": 3781,
      "##oud": 3782,
      "##ering": 3783,
      "##ens": 3784,
      "##eng": 3785,
      "##enix": 3786,
      "##ined": 3787,
      "cond": 3788,
      "##als": 3789,
      "##aly": 3790,
      "##urg": 3791,
      "##ings": 3792,
      "##itter": 3793,
      "##ifies": 3794,
      "contain": 3795,
      "##eland": 3796,
      "##elow": 3797,
      "##order": 3798,
      "##rak": 3799,
      "##rask": 3800,
      "within": 3801,
      "##icke": 3802,
      "##ask": 3803,
      "investig": 3804,
      "forces": 3805,
      "blaze": 3806,
      "Young": 3807,
      "##thic": 3808,
      "Though": 3809,
      "##ddy": 3810,
      "reb": 3811,
      "stand": 3812,
      "sticke": 3813,
      "##ession": 3814,
      "##iga": 3815,
      "##igh": 3816,
      "##ceed": 3817,
      "##eret": 3818,
      "enchants": 3819,
      "Dem": 3820,
      "added": 3821,
      "sorry": 3822,
      "##imera": 3823,
      "##ears": 3824,
      "##ypes": 3825,
      "Them": 3826,
      "nothing": 3827,
      "Sphere": 3828,
      "##vention": 3829,
      "##ouche": 3830,
      "enl": 3831,
      "prof": 3832,
      "proceed": 3833,
      "phasing": 3834,
      "##rease": 3835,
      "##ized": 3836,
      "Fort": 3837,
      "##arest": 3838,
      "truth": 3839,
      "thought": 3840,
      "##agos": 3841,
      "##ploy": 3842,
      "##oney": 3843,
      "Royal": 3844,
      "converted": 3845,
      "Charm": 3846,
      "Chorus": 3847,
      "Chimera": 3848,
      "poisoned": 3849,
      "winning": 3850,
      "Blade": 3851,
      "Blocking": 3852,
      "Plainswalk": 3853,
      "regenerates": 3854,
      "Unicorn": 3855,
      "kindred": 3856,
      "speak": 3857,
      "mutated": 3858,
      "Sculpt": 3859,
      "##venous": 3860,
      "Beasts": 3861,
      "heist": 3862,
      "Adj": 3863,
      "Ravenous": 3864,
      "Demonstrate": 3865,
      "Mono": 3866,
      "Commanders": 3867,
      "Control": 3868,
      "seeks": 3869,
      "Deserts": 3870,
      "Recru": 3871,
      "Golems": 3872,
      "Nonland": 3873,
      "Snakes": 3874,
      "amassed": 3875,
      "regard": 3876,
      "minimum": 3877,
      "version": 3878,
      "Outlaw": 3879,
      "Mines": 3880,
      "Teys": 3881,
      "Teferi": 3882,
      "##emory": 3883,
      "connive": 3884,
      "appears": 3885,
      "nearest": 3886,
      "Devils": 3887,
      "Bats": 3888,
      "Dwarves": 3889,
      "Employ": 3890,
      "Ripple": 3891,
      "Serpents": 3892,
      "impending": 3893,
      "##gerna": 3894,
      "thirty": 3895,
      "continues": 3896,
      "intensifies": 3897,
      "Weird": 3898,
      "Weaver": 3899,
      "goes": 3900,
      "##____": 3901,
      "Fires": 3902,
      "distance": 3903,
      "prev": 3904,
      "someone": 3905,
      "stops": 3906,
      "Tyvar": 3907,
      "pieces": 3908,
      "incorpor": 3909,
      "retrace": 3910,
      "subtract": 3911,
      "Oko": 3912,
      "Phoenix": 3913,
      "Timing": 3914,
      "##putin": 3915,
      "balanced": 3916,
      "Germany": 3917,
      "Rasputin": 3918,
      "earned": 3919,
      "##eteran": 3920,
      "demonstrate": 3921,
      "nonsnow": 3922,
      "character": 3923,
      "Artificer": 3924,
      "PLAYER": 3925,
      "Salamander": 3926,
      "received": 3927,
      "Cartouche": 3928,
      "Juggerna": 3929,
      "Teddy": 3930,
      "Xenagos": 3931,
      "Zubera": 3932,
      "beneath": 3933,
      "magnet": 3934,
      "ninjutsu": 3935,
      "ticket": 3936,
      "##ectives": 3937,
      "stickered": 3938,
      "Teysa": 3939,
      "incorporates": 3940,
      "//": 3941,
      "26": 3942,
      "?\"": 3943,
      "Aj": 3944,
      "And": 3945,
      "Aether": 3946,
      "Astart": 3947,
      "Bow": 3948,
      "Burst": 3949,
      "Car": 3950,
      "Can": 3951,
      "Cal": 3952,
      "Cone": 3953,
      "Cau": 3954,
      "Combat": 3955,
      "Dar": 3956,
      "Den": 3957,
      "Dis": 3958,
      "Dry": 3959,
      "Dum": 3960,
      "Dread": 3961,
      "Fen": 3962,
      "Fest": 3963,
      "France": 3964,
      "Growth": 3965,
      "Gunk": 3966,
      "Ho": 3967,
      "Hat": 3968,
      "His": 3969,
      "Inter": 3970,
      "Lh": 3971,
      "Last": 3972,
      "Log": 3973,
      "Ma": 3974,
      "Mu": 3975,
      "May": 3976,
      "Make": 3977,
      "Midn": 3978,
      "Nic": 3979,
      "Nation": 3980,
      "Op": 3981,
      "Pin": 3982,
      "Pass": 3983,
      "Pool": 3984,
      "Quest": 3985,
      "Rain": 3986,
      "Stal": 3987,
      "Seven": 3988,
      "Tin": 3989,
      "Tri": 3990,
      "Tarm": 3991,
      "Ul": 3992,
      "Vill": 3993,
      "Vault": 3994,
      "Vrask": 3995,
      "With": 3996,
      "Watch": 3997,
      "Wild": 3998,
      "below": 3999,
      "cro": 4000,
      "dr": 4001,
      "d6": 4002,
      "d4": 4003,
      "d8": 4004,
      "dou": 4005,
      "den": 4006,
      "disc": 4007,
      "dig": 4008,
      "due": 4009,
      "eon": 4010,
      "ever": 4011,
      "eye": 4012,
      "fre": 4013,
      "fou": 4014,
      "field": 4015,
      "fire": 4016,
      "gone": 4017,
      "har": 4018,
      "hot": 4019,
      "lo": 4020,
      "money": 4021,
      "memory": 4022,
      "never": 4023,
      "natural": 4024,
      "ob": 4025,
      "pain": 4026,
      "pink": 4027,
      "psych": 4028,
      "song": 4029,
      "sense": 4030,
      "treasure": 4031,
      "van": 4032,
      "vel": 4033,
      "veteran": 4034,
      "will": 4035,
      "ween": 4036,
      "##imb": 4037,
      "##eve": 4038,
      "##eak": 4039,
      "##app": 4040,
      "##rise": 4041,
      "##rath": 4042,
      "##get": 4043,
      "##gent": 4044,
      "##gic": 4045,
      "##gram": 4046,
      "##do": 4047,
      "##day": 4048,
      "##dle": 4049,
      "##ubl": 4050,
      "##uster": 4051,
      "##oth": 4052,
      "##oke": 4053,
      "##can": 4054,
      "##cna": 4055,
      "##cani": 4056,
      "##wer": 4057,
      "##wor": 4058,
      "##ply": 4059,
      "##tle": 4060,
      "##ject": 4061,
      "##UE": 4062,
      "through": 4063,
      "##ures": 4064,
      "##amor": 4065,
      "##enn": 4066,
      "##aces": 4067,
      "##inst": 4068,
      "##inel": 4069,
      "##roch": 4070,
      "these": 4071,
      "##ete": 4072,
      "today": 4073,
      "##struct": 4074,
      "##steel": 4075,
      "##anar": 4076,
      "##anow": 4077,
      "##ancer": 4078,
      "##lebre": 4079,
      "##ury": 4080,
      "##ony": 4081,
      "##inger": 4082,
      "##ifth": 4083,
      "contest": 4084,
      "##iling": 4085,
      "##ica": 4086,
      "##icore": 4087,
      "##ically": 4088,
      "##icators": 4089,
      "##eves": 4090,
      "split": 4091,
      "##assemb": 4092,
      "infection": 4093,
      "##mber": 4094,
      "fort": 4095,
      "##ibery": 4096,
      "##iration": 4097,
      "Thrab": 4098,
      "##rteen": 4099,
      "storm": 4100,
      "stored": 4101,
      "##attered": 4102,
      "##host": 4103,
      "##ows": 4104,
      "##aph": 4105,
      "##ctu": 4106,
      "##ction": 4107,
      "perfect": 4108,
      "perfor": 4109,
      "combo": 4110,
      "happ": 4111,
      "##ldron": 4112,
      "noncom": 4113,
      "nonred": 4114,
      "Dec": 4115,
      "Deep": 4116,
      "##rizz": 4117,
      "she": 4118,
      "##quid": 4119,
      "ownership": 4120,
      "##ender": 4121,
      "exiling": 4122,
      "champion": 4123,
      "##usk": 4124,
      "choosing": 4125,
      "Spark": 4126,
      "Spara": 4127,
      "##olcan": 4128,
      "comp": 4129,
      "##mander": 4130,
      "Ang": 4131,
      "Place": 4132,
      "##ips": 4133,
      "##ighten": 4134,
      "program": 4135,
      "##blade": 4136,
      "sequ": 4137,
      "Inc": 4138,
      "Arm": 4139,
      "Sweep": 4140,
      "Token": 4141,
      "Vecna": 4142,
      "Chak": 4143,
      "Sheep": 4144,
      "Shattered": 4145,
      "poisonous": 4146,
      "Stage": 4147,
      "Cloak": 4148,
      "rolling": 4149,
      "Blaring": 4150,
      "Slug": 4151,
      "Excess": 4152,
      "modal": 4153,
      "Bee": 4154,
      "Orb": 4155,
      "devour": 4156,
      "Scout": 4157,
      "Scaven": 4158,
      "Scroll": 4159,
      "explos": 4160,
      "##former": 4161,
      "nonblue": 4162,
      "Angels": 4163,
      "##udicators": 4164,
      "rope": 4165,
      "##aking": 4166,
      "Insects": 4167,
      "##augh": 4168,
      "Monkey": 4169,
      "Servant": 4170,
      "Seraph": 4171,
      "Ninjas": 4172,
      "manifests": 4173,
      "manifested": 4174,
      "remaining": 4175,
      "Soulblade": 4176,
      "lethal": 4177,
      "Nonbl": 4178,
      "Snail": 4179,
      "question": 4180,
      "collection": 4181,
      "Doctors": 4182,
      "Bog": 4183,
      "Horses": 4184,
      "Detain": 4185,
      "Detectives": 4186,
      "years": 4187,
      "##ocity": 4188,
      "packs": 4189,
      "Performer": 4190,
      "elite": 4191,
      "bribery": 4192,
      "increase": 4193,
      "##ossal": 4194,
      "casualty": 4195,
      "Spiders": 4196,
      "arms": 4197,
      "appl": 4198,
      "Every": 4199,
      "click": 4200,
      "Colossal": 4201,
      "##anger": 4202,
      "##abet": 4203,
      "##ission": 4204,
      "##ailable": 4205,
      "Minotaurs": 4206,
      "Frogs": 4207,
      "Twin": 4208,
      "recent": 4209,
      "Krakens": 4210,
      "##ogoyf": 4211,
      "Glamor": 4212,
      "Octopuses": 4213,
      "determ": 4214,
      "mythic": 4215,
      "Lizards": 4216,
      "Radha": 4217,
      "##maw": 4218,
      "corruption": 4219,
      "correctly": 4220,
      "watermarks": 4221,
      "Caves": 4222,
      "legs": 4223,
      "Archer": 4224,
      "Darksteel": 4225,
      "bidder": 4226,
      "sleeves": 4227,
      "boxes": 4228,
      "Rulebre": 4229,
      "buddy": 4230,
      "directly": 4231,
      "visited": 4232,
      "##weft": 4233,
      "Circle": 4234,
      "Circuit": 4235,
      "Prison": 4236,
      "##athoin": 4237,
      "Wraiths": 4238,
      "knowledge": 4239,
      "##overy": 4240,
      "Universe": 4241,
      "Legacy": 4242,
      "Moonfolk": 4243,
      "Smash": 4244,
      "credit": 4245,
      "credits": 4246,
      "small": 4247,
      "began": 4248,
      "begun": 4249,
      "Leviathan": 4250,
      "Leviathans": 4251,
      "current": 4252,
      "##ette": 4253,
      "release": 4254,
      "alphabet": 4255,
      "Mystic": 4256,
      "Caverns": 4257,
      "Brian": 4258,
      "Tomcani": 4259,
      "Wastes": 4260,
      "Yanling": 4261,
      "fellowship": 4262,
      "reverse": 4263,
      "title": 4264,
      "refers": 4265,
      "protects": 4266,
      "mulligan": 4267,
      "Whispers": 4268,
      "Leeches": 4269,
      "Praetor": 4270,
      "Auroch": 4271,
      "Efre": 4272,
      "Llanow": 4273,
      "Rubin": 4274,
      "Rakish": 4275,
      "Sentinel": 4276,
      "available": 4277,
      "early": 4278,
      "##urgoyf": 4279,
      "investigates": 4280,
      "rebound": 4281,
      "##essional": 4282,
      "Fortify": 4283,
      "Adjudicators": 4284,
      "Recruiter": 4285,
      "regardless": 4286,
      "Employee": 4287,
      "Ajani": 4288,
      "Astartes": 4289,
      "Cauldron": 4290,
      "Dryad": 4291,
      "Dumathoin": 4292,
      "Dreadmaw": 4293,
      "Festering": 4294,
      "Lhurgoyf": 4295,
      "Midnight": 4296,
      "Tarmogoyf": 4297,
      "Vraska": 4298,
      "drink": 4299,
      "eyeb": 4300,
      "fourteen": 4301,
      "velocity": 4302,
      "weenie": 4303,
      "Thraben": 4304,
      "performan": 4305,
      "noncommander": 4306,
      "Chakram": 4307,
      "Glamorous": 4308,
      "Rulebreaker": 4309,
      "Aurochs": 4310,
      "Llanowar": 4311,
      "17": 4312,
      "50": 4313,
      "?)": 4314,
      "Ap": 4315,
      "Az": 4316,
      "Aven": 4317,
      "Acere": 4318,
      "Acc": 4319,
      "Bar": 4320,
      "Bes": 4321,
      "Bra": 4322,
      "Braw": 4323,
      "Bue": 4324,
      "Bidd": 4325,
      "Cr": 4326,
      "CH": 4327,
      "Cam": 4328,
      "Cell": 4329,
      "Civ": 4330,
      "Crow": 4331,
      "Die": 4332,
      "Dawn": 4333,
      "Drop": 4334,
      "Ent": 4335,
      "Fast": 4336,
      "Find": 4337,
      "Fung": 4338,
      "Gra": 4339,
      "Give": 4340,
      "Gorm": 4341,
      "Ghost": 4342,
      "Hyp": 4343,
      "Hollow": 4344,
      "Heads": 4345,
      "Iron": 4346,
      "Ignore": 4347,
      "Jel": 4348,
      "Jack": 4349,
      "Kr": 4350,
      "Kü": 4351,
      "Ken": 4352,
      "Kib": 4353,
      "Lore": 4354,
      "Loy": 4355,
      "Loyalty": 4356,
      "Mas": 4357,
      "Mad": 4358,
      "Might": 4359,
      "Mag": 4360,
      "Mull": 4361,
      "Master": 4362,
      "Na": 4363,
      "Nat": 4364,
      "Natural": 4365,
      "Oil": 4366,
      "Opp": 4367,
      "Opponent": 4368,
      "Pa": 4369,
      "Pit": 4370,
      "Pig": 4371,
      "Pine": 4372,
      "Prix": 4373,
      "Psych": 4374,
      "Rit": 4375,
      "Row": 4376,
      "Riv": 4377,
      "Random": 4378,
      "Rich": 4379,
      "Rune": 4380,
      "Sil": 4381,
      "Sage": 4382,
      "Seld": 4383,
      "Ske": 4384,
      "Sche": 4385,
      "Suspect": 4386,
      "Separ": 4387,
      "Satch": 4388,
      "Squid": 4389,
      "Tan": 4390,
      "Tor": 4391,
      "Tra": 4392,
      "Tent": 4393,
      "Tapped": 4394,
      "Tomb": 4395,
      "Troll": 4396,
      "Trap": 4397,
      "Uk": 4398,
      "Vo": 4399,
      "Viv": 4400,
      "Virt": 4401,
      "WO": 4402,
      "Who": 4403,
      "Wise": 4404,
      "Wake": 4405,
      "Wound": 4406,
      "Zink": 4407,
      "[+": 4408,
      "_____": 4409,
      "awaken": 4410,
      "clock": 4411,
      "dom": 4412,
      "date": 4413,
      "daunt": 4414,
      "drop": 4415,
      "et": 4416,
      "ele": 4417,
      "eruption": 4418,
      "fr": 4419,
      "fil": 4420,
      "free": 4421,
      "fest": 4422,
      "fun": 4423,
      "feat": 4424,
      "fives": 4425,
      "familiar": 4426,
      "gly": 4427,
      "good": 4428,
      "hom": 4429,
      "hyp": 4430,
      "horn": 4431,
      "hung": 4432,
      "junk": 4433,
      "kick": 4434,
      "late": 4435,
      "lot": 4436,
      "line": 4437,
      "lik": 4438,
      "mid": 4439,
      "mine": 4440,
      "midd": 4441,
      "mentor": 4442,
      "nin": 4443,
      "net": 4444,
      "om": 4445,
      "ore": 4446,
      "par": 4447,
      "pet": 4448,
      "pare": 4449,
      "pun": 4450,
      "pup": 4451,
      "pict": 4452,
      "prim": 4453,
      "ri": 4454,
      "rib": 4455,
      "row": 4456,
      "sn": 4457,
      "sure": 4458,
      "sent": 4459,
      "sch": 4460,
      "sup": 4461,
      "tell": 4462,
      "task": 4463,
      "taking": 4464,
      "umbra": 4465,
      "vice": 4466,
      "very": 4467,
      "vort": 4468,
      "volcan": 4469,
      "wage": 4470,
      "wild": 4471,
      "zero": 4472,
      "½/": 4473,
      "Šlem": 4474,
      "##ier": 4475,
      "##iation": 4476,
      "##li": 4477,
      "##lv": 4478,
      "##lant": 4479,
      "##lich": 4480,
      "##ey": 4481,
      "##e̶": 4482,
      "##spet": 4483,
      "##af": 4484,
      "##after": 4485,
      "##r̶": 4486,
      "##rat": 4487,
      "##rit": 4488,
      "##rith": 4489,
      "##ric": 4490,
      "##rate": 4491,
      "##rout": 4492,
      "##ne": 4493,
      "##nith": 4494,
      "##neath": 4495,
      "##gal": 4496,
      "##ged": 4497,
      "##gers": 4498,
      "##gred": 4499,
      "##far": 4500,
      "##fid": 4501,
      "##de": 4502,
      "##dition": 4503,
      "##uel": 4504,
      "##uous": 4505,
      "##oder": 4506,
      "##oist": 4507,
      "##othing": 4508,
      "##oving": 4509,
      "##cle": 4510,
      "##king": 4511,
      "##wler": 4512,
      "##moth": 4513,
      "##mission": 4514,
      "##mfar": 4515,
      "##bt": 4516,
      "##ber": 4517,
      "##bar": 4518,
      "##bow": 4519,
      "##building": 4520,
      "##tt": 4521,
      "##hn": 4522,
      "##han": 4523,
      "##hler": 4524,
      "##hind": 4525,
      "##va": 4526,
      "##vis": 4527,
      "##vax": 4528,
      "##zes": 4529,
      "##zation": 4530,
      "##ja": 4531,
      "##jack": 4532,
      "##jection": 4533,
      "##CT": 4534,
      "##ão": 4535,
      "##rest": 4536,
      "##reak": 4537,
      "##ats": 4538,
      "##atic": 4539,
      "##eral": 4540,
      "##erfin": 4541,
      "threshold": 4542,
      "##ars": 4543,
      "##arr": 4544,
      "##arity": 4545,
      "##arids": 4546,
      "##ama": 4547,
      "##ammy": 4548,
      "##ardian": 4549,
      "##ences": 4550,
      "##enuse": 4551,
      "cove": 4552,
      "##ront": 4553,
      "##rowh": 4554,
      "##eted": 4555,
      "too": 4556,
      "##sters": 4557,
      "##storm": 4558,
      "##ana": 4559,
      "##anim": 4560,
      "##angel": 4561,
      "##angu": 4562,
      "##ism": 4563,
      "##isel": 4564,
      "##alk": 4565,
      "##aller": 4566,
      "##alist": 4567,
      "##urity": 4568,
      "##henated": 4569,
      "##elin": 4570,
      "##orated": 4571,
      "anch": 4572,
      "anim": 4573,
      "##andrix": 4574,
      "##raid": 4575,
      "behind": 4576,
      "devo": 4577,
      "defin": 4578,
      "##lyp": 4579,
      "spark": 4580,
      "ending": 4581,
      "##chas": 4582,
      "##ason": 4583,
      "ingred": 4584,
      "##antage": 4585,
      "##ibuster": 4586,
      "##iral": 4587,
      "##rife": 4588,
      "Thr": 4589,
      "Throw": 4590,
      "countercl": 4591,
      "stage": 4592,
      "stuck": 4593,
      "strife": 4594,
      "battles": 4595,
      "##ockwise": 4596,
      "permission": 4597,
      "Atlant": 4598,
      "##umble": 4599,
      "whammy": 4600,
      "combine": 4601,
      "combined": 4602,
      "abs": 4603,
      "##ivan": 4604,
      "##ivis": 4605,
      "##ival": 4606,
      "##ivate": 4607,
      "alliter": 4608,
      "none": 4609,
      "##riever": 4610,
      "shell": 4611,
      "##otenuse": 4612,
      "##otivate": 4613,
      "##ments": 4614,
      "##quire": 4615,
      "##ctively": 4616,
      "##wald": 4617,
      "Reassemb": 4618,
      "nostal": 4619,
      "Untapped": 4620,
      "##estalk": 4621,
      "underneath": 4622,
      "##erson": 4623,
      "coming": 4624,
      "##arterfin": 4625,
      "##inkmoth": 4626,
      "##ryn": 4627,
      "Annihil": 4628,
      "prov": 4629,
      "provoke": 4630,
      "sevent": 4631,
      "mug": 4632,
      "##isted": 4633,
      "Forge": 4634,
      "Forage": 4635,
      "looking": 4636,
      "afterlife": 4637,
      "track": 4638,
      "trick": 4639,
      "##ewer": 4640,
      "##ickkn": 4641,
      "##umph": 4642,
      "##onded": 4643,
      "pause": 4644,
      "##ager": 4645,
      "##agame": 4646,
      "##aged": 4647,
      "polyp": 4648,
      "##planar": 4649,
      "Argu": 4650,
      "Argent": 4651,
      "Swiss": 4652,
      "security": 4653,
      "respe": 4654,
      "outlast": 4655,
      "Prowler": 4656,
      "Veil": 4657,
      "flipp": 4658,
      "caused": 4659,
      "conse": 4660,
      "Confid": 4661,
      "Shard": 4662,
      "Shield": 4663,
      "deckbuilding": 4664,
      "removes": 4665,
      "removing": 4666,
      "##ixir": 4667,
      "##ostor": 4668,
      "Stom": 4669,
      "Strike": 4670,
      "Stone": 4671,
      "Steel": 4672,
      "Elspet": 4673,
      "##ody": 4674,
      "Landing": 4675,
      "##resis": 4676,
      "Coil": 4677,
      "Cloud": 4678,
      "Cloist": 4679,
      "banded": 4680,
      "Blast": 4681,
      "Blinkmoth": 4682,
      "##ansom": 4683,
      "Unless": 4684,
      "Unkn": 4685,
      "resolve": 4686,
      "Doom": 4687,
      "Arcan": 4688,
      "conjures": 4689,
      "Score": 4690,
      "spending": 4691,
      "everyone": 4692,
      "drafts": 4693,
      "202": 4694,
      "Flavor": 4695,
      "Advis": 4696,
      "Rav": 4697,
      "dungeons": 4698,
      "Heroes": 4699,
      "Monarch": 4700,
      "Engl": 4701,
      "Bandits": 4702,
      "Nonlegendary": 4703,
      "Nonwhite": 4704,
      "Giants": 4705,
      "##avan": 4706,
      "##avite": 4707,
      "advantage": 4708,
      "Imps": 4709,
      "mining": 4710,
      "repeats": 4711,
      "Repl": 4712,
      "better": 4713,
      "arrow": 4714,
      "arrowh": 4715,
      "decrease": 4716,
      "versa": 4717,
      "##brand": 4718,
      "Minion": 4719,
      "elixir": 4720,
      "rust": 4721,
      "Tezz": 4722,
      "Scions": 4723,
      "bring": 4724,
      "exploited": 4725,
      "Oozes": 4726,
      "Hellion": 4727,
      "hereafter": 4728,
      "##atchling": 4729,
      "clothing": 4730,
      "Illusions": 4731,
      "Frodo": 4732,
      "Offer": 4733,
      "hourgl": 4734,
      "Curses": 4735,
      "Current": 4736,
      "##ably": 4737,
      "##fully": 4738,
      "asks": 4739,
      "Survivor": 4740,
      "Heir": 4741,
      "Retriever": 4742,
      "posting": 4743,
      "action": 4744,
      "waterfall": 4745,
      "Nightmares": 4746,
      "Avacy": 4747,
      "Timeless": 4748,
      "expansions": 4749,
      "soulbond": 4750,
      "##flame": 4751,
      "escaped": 4752,
      "continue": 4753,
      "Daleks": 4754,
      "##stral": 4755,
      "Reveler": 4756,
      "haunted": 4757,
      "Donkey": 4758,
      "Oxen": 4759,
      "marked": 4760,
      "slumber": 4761,
      "silence": 4762,
      "##remium": 4763,
      "##iverse": 4764,
      "Archlich": 4765,
      "Firebrand": 4766,
      "Guild": 4767,
      "Hammer": 4768,
      "accept": 4769,
      "sleep": 4770,
      "sleight": 4771,
      "simply": 4772,
      "reads": 4773,
      "Artist": 4774,
      "Pokey": 4775,
      "Ruin": 4776,
      "Ruel": 4777,
      "building": 4778,
      "built": 4779,
      "balance": 4780,
      "shoe": 4781,
      "##azir": 4782,
      "Cross": 4783,
      "Crovax": 4784,
      "Geist": 4785,
      "Keeper": 4786,
      "Prank": 4787,
      "fingers": 4788,
      "knickkn": 4789,
      "tried": 4790,
      "Synth": 4791,
      "intervention": 4792,
      "meters": 4793,
      "metagame": 4794,
      "piece": 4795,
      "Universes": 4796,
      "incorrectly": 4797,
      "Legion": 4798,
      "pins": 4799,
      "retains": 4800,
      "revival": 4801,
      "covering": 4802,
      "responded": 4803,
      "\"[+": 4804,
      "Crash": 4805,
      "Cradle": 4806,
      "Herb": 4807,
      "Hermit": 4808,
      "phyresis": 4809,
      "##ilty": 4810,
      "alpha": 4811,
      "Nec": 4812,
      "Ragavan": 4813,
      "circle": 4814,
      "d10": 4815,
      "d12": 4816,
      "glass": 4817,
      "generic": 4818,
      "generate": 4819,
      "answer": 4820,
      "answers": 4821,
      "Captain": 4822,
      "Kamiga": 4823,
      "Quandrix": 4824,
      "Rider": 4825,
      "Simultaneously": 4826,
      "Walker": 4827,
      "eyestalk": 4828,
      "favorite": 4829,
      "improvise": 4830,
      "##ensive": 4831,
      "condition": 4832,
      "##alyzation": 4833,
      "stands": 4834,
      "enlists": 4835,
      "professional": 4836,
      "proceeded": 4837,
      "truthfully": 4838,
      "thoughtweft": 4839,
      "Juggernauts": 4840,
      "Aetherborn": 4841,
      "Hokey": 4842,
      "Logt": 4843,
      "Nicol": 4844,
      "National": 4845,
      "Tinker": 4846,
      "doubles": 4847,
      "denial": 4848,
      "digits": 4849,
      "object": 4850,
      "##install": 4851,
      "##ctuation": 4852,
      "component": 4853,
      "##ightened": 4854,
      "Tokens": 4855,
      "Beebles": 4856,
      "Nonblack": 4857,
      "applies": 4858,
      "recently": 4859,
      "determine": 4860,
      "currently": 4861,
      "alphabetically": 4862,
      "Efreet": 4863,
      "eyeball": 4864,
      "performance": 4865,
      "Acererak": 4866,
      "Barbar": 4867,
      "Buehler": 4868,
      "Bidding": 4869,
      "Civil": 4870,
      "Fungi": 4871,
      "Ghostly": 4872,
      "Hyphenated": 4873,
      "Jelly": 4874,
      "Jackal": 4875,
      "Kühn": 4876,
      "Kibler": 4877,
      "Loyal": 4878,
      "Masked": 4879,
      "Nature": 4880,
      "Opposition": 4881,
      "Pigs": 4882,
      "Rowan": 4883,
      "Richard": 4884,
      "Selden": 4885,
      "Skemfar": 4886,
      "Separate": 4887,
      "Satchel": 4888,
      "Tanazir": 4889,
      "Torment": 4890,
      "Tentacle": 4891,
      "Voja": 4892,
      "Vivien": 4893,
      "clockwise": 4894,
      "domin": 4895,
      "etc": 4896,
      "eleven": 4897,
      "frame": 4898,
      "filibuster": 4899,
      "festive": 4900,
      "glyph": 4901,
      "hypotenuse": 4902,
      "junkyard": 4903,
      "lots": 4904,
      "liked": 4905,
      "middle": 4906,
      "ninet": 4907,
      "omen": 4908,
      "paralyzation": 4909,
      "pupa": 4910,
      "picture": 4911,
      "riot": 4912,
      "ribbon": 4913,
      "school": 4914,
      "supert": 4915,
      "vortex": 4916,
      "volcano": 4917,
      "Šlemr": 4918,
      "##rata": 4919,
      "##CTI": 4920,
      "covered": 4921,
      "##isela": 4922,
      "anchor": 4923,
      "devoid": 4924,
      "defined": 4925,
      "##chase": 4926,
      "ingredient": 4927,
      "counterclockwise": 4928,
      "alliterative": 4929,
      "nostalgic": 4930,
      "Arguel": 4931,
      "Argentum": 4932,
      "respectively": 4933,
      "flipping": 4934,
      "Confidant": 4935,
      "Elspeth": 4936,
      "Unknown": 4937,
      "English": 4938,
      "arrowhead": 4939,
      "Tezzeret": 4940,
      "hourglass": 4941,
      "Avacyn": 4942,
      "knickknack": 4943,
      "Kamigawa": 4944,
      "Barbarian": 4945,
      "'-": 4946,
      "))": 4947,
      "2K": 4948,
      "36": 4949,
      "70": 4950,
      "98": 4951,
      "99": 4952,
      "Ay": 4953,
      "AK": 4954,
      "Ale": 4955,
      "Amer": 4956,
      "Arab": 4957,
      "Astral": 4958,
      "ACTI": 4959,
      "Ba": 4960,
      "Ben": 4961,
      "Bet": 4962,
      "Ban": 4963,
      "Burn": 4964,
      "Bel": 4965,
      "But": 4966,
      "Bev": 4967,
      "Bas": 4968,
      "Bland": 4969,
      "Bould": 4970,
      "Bru": 4971,
      "Bew": 4972,
      "Bind": 4973,
      "Bort": 4974,
      "Bret": 4975,
      "Booster": 4976,
      "Brain": 4977,
      "Brush": 4978,
      "Break": 4979,
      "Cure": 4980,
      "Cap": 4981,
      "Camp": 4982,
      "Cold": 4983,
      "Chic": 4984,
      "Cunning": 4985,
      "Cab": 4986,
      "Dou": 4987,
      "Dure": 4988,
      "Dast": 4989,
      "Div": 4990,
      "Dist": 4991,
      "Dood": 4992,
      "Dungeon": 4993,
      "D20": 4994,
      "Dran": 4995,
      "Dani": 4996,
      "Disp": 4997,
      "Drizz": 4998,
      "Ez": 4999,
      "Ear": 5000,
      "Eight": 5001,
      "Emer": 5002,
      "Enth": 5003,
      "Ebon": 5004,
      "Fo": 5005,
      "Fin": 5006,
      "Fan": 5007,
      "Fal": 5008,
      "Fra": 5009,
      "Fut": 5010,
      "Fink": 5011,
      "Fry": 5012,
      "Found": 5013,
      "Famil": 5014,
      "Fifth": 5015,
      "Ga": 5016,
      "Gh": 5017,
      "Gre": 5018,
      "Gat": 5019,
      "Gal": 5020,
      "Gent": 5021,
      "Graveyard": 5022,
      "Gear": 5023,
      "Grow": 5024,
      "Gang": 5025,
      "Grim": 5026,
      "Grizz": 5027,
      "Gisela": 5028,
      "Hay": 5029,
      "Hel": 5030,
      "Hot": 5031,
      "Historic": 5032,
      "Hak": 5033,
      "Heat": 5034,
      "Hob": 5035,
      "Hipp": 5036,
      "Hope": 5037,
      "Hinter": 5038,
      "High": 5039,
      "Heret": 5040,
      "Hivis": 5041,
      "Humph": 5042,
      "IN": 5043,
      "Ign": 5044,
      "Jac": 5045,
      "Jan": 5046,
      "Jour": 5047,
      "Jab": 5048,
      "Journ": 5049,
      "Jenn": 5050,
      "Ka": 5051,
      "Kess": 5052,
      "Lam": 5053,
      "Lage": 5054,
      "Lock": 5055,
      "Lot": 5056,
      "Lind": 5057,
      "Laur": 5058,
      "Like": 5059,
      "Lob": 5060,
      "Luck": 5061,
      "Leth": 5062,
      "Lancer": 5063,
      "MO": 5064,
      "Mac": 5065,
      "Mal": 5066,
      "Mast": 5067,
      "Mach": 5068,
      "Mant": 5069,
      "Mow": 5070,
      "Mong": 5071,
      "Mus": 5072,
      "Mind": 5073,
      "Mish": 5074,
      "Moss": 5075,
      "Miss": 5076,
      "Muse": 5077,
      "Mender": 5078,
      "Motivate": 5079,
      "Nu": 5080,
      "NC": 5081,
      "Name": 5082,
      "Nass": 5083,
      "Neg": 5084,
      "Nether": 5085,
      "Ow": 5086,
      "Och": 5087,
      "Old": 5088,
      "Oubl": 5089,
      "Pe": 5090,
      "Ps": 5091,
      "Pat": 5092,
      "Pac": 5093,
      "Pal": 5094,
      "Por": 5095,
      "Pent": 5096,
      "Prom": 5097,
      "Pact": 5098,
      "Pap": 5099,
      "Pri": 5100,
      "Part": 5101,
      "Proud": 5102,
      "Pak": 5103,
      "Present": 5104,
      "Path": 5105,
      "Pipp": 5106,
      "Pledge": 5107,
      "Prim": 5108,
      "Premium": 5109,
      "QUE": 5110,
      "Ry": 5111,
      "Ren": 5112,
      "Ray": 5113,
      "Ral": 5114,
      "Rever": 5115,
      "Rho": 5116,
      "Rom": 5117,
      "Rig": 5118,
      "Rise": 5119,
      "Run": 5120,
      "Rapt": 5121,
      "Rome": 5122,
      "Rory": 5123,
      "Reroll": 5124,
      "Rief": 5125,
      "Ransom": 5126,
      "Sch": 5127,
      "Sho": 5128,
      "Song": 5129,
      "Sig": 5130,
      "Sove": 5131,
      "Sie": 5132,
      "Sift": 5133,
      "Sub": 5134,
      "Sark": 5135,
      "Sav": 5136,
      "Something": 5137,
      "Saw": 5138,
      "Sapp": 5139,
      "Tur": 5140,
      "Tear": 5141,
      "Too": 5142,
      "Town": 5143,
      "Tun": 5144,
      "Type": 5145,
      "Tail": 5146,
      "Tails": 5147,
      "Tief": 5148,
      "Tryn": 5149,
      "Ut": 5150,
      "Vi": 5151,
      "Vast": 5152,
      "Voice": 5153,
      "Wo": 5154,
      "Way": 5155,
      "Wood": 5156,
      "Wire": 5157,
      "Why": 5158,
      "Witch": 5159,
      "Weapon": 5160,
      "Year": 5161,
      "Yav": 5162,
      "Yang": 5163,
      "Yellow": 5164,
      "Znd": 5165,
      "Zone": 5166,
      "af": 5167,
      "amb": 5168,
      "aid": 5169,
      "aeg": 5170,
      "ba": 5171,
      "bro": 5172,
      "ban": 5173,
      "burn": 5174,
      "ball": 5175,
      "brain": 5176,
      "border": 5177,
      "ce": 5178,
      "cap": 5179,
      "care": 5180,
      "cub": 5181,
      "catch": 5182,
      "carn": 5183,
      "carr": 5184,
      "dam": 5185,
      "dra": 5186,
      "dut": 5187,
      "did": 5188,
      "dredge": 5189,
      "delve": 5190,
      "dips": 5191,
      "er": 5192,
      "eating": 5193,
      "eternalize": 5194,
      "fa": 5195,
      "fam": 5196,
      "fame": 5197,
      "fact": 5198,
      "figure": 5199,
      "fang": 5200,
      "funk": 5201,
      "fading": 5202,
      "fury": 5203,
      "fifth": 5204,
      "front": 5205,
      "gem": 5206,
      "gob": 5207,
      "grace": 5208,
      "hack": 5209,
      "held": 5210,
      "hoo": 5211,
      "hol": 5212,
      "hide": 5213,
      "heart": 5214,
      "husk": 5215,
      "hatchling": 5216,
      "il": 5217,
      "jav": 5218,
      "join": 5219,
      "ll": 5220,
      "lock": 5221,
      "locked": 5222,
      "log": 5223,
      "laugh": 5224,
      "langu": 5225,
      "ma": 5226,
      "mat": 5227,
      "men": 5228,
      "med": 5229,
      "mus": 5230,
      "mix": 5231,
      "made": 5232,
      "magic": 5233,
      "num": 5234,
      "occ": 5235,
      "ph": 5236,
      "pall": 5237,
      "prime": 5238,
      "pitch": 5239,
      "poss": 5240,
      "pilot": 5241,
      "position": 5242,
      "rel": 5243,
      "rate": 5244,
      "rot": 5245,
      "rarity": 5246,
      "ske": 5247,
      "series": 5248,
      "tant": 5249,
      "tie": 5250,
      "try": 5251,
      "tail": 5252,
      "training": 5253,
      "tapp": 5254,
      "taller": 5255,
      "vit": 5256,
      "we": 5257,
      "war": 5258,
      "worn": 5259,
      "women": 5260,
      "wrap": 5261,
      "wings": 5262,
      "writ": 5263,
      "{½": 5264,
      "{∞": 5265,
      "##ij": 5266,
      "##iam": 5267,
      "##iac": 5268,
      "##ige": 5269,
      "##iment": 5270,
      "##iers": 5271,
      "##iously": 5272,
      "##iately": 5273,
      "##iette": 5274,
      "##lt": 5275,
      "##let": 5276,
      "##lact": 5277,
      "##lord": 5278,
      "##like": 5279,
      "##ea": 5280,
      "##ef": 5281,
      "##eh": 5282,
      "##eor": 5283,
      "##ege": 5284,
      "##emy": 5285,
      "##eous": 5286,
      "##sm": 5287,
      "##sen": 5288,
      "##set": 5289,
      "##son": 5290,
      "##spl": 5291,
      "##self": 5292,
      "##ssed": 5293,
      "##ah": 5294,
      "##agin": 5295,
      "##aun": 5296,
      "##ray": 5297,
      "##rib": 5298,
      "##riv": 5299,
      "##rison": 5300,
      "##rict": 5301,
      "##ranger": 5302,
      "##rspl": 5303,
      "##ned": 5304,
      "##not": 5305,
      "##nity": 5306,
      "##nation": 5307,
      "##nath": 5308,
      "##nail": 5309,
      "##nica": 5310,
      "##ging": 5311,
      "##gor": 5312,
      "##gue": 5313,
      "##gul": 5314,
      "##grace": 5315,
      "##fp": 5316,
      "##fer": 5317,
      "##fel": 5318,
      "##fish": 5319,
      "##da": 5320,
      "##drif": 5321,
      "##down": 5322,
      "##dem": 5323,
      "##uk": 5324,
      "##und": 5325,
      "##uity": 5326,
      "##uven": 5327,
      "##oom": 5328,
      "##oph": 5329,
      "##cy": 5330,
      "##cro": 5331,
      "##came": 5332,
      "##cing": 5333,
      "##cel": 5334,
      "##caus": 5335,
      "##cod": 5336,
      "##culate": 5337,
      "##ceries": 5338,
      "##cific": 5339,
      "##crib": 5340,
      "##ku": 5341,
      "##kim": 5342,
      "##kind": 5343,
      "##yth": 5344,
      "##ysh": 5345,
      "##wy": 5346,
      "##wre": 5347,
      "##wear": 5348,
      "##wart": 5349,
      "##wag": 5350,
      "##wire": 5351,
      "##ming": 5352,
      "##mif": 5353,
      "##mes": 5354,
      "##med": 5355,
      "##mong": 5356,
      "##morph": 5357,
      "##magic": 5358,
      "##minder": 5359,
      "##master": 5360,
      "##bit": 5361,
      "##bho": 5362,
      "##body": 5363,
      "##pack": 5364,
      "##pact": 5365,
      "##pie": 5366,
      "##pitter": 5367,
      "##tos": 5368,
      "##toc": 5369,
      "##time": 5370,
      "##hap": 5371,
      "##hire": 5372,
      "##hall": 5373,
      "##horn": 5374,
      "##vin": 5375,
      "##vish": 5376,
      "##vath": 5377,
      "##zur": 5378,
      "##0̶": 5379,
      "##RA": 5380,
      "##AR": 5381,
      "##AS": 5382,
      "##jor": 5383,
      "##juven": 5384,
      "##IC": 5385,
      "##IT": 5386,
      "##IN": 5387,
      "##̶r̶": 5388,
      "##Con": 5389,
      "##ON": 5390,
      "##OIC": 5391,
      "##ND": 5392,
      "##rer": 5393,
      "##reign": 5394,
      "##renc": 5395,
      "##reng": 5396,
      "##outh": 5397,
      "##atog": 5398,
      "##atli": 5399,
      "##erative": 5400,
      "threat": 5401,
      "##ari": 5402,
      "##arl": 5403,
      "##arre": 5404,
      "##arid": 5405,
      "##ami": 5406,
      "##ardan": 5407,
      "##ardly": 5408,
      "##enh": 5409,
      "##enge": 5410,
      "##enish": 5411,
      "##enses": 5412,
      "##aced": 5413,
      "##inv": 5414,
      "##inous": 5415,
      "##room": 5416,
      "##roop": 5417,
      "theft": 5418,
      "##etown": 5419,
      "##amed": 5420,
      "tort": 5421,
      "tower": 5422,
      "##strom": 5423,
      "##stain": 5424,
      "##stial": 5425,
      "##staf": 5426,
      "##aya": 5427,
      "##anic": 5428,
      "##anche": 5429,
      "##ania": 5430,
      "##isions": 5431,
      "ital": 5432,
      "##lent": 5433,
      "##lege": 5434,
      "##ala": 5435,
      "##alanche": 5436,
      "##urs": 5437,
      "##urry": 5438,
      "##urist": 5439,
      "##ons": 5440,
      "##onant": 5441,
      "##onance": 5442,
      "##ital": 5443,
      "##iting": 5444,
      "##ites": 5445,
      "##itous": 5446,
      "##itting": 5447,
      "##itters": 5448,
      "##ifor": 5449,
      "##esis": 5450,
      "##eses": 5451,
      "##esbe": 5452,
      "##els": 5453,
      "##elstrom": 5454,
      "##orvath": 5455,
      "##eding": 5456,
      "##edient": 5457,
      "ord": 5458,
      "##ilich": 5459,
      "turning": 5460,
      "##ents": 5461,
      "##ented": 5462,
      "became": 5463,
      "##utes": 5464,
      "##utum": 5465,
      "##utely": 5466,
      "##icized": 5467,
      "##eval": 5468,
      "spite": 5469,
      "spaces": 5470,
      "sprout": 5471,
      "##pply": 5472,
      "ended": 5473,
      "##cher": 5474,
      "##chet": 5475,
      "##ched": 5476,
      "##asy": 5477,
      "##ases": 5478,
      "##romancer": 5479,
      "##osis": 5480,
      "##osion": 5481,
      "##acks": 5482,
      "##ackle": 5483,
      "insp": 5484,
      "inside": 5485,
      "influence": 5486,
      "inverted": 5487,
      "ingen": 5488,
      "##antom": 5489,
      "forget": 5490,
      "asso": 5491,
      "blight": 5492,
      "blank": 5493,
      "Youth": 5494,
      "##ibou": 5495,
      "##ibly": 5496,
      "##iled": 5497,
      "##thy": 5498,
      "##though": 5499,
      "manne": 5500,
      "attend": 5501,
      "Think": 5502,
      "Thank": 5503,
      "Thous": 5504,
      "Thran": 5505,
      "Throne": 5506,
      "Through": 5507,
      "countermagic": 5508,
      "##dde": 5509,
      "##action": 5510,
      "isol": 5511,
      "real": 5512,
      "reme": 5513,
      "reflect": 5514,
      "reorder": 5515,
      "rejection": 5516,
      "require": 5517,
      "##therho": 5518,
      "sty": 5519,
      "store": 5520,
      "strong": 5521,
      "streng": 5522,
      "stroop": 5523,
      "##quin": 5524,
      "##quette": 5525,
      "##quences": 5526,
      "##holy": 5527,
      "##oreroom": 5528,
      "##ctum": 5529,
      "landfall": 5530,
      "Atog": 5531,
      "##ionic": 5532,
      "##ongue": 5533,
      "what": 5534,
      "Addition": 5535,
      "doing": 5536,
      "doctor": 5537,
      "doors": 5538,
      "Enchanting": 5539,
      "##igner": 5540,
      "powerful": 5541,
      "##ada": 5542,
      "##adin": 5543,
      "owned": 5544,
      "##erys": 5545,
      "Dece": 5546,
      "becoming": 5547,
      "adding": 5548,
      "##ilities": 5549,
      "sorceries": 5550,
      "##rial": 5551,
      "##riage": 5552,
      "##riarch": 5553,
      "##rieve": 5554,
      "shred": 5555,
      "short": 5556,
      "##otwal": 5557,
      "##imi": 5558,
      "##imagic": 5559,
      "##imaya": 5560,
      "Realm": 5561,
      "Regn": 5562,
      "Regrowth": 5563,
      "Restart": 5564,
      "Regal": 5565,
      "Reanim": 5566,
      "Reminder": 5567,
      "Rejuven": 5568,
      "valor": 5569,
      "shuffling": 5570,
      "##idance": 5571,
      "##idered": 5572,
      "planes": 5573,
      "themed": 5574,
      "chip": 5575,
      "chall": 5576,
      "chang": 5577,
      "chorus": 5578,
      "unl": 5579,
      "unity": 5580,
      "universe": 5581,
      "##overed": 5582,
      "shuffled": 5583,
      "nobody": 5584,
      "destroys": 5585,
      "##estone": 5586,
      "Spin": 5587,
      "Spike": 5588,
      "Spik": 5589,
      "Sprite": 5590,
      "##illa": 5591,
      "redistribute": 5592,
      "based": 5593,
      "##olith": 5594,
      "##olog": 5595,
      "##olutely": 5596,
      "##ieve": 5597,
      "##ieged": 5598,
      "##epter": 5599,
      "compl": 5600,
      "compet": 5601,
      "comple": 5602,
      "comput": 5603,
      "##rum": 5604,
      "##rust": 5605,
      "##clave": 5606,
      "##claw": 5607,
      "Anci": 5608,
      "alive": 5609,
      "enemy": 5610,
      "Attend": 5611,
      "Plow": 5612,
      "Plate": 5613,
      "Plane": 5614,
      "##iper": 5615,
      "##ipwre": 5616,
      "##ightning": 5617,
      "leaving": 5618,
      "prop": 5619,
      "proved": 5620,
      "##bling": 5621,
      "##blue": 5622,
      "season": 5623,
      "muster": 5624,
      "##istics": 5625,
      "Force": 5626,
      "##arett": 5627,
      "Goose": 5628,
      "trib": 5629,
      "tracker": 5630,
      "##icks": 5631,
      "##umphant": 5632,
      "board": 5633,
      "body": 5634,
      "Huatli": 5635,
      "##ago": 5636,
      "##agard": 5637,
      "##agon": 5638,
      "Arrest": 5639,
      "Arson": 5640,
      "Iseng": 5641,
      "##allic": 5642,
      "notes": 5643,
      "Defending": 5644,
      "resonance": 5645,
      "Prof": 5646,
      "amounts": 5647,
      "flo": 5648,
      "##hicle": 5649,
      "Rootwal": 5650,
      "conced": 5651,
      "construct": 5652,
      "Dragonfire": 5653,
      "Chosen": 5654,
      "Chef": 5655,
      "Chitters": 5656,
      "Shade": 5657,
      "Shab": 5658,
      "Shivan": 5659,
      "Shackle": 5660,
      "Shipwre": 5661,
      "##petuous": 5662,
      "Sting": 5663,
      "Step": 5664,
      "State": 5665,
      "Stud": 5666,
      "Strong": 5667,
      "Steal": 5668,
      "Storeroom": 5669,
      "sixth": 5670,
      "Anything": 5671,
      "winch": 5672,
      "winner": 5673,
      "vehicle": 5674,
      "Elven": 5675,
      "Elvish": 5676,
      "shared": 5677,
      "Cobb": 5678,
      "whole": 5679,
      "Clock": 5680,
      "Climb": 5681,
      "evolve": 5682,
      "evolves": 5683,
      "Life": 5684,
      "Sligh": 5685,
      "Slinger": 5686,
      "Player": 5687,
      "Unblocked": 5688,
      "Uninstall": 5689,
      "Unlike": 5690,
      "Unholy": 5691,
      "format": 5692,
      "started": 5693,
      "##shadow": 5694,
      "Exp": 5695,
      "Except": 5696,
      "Merry": 5697,
      "##ertsen": 5698,
      "voter": 5699,
      "Wizardcycling": 5700,
      "reprieve": 5701,
      "##spe": 5702,
      "##mony": 5703,
      "foreshadow": 5704,
      "modular": 5705,
      "Behold": 5706,
      "Beyond": 5707,
      "Becaus": 5708,
      "Spellgor": 5709,
      "Oran": 5710,
      "Order": 5711,
      "Ornith": 5712,
      "embark": 5713,
      "device": 5714,
      "Dovin": 5715,
      "Warden": 5716,
      "What": 5717,
      "Whack": 5718,
      "Where": 5719,
      "Whale": 5720,
      "Sciss": 5721,
      "Scars": 5722,
      "Scriv": 5723,
      "Scepter": 5724,
      "explains": 5725,
      "backpack": 5726,
      "##venwald": 5727,
      "##terfly": 5728,
      "##ciated": 5729,
      "surveilled": 5730,
      "soot": 5731,
      "Alt": 5732,
      "Although": 5733,
      "everywhere": 5734,
      "Track": 5735,
      "Trick": 5736,
      "drafting": 5737,
      "rounds": 5738,
      "Flint": 5739,
      "Skitter": 5740,
      "Skysh": 5741,
      "opens": 5742,
      "##pyrial": 5743,
      "Online": 5744,
      "production": 5745,
      "duplication": 5746,
      "assigned": 5747,
      "extort": 5748,
      "Domri": 5749,
      "Serf": 5750,
      "Enclave": 5751,
      "Contortion": 5752,
      "expedient": 5753,
      "Deserter": 5754,
      "Desertwalk": 5755,
      "##opter": 5756,
      "tempted": 5757,
      "shields": 5758,
      "Recovery": 5759,
      "adapt": 5760,
      "stacked": 5761,
      "lets": 5762,
      "represented": 5763,
      "finishing": 5764,
      "skin": 5765,
      "Foretelling": 5766,
      "Magical": 5767,
      "MagicCon": 5768,
      "Sneak": 5769,
      "guilty": 5770,
      "guidance": 5771,
      "questions": 5772,
      "Buzz": 5773,
      "Budde": 5774,
      "secrets": 5775,
      "Imperson": 5776,
      "design": 5777,
      "despa": 5778,
      "designer": 5779,
      "incarn": 5780,
      "conspire": 5781,
      "Meteor": 5782,
      "##itching": 5783,
      "Citizens": 5784,
      "##nels": 5785,
      "Repose": 5786,
      "Republ": 5787,
      "Storms": 5788,
      "sword": 5789,
      "evenly": 5790,
      "archet": 5791,
      "decide": 5792,
      "decisions": 5793,
      "versions": 5794,
      "##lings": 5795,
      "offspring": 5796,
      "Outcast": 5797,
      "##bringer": 5798,
      "Instead": 5799,
      "Minsc": 5800,
      "Perpetually": 5801,
      "Perhap": 5802,
      "elim": 5803,
      "##nia": 5804,
      "##nik": 5805,
      "Team": 5806,
      "moved": 5807,
      "consonant": 5808,
      "considered": 5809,
      "Ley": 5810,
      "League": 5811,
      "Noble": 5812,
      "Ascended": 5813,
      "Moria": 5814,
      "##emnation": 5815,
      "##itious": 5816,
      "incubation": 5817,
      "Paris": 5818,
      "Paria": 5819,
      "Parcel": 5820,
      "Paragon": 5821,
      "touched": 5822,
      "facing": 5823,
      "##obe": 5824,
      "##ober": 5825,
      "score": 5826,
      "scale": 5827,
      "Corrupter": 5828,
      "Evie": 5829,
      "Imagin": 5830,
      "Impetuous": 5831,
      "close": 5832,
      "Explosion": 5833,
      "Colony": 5834,
      "Nights": 5835,
      "##alent": 5836,
      "##gged": 5837,
      "sprocket": 5838,
      "Protector": 5839,
      "Protege": 5840,
      "Survivors": 5841,
      "Emrak": 5842,
      "Empyrial": 5843,
      "Heist": 5844,
      "quite": 5845,
      "quill": 5846,
      "quarterfin": 5847,
      "##wafel": 5848,
      "Inspiration": 5849,
      "Adventurer": 5850,
      "Krav": 5851,
      "Redhorn": 5852,
      "Rabbits": 5853,
      "Battlements": 5854,
      "Multiple": 5855,
      "supply": 5856,
      "##zaar": 5857,
      "##esha": 5858,
      "Wurms": 5859,
      "October": 5860,
      "Twenty": 5861,
      "Twisted": 5862,
      "crystal": 5863,
      "##forward": 5864,
      "Avalanche": 5865,
      "Glass": 5866,
      "squad": 5867,
      "##ranid": 5868,
      "Shamans": 5869,
      "dethrone": 5870,
      "feeding": 5871,
      "soulshift": 5872,
      "teammates": 5873,
      "Enlightened": 5874,
      "impostor": 5875,
      "Celestial": 5876,
      "Homeland": 5877,
      "Homarids": 5878,
      "going": 5879,
      "bloodthirst": 5880,
      "bloodstain": 5881,
      "items": 5882,
      "Boars": 5883,
      "Cazur": 5884,
      "Donna": 5885,
      "Otters": 5886,
      "marks": 5887,
      "slide": 5888,
      "trap": 5889,
      "taxes": 5890,
      "Archangel": 5891,
      "original": 5892,
      "Guide": 5893,
      "Guardian": 5894,
      "Khorvath": 5895,
      "Pegasi": 5896,
      "Towers": 5897,
      "nowhere": 5898,
      "sleeve": 5899,
      "monoblue": 5900,
      "prey": 5901,
      "precombat": 5902,
      "defeat": 5903,
      "switched": 5904,
      "Paradise": 5905,
      "Halflings": 5906,
      "Crown": 5907,
      "Crocod": 5908,
      "Geertsen": 5909,
      "Gorilla": 5910,
      "Prism": 5911,
      "peace": 5912,
      "Reflections": 5913,
      "unearthed": 5914,
      "Golden": 5915,
      "Secrets": 5916,
      "Gremlins": 5917,
      "Sylv": 5918,
      "Tyrant": 5919,
      "Tyranid": 5920,
      "interplanar": 5921,
      "interaction": 5922,
      "meter": 5923,
      "##sworn": 5924,
      "##lease": 5925,
      "University": 5926,
      "2000": 5927,
      "2004": 5928,
      "2001": 5929,
      "Garrison": 5930,
      "Prague": 5931,
      "Smoke": 5932,
      "Sandfall": 5933,
      "revolves": 5934,
      "windy": 5935,
      "##yser": 5936,
      "performs": 5937,
      "respect": 5938,
      "respective": 5939,
      "subtypes": 5940,
      "continuous": 5941,
      "Gorgons": 5942,
      "Newt": 5943,
      "Okaun": 5944,
      "Sanctum": 5945,
      "Timin": 5946,
      "currenc": 5947,
      "member": 5948,
      "phylact": 5949,
      "##break": 5950,
      "##ntheses": 5951,
      "##ettle": 5952,
      "##stalker": 5953,
      "releases": 5954,
      "Ashio": 5955,
      "1998": 5956,
      "1999": 5957,
      "balancing": 5958,
      "Abrupt": 5959,
      "Abilities": 5960,
      "Antimagic": 5961,
      "Groesbe": 5962,
      "Graveborn": 5963,
      "Gravestorm": 5964,
      "However": 5965,
      "Rager": 5966,
      "Wasteland": 5967,
      "Winds": 5968,
      "Windgrace": 5969,
      "Yannik": 5970,
      "globe": 5971,
      "passed": 5972,
      "reversed": 5973,
      "titles": 5974,
      "beats": 5975,
      "beatdown": 5976,
      "checked": 5977,
      "mulligans": 5978,
      "Whisper": 5979,
      "Elderhall": 5980,
      "showing": 5981,
      "fingernail": 5982,
      "Praetors": 5983,
      "Bright": 5984,
      "Broken": 5985,
      "Brotherho": 5986,
      "Captive": 5987,
      "Feather": 5988,
      "Harvest": 5989,
      "Heartfire": 5990,
      "Keyword": 5991,
      "Keimi": 5992,
      "Kamber": 5993,
      "Labarre": 5994,
      "Maro": 5995,
      "Marit": 5996,
      "Omnath": 5997,
      "Ominous": 5998,
      "Pyro": 5999,
      "Phage": 6000,
      "Riders": 6001,
      "called": 6002,
      "calculate": 6003,
      "eyes": 6004,
      "favorites": 6005,
      "huge": 6006,
      "human": 6007,
      "sunrise": 6008,
      "sunset": 6009,
      "wants": 6010,
      "condemnation": 6011,
      "##alyst": 6012,
      "##igaaz": 6013,
      "Demilich": 6014,
      "profit": 6015,
      "Unicorns": 6016,
      "Sculptor": 6017,
      "Sculptures": 6018,
      "previously": 6019,
      "prevalent": 6020,
      "characteristics": 6021,
      "Juggernaut": 6022,
      "Caribou": 6023,
      "Califor": 6024,
      "Darien": 6025,
      "Darigaaz": 6026,
      "Fenric": 6027,
      "Maelstrom": 6028,
      "Muiral": 6029,
      "Operative": 6030,
      "Questing": 6031,
      "Questions": 6032,
      "Rainbow": 6033,
      "Stalking": 6034,
      "Triumphant": 6035,
      "Ulvenwald": 6036,
      "Village": 6037,
      "croak": 6038,
      "discovery": 6039,
      "harvest": 6040,
      "harmony": 6041,
      "loose": 6042,
      "loot": 6043,
      "psychic": 6044,
      "psychosis": 6045,
      "##work": 6046,
      "##eteers": 6047,
      "contested": 6048,
      "fortified": 6049,
      "fortune": 6050,
      "happens": 6051,
      "Decay": 6052,
      "Decorated": 6053,
      "championship": 6054,
      "Angrath": 6055,
      "sequence": 6056,
      "Increase": 6057,
      "Scavengers": 6058,
      "Scrolls": 6059,
      "explosive": 6060,
      "##aught": 6061,
      "Bogardan": 6062,
      "Rubinia": 6063,
      "Avenger": 6064,
      "Besieged": 6065,
      "Brawl": 6066,
      "CHOIC": 6067,
      "Camarid": 6068,
      "Diego": 6069,
      "Graf": 6070,
      "Kenrith": 6071,
      "Mightstone": 6072,
      "Mulldrif": 6073,
      "Opponents": 6074,
      "Paquette": 6075,
      "Psychatog": 6076,
      "Ritual": 6077,
      "Riveteers": 6078,
      "Randomly": 6079,
      "Silvar": 6080,
      "Trapped": 6081,
      "Ukkim": 6082,
      "Virtus": 6083,
      "Wounds": 6084,
      "awakening": 6085,
      "feature": 6086,
      "familiars": 6087,
      "homage": 6088,
      "horns": 6089,
      "hunger": 6090,
      "midway": 6091,
      "petal": 6092,
      "parentheses": 6093,
      "punctuation": 6094,
      "primeval": 6095,
      "snitch": 6096,
      "sentence": 6097,
      "½/+": 6098,
      "##oderm": 6099,
      "animal": 6100,
      "Atlanta": 6101,
      "absolutely": 6102,
      "Reassembling": 6103,
      "Annihilation": 6104,
      "provided": 6105,
      "seventh": 6106,
      "Veils": 6107,
      "consequences": 6108,
      "Cloister": 6109,
      "Blastoderm": 6110,
      "2024": 6111,
      "Flavorful": 6112,
      "Advisors": 6113,
      "Ravnica": 6114,
      "Replenish": 6115,
      "Crossing": 6116,
      "Prankster": 6117,
      "Herbert": 6118,
      "Necron": 6119,
      "Tinkering": 6120,
      "dominion": 6121,
      "frames": 6122,
      "nineteen": 6123,
      "supertypes": 6124,
      "2K2": 6125,
      "Ayesha": 6126,
      "Alex": 6127,
      "Arabian": 6128,
      "ACTION": 6129,
      "Bazaar": 6130,
      "Betray": 6131,
      "Believe": 6132,
      "Butterfly": 6133,
      "Bevand": 6134,
      "Basri": 6135,
      "Boulder": 6136,
      "Bruna": 6137,
      "Bewitching": 6138,
      "Binding": 6139,
      "Borteh": 6140,
      "Bretagard": 6141,
      "Brainiac": 6142,
      "Brushwag": 6143,
      "Chicago": 6144,
      "Cabarett": 6145,
      "Doubt": 6146,
      "Duress": 6147,
      "Dastardly": 6148,
      "Distract": 6149,
      "Doodle": 6150,
      "Daniel": 6151,
      "Dispel": 6152,
      "Drizzt": 6153,
      "Ezio": 6154,
      "Earth": 6155,
      "Emerald": 6156,
      "Futurist": 6157,
      "Finkel": 6158,
      "Frye": 6159,
      "Foundry": 6160,
      "Family": 6161,
      "Gaea": 6162,
      "Grek": 6163,
      "Gatstaf": 6164,
      "Gentle": 6165,
      "Grizzled": 6166,
      "Haywire": 6167,
      "Helm": 6168,
      "Haktos": 6169,
      "Hippo": 6170,
      "Hinterland": 6171,
      "Humpherys": 6172,
      "Jacob": 6173,
      "Journal": 6174,
      "Journey": 6175,
      "Jenny": 6176,
      "Kai": 6177,
      "Kessig": 6178,
      "Lambho": 6179,
      "Lotus": 6180,
      "Linde": 6181,
      "Laurine": 6182,
      "Lethal": 6183,
      "MOM": 6184,
      "Macie": 6185,
      "Malays": 6186,
      "Masticore": 6187,
      "Manticore": 6188,
      "Mowu": 6189,
      "Muscle": 6190,
      "Mishra": 6191,
      "Missile": 6192,
      "Nuij": 6193,
      "NCR": 6194,
      "Nassif": 6195,
      "Owen": 6196,
      "Ochre": 6197,
      "Oubliette": 6198,
      "Peer": 6199,
      "Psionic": 6200,
      "Patriarch": 6201,
      "Pacif": 6202,
      "Paladin": 6203,
      "Portal": 6204,
      "Pentavite": 6205,
      "Promised": 6206,
      "Paper": 6207,
      "Pridem": 6208,
      "Party": 6209,
      "Pako": 6210,
      "Pippin": 6211,
      "QUEUE": 6212,
      "Ryan": 6213,
      "Renewer": 6214,
      "Reverse": 6215,
      "Rhoda": 6216,
      "Romão": 6217,
      "Runestone": 6218,
      "Raptor": 6219,
      "Sovereign": 6220,
      "Siege": 6221,
      "Sifters": 6222,
      "Sarkhan": 6223,
      "Savage": 6224,
      "Sawjack": 6225,
      "Sapphire": 6226,
      "Turtle": 6227,
      "Toothy": 6228,
      "Tunnels": 6229,
      "Tieflings": 6230,
      "Trynn": 6231,
      "Wonder": 6232,
      "Wirefly": 6233,
      "Yavimaya": 6234,
      "Yanggu": 6235,
      "Zndrspl": 6236,
      "afraid": 6237,
      "ambitious": 6238,
      "aegis": 6239,
      "bait": 6240,
      "banned": 6241,
      "ceases": 6242,
      "capital": 6243,
      "cube": 6244,
      "carnage": 6245,
      "carrion": 6246,
      "damaged": 6247,
      "duty": 6248,
      "errata": 6249,
      "famous": 6250,
      "gobble": 6251,
      "hoofp": 6252,
      "holid": 6253,
      "ille": 6254,
      "javelin": 6255,
      "language": 6256,
      "major": 6257,
      "matrix": 6258,
      "menu": 6259,
      "medium": 6260,
      "music": 6261,
      "numeral": 6262,
      "palliation": 6263,
      "piloted": 6264,
      "skewer": 6265,
      "tantrum": 6266,
      "tapping": 6267,
      "vitality": 6268,
      "written": 6269,
      "{½}": 6270,
      "{∞}": 6271,
      "##cribed": 6272,
      "##ythe": 6273,
      "##mifin": 6274,
      "##mediately": 6275,
      "##monger": 6276,
      "##ASH": 6277,
      "##̶r̶e̶": 6278,
      "torture": 6279,
      "italicized": 6280,
      "inspiration": 6281,
      "ingenuity": 6282,
      "associated": 6283,
      "mannequin": 6284,
      "Thousand": 6285,
      "isolation": 6286,
      "reflection": 6287,
      "strength": 6288,
      "stroopwafel": 6289,
      "Additional": 6290,
      "Regna": 6291,
      "Reanimator": 6292,
      "Rejuvenation": 6293,
      "Spikes": 6294,
      "compliment": 6295,
      "computer": 6296,
      "Planechase": 6297,
      "Isengard": 6298,
      "Rootwalla": 6299,
      "concede": 6300,
      "Chitterspitter": 6301,
      "Shabraz": 6302,
      "Shipwreck": 6303,
      "Study": 6304,
      "Stronghold": 6305,
      "Beholder": 6306,
      "Because": 6307,
      "Spellgorger": 6308,
      "Ornithopter": 6309,
      "Scissors": 6310,
      "Scrivener": 6311,
      "Skyshark": 6312,
      "Contortionist": 6313,
      "adapts": 6314,
      "Impersonators": 6315,
      "despair": 6316,
      "incarnation": 6317,
      "Meteorite": 6318,
      "Republic": 6319,
      "Perhaps": 6320,
      "Pariah": 6321,
      "Emrakul": 6322,
      "Homelands": 6323,
      "Crocodile": 6324,
      "Sylvia": 6325,
      "currency": 6326,
      "phylactery": 6327,
      "Ashiok": 6328,
      "Groesbeek": 6329,
      "Brotherhood": 6330,
      "California": 6331,
      "CHOICE": 6332,
      "Ukkima": 6333,
      "Brushwagg": 6334,
      "Cabaretti": 6335,
      "Lambholt": 6336,
      "Nuijten": 6337,
      "Pridemate": 6338,
      "Zndrsplt": 6339,
      "hoofprint": 6340,
      "!'": 6341,
      "\"-": 6342,
      "(\"": 6343,
      "-<": 6344,
      "18": 6345,
      "120": 6346,
      "2s": 6347,
      "2d": 6348,
      "22": 6349,
      "23": 6350,
      "24": 6351,
      "29": 6352,
      "27": 6353,
      "3s": 6354,
      "31": 6355,
      "40": 6356,
      "60": 6357,
      "6th": 6358,
      "7th": 6359,
      "87": 6360,
      "96": 6361,
      "97": 6362,
      "Ax": 6363,
      "Ae": 6364,
      "Aa": 6365,
      "Ag": 6366,
      "Ac": 6367,
      "Ak": 6368,
      "Aw": 6369,
      "A2": 6370,
      "A3": 6371,
      "A1": 6372,
      "Are": 6373,
      "Aer": 6374,
      "App": 6375,
      "Amb": 6376,
      "Ath": 6377,
      "Anto": 6378,
      "Aqu": 6379,
      "Acl": 6380,
      "Aub": 6381,
      "Aish": 6382,
      "Acade": 6383,
      "Agg": 6384,
      "Abb": 6385,
      "Acha": 6386,
      "Apple": 6387,
      "Agent": 6388,
      "Action": 6389,
      "AND": 6390,
      "Autum": 6391,
      "By": 6392,
      "B2": 6393,
      "B3": 6394,
      "B1": 6395,
      "Bard": 6396,
      "Bal": 6397,
      "Bur": 6398,
      "Bed": 6399,
      "Bos": 6400,
      "Bad": 6401,
      "Bus": 6402,
      "Bond": 6403,
      "Bold": 6404,
      "Bank": 6405,
      "Bub": 6406,
      "Braz": 6407,
      "Blessing": 6408,
      "Bath": 6409,
      "Boss": 6410,
      "Bring": 6411,
      "Bale": 6412,
      "Bounty": 6413,
      "Bram": 6414,
      "Bha": 6415,
      "Bald": 6416,
      "Below": 6417,
      "Bask": 6418,
      "Bury": 6419,
      "Body": 6420,
      "Biting": 6421,
      "Card": 6422,
      "Cos": 6423,
      "Cep": 6424,
      "Catt": 6425,
      "Cook": 6426,
      "Care": 6427,
      "Cycl": 6428,
      "Cher": 6429,
      "Cond": 6430,
      "City": 6431,
      "Call": 6432,
      "Cost": 6433,
      "Cze": 6434,
      "Cem": 6435,
      "Carn": 6436,
      "CRA": 6437,
      "Crust": 6438,
      "Da": 6439,
      "D6": 6440,
      "DC": 6441,
      "D1": 6442,
      "Day": 6443,
      "Dan": 6444,
      "Durn": 6445,
      "Dut": 6446,
      "Dos": 6447,
      "Dep": 6448,
      "Disc": 6449,
      "Dig": 6450,
      "Did": 6451,
      "Dance": 6452,
      "Down": 6453,
      "Dare": 6454,
      "Doll": 6455,
      "Dag": 6456,
      "Dupl": 6457,
      "Dave": 6458,
      "Derm": 6459,
      "Diss": 6460,
      "Days": 6461,
      "Diving": 6462,
      "Dust": 6463,
      "Dream": 6464,
      "Drone": 6465,
      "Divers": 6466,
      "Daring": 6467,
      "Dual": 6468,
      "Dows": 6469,
      "Dusk": 6470,
      "Duel": 6471,
      "DRA": 6472,
      "Eu": 6473,
      "Ec": 6474,
      "Ey": 6475,
      "Ep": 6476,
      "Eat": 6477,
      "Est": 6478,
      "Eel": 6479,
      "Ento": 6480,
      "Ether": 6481,
      "Eig": 6482,
      "Eiv": 6483,
      "Eles": 6484,
      "Eder": 6485,
      "Ever": 6486,
      "Ener": 6487,
      "Esp": 6488,
      "Eter": 6489,
      "Eruption": 6490,
      "Esk": 6491,
      "Edition": 6492,
      "Fi": 6493,
      "Fre": 6494,
      "Fit": 6495,
      "Fell": 6496,
      "Fib": 6497,
      "Free": 6498,
      "Fend": 6499,
      "Four": 6500,
      "Fbl": 6501,
      "Fans": 6502,
      "Folk": 6503,
      "Fran": 6504,
      "Focus": 6505,
      "Fellow": 6506,
      "Fetch": 6507,
      "Frant": 6508,
      "Fury": 6509,
      "Fier": 6510,
      "Feral": 6511,
      "Faced": 6512,
      "Fada": 6513,
      "GE": 6514,
      "Great": 6515,
      "Gam": 6516,
      "Gen": 6517,
      "Git": 6518,
      "Gand": 6519,
      "Gith": 6520,
      "Gary": 6521,
      "Gom": 6522,
      "Gim": 6523,
      "Gown": 6524,
      "Gry": 6525,
      "Gum": 6526,
      "Gix": 6527,
      "Graz": 6528,
      "Guest": 6529,
      "Gave": 6530,
      "Glit": 6531,
      "Goss": 6532,
      "Gild": 6533,
      "Gab": 6534,
      "Gaunt": 6535,
      "Grant": 6536,
      "HR": 6537,
      "HA": 6538,
      "Hal": 6539,
      "Hamp": 6540,
      "Had": 6541,
      "Holl": 6542,
      "Hag": 6543,
      "Hearth": 6544,
      "Hush": 6545,
      "Have": 6546,
      "Hump": 6547,
      "Haz": 6548,
      "Haw": 6549,
      "Haze": 6550,
      "Hald": 6551,
      "Hatchling": 6552,
      "Ind": 6553,
      "Ion": 6554,
      "Ice": 6555,
      "Idy": 6556,
      "Icy": 6557,
      "Je": 6558,
      "Jin": 6559,
      "Jet": 6560,
      "Jon": 6561,
      "Jul": 6562,
      "Jun": 6563,
      "Jian": 6564,
      "Jud": 6565,
      "Jak": 6566,
      "Jumble": 6567,
      "Kö": 6568,
      "Kat": 6569,
      "Kar": 6570,
      "Kon": 6571,
      "Kil": 6572,
      "Kill": 6573,
      "Kru": 6574,
      "Kry": 6575,
      "Kum": 6576,
      "Kod": 6577,
      "Kord": 6578,
      "Kind": 6579,
      "Know": 6580,
      "Kelp": 6581,
      "Keg": 6582,
      "Keen": 6583,
      "Karn": 6584,
      "Kual": 6585,
      "Kanar": 6586,
      "Kythe": 6587,
      "Lo": 6588,
      "Let": 6589,
      "Lur": 6590,
      "Lit": 6591,
      "Lor": 6592,
      "Las": 6593,
      "Los": 6594,
      "Libr": 6595,
      "Lap": 6596,
      "Lumber": 6597,
      "Lead": 6598,
      "Lance": 6599,
      "Love": 6600,
      "Lone": 6601,
      "Lud": 6602,
      "Lump": 6603,
      "Linv": 6604,
      "Me": 6605,
      "Mc": 6606,
      "Ment": 6607,
      "Main": 6608,
      "Mile": 6609,
      "Mary": 6610,
      "Matt": 6611,
      "Mess": 6612,
      "Mate": 6613,
      "Milit": 6614,
      "Mother": 6615,
      "Mart": 6616,
      "Mond": 6617,
      "Mass": 6618,
      "Meg": 6619,
      "Multic": 6620,
      "Meat": 6621,
      "Mists": 6622,
      "Megas": 6623,
      "Mech": 6624,
      "Mask": 6625,
      "Memory": 6626,
      "Mission": 6627,
      "Moder": 6628,
      "MIT": 6629,
      "Ny": 6630,
      "Ner": 6631,
      "Nar": 6632,
      "Nur": 6633,
      "Nor": 6634,
      "Never": 6635,
      "Nos": 6636,
      "Nice": 6637,
      "Nep": 6638,
      "Nash": 6639,
      "Nest": 6640,
      "Nag": 6641,
      "Nine": 6642,
      "Nek": 6643,
      "Negamorph": 6644,
      "Nav": 6645,
      "Norn": 6646,
      "Nik": 6647,
      "Nongreen": 6648,
      "Natter": 6649,
      "Nurg": 6650,
      "Nimb": 6651,
      "Numble": 6652,
      "Nala": 6653,
      "Nettle": 6654,
      "Of": 6655,
      "Ob": 6656,
      "Oh": 6657,
      "Oj": 6658,
      "ON": 6659,
      "OF": 6660,
      "OB": 6661,
      "Own": 6662,
      "Oph": 6663,
      "Oub": 6664,
      "Oraz": 6665,
      "Oath": 6666,
      "Opa": 6667,
      "Oild": 6668,
      "PO": 6669,
      "Pre": 6670,
      "Pet": 6671,
      "Pon": 6672,
      "Pow": 6673,
      "Pear": 6674,
      "Pill": 6675,
      "Pol": 6676,
      "Pie": 6677,
      "Pink": 6678,
      "Pry": 6679,
      "Pun": 6680,
      "Pag": 6681,
      "Prolif": 6682,
      "Pitch": 6683,
      "Phenomenon": 6684,
      "Position": 6685,
      "Pious": 6686,
      "Penn": 6687,
      "Pony": 6688,
      "Pier": 6689,
      "Purs": 6690,
      "Piper": 6691,
      "RE": 6692,
      "Ran": 6693,
      "Res": 6694,
      "Rel": 6695,
      "Rand": 6696,
      "Rage": 6697,
      "Ros": 6698,
      "Rap": 6699,
      "Ramp": 6700,
      "Rash": 6701,
      "Rul": 6702,
      "Right": 6703,
      "Rare": 6704,
      "Rhy": 6705,
      "Rush": 6706,
      "Rouse": 6707,
      "Rani": 6708,
      "Rangeling": 6709,
      "Ruth": 6710,
      "Renn": 6711,
      "Ranger": 6712,
      "Rarity": 6713,
      "Rumble": 6714,
      "Sa": 6715,
      "Sv": 6716,
      "Sar": 6717,
      "Sin": 6718,
      "Set": 6719,
      "Sle": 6720,
      "Son": 6721,
      "Sep": 6722,
      "Sid": 6723,
      "Sacrific": 6724,
      "Sum": 6725,
      "Sine": 6726,
      "Size": 6727,
      "Seg": 6728,
      "Sup": 6729,
      "Sung": 6730,
      "Sledge": 6731,
      "Seng": 6732,
      "São": 6733,
      "Sewer": 6734,
      "South": 6735,
      "Senses": 6736,
      "Settle": 6737,
      "Ta": 6738,
      "TO": 6739,
      "Ter": 6740,
      "Ten": 6741,
      "Tro": 6742,
      "Tet": 6743,
      "Tit": 6744,
      "Tast": 6745,
      "Tith": 6746,
      "Tell": 6747,
      "Tos": 6748,
      "Tig": 6749,
      "Tot": 6750,
      "Test": 6751,
      "Toughness": 6752,
      "Tie": 6753,
      "Tul": 6754,
      "Toll": 6755,
      "Tide": 6756,
      "Tax": 6757,
      "Toul": 6758,
      "Tome": 6759,
      "Term": 6760,
      "Tang": 6761,
      "Tale": 6762,
      "Train": 6763,
      "Tuk": 6764,
      "TAR": 6765,
      "Tami": 6766,
      "Tongue": 6767,
      "Trust": 6768,
      "Taught": 6769,
      "Us": 6770,
      "Um": 6771,
      "Ugin": 6772,
      "Uph": 6773,
      "Urab": 6774,
      "Ugl": 6775,
      "Ver": 6776,
      "Van": 6777,
      "Vis": 6778,
      "Vit": 6779,
      "Vor": 6780,
      "Vir": 6781,
      "Vance": 6782,
      "Vol": 6783,
      "Vold": 6784,
      "Voy": 6785,
      "Vild": 6786,
      "Volt": 6787,
      "Varm": 6788,
      "Vial": 6789,
      "Vint": 6790,
      "Veteran": 6791,
      "Volcan": 6792,
      "Vangu": 6793,
      "Vryn": 6794,
      "Venge": 6795,
      "Viper": 6796,
      "Wa": 6797,
      "Win": 6798,
      "Wis": 6799,
      "Was": 6800,
      "Wain": 6801,
      "Wield": 6802,
      "Wid": 6803,
      "Would": 6804,
      "West": 6805,
      "Wish": 6806,
      "Wret": 6807,
      "Wave": 6808,
      "Write": 6809,
      "Winter": 6810,
      "Wrath": 6811,
      "Writh": 6812,
      "WIN": 6813,
      "Yu": 6814,
      "Yor": 6815,
      "Yell": 6816,
      "Yaw": 6817,
      "Ze": 6818,
      "Zh": 6819,
      "Zar": 6820,
      "Zeal": 6821,
      "ay": 6822,
      "aw": 6823,
      "ap": 6824,
      "ach": 6825,
      "air": 6826,
      "aud": 6827,
      "award": 6828,
      "aids": 6829,
      "autum": 6830,
      "bou": 6831,
      "bar": 6832,
      "bon": 6833,
      "bell": 6834,
      "batt": 6835,
      "bri": 6836,
      "bite": 6837,
      "bull": 6838,
      "breath": 6839,
      "break": 6840,
      "biting": 6841,
      "b̶r̶e̶": 6842,
      "cut": 6843,
      "cri": 6844,
      "cru": 6845,
      "call": 6846,
      "craft": 6847,
      "curve": 6848,
      "claw": 6849,
      "calm": 6850,
      "calls": 6851,
      "dro": 6852,
      "dis": 6853,
      "ded": 6854,
      "dart": 6855,
      "dark": 6856,
      "distr": 6857,
      "danger": 6858,
      "diam": 6859,
      "eat": 6860,
      "est": 6861,
      "era": 6862,
      "east": 6863,
      "eff": 6864,
      "eak": 6865,
      "elect": 6866,
      "eigh": 6867,
      "edition": 6868,
      "easy": 6869,
      "espe": 6870,
      "f̶": 6871,
      "far": 6872,
      "fal": 6873,
      "fur": 6874,
      "fit": 6875,
      "fly": 6876,
      "fumb": 6877,
      "faste": 6878,
      "fough": 6879,
      "fash": 6880,
      "fiz": 6881,
      "fall": 6882,
      "fres": 6883,
      "found": 6884,
      "gar": 6885,
      "gam": 6886,
      "got": 6887,
      "gates": 6888,
      "gives": 6889,
      "giving": 6890,
      "grab": 6891,
      "gathering": 6892,
      "grant": 6893,
      "ghost": 6894,
      "gender": 6895,
      "ho": 6896,
      "hon": 6897,
      "hear": 6898,
      "hid": 6899,
      "hum": 6900,
      "hold": 6901,
      "hero": 6902,
      "hits": 6903,
      "hidden": 6904,
      "hides": 6905,
      "ig": 6906,
      "ike": 6907,
      "imit": 6908,
      "je": 6909,
      "joke": 6910,
      "kill": 6911,
      "li": 6912,
      "la": 6913,
      "lon": 6914,
      "lim": 6915,
      "lie": 6916,
      "lung": 6917,
      "lab": 6918,
      "laz": 6919,
      "law": 6920,
      "latter": 6921,
      "limited": 6922,
      "losing": 6923,
      "loud": 6924,
      "leng": 6925,
      "lips": 6926,
      "lacks": 6927,
      "lightning": 6928,
      "mer": 6929,
      "mar": 6930,
      "mir": 6931,
      "mess": 6932,
      "mind": 6933,
      "mob": 6934,
      "miss": 6935,
      "mech": 6936,
      "mov": 6937,
      "motivate": 6938,
      "mouth": 6939,
      "numb": 6940,
      "near": 6941,
      "nest": 6942,
      "nick": 6943,
      "negamorph": 6944,
      "ou": 6945,
      "oh": 6946,
      "pure": 6947,
      "pur": 6948,
      "pho": 6949,
      "pot": 6950,
      "pick": 6951,
      "pres": 6952,
      "present": 6953,
      "pump": 6954,
      "pull": 6955,
      "posing": 6956,
      "premium": 6957,
      "pantom": 6958,
      "please": 6959,
      "ra": 6960,
      "rat": 6961,
      "ring": 6962,
      "rock": 6963,
      "rough": 6964,
      "rid": 6965,
      "rul": 6966,
      "rhy": 6967,
      "range": 6968,
      "rub": 6969,
      "rely": 6970,
      "ripp": 6971,
      "ransom": 6972,
      "sou": 6973,
      "sever": 6974,
      "sir": 6975,
      "som": 6976,
      "sock": 6977,
      "site": 6978,
      "sect": 6979,
      "sie": 6980,
      "sound": 6981,
      "sci": 6982,
      "sign": 6983,
      "save": 6984,
      "sang": 6985,
      "sitting": 6986,
      "ta": 6987,
      "ter": 6988,
      "ties": 6989,
      "tree": 6990,
      "term": 6991,
      "train": 6992,
      "tusk": 6993,
      "taught": 6994,
      "ub": 6995,
      "upp": 6996,
      "ugl": 6997,
      "ver": 6998,
      "vis": 6999,
      "vig": 7000,
      "vert": 7001,
      "vampire": 7002,
      "vict": 7003,
      "wu": 7004,
      "went": 7005,
      "wid": 7006,
      "wall": 7007,
      "walls": 7008,
      "winter": 7009,
      "wrest": 7010,
      "yell": 7011,
      "zomb": 7012,
      "²)": 7013,
      "™—": 7014,
      "√(": 7015,
      "##iet": 7016,
      "##iast": 7017,
      "##iev": 7018,
      "##ias": 7019,
      "##iary": 7020,
      "##ius": 7021,
      "##ially": 7022,
      "##iron": 7023,
      "##i̶r̶e̶": 7024,
      "##ln": 7025,
      "##lw": 7026,
      "##lay": 7027,
      "##lic": 7028,
      "##los": 7029,
      "##lfield": 7030,
      "##lim": 7031,
      "##lide": 7032,
      "##lass": 7033,
      "##lake": 7034,
      "##lish": 7035,
      "##lath": 7036,
      "##linter": 7037,
      "##liest": 7038,
      "##lete": 7039,
      "##loom": 7040,
      "##eb": 7041,
      "##ej": 7042,
      "##ees": 7043,
      "##estro": 7044,
      "##eim": 7045,
      "##eers": 7046,
      "##eathtouch": 7047,
      "##eold": 7048,
      "##eav": 7049,
      "##eem": 7050,
      "##eously": 7051,
      "##ecc": 7052,
      "##eyser": 7053,
      "##sb": 7054,
      "##sur": 7055,
      "##sel": 7056,
      "##sor": 7057,
      "##sive": 7058,
      "##section": 7059,
      "##sire": 7060,
      "##sult": 7061,
      "##sical": 7062,
      "##slide": 7063,
      "##a̶": 7064,
      "##ael": 7065,
      "##aut": 7066,
      "##aic": 7067,
      "##air": 7068,
      "##aim": 7069,
      "##abl": 7070,
      "##aum": 7071,
      "##alegendary": 7072,
      "##ainder": 7073,
      "##ris": 7074,
      "##ries": 7075,
      "##rig": 7076,
      "##rus": 7077,
      "##right": 7078,
      "##rall": 7079,
      "##range": 7080,
      "##rans": 7081,
      "##rator": 7082,
      "##rich": 7083,
      "##rza": 7084,
      "##racy": 7085,
      "##rical": 7086,
      "##nz": 7087,
      "##nou": 7088,
      "##nay": 7089,
      "##nif": 7090,
      "##nate": 7091,
      "##nus": 7092,
      "##ners": 7093,
      "##nod": 7094,
      "##nces": 7095,
      "##noc": 7096,
      "##nover": 7097,
      "##ngest": 7098,
      "##neck": 7099,
      "##named": 7100,
      "##nons": 7101,
      "##ges": 7102,
      "##gra": 7103,
      "##gate": 7104,
      "##got": 7105,
      "##gment": 7106,
      "##gree": 7107,
      "##gland": 7108,
      "##gist": 7109,
      "##gally": 7110,
      "##gates": 7111,
      "##gang": 7112,
      "##gress": 7113,
      "##gia": 7114,
      "##gflame": 7115,
      "##fi": 7116,
      "##fit": 7117,
      "##fill": 7118,
      "##fers": 7119,
      "##fold": 7120,
      "##fort": 7121,
      "##friend": 7122,
      "##fang": 7123,
      "##filt": 7124,
      "##front": 7125,
      "##filed": 7126,
      "##don": 7127,
      "##ding": 7128,
      "##des": 7129,
      "##dos": 7130,
      "##dant": 7131,
      "##dom": 7132,
      "##dig": 7133,
      "##dog": 7134,
      "##uz": 7135,
      "##uis": 7136,
      "##uant": 7137,
      "##uke": 7138,
      "##ume": 7139,
      "##upy": 7140,
      "##oa": 7141,
      "##ok": 7142,
      "##oh": 7143,
      "##opp": 7144,
      "##oose": 7145,
      "##ogy": 7146,
      "##open": 7147,
      "##opy": 7148,
      "##ojin": 7149,
      "##oeb": 7150,
      "##ca": 7151,
      "##cat": 7152,
      "##cure": 7153,
      "##cal": 7154,
      "##con": 7155,
      "##cut": 7156,
      "##cant": 7157,
      "##cap": 7158,
      "##cisc": 7159,
      "##cate": 7160,
      "##cip": 7161,
      "##city": 7162,
      "##cence": 7163,
      "##cav": 7164,
      "##cors": 7165,
      "##cund": 7166,
      "##coph": 7167,
      "##covered": 7168,
      "##ki": 7169,
      "##ka": 7170,
      "##k̶": 7171,
      "##kes": 7172,
      "##kel": 7173,
      "##kite": 7174,
      "##yo": 7175,
      "##yay": 7176,
      "##yel": 7177,
      "##yot": 7178,
      "##yers": 7179,
      "##yank": 7180,
      "##yze": 7181,
      "##yrint": 7182,
      "##win": 7183,
      "##wid": 7184,
      "##wood": 7185,
      "##watch": 7186,
      "##wrap": 7187,
      "##winter": 7188,
      "##wright": 7189,
      "##ms": 7190,
      "##mis": 7191,
      "##mast": 7192,
      "##mic": 7193,
      "##mage": 7194,
      "##mant": 7195,
      "##mead": 7196,
      "##mill": 7197,
      "##mers": 7198,
      "##mph": 7199,
      "##mun": 7200,
      "##most": 7201,
      "##mob": 7202,
      "##mfor": 7203,
      "##mats": 7204,
      "##miral": 7205,
      "##by": 7206,
      "##bal": 7207,
      "##bos": 7208,
      "##bear": 7209,
      "##bru": 7210,
      "##brew": 7211,
      "##bath": 7212,
      "##bidden": 7213,
      "##bones": 7214,
      "##bender": 7215,
      "##braid": 7216,
      "##bably": 7217,
      "##pre": 7218,
      "##pay": 7219,
      "##pion": 7220,
      "##ples": 7221,
      "##pect": 7222,
      "##pass": 7223,
      "##pine": 7224,
      "##port": 7225,
      "##path": 7226,
      "##prise": 7227,
      "##pony": 7228,
      "##person": 7229,
      "##ture": 7230,
      "##tit": 7231,
      "##tag": 7232,
      "##tse": 7233,
      "##teen": 7234,
      "##tab": 7235,
      "##types": 7236,
      "##tlet": 7237,
      "##tuk": 7238,
      "##tolith": 7239,
      "##tsb": 7240,
      "##hat": 7241,
      "##har": 7242,
      "##ham": 7243,
      "##hing": 7244,
      "##hib": 7245,
      "##hir": 7246,
      "##hman": 7247,
      "##hag": 7248,
      "##hem": 7249,
      "##house": 7250,
      "##honey": 7251,
      "##heim": 7252,
      "##vet": 7253,
      "##vas": 7254,
      "##vos": 7255,
      "##vad": 7256,
      "##vite": 7257,
      "##vill": 7258,
      "##vale": 7259,
      "##vict": 7260,
      "##veted": 7261,
      "##vanic": 7262,
      "##viron": 7263,
      "##zen": 7264,
      "##zon": 7265,
      "##zles": 7266,
      "##zum": 7267,
      "##KN": 7268,
      "##ECTI": 7269,
      "##AD": 7270,
      "##AO": 7271,
      "##AT": 7272,
      "##DI": 7273,
      "##jet": 7274,
      "##jectives": 7275,
      "##èche": 7276,
      "##̶0̶": 7277,
      "##Card": 7278,
      "##Cab": 7279,
      "##CER": 7280,
      "##CAR": 7281,
      "##That": 7282,
      "##NK": 7283,
      "##FIN": 7284,
      "##úk": 7285,
      "##WER": 7286,
      "##JECTI": 7287,
      "##ñor": 7288,
      "##öger": 7289,
      "##Urza": 7290,
      "##Magic": 7291,
      "##ren": 7292,
      "##redd": 7293,
      "##rell": 7294,
      "##rents": 7295,
      "##ntie": 7296,
      "##ntail": 7297,
      "##ourer": 7298,
      "##atu": 7299,
      "##atan": 7300,
      "##atis": 7301,
      "##atue": 7302,
      "##atelink": 7303,
      "##eror": 7304,
      "##erving": 7305,
      "##errant": 7306,
      "##erwear": 7307,
      "##ervill": 7308,
      "##eratelink": 7309,
      "thro": 7310,
      "throw": 7311,
      "things": 7312,
      "##aris": 7313,
      "##aril": 7314,
      "##arct": 7315,
      "##arix": 7316,
      "##ariest": 7317,
      "##arfish": 7318,
      "youngest": 7319,
      "##ndra": 7320,
      "##ndicate": 7321,
      "##ndred": 7322,
      "##ured": 7323,
      "##urent": 7324,
      "##amet": 7325,
      "##amog": 7326,
      "##amoeb": 7327,
      "##ardiz": 7328,
      "##ena": 7329,
      "##ench": 7330,
      "##enger": 7331,
      "##enna": 7332,
      "##encer": 7333,
      "##enpath": 7334,
      "##acre": 7335,
      "##acon": 7336,
      "##acent": 7337,
      "##acly": 7338,
      "##acci": 7339,
      "##acesh": 7340,
      "##aciers": 7341,
      "##ino": 7342,
      "##iness": 7343,
      "##inate": 7344,
      "##inated": 7345,
      "##inerate": 7346,
      "##incle": 7347,
      "##inlay": 7348,
      "##inheim": 7349,
      "coat": 7350,
      "coast": 7351,
      "code": 7352,
      "coveted": 7353,
      "##ros": 7354,
      "##ronto": 7355,
      "##ropy": 7356,
      "##rodu": 7357,
      "##rope": 7358,
      "##rogate": 7359,
      "##etle": 7360,
      "##etery": 7361,
      "##etim": 7362,
      "##etstone": 7363,
      "told": 7364,
      "togg": 7365,
      "toys": 7366,
      "##stay": 7367,
      "##stic": 7368,
      "##stack": 7369,
      "##stem": 7370,
      "##story": 7371,
      "##stones": 7372,
      "##steal": 7373,
      "##static": 7374,
      "##stige": 7375,
      "##stopp": 7376,
      "##anen": 7377,
      "##anak": 7378,
      "##anced": 7379,
      "##iser": 7380,
      "##isen": 7381,
      "##isan": 7382,
      "##iskel": 7383,
      "##leer": 7384,
      "##leon": 7385,
      "##leech": 7386,
      "##leaf": 7387,
      "##leclaw": 7388,
      "##leport": 7389,
      "##aler": 7390,
      "##alith": 7391,
      "##alice": 7392,
      "##alition": 7393,
      "##alyp": 7394,
      "##alia": 7395,
      "##urgh": 7396,
      "##urous": 7397,
      "##urring": 7398,
      "##ursed": 7399,
      "##urrect": 7400,
      "##henge": 7401,
      "##oned": 7402,
      "##onid": 7403,
      "##onse": 7404,
      "##onstruct": 7405,
      "##onaut": 7406,
      "##onacci": 7407,
      "##ingeyser": 7408,
      "##inguis": 7409,
      "##itary": 7410,
      "##ities": 7411,
      "##itment": 7412,
      "##itless": 7413,
      "##itim": 7414,
      "##rolyze": 7415,
      "##ife": 7416,
      "contents": 7417,
      "##ese": 7418,
      "ones": 7419,
      "online": 7420,
      "onnay": 7421,
      "##eling": 7422,
      "##elance": 7423,
      "##elled": 7424,
      "##elrod": 7425,
      "##elope": 7426,
      "##ellent": 7427,
      "##orb": 7428,
      "##oring": 7429,
      "##orant": 7430,
      "##ories": 7431,
      "##orcery": 7432,
      "##orter": 7433,
      "##orously": 7434,
      "##orched": 7435,
      "##orgia": 7436,
      "##orpion": 7437,
      "targeting": 7438,
      "analyst": 7439,
      "annou": 7440,
      "##edom": 7441,
      "##edgu": 7442,
      "##anded": 7443,
      "orange": 7444,
      "##ilar": 7445,
      "##ilids": 7446,
      "##ilized": 7447,
      "##raighten": 7448,
      "##rava": 7449,
      "##ravite": 7450,
      "##raiser": 7451,
      "##entation": 7452,
      "##ential": 7453,
      "##entially": 7454,
      "places": 7455,
      "placed": 7456,
      "##ache": 7457,
      "##achnus": 7458,
      "##ithwin": 7459,
      "bend": 7460,
      "beige": 7461,
      "##utan": 7462,
      "##utters": 7463,
      "##uttlet": 7464,
      "##utilids": 7465,
      "deep": 7466,
      "degre": 7467,
      "destruct": 7468,
      "degree": 7469,
      "##ican": 7470,
      "##icle": 7471,
      "##icken": 7472,
      "##icip": 7473,
      "##icity": 7474,
      "##icating": 7475,
      "##icient": 7476,
      "##evil": 7477,
      "##evic": 7478,
      "##geles": 7479,
      "court": 7480,
      "spin": 7481,
      "space": 7482,
      "spear": 7483,
      "splash": 7484,
      "spring": 7485,
      "spotted": 7486,
      "spons": 7487,
      "splic": 7488,
      "spelled": 7489,
      "##ppel": 7490,
      "##ppled": 7491,
      "##ppelin": 7492,
      "playmats": 7493,
      "##elliest": 7494,
      "##chi": 7495,
      "##ching": 7496,
      "##ches": 7497,
      "##chum": 7498,
      "##charge": 7499,
      "##chief": 7500,
      "spellmorph": 7501,
      "atinlay": 7502,
      "##oset": 7503,
      "##osal": 7504,
      "##osch": 7505,
      "##ospect": 7506,
      "##ainst": 7507,
      "##ained": 7508,
      "dealing": 7509,
      "getting": 7510,
      "inex": 7511,
      "inform": 7512,
      "infin": 7513,
      "ingest": 7514,
      "inanim": 7515,
      "insult": 7516,
      "innoc": 7517,
      "inches": 7518,
      "##mbered": 7519,
      "##ants": 7520,
      "forag": 7521,
      "blaster": 7522,
      "handle": 7523,
      "##ibutes": 7524,
      "gaining": 7525,
      "##kenrath": 7526,
      "##epher": 7527,
      "##iring": 7528,
      "##irlw": 7529,
      "##irrell": 7530,
      "##ths": 7531,
      "##thp": 7532,
      "##thos": 7533,
      "##thaz": 7534,
      "##rification": 7535,
      "##rifices": 7536,
      "mane": 7537,
      "manage": 7538,
      "Thing": 7539,
      "Thumb": 7540,
      "Thorn": 7541,
      "Thaw": 7542,
      "Thiev": 7543,
      "Thaum": 7544,
      "Thalia": 7545,
      "These": 7546,
      "cannot": 7547,
      "manabond": 7548,
      "react": 7549,
      "really": 7550,
      "reward": 7551,
      "reolves": 7552,
      "reassemb": 7553,
      "rearr": 7554,
      "reason": 7555,
      "##ckless": 7556,
      "##ckett": 7557,
      "stay": 7558,
      "state": 7559,
      "stone": 7560,
      "stron": 7561,
      "stakes": 7562,
      "stayed": 7563,
      "steal": 7564,
      "sturd": 7565,
      "staring": 7566,
      "strate": 7567,
      "stranger": 7568,
      "sticks": 7569,
      "strange": 7570,
      "straighten": 7571,
      "stache": 7572,
      "anytime": 7573,
      "##quake": 7574,
      "##queror": 7575,
      "##hook": 7576,
      "##omy": 7577,
      "##oming": 7578,
      "##omination": 7579,
      "twelf": 7580,
      "##owed": 7581,
      "blocker": 7582,
      "##orek": 7583,
      "##oret": 7584,
      "##apting": 7585,
      "##ctrolyze": 7586,
      "##gine": 7587,
      "##essed": 7588,
      "##essra": 7589,
      "##essThat": 7590,
      "Ata": 7591,
      "Atrop": 7592,
      "##llic": 7593,
      "tops": 7594,
      "topmost": 7595,
      "why": 7596,
      "college": 7597,
      "theirs": 7598,
      "dozen": 7599,
      "abides": 7600,
      "##igod": 7601,
      "##igation": 7602,
      "##igans": 7603,
      "##igator": 7604,
      "##iggered": 7605,
      "##cestral": 7606,
      "Creation": 7607,
      "Itlim": 7608,
      "##iver": 7609,
      "##ivore": 7610,
      "##adill": 7611,
      "##adru": 7612,
      "##adew": 7613,
      "##adian": 7614,
      "##adesh": 7615,
      "instruct": 7616,
      "##erer": 7617,
      "##erey": 7618,
      "##exist": 7619,
      "allows": 7620,
      "allowed": 7621,
      "##lescence": 7622,
      "enchanting": 7623,
      "Deword": 7624,
      "Defiled": 7625,
      "otherwise": 7626,
      "##coming": 7627,
      "##acean": 7628,
      "##acement": 7629,
      "##ility": 7630,
      "##rier": 7631,
      "##riel": 7632,
      "##riest": 7633,
      "##rider": 7634,
      "shy": 7635,
      "shift": 7636,
      "sheep": 7637,
      "shorter": 7638,
      "##otz": 7639,
      "##oted": 7640,
      "##otomy": 7641,
      "##menting": 7642,
      "##reeching": 7643,
      "##imy": 7644,
      "##imul": 7645,
      "##imwalk": 7646,
      "##imats": 7647,
      "##kers": 7648,
      "Rest": 7649,
      "Rector": 7650,
      "Refl": 7651,
      "Reorder": 7652,
      "Require": 7653,
      "Regul": 7654,
      "Rekind": 7655,
      "Relent": 7656,
      "Release": 7657,
      "Reej": 7658,
      "Refill": 7659,
      "Reithwin": 7660,
      "Reckless": 7661,
      "##oop": 7662,
      "exchang": 7663,
      "exchanged": 7664,
      "##uffy": 7665,
      "##ypal": 7666,
      "##yptolith": 7667,
      "timed": 7668,
      "timely": 7669,
      "##iding": 7670,
      "##idian": 7671,
      "##idgen": 7672,
      "##lands": 7673,
      "##lers": 7674,
      "typical": 7675,
      "wouldn": 7676,
      "plans": 7677,
      "Returned": 7678,
      "themsel": 7679,
      "chance": 7680,
      "cheap": 7681,
      "chair": 7682,
      "charis": 7683,
      "chicken": 7684,
      "ungu": 7685,
      "unmark": 7686,
      "unleash": 7687,
      "uninstall": 7688,
      "uncro": 7689,
      "unfold": 7690,
      "unopen": 7691,
      "unwrap": 7692,
      "unpre": 7693,
      "copying": 7694,
      "##ashivan": 7695,
      "##earcher": 7696,
      "##itect": 7697,
      "##iteful": 7698,
      "legged": 7699,
      "ways": 7700,
      "##ecter": 7701,
      "nodes": 7702,
      "##using": 7703,
      "##uses": 7704,
      "##usive": 7705,
      "##usiast": 7706,
      "##nderkind": 7707,
      "##estly": 7708,
      "Spy": 7709,
      "Sped": 7710,
      "Space": 7711,
      "Spear": 7712,
      "Sprout": 7713,
      "Spitting": 7714,
      "Splinter": 7715,
      "Spuz": 7716,
      "Spacesh": 7717,
      "Spiteful": 7718,
      "Specter": 7719,
      "exclaim": 7720,
      "excellent": 7721,
      "##otting": 7722,
      "redirect": 7723,
      "bottle": 7724,
      "donates": 7725,
      "donating": 7726,
      "##olar": 7727,
      "##ology": 7728,
      "##ieved": 7729,
      "restrict": 7730,
      "Flashforward": 7731,
      "commun": 7732,
      "##artest": 7733,
      "##dermis": 7734,
      "##venturing": 7735,
      "##venturous": 7736,
      "randomly": 7737,
      "landscap": 7738,
      "##run": 7739,
      "##rund": 7740,
      "##ruck": 7741,
      "##leday": 7742,
      "##ulo": 7743,
      "##ulet": 7744,
      "##ulation": 7745,
      "##ulcher": 7746,
      "gamepl": 7747,
      "attaches": 7748,
      "Anni": 7749,
      "Answ": 7750,
      "Ansur": 7751,
      "Angeles": 7752,
      "Ancestral": 7753,
      "along": 7754,
      "alter": 7755,
      "alway": 7756,
      "alien": 7757,
      "aloud": 7758,
      "enab": 7759,
      "environ": 7760,
      "Attack": 7761,
      "Attune": 7762,
      "##gends": 7763,
      "Plag": 7764,
      "Plague": 7765,
      "Places": 7766,
      "Plund": 7767,
      "Plotting": 7768,
      "##iphan": 7769,
      "##ipmonger": 7770,
      "##bleweft": 7771,
      "Zombify": 7772,
      "probably": 7773,
      "##pha": 7774,
      "##izer": 7775,
      "##izoa": 7776,
      "seated": 7777,
      "semifin": 7778,
      "##istic": 7779,
      "##istence": 7780,
      "Forget": 7781,
      "Forbidden": 7782,
      "##ectionately": 7783,
      "##ares": 7784,
      "##aren": 7785,
      "##ared": 7786,
      "##yclave": 7787,
      "tracking": 7788,
      "Spiritmonger": 7789,
      "##umfere": 7790,
      "##umination": 7791,
      "boast": 7792,
      "booming": 7793,
      "##unburst": 7794,
      "##unately": 7795,
      "##olls": 7796,
      "pausing": 7797,
      "Inn": 7798,
      "Invoke": 7799,
      "Includ": 7800,
      "Initi": 7801,
      "Ingen": 7802,
      "Invention": 7803,
      "Ingot": 7804,
      "Infilt": 7805,
      "Invas": 7806,
      "Hunter": 7807,
      "flashforward": 7808,
      "##agus": 7809,
      "##agers": 7810,
      "##agants": 7811,
      "pole": 7812,
      "##plite": 7813,
      "##plays": 7814,
      "##placement": 7815,
      "Ardent": 7816,
      "Argo": 7817,
      "Arlin": 7818,
      "Arvad": 7819,
      "Arisen": 7820,
      "Arachnus": 7821,
      "Swan": 7822,
      "Isle": 7823,
      "Allows": 7824,
      "Firstest": 7825,
      "##allin": 7826,
      "##allax": 7827,
      "##allenh": 7828,
      "notably": 7829,
      "Drag": 7830,
      "Drain": 7831,
      "Drakes": 7832,
      "Warp": 7833,
      "Warform": 7834,
      "Warlord": 7835,
      "Warren": 7836,
      "Warchief": 7837,
      "reset": 7838,
      "research": 7839,
      "resord": 7840,
      "resets": 7841,
      "resume": 7842,
      "##oldering": 7843,
      "outdo": 7844,
      "outfit": 7845,
      "outerwear": 7846,
      "Process": 7847,
      "Projection": 7848,
      "Progress": 7849,
      "Prodig": 7850,
      "Toy": 7851,
      "Toronto": 7852,
      "Veh": 7853,
      "Veiled": 7854,
      "hadn": 7855,
      "flipped": 7856,
      "flaw": 7857,
      "flicks": 7858,
      "fluke": 7859,
      "causing": 7860,
      "Roar": 7861,
      "confer": 7862,
      "Dragonfly": 7863,
      "Chant": 7864,
      "Chest": 7865,
      "Chains": 7866,
      "Charge": 7867,
      "Charact": 7868,
      "Chief": 7869,
      "Chitter": 7870,
      "Charl": 7871,
      "Charix": 7872,
      "Chalice": 7873,
      "Convict": 7874,
      "Conqueror": 7875,
      "Shar": 7876,
      "Shall": 7877,
      "Shake": 7878,
      "Shards": 7879,
      "Sheold": 7880,
      "Shredd": 7881,
      "Shepher": 7882,
      "Shessra": 7883,
      "Shimats": 7884,
      "remainder": 7885,
      "Yourself": 7886,
      "prevents": 7887,
      "##vert": 7888,
      "Stare": 7889,
      "Stun": 7890,
      "Stup": 7891,
      "Stop": 7892,
      "Stitch": 7893,
      "Stunning": 7894,
      "Stab": 7895,
      "Stones": 7896,
      "Stings": 7897,
      "Strate": 7898,
      "Static": 7899,
      "Stranger": 7900,
      "Statue": 7901,
      "Starfish": 7902,
      "Stoned": 7903,
      "Stained": 7904,
      "Stimul": 7905,
      "Stuffy": 7906,
      "monog": 7907,
      "sixteen": 7908,
      "##vocate": 7909,
      "Elendra": 7910,
      "Electrolyze": 7911,
      "Anywhere": 7912,
      "10̶0̶": 7913,
      "Elbr": 7914,
      "Elusive": 7915,
      "Scryfall": 7916,
      "Scrycast": 7917,
      "##orde": 7918,
      "##ords": 7919,
      "Landcycling": 7920,
      "Coast": 7921,
      "Coach": 7922,
      "Copen": 7923,
      "Coyot": 7924,
      "Covet": 7925,
      "Coalition": 7926,
      "Covert": 7927,
      "##assic": 7928,
      "whom": 7929,
      "Clan": 7930,
      "Clap": 7931,
      "Clover": 7932,
      "Cluck": 7933,
      "Cluster": 7934,
      "Claim": 7935,
      "Devourer": 7936,
      "Devoted": 7937,
      "Bling": 7938,
      "Block": 7939,
      "Bliss": 7940,
      "Blaz": 7941,
      "Blaze": 7942,
      "Blows": 7943,
      "Blurry": 7944,
      "Blightning": 7945,
      "Bladew": 7946,
      "Phylath": 7947,
      "##rexian": 7948,
      "Lift": 7949,
      "Slide": 7950,
      "Slov": 7951,
      "Slimy": 7952,
      "##whay": 7953,
      "ensures": 7954,
      "Playing": 7955,
      "##ansion": 7956,
      "Unsp": 7957,
      "Unred": 7958,
      "Unlock": 7959,
      "Uninv": 7960,
      "Unfort": 7961,
      "Uncovered": 7962,
      "Unhing": 7963,
      "Unstopp": 7964,
      "former": 7965,
      "##shield": 7966,
      "##shire": 7967,
      "##shares": 7968,
      "teach": 7969,
      "teeth": 7970,
      "teamed": 7971,
      "Excav": 7972,
      "Exhib": 7973,
      "Existence": 7974,
      "Merchant": 7975,
      "Merrow": 7976,
      "Meria": 7977,
      "##ertips": 7978,
      "reply": 7979,
      "##akest": 7980,
      "##akeasy": 7981,
      "schemes": 7982,
      "##axias": 7983,
      "mainstay": 7984,
      "##spay": 7985,
      "##spear": 7986,
      "##spawn": 7987,
      "forehead": 7988,
      "##ubael": 7989,
      "Beam": 7990,
      "Beau": 7991,
      "Befriend": 7992,
      "Behem": 7993,
      "Beacon": 7994,
      "Beetle": 7995,
      "Beckett": 7996,
      "Becoming": 7997,
      "fighting": 7998,
      "Known": 7999,
      "Knife": 8000,
      "specific": 8001,
      "Spellmorph": 8002,
      "Orang": 8003,
      "Knightlif": 8004,
      "Doing": 8005,
      "Does": 8006,
      "Docent": 8007,
      "Doku": 8008,
      "helping": 8009,
      "conjured": 8010,
      "Whetstone": 8011,
      "Whirlw": 8012,
      "Orcish": 8013,
      "emblems": 8014,
      "Scorn": 8015,
      "Scrap": 8016,
      "Scythe": 8017,
      "Scorpion": 8018,
      "Scuttlet": 8019,
      "Screeching": 8020,
      "##scura": 8021,
      "##scorched": 8022,
      "explain": 8023,
      "explored": 8024,
      "exploring": 8025,
      "coined": 8026,
      "##venir": 8027,
      "planeswalked": 8028,
      "Delver": 8029,
      "Delete": 8030,
      "##guard": 8031,
      "##guine": 8032,
      "##cially": 8033,
      "Startled": 8034,
      "Bloodline": 8035,
      "Bloodbraid": 8036,
      "nonblocking": 8037,
      "Changing": 8038,
      "soospect": 8039,
      "##pensive": 8040,
      "Assign": 8041,
      "##umulated": 8042,
      "monarchy": 8043,
      "Alive": 8044,
      "Align": 8045,
      "Alicorn": 8046,
      "Alpine": 8047,
      "Alrund": 8048,
      "Alpha": 8049,
      "Complet": 8050,
      "Compass": 8051,
      "##egrate": 8052,
      "declaring": 8053,
      "everypony": 8054,
      "Backstory": 8055,
      "Squirrell": 8056,
      "mostly": 8057,
      "##uded": 8058,
      "artists": 8059,
      "artwork": 8060,
      "article": 8061,
      "##zems": 8062,
      "role": 8063,
      "robot": 8064,
      "Truth": 8065,
      "Triskel": 8066,
      "Triggered": 8067,
      "Constrict": 8068,
      "Fling": 8069,
      "Flap": 8070,
      "Flurry": 8071,
      "Flamet": 8072,
      "Flutters": 8073,
      "Skin": 8074,
      "Sketch": 8075,
      "Skoph": 8076,
      "Skyclave": 8077,
      "partners": 8078,
      "particip": 8079,
      "##akstone": 8080,
      "stunning": 8081,
      "opened": 8082,
      "##lected": 8083,
      "Piracy": 8084,
      "Designed": 8085,
      "Catalyst": 8086,
      "Cathar": 8087,
      "Catacly": 8088,
      "overrun": 8089,
      "Advant": 8090,
      "Admiral": 8091,
      "Adventurous": 8092,
      "Advocate": 8093,
      "##lava": 8094,
      "##lauded": 8095,
      "Rabid": 8096,
      "Rappel": 8097,
      "assault": 8098,
      "Demonic": 8099,
      "Insurrect": 8100,
      "intrig": 8101,
      "introdu": 8102,
      "assignment": 8103,
      "Wolfbit": 8104,
      "Wolfgang": 8105,
      "##aug": 8106,
      "Mons": 8107,
      "Monstrous": 8108,
      "Monocolored": 8109,
      "Monolith": 8110,
      "extensive": 8111,
      "extinguis": 8112,
      "Rolls": 8113,
      "##changeably": 8114,
      "Manuel": 8115,
      "Manalith": 8116,
      "Dominate": 8117,
      "Serra": 8118,
      "Server": 8119,
      "Servos": 8120,
      "Upon": 8121,
      "Upgra": 8122,
      "##cedented": 8123,
      "##ortant": 8124,
      "Engul": 8125,
      "England": 8126,
      "Engine": 8127,
      "Enwhay": 8128,
      "Contract": 8129,
      "manifestation": 8130,
      "Rebuilding": 8131,
      "Rebecc": 8132,
      "Bandar": 8133,
      "Bandit": 8134,
      "indicate": 8135,
      "indicating": 8136,
      "follows": 8137,
      "milk": 8138,
      "##cessary": 8139,
      "##retic": 8140,
      "Mythic": 8141,
      "Myojin": 8142,
      "##ops": 8143,
      "##opies": 8144,
      "##opardiz": 8145,
      "Recurring": 8146,
      "Powerstones": 8147,
      "adapting": 8148,
      "adventuring": 8149,
      "Affinitycycling": 8150,
      "LET": 8151,
      "clashes": 8152,
      "Noninst": 8153,
      "Nonexist": 8154,
      "cracks": 8155,
      "suspecting": 8156,
      "##censor": 8157,
      "Magician": 8158,
      "Snoop": 8159,
      "system": 8160,
      "guy": 8161,
      "promos": 8162,
      "##rows": 8163,
      "Constructed": 8164,
      "Bull": 8165,
      "Buddy": 8166,
      "Mutating": 8167,
      "See": 8168,
      "Seer": 8169,
      "Select": 8170,
      "Seething": 8171,
      "Semifin": 8172,
      "Señor": 8173,
      "Seedgu": 8174,
      "Seizer": 8175,
      "##istrate": 8176,
      "Boon": 8177,
      "Bochum": 8178,
      "advice": 8179,
      "advise": 8180,
      "advanced": 8181,
      "Imperi": 8182,
      "Impostor": 8183,
      "130": 8184,
      "Hornet": 8185,
      "described": 8186,
      "deserving": 8187,
      "regulation": 8188,
      "Raider": 8189,
      "Fears": 8190,
      "Fearless": 8191
    }
  }
}